{
  "version": "1.0",
  "truncation": null,
  "padding": null,
  "added_tokens": [
    {
      "id": 0,
      "content": "[PAD]",
      "single_word": false,
      "lstrip": false,
      "rstrip": false,
      "normalized": false,
      "special": true
    },
    {
      "id": 1,
      "content": "[UNK]",
      "single_word": false,
      "lstrip": false,
      "rstrip": false,
      "normalized": false,
      "special": true
    },
    {
      "id": 2,
      "content": "[CLS]",
      "single_word": false,
      "lstrip": false,
      "rstrip": false,
      "normalized": false,
      "special": true
    },
    {
      "id": 3,
      "content": "[SEP]",
      "single_word": false,
      "lstrip": false,
      "rstrip": false,
      "normalized": false,
      "special": true
    },
    {
      "id": 4,
      "content": "[MASK]",
      "single_word": false,
      "lstrip": false,
      "rstrip": false,
      "normalized": false,
      "special": true
    }
  ],
  "normalizer": null,
  "pre_tokenizer": {
    "type": "ByteLevel",
    "add_prefix_space": false,
    "trim_offsets": true,
    "use_regex": true
  },
  "post_processor": null,
  "decoder": null,
  "model": {
    "type": "BPE",
    "dropout": null,
    "unk_token": null,
    "continuing_subword_prefix": null,
    "end_of_word_suffix": null,
    "fuse_unk": false,
    "byte_fallback": false,
    "ignore_merges": true,
    "vocab": {
      "[PAD]": 0,
      "[UNK]": 1,
      "[CLS]": 2,
      "[SEP]": 3,
      "[MASK]": 4,
      "!": 5,
      "\"": 6,
      "#": 7,
      "$": 8,
      "%": 9,
      "&": 10,
      "'": 11,
      "(": 12,
      ")": 13,
      "*": 14,
      "+": 15,
      ",": 16,
      "-": 17,
      ".": 18,
      "/": 19,
      "0": 20,
      "1": 21,
      "2": 22,
      "3": 23,
      "4": 24,
      "5": 25,
      "6": 26,
      "7": 27,
      "8": 28,
      "9": 29,
      ":": 30,
      ";": 31,
      "<": 32,
      "=": 33,
      ">": 34,
      "?": 35,
      "@": 36,
      "A": 37,
      "B": 38,
      "C": 39,
      "D": 40,
      "E": 41,
      "F": 42,
      "G": 43,
      "H": 44,
      "I": 45,
      "J": 46,
      "K": 47,
      "L": 48,
      "M": 49,
      "N": 50,
      "O": 51,
      "P": 52,
      "Q": 53,
      "R": 54,
      "S": 55,
      "T": 56,
      "U": 57,
      "V": 58,
      "W": 59,
      "X": 60,
      "Y": 61,
      "Z": 62,
      "[": 63,
      "\\": 64,
      "]": 65,
      "^": 66,
      "_": 67,
      "`": 68,
      "a": 69,
      "b": 70,
      "c": 71,
      "d": 72,
      "e": 73,
      "f": 74,
      "g": 75,
      "h": 76,
      "i": 77,
      "j": 78,
      "k": 79,
      "l": 80,
      "m": 81,
      "n": 82,
      "o": 83,
      "p": 84,
      "q": 85,
      "r": 86,
      "s": 87,
      "t": 88,
      "u": 89,
      "v": 90,
      "w": 91,
      "x": 92,
      "y": 93,
      "z": 94,
      "{": 95,
      "|": 96,
      "}": 97,
      "~": 98,
      "¡": 99,
      "¢": 100,
      "£": 101,
      "¤": 102,
      "¥": 103,
      "¦": 104,
      "§": 105,
      "¨": 106,
      "©": 107,
      "ª": 108,
      "«": 109,
      "¬": 110,
      "®": 111,
      "¯": 112,
      "°": 113,
      "±": 114,
      "²": 115,
      "³": 116,
      "´": 117,
      "µ": 118,
      "¶": 119,
      "·": 120,
      "¸": 121,
      "¹": 122,
      "º": 123,
      "»": 124,
      "¼": 125,
      "½": 126,
      "¾": 127,
      "¿": 128,
      "À": 129,
      "Á": 130,
      "Â": 131,
      "Ã": 132,
      "Ä": 133,
      "Å": 134,
      "Æ": 135,
      "Ç": 136,
      "È": 137,
      "É": 138,
      "Ê": 139,
      "Ë": 140,
      "Ì": 141,
      "Í": 142,
      "Î": 143,
      "Ï": 144,
      "Ð": 145,
      "Ñ": 146,
      "Ò": 147,
      "Ó": 148,
      "Ô": 149,
      "Õ": 150,
      "Ö": 151,
      "×": 152,
      "Ø": 153,
      "Ù": 154,
      "Ú": 155,
      "Û": 156,
      "Ü": 157,
      "Ý": 158,
      "Þ": 159,
      "ß": 160,
      "à": 161,
      "á": 162,
      "â": 163,
      "ã": 164,
      "ä": 165,
      "å": 166,
      "æ": 167,
      "ç": 168,
      "è": 169,
      "é": 170,
      "ê": 171,
      "ë": 172,
      "ì": 173,
      "í": 174,
      "î": 175,
      "ï": 176,
      "ð": 177,
      "ñ": 178,
      "ò": 179,
      "ó": 180,
      "ô": 181,
      "õ": 182,
      "ö": 183,
      "÷": 184,
      "ø": 185,
      "ù": 186,
      "ú": 187,
      "û": 188,
      "ü": 189,
      "ý": 190,
      "þ": 191,
      "ÿ": 192,
      "Ā": 193,
      "ā": 194,
      "Ă": 195,
      "ă": 196,
      "Ą": 197,
      "ą": 198,
      "Ć": 199,
      "ć": 200,
      "Ĉ": 201,
      "ĉ": 202,
      "Ċ": 203,
      "ċ": 204,
      "Č": 205,
      "č": 206,
      "Ď": 207,
      "ď": 208,
      "Đ": 209,
      "đ": 210,
      "Ē": 211,
      "ē": 212,
      "Ĕ": 213,
      "ĕ": 214,
      "Ė": 215,
      "ė": 216,
      "Ę": 217,
      "ę": 218,
      "Ě": 219,
      "ě": 220,
      "Ĝ": 221,
      "ĝ": 222,
      "Ğ": 223,
      "ğ": 224,
      "Ġ": 225,
      "ġ": 226,
      "Ģ": 227,
      "ģ": 228,
      "Ĥ": 229,
      "ĥ": 230,
      "Ħ": 231,
      "ħ": 232,
      "Ĩ": 233,
      "ĩ": 234,
      "Ī": 235,
      "ī": 236,
      "Ĭ": 237,
      "ĭ": 238,
      "Į": 239,
      "į": 240,
      "İ": 241,
      "ı": 242,
      "Ĳ": 243,
      "ĳ": 244,
      "Ĵ": 245,
      "ĵ": 246,
      "Ķ": 247,
      "ķ": 248,
      "ĸ": 249,
      "Ĺ": 250,
      "ĺ": 251,
      "Ļ": 252,
      "ļ": 253,
      "Ľ": 254,
      "ľ": 255,
      "Ŀ": 256,
      "ŀ": 257,
      "Ł": 258,
      "ł": 259,
      "Ń": 260,
      "ĠÐ": 261,
      "Ð°": 262,
      "Ðµ": 263,
      "Ð¸": 264,
      "Ð¾": 265,
      "ÑĢ": 266,
      "Ð½": 267,
      "Ñģ": 268,
      "ÑĤ": 269,
      "Ñĥ": 270,
      "Ð¾Ð": 271,
      "Ġs": 272,
      "je": 273,
      "Ġp": 274,
      "Ñĺ": 275,
      "Ð°Ð": 276,
      "na": 277,
      "Ġi": 278,
      "ra": 279,
      "ÐµÐ": 280,
      "Ð¸Ð": 281,
      "ni": 282,
      "ko": 283,
      "no": 284,
      "Ġd": 285,
      "st": 286,
      "re": 287,
      "Ġo": 288,
      "ĠÑģ": 289,
      "ĠÐ¿": 290,
      "Ġu": 291,
      "ja": 292,
      "va": 293,
      "li": 294,
      "ne": 295,
      "ĠÐ¸": 296,
      "Äį": 297,
      "Ð¸Ñ": 298,
      "ri": 299,
      "ma": 300,
      "Ðº": 301,
      "ti": 302,
      "Å¡": 303,
      "ka": 304,
      "ta": 305,
      "Ð»": 306,
      "Ġpo": 307,
      "Ð°Ñ": 308,
      "la": 309,
      "ÑģÑĤ": 310,
      "ro": 311,
      "Ġna": 312,
      "Ġje": 313,
      "te": 314,
      "Ð²": 315,
      "ÑĺÐµ": 316,
      "za": 317,
      "ĠÐ¾": 318,
      "ve": 319,
      "ci": 320,
      "ĠÐ½": 321,
      "vo": 322,
      "ĠÑĥ": 323,
      "ĠÐº": 324,
      "ĠÐ´": 325,
      "me": 326,
      "vi": 327,
      "Ġko": 328,
      "Äĩ": 329,
      "ju": 330,
      "to": 331,
      "ÐµÐ½": 332,
      "Ð°Ð½": 333,
      "Å¾": 334,
      "Ġda": 335,
      "ĠÐ¿ÑĢ": 336,
      "Ð¾Ð²": 337,
      "Ġb": 338,
      "mo": 339,
      "ji": 340,
      "ÐµÑ": 341,
      "Ð´": 342,
      "Ġza": 343,
      "lo": 344,
      "ĠÑ": 345,
      "di": 346,
      "le": 347,
      "Ġa": 348,
      "Ġse": 349,
      "Ð¿": 350,
      "Ð¾Ð¼": 351,
      "da": 352,
      "âĢ": 353,
      "Ð°Ð²": 354,
      "nje": 355,
      "Ð¸Ð¼": 356,
      "Ð¾Ð³": 357,
      "Ġ(": 358,
      "Ġsa": 359,
      "Ð¾ÑĢ": 360,
      "Ð¸Ñĺ": 361,
      "Ð¸Ð½": 362,
      "Ð¼": 363,
      "Ġod": 364,
      "Ð¾Ñĺ": 365,
      "ÐµÐ´": 366,
      "ĠÑĺÐµ": 367,
      "ĠÐ·": 368,
      "ru": 369,
      "Ð°ÑĤ": 370,
      "Ġ1": 371,
      "Ð¾Ð´": 372,
      "Ð°Ð»": 373,
      "ĠÑĤ": 374,
      "sti": 375,
      "Ð½Ð¾": 376,
      "ÑģÐº": 377,
      "ĠÐ¼": 378,
      "Ġg": 379,
      "Ġne": 380,
      "Ð°ÑĢ": 381,
      "de": 382,
      "ki": 383,
      "ĠÑĢ": 384,
      "Ġdo": 385,
      "ÐµÑĢ": 386,
      "Ð·": 387,
      "nja": 388,
      "Ð±": 389,
      "mi": 390,
      "Ġka": 391,
      "Ġsu": 392,
      "ĠÐ²": 393,
      "sta": 394,
      "Ð°Ðº": 395,
      "Ð¸ÑĤ": 396,
      "ku": 397,
      "Ð¸Ðº": 398,
      "Ġpro": 399,
      "Ġra": 400,
      "Ð¸Ð²": 401,
      "Ð¸Ñħ": 402,
      "Ð°Ñļ": 403,
      "Ð°Ñĺ": 404,
      "Ð¾Ñ": 405,
      "Ġpre": 406,
      "zi": 407,
      "Ð¾Ð½": 408,
      "ÐµÑĤ": 409,
      "ÐµÐ¼": 410,
      "ĠÐ±": 411,
      "Ð°Ð´": 412,
      "Ġiz": 413,
      "ke": 414,
      "Ġ2": 415,
      "ce": 416,
      "nu": 417,
      "Ð³": 418,
      "Äĳ": 419,
      "tu": 420,
      "ĠâĢ": 421,
      "po": 422,
      "Ġpri": 423,
      "ĠÐ½Ð°": 424,
      "ĠS": 425,
      "si": 426,
      "Ġmo": 427,
      "go": 428,
      "Ġbi": 429,
      "ÑĥÑ": 430,
      "ĠÐ¾Ð´": 431,
      "Ð¸ÑĺÐµ": 432,
      "Ð°Ð·": 433,
      "Äĩe": 434,
      "bi": 435,
      "ĠÑģÐµ": 436,
      "Ð¸Ñĩ": 437,
      "ĠÐ°": 438,
      "ga": 439,
      "ĠÐ³": 440,
      "Ġre": 441,
      "Äįi": 442,
      "ÐµÐ»": 443,
      "sa": 444,
      "ÐµÐº": 445,
      "Ð¸Ð»": 446,
      "Ġt": 447,
      "nih": 448,
      "Ð¾Ð»": 449,
      "se": 450,
      "Ġe": 451,
      "Ð°Ð¼": 452,
      "Äįe": 453,
      "ĠÐ´Ð°": 454,
      "Å¾e": 455,
      "lu": 456,
      "Ġk": 457,
      "ca": 458,
      "Ġf": 459,
      "Ġz": 460,
      "Ð¸ÑĨ": 461,
      "ĠÐ¿Ð¾": 462,
      "Ð°ÑĨ": 463,
      "ĠÑģÑĥ": 464,
      "nog": 465,
      "pa": 466,
      "Ġve": 467,
      "ba": 468,
      "ĠÐ¸Ð·": 469,
      "Ġde": 470,
      "ĪÑĤ": 471,
      "Ġme": 472,
      "ÑĻ": 473,
      "du": 474,
      "Ġto": 475,
      "ĠÑģÑĤ": 476,
      "00": 477,
      "ĠP": 478,
      "Ġ,": 479,
      "Ġte": 480,
      "ÑĨ": 481,
      "Ġni": 482,
      "Ð¸ÑĢ": 483,
      "pi": 484,
      "Ġkoji": 485,
      "pe": 486,
      "Ð¸Ñģ": 487,
      "ĠÅ¡": 488,
      "cija": 489,
      "or": 490,
      "Äįa": 491,
      "Ġv": 492,
      "lja": 493,
      "Ð°Ñĩ": 494,
      "Å¾i": 495,
      "lje": 496,
      "cije": 497,
      "nom": 498,
      "sto": 499,
      "Ġin": 500,
      "Ð°Ð¾": 501,
      "Ð¸Ð·": 502,
      "be": 503,
      "Ð½Ðµ": 504,
      "Å¡e": 505,
      "ĠÐ·Ð°": 506,
      "ski": 507,
      "ĠM": 508,
      "Ġ.": 509,
      "ĠÐºÐ¾Ñĺ": 510,
      "Ð¾Ðº": 511,
      "nosti": 512,
      "gu": 513,
      "ĠÑĺ": 514,
      "Ð¸Ð¼Ð°": 515,
      "ÐµÐ·": 516,
      "sko": 517,
      "Ð¸ÑĺÐ°": 518,
      "''": 519,
      "Ġma": 520,
      "tra": 521,
      "do": 522,
      "ÐµÐ²": 523,
      "ĠÐ¡": 524,
      "ĠB": 525,
      "ÑĢÑĥ": 526,
      "..": 527,
      "ĠÑģÐ²": 528,
      "Ð½Ð¾ÑģÑĤ": 529,
      "ÐµÑļ": 530,
      "Ġob": 531,
      "nim": 532,
      "gi": 533,
      "Ġraz": 534,
      "red": 535,
      "ÐµÐ³": 536,
      "Ġpa": 537,
      "Äĩi": 538,
      ").": 539,
      "Ð¸ÑģÑĤ": 540,
      "Ġ19": 541,
      "su": 542,
      "Ð¶": 543,
      "mu": 544,
      "Ġvi": 545,
      "Ġgo": 546,
      "nji": 547,
      "Ġta": 548,
      "Äĳe": 549,
      "Ð¾Ð±": 550,
      "bo": 551,
      "ĠâĢŀ": 552,
      "Ð°ÑļÐ°": 553,
      "gra": 554,
      "so": 555,
      "Ð°ÑļÐµ": 556,
      "nju": 557,
      "ze": 558,
      "Å¾a": 559,
      "Ġkao": 560,
      "ho": 561,
      "Ġsta": 562,
      "tiv": 563,
      "ĠK": 564,
      "Ð½Ð°": 565,
      "ĠÑģÐ°": 566,
      "ĠA": 567,
      "Äĩa": 568,
      "lju": 569,
      "ĠD": 570,
      "jo": 571,
      "Ð¾Ð¿": 572,
      "Ð¾ÑĤ": 573,
      "ste": 574,
      "ÐµÑģ": 575,
      "ĠN": 576,
      "ÐµÑĽ": 577,
      "ĠÐ¾Ð±": 578,
      "ĠÑĦ": 579,
      "Ð°Ñģ": 580,
      "Ð½Ð¸": 581,
      "Ñļ": 582,
      "ÑĥÑĤ": 583,
      "ĠÐ»": 584,
      "ĠÑĩ": 585,
      "fi": 586,
      "Ġ20": 587,
      "Ð¸Ð½Ðµ": 588,
      "Ġsi": 589,
      "ĠI": 590,
      "ĠÐµ": 591,
      "Ð½Ð¾Ð³": 592,
      "ge": 593,
      "ĠR": 594,
      "ÑģÐ»": 595,
      "Ð¸ÑĩÐº": 596,
      "nost": 597,
      "Ġmi": 598,
      "zu": 599,
      "Ð¸ÑĽ": 600,
      "nt": 601,
      "pu": 602,
      "Ġli": 603,
      "Ð¾ÑģÑĤ": 604,
      "Ġ3": 605,
      "Ġh": 606,
      "âĢľ": 607,
      "ĠV": 608,
      "),": 609,
      "ĠÐŁ": 610,
      "Ġdi": 611,
      "vr": 612,
      "Ġsve": 613,
      "zo": 614,
      "Ġdru": 615,
      "vu": 616,
      "Ð»Ð¸": 617,
      "vanje": 618,
      "ÑĥÑĢ": 619,
      "Ġpra": 620,
      "Ð½Ð¸Ñħ": 621,
      "Ġili": 622,
      "ÐµÑĴ": 623,
      "Å¡a": 624,
      "ĠT": 625,
      "Ġis": 626,
      "ĠÑĤÑĢ": 627,
      "Ġima": 628,
      "Ð¸ÑĪ": 629,
      "sno": 630,
      "Ġva": 631,
      "ske": 632,
      "nta": 633,
      "ÑĢÐµÐ´": 634,
      "Ð¾Ð·": 635,
      "ĠÐľ": 636,
      "lj": 637,
      "ĠÐĳ": 638,
      "Ġ-": 639,
      "Ġkoje": 640,
      "Ð¸ÐºÐ°": 641,
      "ÐµÐ½ÑĤ": 642,
      "Ġpred": 643,
      "Ð°ÑĺÑĥ": 644,
      "ĠÅ¡to": 645,
      "ÑĥÐ»": 646,
      "ĠâĢĵ": 647,
      "Ġgodi": 648,
      "ĠÑĢÐ°Ð·": 649,
      "vanja": 650,
      "stav": 651,
      "lji": 652,
      "ĠÐºÐ°Ð¾": 653,
      "ĠÐļ": 654,
      "Å¡i": 655,
      "Ġno": 656,
      "ÑģÑĤÐ²": 657,
      "kom": 658,
      "Ġpos": 659,
      "ĠÐ¸Ð½": 660,
      "Äĳu": 661,
      "ÑĥÑĩ": 662,
      "ÐŁ": 663,
      "Ð¸Ð¾": 664,
      "Ð°Ð¿": 665,
      "ÑĢÐ°Ð½": 666,
      "ĠÄĩe": 667,
      "Ġzna": 668,
      "Ñĩ": 669,
      "Ġm": 670,
      "ĠC": 671,
      "Ð°Ð³": 672,
      "ĠÐºÐ¾ÑĺÐ¸": 673,
      "Ð¿ÑĢ": 674,
      "ĠÐºÑĢ": 675,
      "ĠÑģÐ»": 676,
      "Ð½Ð¾ÑģÑĤÐ¸": 677,
      "ÐµÐ½Ð°": 678,
      "ÐµÐ±": 679,
      "Ð°Ð¶": 680,
      "ÐµÐ¿": 681,
      "ĠÑļ": 682,
      "Ġus": 683,
      "Ð°Ð¼Ð°": 684,
      "Ġ4": 685,
      "ĠE": 686,
      "nika": 687,
      "ÑĪ": 688,
      "ÑĥÐ¿": 689,
      "Ġvo": 690,
      "ÐµÑģÑĤ": 691,
      "ÑĥÑĽ": 692,
      "Ð°Ð²ÑĻ": 693,
      "ĠO": 694,
      "Ð¾ÑĺÐµ": 695,
      "stu": 696,
      "Ġnaj": 697,
      "Ð¾Ñģ": 698,
      "Ġst": 699,
      "Ð¸Ð´": 700,
      "Ð¡": 701,
      "Ð¾Ð¶": 702,
      "ÑĥÐ´": 703,
      "Ġsvo": 704,
      "pre": 705,
      "ĠÐ³Ð¾Ð´": 706,
      "Ġpe": 707,
      "Ġ201": 708,
      "Ġkon": 709,
      "Ġtre": 710,
      "ĠU": 711,
      "ar": 712,
      "ĠÐ¸Ð¼": 713,
      "ona": 714,
      "ĠÐ¾Ð²": 715,
      "ĠÐ¿ÑĢÐµÐ´": 716,
      "Ġja": 717,
      "ĠG": 718,
      "Ġpod": 719,
      "on": 720,
      "Ð¾ÑĪ": 721,
      "Ð¸ÑĺÐ¸": 722,
      "Ġ200": 723,
      "ĠSr": 724,
      "ĠÑĨ": 725,
      "ÑģÐºÐµ": 726,
      "ÂŃ": 727,
      "fe": 728,
      "ÑĥÐ¼": 729,
      "ĠÉ": 730,
      "Ð°ÑĪ": 731,
      "Åł": 732,
      "ĠÐ½Ðµ": 733,
      "Ġ5": 734,
      "Ġbo": 735,
      "nti": 736,
      "Ð¸Ð½Ð°": 737,
      "ĠÐ¾Ñģ": 738,
      "ĠL": 739,
      "ĠÐ¿Ð¾Ð´": 740,
      "ÑĥÐ½": 741,
      "Ñħ": 742,
      "Ð¸ÑĤÐ¸": 743,
      "Ġodno": 744,
      "Äįu": 745,
      "Ġpu": 746,
      "Ġpot": 747,
      "Ð°Ð´Ð°": 748,
      "Ð£": 749,
      "rÅ¾a": 750,
      "Na": 751,
      "ÑģÐ¿": 752,
      "ska": 753,
      "Ð°Ð½Ð°": 754,
      "pra": 755,
      "ĠH": 756,
      "ÐĿ": 757,
      "Ġgra": 758,
      "ÑģÐºÐ¸": 759,
      "reme": 760,
      "Ġ''": 761,
      "Ðŀ": 762,
      "Ð°Ð²Ð°": 763,
      "Ġjed": 764,
      "ĠÐĿ": 765,
      "Ġbe": 766,
      "ĠÐ¸ÑģÑĤ": 767,
      "rija": 768,
      "Ð¸Ð¾Ð½": 769,
      "Ġnije": 770,
      "Äįki": 771,
      "Ð½Ð¾Ð¼": 772,
      "ĠÐ¿Ð¾ÑģÑĤ": 773,
      "he": 774,
      "Ð½Ð¸Ð¼": 775,
      "ĠÑĪÑĤ": 776,
      "ÑĦ": 777,
      "ĠÐĶ": 778,
      "cu": 779,
      "ran": 780,
      "ĠÑĺÐµÐ´": 781,
      "Ðļ": 782,
      "Ġsamo": 783,
      "ĠÐºÐ¾Ð½": 784,
      "ĠmoÅ¾e": 785,
      "Ġ\"": 786,
      "Ð¸Ð¿": 787,
      "dni": 788,
      "Ð°Ð±": 789,
      "Ġce": 790,
      "Po": 791,
      "ÑĢÐ¶": 792,
      "Ð½Ð¾Ñģ": 793,
      "ĠSrbi": 794,
      "Ġkoja": 795,
      "liko": 796,
      "Ð°ÐºÐ¾": 797,
      "Ġkori": 798,
      "ÑĢÑĥÐ³": 799,
      "an": 800,
      "Ġpi": 801,
      "stra": 802,
      "Za": 803,
      "Ð¾Ð²Ð°": 804,
      "Ð¸Ð³": 805,
      "ciju": 806,
      "Ġti": 807,
      "ĠÐĲ": 808,
      "Ġmogu": 809,
      "govo": 810,
      "ĠJ": 811,
      "ÐµÐºÑĤ": 812,
      "Ġku": 813,
      "ÐµÐ½Ðµ": 814,
      "Ġali": 815,
      "ĠÐł": 816,
      "Ð¸ÑĺÑĥ": 817,
      "ĠÐ¶": 818,
      "ÐºÐ°": 819,
      "skog": 820,
      "Éļ": 821,
      "sni": 822,
      "Ġnje": 823,
      "zna": 824,
      "Ð²ÑĢ": 825,
      "ĠF": 826,
      "20": 827,
      "Ð¸Ð»Ð°": 828,
      "kto": 829,
      "Ð¾Ñĩ": 830,
      "Ð¾ÑĨ": 831,
      "Ġfi": 832,
      "noj": 833,
      "Ġstra": 834,
      "viÄĩ": 835,
      "ĠÐĴ": 836,
      "Ð°ÑĨÐ¸ÑĺÐµ": 837,
      "Ġovo": 838,
      ".,": 839,
      "ÐµÑļÐ°": 840,
      "âĢĿ": 841,
      "ter": 842,
      "ha": 843,
      "ĠÐ²ÑĢ": 844,
      "Ð°ÑĤÐ¸": 845,
      "Ġc": 846,
      "Å¡ta": 847,
      "Ġle": 848,
      "ĠÐ¢": 849,
      "Ð¢": 850,
      "ÐµÑĪ": 851,
      "Ġ6": 852,
      "ĠÐ³Ð¾Ð´Ð¸Ð½Ðµ": 853,
      "skih": 854,
      "ÐµÑĩ": 855,
      "Ð¾ÑĢÐ°": 856,
      "ÑģÐºÐ¾Ð³": 857,
      "ĠÐ¸Ð»Ð¸": 858,
      "ÑĥÑĺÐµ": 859,
      "Ġbu": 860,
      "Ð°Ð»Ð°": 861,
      "ÑĢÐ°Ñ": 862,
      "lika": 863,
      "Ðĺ": 864,
      "Å¡ti": 865,
      "ÐĲ": 866,
      "Ð¾ÑĻ": 867,
      "Ġnji": 868,
      "ĠÑħ": 869,
      "al": 870,
      "ĠÄįi": 871,
      "nd": 872,
      "ÑĢÐ°Ð´": 873,
      "Ð°ÑĤÐ°": 874,
      "Ġpla": 875,
      "ĠÐ±ÑĢ": 876,
      "zvo": 877,
      "ĠÑĪÑĤÐ¾": 878,
      "bra": 879,
      "Ġbro": 880,
      "ĠÐ¿Ð¾ÑĤ": 881,
      "ÐµÐ¼Ð°": 882,
      "ng": 883,
      "ÐµÑĻ": 884,
      "Ð½Ñĥ": 885,
      "Ġkom": 886,
      "stva": 887,
      "hi": 888,
      "ĠÐ·Ð½": 889,
      "Ð¸ÑĨÐ°": 890,
      "vih": 891,
      "ĠÄįe": 892,
      "vima": 893,
      "Ġgodine": 894,
      "Ġak": 895,
      "ÑĤÐµÑĢ": 896,
      "ĠÐºÐ¾ÑĺÐµ": 897,
      "Ð°ÑģÑĤ": 898,
      "bu": 899,
      "Äĳa": 900,
      "stvo": 901,
      "ÐµÑļÐµ": 902,
      "19": 903,
      "Ġba": 904,
      "ÐºÐµ": 905,
      "ĠÑģÐ°Ð¼": 906,
      "ÑĥÐ¶": 907,
      "ĠÐ¾Ð¿": 908,
      "ÑĥÑĺ": 909,
      "ĠÐ´Ð¾": 910,
      "É¢": 911,
      "tno": 912,
      "ĠÐ£": 913,
      "Ġproce": 914,
      "for": 915,
      "ĠÑģÐ¼": 916,
      "Ġkako": 917,
      "Ġdu": 918,
      "lek": 919,
      "ĠÐ´ÑĢÑĥÐ³": 920,
      "ĠÅ¾i": 921,
      "Ġpr": 922,
      "ÑĥÐ±": 923,
      "ĠÐŀ": 924,
      "vlja": 925,
      "Ġtako": 926,
      "kon": 927,
      "ĠÐ¾Ð´Ð½Ð¾Ñģ": 928,
      "ÑģÐºÐ°": 929,
      "ÉŁ": 930,
      "Ġ0": 931,
      "ĠÐºÐ¾Ð¼": 932,
      "ÑĽ": 933,
      "ĠÐ¾Ðº": 934,
      "ÐµÐ½Ð¸": 935,
      "ÐµÐ»Ð°": 936,
      "Ġfa": 937,
      "ĠÐĺ": 938,
      "ÑĥÐ·": 939,
      "ÐĶ": 940,
      "Ġmu": 941,
      "Ġslu": 942,
      "Ġvr": 943,
      "Ġprime": 944,
      "ĠÅł": 945,
      "ĠÑĢÐ°Ð´": 946,
      "dno": 947,
      "Ġor": 948,
      "ĠÑģÐ¿": 949,
      "Äĩu": 950,
      "É¨": 951,
      "nije": 952,
      "Ð¾ÑĢÐ¼": 953,
      "ĠÐĵ": 954,
      "Ġuz": 955,
      "ÐµÐ¶": 956,
      "gle": 957,
      "Ġci": 958,
      "nda": 959,
      "Äī": 960,
      "pro": 961,
      "menta": 962,
      "Å¡te": 963,
      "ĠÐ½Ð°Ñĺ": 964,
      "stavlja": 965,
      "ako": 966,
      "Ð²Ð°": 967,
      "ĠÐ¿Ð¾Ð»": 968,
      "ÑĥÐ»ÑĤ": 969,
      "ÐµÐ½Ð¾": 970,
      "onal": 971,
      "Ġkod": 972,
      "Ġsva": 973,
      "Ð¾Ð²Ð¸ÑĽ": 974,
      "Ġtu": 975,
      "ĠÐºÐ¾ÑĢ": 976,
      "Ġso": 977,
      "ĠMi": 978,
      "ÄĨ": 979,
      "rije": 980,
      "Ð°ÑļÑĥ": 981,
      "Ġvred": 982,
      "ĠÑĪ": 983,
      "Ġlju": 984,
      "Ġdana": 985,
      "Ġ7": 986,
      "Å¡t": 987,
      "jom": 988,
      "ĠÄį": 989,
      "raju": 990,
      "Ð¸ÐºÐµ": 991,
      "Ġsam": 992,
      "Ġbio": 993,
      "Ġot": 994,
      "Ġro": 995,
      "Ð¸ÑĨÐµ": 996,
      "ĠviÅ¡e": 997,
      "Ġlo": 998,
      "Ġosno": 999,
      "Ðľ": 1000,
      "ĠÐ¼Ð¾Ð³": 1001,
      "Ġrazli": 1002,
      "Ġpoli": 1003,
      "Ð¸ÑĨÐ¸": 1004,
      "Ð½Ð¾Ð²": 1005,
      "Ð°ÑĨÐ¸ÑĺÐ°": 1006,
      "Ð¾ÑĴ": 1007,
      "ÑģÐºÐ¸Ñħ": 1008,
      "kog": 1009,
      "Ġze": 1010,
      "Ġ18": 1011,
      "Ġop": 1012,
      "gla": 1013,
      "ĠÐ¿Ð¾Ð²": 1014,
      "ĠÐ¿ÑĢÐ°Ð²": 1015,
      "ĠÐĪ": 1016,
      "vim": 1017,
      "ĠÐ±Ð¸": 1018,
      "Ðł": 1019,
      "er": 1020,
      "Ġvreme": 1021,
      "....": 1022,
      "Ġspo": 1023,
      "kla": 1024,
      "vali": 1025,
      "ĠÐ°Ðº": 1026,
      "ciji": 1027,
      "Ġga": 1028,
      "Ġbiti": 1029,
      "rt": 1030,
      "ÐµÑĤÐ°": 1031,
      "ÑĥÐº": 1032,
      "vni": 1033,
      "Ð°Ð»Ð¸": 1034,
      "ĠÐºÐ¾ÑĺÐ°": 1035,
      "nali": 1036,
      "Ð¸ÑĪÑĤ": 1037,
      "njem": 1038,
      "Ġproi": 1039,
      "ĠPo": 1040,
      "Ġorga": 1041,
      "eo": 1042,
      "ĠÐ¿ÑĢÐ¸Ð¼": 1043,
      "ÑĥÐ³": 1044,
      "Äįno": 1045,
      "Ġizme": 1046,
      "rak": 1047,
      "Ð°ÐºÐ¾Ð½": 1048,
      "ÐµÑĨ": 1049,
      "rom": 1050,
      "Ð¸Ð»Ð¸": 1051,
      "cio": 1052,
      "om": 1053,
      "Ġkada": 1054,
      "Ġpove": 1055,
      "kaza": 1056,
      "Ġjo": 1057,
      "Ġ8": 1058,
      "ĠÑĢÐ°Ð·Ð»": 1059,
      "Ġposto": 1060,
      "Ð°ÑĻ": 1061,
      "klju": 1062,
      "Ġ10": 1063,
      "ÐµÑĺ": 1064,
      "vaju": 1065,
      "dan": 1066,
      "tni": 1067,
      "Ġtreba": 1068,
      "Ġtra": 1069,
      "Ġdobi": 1070,
      "ksi": 1071,
      "Ð³Ð¾Ð²": 1072,
      "Ġkri": 1073,
      "Ð°ÑĤÐ¸Ð²": 1074,
      "ĠÐ¼Ð¾Ð¶": 1075,
      "ĠÅ¾e": 1076,
      "Ġgru": 1077,
      "Äįaj": 1078,
      "Ð°Ð»Ð¸Ð·": 1079,
      "skom": 1080,
      "ÄĮ": 1081,
      "lne": 1082,
      "hva": 1083,
      "ĠÐ³Ð»": 1084,
      "Ġ199": 1085,
      "ĠÐ·Ð½Ð°Ñĩ": 1086,
      "Ð°ÑĢÐ°": 1087,
      "pri": 1088,
      "tim": 1089,
      "lta": 1090,
      "in": 1091,
      "Ġsiste": 1092,
      "Äįke": 1093,
      "un": 1094,
      "Å¡Äĩe": 1095,
      "Ġek": 1096,
      "ĠÐ¿Ð¾Ñģ": 1097,
      "Ġau": 1098,
      "kre": 1099,
      "ĠÐ¿Ð¾ÑģÐ»": 1100,
      "ĠÐ¿Ð¾ÑĢ": 1101,
      "Ġla": 1102,
      "ĠÐ²ÐµÑĽ": 1103,
      "sku": 1104,
      "vno": 1105,
      "ÐµÑĴÑĥ": 1106,
      "lni": 1107,
      "Ð¸Ð½Ð¸": 1108,
      "cima": 1109,
      "ÐµÑĦ": 1110,
      "Ġproizvo": 1111,
      "ÑĢÐ°": 1112,
      "__": 1113,
      "Ġbez": 1114,
      "rio": 1115,
      "kup": 1116,
      "Ġradi": 1117,
      "Ġoba": 1118,
      "Ð¾Ð²Ðµ": 1119,
      "ĠÑĥÐº": 1120,
      "Ð»Ð°Ð½": 1121,
      "Ð¸ÑĪÐµ": 1122,
      "ĠÐķ": 1123,
      "ĠZ": 1124,
      "Ġjer": 1125,
      "ĠÐĹ": 1126,
      "bog": 1127,
      "Ġinte": 1128,
      "ĠÅ¾ivo": 1129,
      "É¨É": 1130,
      "spo": 1131,
      "Ġova": 1132,
      "Ġposle": 1133,
      "Ġal": 1134,
      "teri": 1135,
      "tro": 1136,
      "Ġ9": 1137,
      "ÑĢÐ°Ð¶": 1138,
      "Ġnjiho": 1139,
      "ĠÑĥÑĤ": 1140,
      "lazi": 1141,
      "dra": 1142,
      "ĠÐ¡ÑĢ": 1143,
      "Ġodre": 1144,
      "Ġbilo": 1145,
      "Ð¸Ð»Ð¾": 1146,
      "ĠÐ¥": 1147,
      "Ð¸Ñļ": 1148,
      "Ð¾Ð³Ð°": 1149,
      "Ð°ÐºÐ°": 1150,
      "Å£": 1151,
      "tri": 1152,
      "ĠÐĽ": 1153,
      "Ġru": 1154,
      "10": 1155,
      "spe": 1156,
      "Ġosta": 1157,
      "ĠÃ": 1158,
      "ĠÐ°Ð½": 1159,
      "Ġobra": 1160,
      "Ġgla": 1161,
      "ĠÑĥÑĩ": 1162,
      "ÑģÐºÐ¾Ð¼": 1163,
      "ĠÐ¿Ð¾Ðº": 1164,
      "loÅ¡": 1165,
      "ver": 1166,
      "ÑĢÐµÐ±": 1167,
      "ÐµÐ½ÑĨ": 1168,
      "ĠÐ´ÑĢ": 1169,
      "Ð°Ð½ÑĤ": 1170,
      "Ð¸ÑĺÐ°Ð»": 1171,
      "Ð¸ÑĻ": 1172,
      "vom": 1173,
      "Ġste": 1174,
      "ĠMa": 1175,
      "Ġsad": 1176,
      "Ð¸ÑĦ": 1177,
      "Ġdrugi": 1178,
      "ĠÐ½Ð¸ÑĺÐµ": 1179,
      "Ð½Ð¸Ðº": 1180,
      "skim": 1181,
      "mena": 1182,
      "ble": 1183,
      "Ġsma": 1184,
      "Ð¾ÑģÐ»": 1185,
      "ĠÐ½ÐµÐº": 1186,
      "ÐĴ": 1187,
      "ĠuÄįe": 1188,
      "ĠÑĥÐ·": 1189,
      "ÑĢÐµÑĴ": 1190,
      "Ġpotre": 1191,
      "Ð½Ð¸ÐºÐ°": 1192,
      "ĠÐ¼Ð¾Ð¶Ðµ": 1193,
      "Å¡to": 1194,
      "van": 1195,
      "Ġvla": 1196,
      "ÉļÉ": 1197,
      "Ġispi": 1198,
      "zulta": 1199,
      "ĠRe": 1200,
      "Ġbroj": 1201,
      "ĠÐ´Ð¾Ðº": 1202,
      "Ġisto": 1203,
      "sle": 1204,
      "gova": 1205,
      "Ġveli": 1206,
      "ĠKo": 1207,
      "Ð´Ðµ": 1208,
      "ÑĪÑĤ": 1209,
      "nica": 1210,
      "tre": 1211,
      "ĠÑļÐµÐ³": 1212,
      "ĠÐ´ÐµÐ»": 1213,
      "Ġistra": 1214,
      "Ð¾Ð²Ð°Ð½": 1215,
      "Ġuti": 1216,
      "lno": 1217,
      "É¢É": 1218,
      "Ð¾Ð²Ð¸": 1219,
      "forma": 1220,
      "ÑĥÑĪ": 1221,
      "Ð»Ð°Ð´": 1222,
      "Ð½Ð¾Ñĺ": 1223,
      "ĠÐ´Ð¾Ð±": 1224,
      "ĠÐ¾ÑĢ": 1225,
      "ven": 1226,
      "Ġhi": 1227,
      "Ġpose": 1228,
      "ÑĥÑĽÐ¸": 1229,
      "Ġpita": 1230,
      "bli": 1231,
      "lan": 1232,
      "ĠSa": 1233,
      "Ġstru": 1234,
      "vlje": 1235,
      "ĠveÄĩ": 1236,
      "Ġdok": 1237,
      "ĠÐ¿Ð¾Ñĺ": 1238,
      "ĠÐµÐº": 1239,
      "ÑģÑĤÐ°Ð²": 1240,
      "ĠÑĤÐ¾": 1241,
      "ĠNa": 1242,
      "ĠnaÄįi": 1243,
      "ÑĥÑĺÑĥ": 1244,
      "Ġorgani": 1245,
      "tom": 1246,
      "ĠÐŁÑĢ": 1247,
      "teta": 1248,
      "Ġzem": 1249,
      "ĠÑĽ": 1250,
      "Ð°ÑĺÐ°": 1251,
      "ÐŁÑĢ": 1252,
      "Ġsmo": 1253,
      "ĠÑģÐ²Ð¾Ñĺ": 1254,
      "Ġfor": 1255,
      "ĠÑģÐº": 1256,
      "cional": 1257,
      "ĠâĢľ": 1258,
      "ĠÐ¿ÑĢÐ²": 1259,
      "nzi": 1260,
      "...": 1261,
      "Ġauto": 1262,
      "ÑĥÑģ": 1263,
      "koliko": 1264,
      "rod": 1265,
      "vog": 1266,
      "ĠSrbije": 1267,
      "Ġgodina": 1268,
      "ÑĥÑĪÑĤ": 1269,
      "ĠÑģÑĢ": 1270,
      "ÐµÐ½Ð¸Ñħ": 1271,
      "ÐĹ": 1272,
      "Ġide": 1273,
      "Ġzbog": 1274,
      "nima": 1275,
      "Äįne": 1276,
      "ĠÑģÑĤÑĢÐ°Ð½": 1277,
      "ĠÐ¤": 1278,
      "Ġkre": 1279,
      "ĠÐ¾ÑģÐ½Ð¾Ð²": 1280,
      "Ð¸Ð¾Ð½Ð°Ð»": 1281,
      "ĠÐ¶Ð¸Ð²": 1282,
      "Ġanali": 1283,
      "ĠÐ´ÑĢÐ¶": 1284,
      "ner": 1285,
      "000": 1286,
      "Ġprema": 1287,
      "stru": 1288,
      "Ġsto": 1289,
      "ĠÐ°Ð»Ð¸": 1290,
      "ĠÐ¸ÑģÐ¿": 1291,
      "âĢĵ": 1292,
      "Ð²Ð¾ÑĢ": 1293,
      "ÑĢÐ°Ð·": 1294,
      "kra": 1295,
      "Ġpoda": 1296,
      "ĠÐ¾ÑĤ": 1297,
      "ĠdrÅ¾a": 1298,
      "Ð°Ñħ": 1299,
      "ÑĻÑĥÑĩ": 1300,
      "Ġoko": 1301,
      "stup": 1302,
      "en": 1303,
      "Ð¸Ð±": 1304,
      "ktu": 1305,
      "Ġvrednosti": 1306,
      "Ġmode": 1307,
      "Ġstva": 1308,
      "tet": 1309,
      "ĠÐ¸Ð·Ð¼": 1310,
      "Ġok": 1311,
      "kti": 1312,
      "op": 1313,
      "Ġkra": 1314,
      "voj": 1315,
      "ÐµÑĢÐ¸": 1316,
      "Ġrad": 1317,
      "Ġstu": 1318,
      "ÉŁÉ": 1319,
      "ĠÐ±ÑĢÐ¾Ñĺ": 1320,
      "tak": 1321,
      "Ð²Ð¾Ñĺ": 1322,
      "Ġnema": 1323,
      "ĠizmeÄĳu": 1324,
      "Ðķ": 1325,
      "ranje": 1326,
      "Ġ:": 1327,
      "Ka": 1328,
      "Ġ15": 1329,
      "ĠÑĥÐ¿": 1330,
      "eogra": 1331,
      "ĠÑļÐ¸Ñħ": 1332,
      "ĠÑģÐ°Ð¼Ð¾": 1333,
      "Ð¾Ð´Ð°": 1334,
      "ĠZa": 1335,
      "Ġslo": 1336,
      "vodi": 1337,
      "Ġof": 1338,
      "Ġpoliti": 1339,
      "ĠÐ¿Ð°ÑĢ": 1340,
      "Ne": 1341,
      "vro": 1342,
      "nici": 1343,
      "vanju": 1344,
      "ÑģÑĤÐ°Ð²ÑĻ": 1345,
      "log": 1346,
      "Ġupo": 1347,
      "joj": 1348,
      "ĠÐ¿Ð¾Ð·": 1349,
      "12": 1350,
      "¿½": 1351,
      "ï¿½": 1352,
      "ĠÐ¾Ð±Ð»": 1353,
      "ÐºÑĥ": 1354,
      "ĠÐ¡ÑĢÐ±": 1355,
      "ĠznaÄįaj": 1356,
      "Ġobja": 1357,
      "Ġrezulta": 1358,
      "Ġposlo": 1359,
      "ĠÐ¿ÑĢÐ¾ÑĨ": 1360,
      "Ð°Ð½Ð¸": 1361,
      "vede": 1362,
      "ĠÐ±Ð¸Ð¾": 1363,
      "Ð¸Ð²Ð°ÑļÐ°": 1364,
      "Ð°ÑĴ": 1365,
      "Ðĳ": 1366,
      "Ð¾ÑĦ": 1367,
      "vati": 1368,
      "rni": 1369,
      "ÐµÐ¾": 1370,
      "âĢľ,": 1371,
      "Ġaktiv": 1372,
      "pisa": 1373,
      "Ġpret": 1374,
      "Ġtr": 1375,
      "Ġ12": 1376,
      "ÑĥÑģÑĤ": 1377,
      "slo": 1378,
      "bno": 1379,
      "ĠrazliÄįi": 1380,
      "ÐµÑħ": 1381,
      "Ġodnosno": 1382,
      "11": 1383,
      "tne": 1384,
      "Ġsr": 1385,
      "unk": 1386,
      "ÐµÐ½Ñĥ": 1387,
      "rta": 1388,
      "Ð¸Ð½Ñĥ": 1389,
      "Ð³Ð»": 1390,
      "Ġge": 1391,
      "ĠmeÄĳu": 1392,
      "Ġuslo": 1393,
      "Ġjedi": 1394,
      "Ġon": 1395,
      "ĠÐ½Ð°ÑĢ": 1396,
      "ren": 1397,
      "Ð°Ð½Ð´": 1398,
      "fika": 1399,
      "ĠdruÅ¡t": 1400,
      "Ġmora": 1401,
      "ÑģÐºÐ¸Ð¼": 1402,
      "ĠÑĤÐ°Ðº": 1403,
      "Ð¾ÑģÑĤÐ¸": 1404,
      "pera": 1405,
      "Ġnasta": 1406,
      "ĠÑĤÐµ": 1407,
      "ÑĢÑĥÐ¿": 1408,
      "Ð²Ðµ": 1409,
      "Ð°Ð»Ð¾": 1410,
      "Ð¸ÑĩÐºÐ¸": 1411,
      "jem": 1412,
      "ÑĢÑĪ": 1413,
      "Ġizra": 1414,
      "logi": 1415,
      "rti": 1416,
      "Ġim": 1417,
      "Äįka": 1418,
      "ĠistraÅ¾i": 1419,
      "Ð¸Ð¶": 1420,
      "Ġtri": 1421,
      "ak": 1422,
      "Ġand": 1423,
      "niji": 1424,
      "skoj": 1425,
      "ĠÐºÐ¾Ð´": 1426,
      "vne": 1427,
      "sli": 1428,
      "juÄĩi": 1429,
      "Ġsred": 1430,
      "ÑĤÑĢ": 1431,
      "ÑĤÐ¸Ð²": 1432,
      "Ġproble": 1433,
      "Ġnivo": 1434,
      "Ġbr": 1435,
      "bro": 1436,
      "sla": 1437,
      "liza": 1438,
      "ntro": 1439,
      "kri": 1440,
      "ĠÐ²ÐµÐ»": 1441,
      "tor": 1442,
      "Ġpredstavlja": 1443,
      "Ġako": 1444,
      "jedi": 1445,
      "Ġljudi": 1446,
      "ÑļÐµ": 1447,
      "Å¾u": 1448,
      "Ġbila": 1449,
      "ĠNe": 1450,
      "Ð³Ð°Ð½": 1451,
      "ĠÑģÐ¸ÑģÑĤ": 1452,
      "ĠÐ½Ð°Ñĩ": 1453,
      "ĠÐ²ÑĢÐµÐ¼": 1454,
      "ch": 1455,
      "Ġnisu": 1456,
      "kao": 1457,
      "ĠÑĺÐµÐ·": 1458,
      "Ð²Ð°ÑĢ": 1459,
      "ĠjoÅ¡": 1460,
      "Ġobe": 1461,
      "Ð°ÑĽ": 1462,
      "Ð¸ÐºÑĥ": 1463,
      "ĠÑģÑĤÑĢ": 1464,
      "rno": 1465,
      "ltu": 1466,
      "ĠÐ½Ð°Ð¿": 1467,
      "ĠBeogra": 1468,
      "nija": 1469,
      "Sa": 1470,
      "ÑĴ": 1471,
      "stve": 1472,
      "ĠÐ¿ÑĢÐ¾": 1473,
      "lnih": 1474,
      "ĠÐ·Ð°Ð¿": 1475,
      "Ġtoga": 1476,
      "Ko": 1477,
      "pla": 1478,
      "nte": 1479,
      "nsi": 1480,
      "ĠÐ½Ð¾Ð²": 1481,
      "redi": 1482,
      "tion": 1483,
      "Ġpomo": 1484,
      "kazu": 1485,
      "ĠÑģÑĢÐµÐ´": 1486,
      "Ġfunk": 1487,
      "ÐºÑĨ": 1488,
      "Ġupra": 1489,
      "tvr": 1490,
      "Ð°Ð½Ðµ": 1491,
      "ÐµÐ½Ð¾Ð¼": 1492,
      "Ð»ÐµÐ¼": 1493,
      "mina": 1494,
      "ĠÐ¸Ð·Ð¼ÐµÑĴÑĥ": 1495,
      "terija": 1496,
      "Ġinter": 1497,
      "Äĳi": 1498,
      "lija": 1499,
      "ÐµÐºÑģ": 1500,
      "ÐµÐ½Ð¾Ð³": 1501,
      "dom": 1502,
      "Ġove": 1503,
      "ÐµÑĪÑĤ": 1504,
      "ÑģÑĤÐ²Ð¾": 1505,
      "ranja": 1506,
      "Ġnakon": 1507,
      "Ð¾ÑĽ": 1508,
      "Ġodgovo": 1509,
      "ĠÐ¿Ð¾Ð¼": 1510,
      "ĠÑĥÐ½": 1511,
      "kova": 1512,
      "ÑģÐºÑĥ": 1513,
      "Ġki": 1514,
      "Me": 1515,
      "rima": 1516,
      "ĠsluÄįa": 1517,
      "Ġprome": 1518,
      "man": 1519,
      "nosi": 1520,
      "ĠÄįa": 1521,
      "Ġju": 1522,
      "Ġoso": 1523,
      "ÐĪ": 1524,
      "Ġ)": 1525,
      "ntra": 1526,
      "Äįni": 1527,
      "lom": 1528,
      "15": 1529,
      "To": 1530,
      "ÑģÑĤÐ²Ð°": 1531,
      "Ġdva": 1532,
      "18": 1533,
      "Ġstrane": 1534,
      "vrÅ¡i": 1535,
      "ĠnaÄįin": 1536,
      "ĠpoÄįe": 1537,
      "Ð¸ÑĩÐºÐµ": 1538,
      "Ġspe": 1539,
      "Ð¸Ð²Ð¾": 1540,
      "Ð°Ð²Ðµ": 1541,
      "ĠÂ": 1542,
      "Ġiza": 1543,
      "Ġodlu": 1544,
      "13": 1545,
      "Ġpozi": 1546,
      "ĠÐ²ÑĢÐµÐ´": 1547,
      "roz": 1548,
      "Ġ13": 1549,
      "ĠÑĥÑģÐ»": 1550,
      "kta": 1551,
      "Ð¸ÐºÐ¾": 1552,
      "Ġjedan": 1553,
      "Ġimaju": 1554,
      "ĠBo": 1555,
      "Ġkonce": 1556,
      "ĠÐ·ÐµÐ¼": 1557,
      "Ð¾Ð»Ð¾ÑĪ": 1558,
      "Ġ14": 1559,
      "ÐºÐ¾": 1560,
      "Å½": 1561,
      "ĠÑĻ": 1562,
      "Ġgde": 1563,
      "Ð¸ÑĢÐ°": 1564,
      "Ð²Ð°ÑĤ": 1565,
      "14": 1566,
      "lnog": 1567,
      "Ð°Ð·Ð¸": 1568,
      "ÐµÐ²Ð°": 1569,
      "Ġdoda": 1570,
      "Ġ/": 1571,
      "Ġteh": 1572,
      "Ġuve": 1573,
      "ÑĢÐµÐ¼": 1574,
      "Ġsli": 1575,
      "Ġovog": 1576,
      "ĠÐ¿ÑĢÐµÑĤ": 1577,
      "ÑĢÐ°ÑĦ": 1578,
      "nice": 1579,
      "AN": 1580,
      "ĠÐ¾Ð´ÑĢÐµÑĴ": 1581,
      "Ð´Ð°": 1582,
      "ĠÐ¶Ð¸Ð²Ð¾ÑĤ": 1583,
      "dne": 1584,
      "Da": 1585,
      "ĠÑģÑĢÐ¿": 1586,
      "ĠÐ¸Ð½ÑĤÐµÑĢ": 1587,
      "ÐµÐ¾Ð³": 1588,
      "rne": 1589,
      "Ð°ÑļÐµÐ¼": 1590,
      "Ġzaje": 1591,
      "ĠÐºÐ°ÑĢ": 1592,
      "rova": 1593,
      "ĠÅ¡ta": 1594,
      "oj": 1595,
      "ĠRa": 1596,
      "Ġri": 1597,
      "Ð°Ð»Ðµ": 1598,
      "vreme": 1599,
      "gre": 1600,
      "Ġ198": 1601,
      "ÑģÐºÐ¾Ñĺ": 1602,
      "lna": 1603,
      "Ðĵ": 1604,
      "co": 1605,
      "Äįkih": 1606,
      "kih": 1607,
      "ĠÐ¿ÑĢÐµÐ´ÑģÑĤÐ°Ð²ÑĻ": 1608,
      "ĠÐ¼Ð¾Ð´": 1609,
      "Ġodnosu": 1610,
      "Pre": 1611,
      "Ġosnovu": 1612,
      "fo": 1613,
      "ĠzaÅ¡ti": 1614,
      "Ġnego": 1615,
      "ĠÐ¸ÑģÑĤÑĢÐ°Ð¶": 1616,
      "rs": 1617,
      "Ãł": 1618,
      "Ġzdra": 1619,
      "ĠÐ¾ÑĢÐ³Ð°Ð½": 1620,
      "Ġutica": 1621,
      "Ð°ÑĤÑĢ": 1622,
      "ĠÑĽÐµ": 1623,
      "ĠÐ½Ð°Ð²": 1624,
      "Ġfo": 1625,
      "Äįkog": 1626,
      "Ġtran": 1627,
      "ĠÐ¸Ð·Ð²": 1628,
      "ÑģÐºÐ¾": 1629,
      "ĠÐ¾Ð±Ñĺ": 1630,
      "Ð»Ð°": 1631,
      "Ġkoristi": 1632,
      "Ð»Ð°Ñģ": 1633,
      "Ġizvo": 1634,
      "Ð°Ð½Ñģ": 1635,
      "ĠÐ·Ð½Ð°ÑĩÐ°Ñĺ": 1636,
      "Ð¸ÑĤÐµÑĤ": 1637,
      "ĠÐ¼ÐµÑĤ": 1638,
      "Ġ17": 1639,
      "Ġpoja": 1640,
      "ÐµÐºÐ°": 1641,
      "Ð°ÐºÑĤ": 1642,
      "Ġbude": 1643,
      "ĠKa": 1644,
      "ĠÐ³ÑĢÑĥÐ¿": 1645,
      "Ð¸ÑģÑĥ": 1646,
      "ĠÐ¿Ð¾Ñĩ": 1647,
      "âĢĻ": 1648,
      "ĠÐ¿ÑĢÐµÐ¼Ð°": 1649,
      "Ġtokom": 1650,
      "gleda": 1651,
      "volj": 1652,
      "ĠMe": 1653,
      "Å¡u": 1654,
      "Ð°ÑĪÑĤ": 1655,
      "ĠÐ¿ÑĢÐµ": 1656,
      "pada": 1657,
      "ĠW": 1658,
      "Äįko": 1659,
      "Ġobave": 1660,
      "200": 1661,
      "fa": 1662,
      "Ġdr": 1663,
      "ĠÐ¿Ð¾Ð»Ð¸ÑĤ": 1664,
      "Ġsme": 1665,
      "ĠÑĢÐµÑĩ": 1666,
      "Ġkojima": 1667,
      "rek": 1668,
      "ĠÐºÐ°ÐºÐ¾": 1669,
      "ĠÄįla": 1670,
      "ÐºÐ¸": 1671,
      "ĠÐ¿ÑĥÑĤ": 1672,
      "Ġsvoje": 1673,
      "ĠÑģÐ²Ðµ": 1674,
      "vnog": 1675,
      "Ġ16": 1676,
      "nata": 1677,
      "Ġmedi": 1678,
      "Ġnad": 1679,
      "ĠIn": 1680,
      "ÐµÑĢÐ°": 1681,
      "Ã¨": 1682,
      "ĠÐ·Ð±": 1683,
      "rodi": 1684,
      "ĠÑĥÐ¼": 1685,
      "nera": 1686,
      "Ġperio": 1687,
      "Ġho": 1688,
      "ĠÑĢÐµÐ·": 1689,
      "ĠÑļÐµÐ³Ð¾Ð²": 1690,
      "tih": 1691,
      "ÑĢÐ°ÑĴ": 1692,
      "16": 1693,
      "«É": 1694,
      "ĠÐ·Ð°Ð²": 1695,
      "Ġkarak": 1696,
      "ĠÐ¾ÑģÑĤ": 1697,
      "tera": 1698,
      "ĠÐ±ÐµÐ·": 1699,
      "Ã¥": 1700,
      "ĠÐ¾Ð½": 1701,
      "ndar": 1702,
      "Ð¸Ð²Ð°ÑļÐµ": 1703,
      "ktor": 1704,
      "hte": 1705,
      "nova": 1706,
      "Äįnih": 1707,
      "Ġw": 1708,
      "ĠÑĥÐ¿ÑĢ": 1709,
      "Do": 1710,
      "ĠÑĤÐµÑĢ": 1711,
      "Ð¾Ð²Ð¸Ð¼Ð°": 1712,
      "Ð¸Ð²Ð°": 1713,
      "Ġposta": 1714,
      "stupa": 1715,
      "22": 1716,
      "Ġeko": 1717,
      "Ð¼Ð°": 1718,
      "ĠÐ½ÐµÐ¿": 1719,
      "Ġmeto": 1720,
      "ĠÐ´ÑĢÑĥÑĪÑĤ": 1721,
      "vnih": 1722,
      "Ġisti": 1723,
      "ÐµÑĽÐ¸": 1724,
      "nski": 1725,
      "tar": 1726,
      "Ġpara": 1727,
      "ĠodreÄĳe": 1728,
      "Ġih": 1729,
      "ÑĢÑĤ": 1730,
      "ÐµÐ´Ð½": 1731,
      "ur": 1732,
      "meri": 1733,
      "vio": 1734,
      "ĠÐ¡ÑĤ": 1735,
      "ĠÑĥÐ²": 1736,
      "ĠÐ¿ÑĢÐ¾ÑĤ": 1737,
      "ÑĨÐ¸": 1738,
      "Ð°ÑĨÐ¸ÑĺÑĥ": 1739,
      "Ð³ÑĢ": 1740,
      "Ġsle": 1741,
      "ĠÑģÐ»ÑĥÑĩ": 1742,
      "Ġtek": 1743,
      "Ð¾Ð»Ð¸ÐºÐ¾": 1744,
      "ÑĥÑħ": 1745,
      "ĠÐ¾Ð´Ð»": 1746,
      "Ġkontro": 1747,
      "ĠÐ²Ð¸Ð´": 1748,
      "ĠÐ²Ð¸ÑĪÐµ": 1749,
      "Ġet": 1750,
      "ĠÐ¿ÑĢÐ¾Ð¼": 1751,
      "ncija": 1752,
      "Ð¸Ð·Ð²": 1753,
      "ĠÐºÐ°Ð´Ð°": 1754,
      "ĠÐ¿Ð¾Ð½": 1755,
      "ĠPa": 1756,
      "Ġkoju": 1757,
      "Re": 1758,
      "ĠÐ²ÐµÐ·": 1759,
      "Å¡ko": 1760,
      "ĠpoveÄĩa": 1761,
      "Ð°Ð²Ð°ÑļÐµ": 1762,
      "Ġgovo": 1763,
      "Éª": 1764,
      "Ð¾Ð´Ð¸": 1765,
      "ĠÐ³ÑĢ": 1766,
      "Ð»Ð¾": 1767,
      "zova": 1768,
      "ĠÐ¿Ð»": 1769,
      "Ġkvali": 1770,
      "Ġinforma": 1771,
      "ĠÐ¸Ð¼Ð°": 1772,
      "godi": 1773,
      "Ġproje": 1774,
      "Ð¾Ð¿ÑĢ": 1775,
      "17": 1776,
      "rati": 1777,
      "\",": 1778,
      "Ġorganiza": 1779,
      "Ð¾Ð´Ðµ": 1780,
      "ĠÐºÑļ": 1781,
      "Ġpopu": 1782,
      "........": 1783,
      "ÑĥÑĨ": 1784,
      "ĠÑģÐ²ÐµÑĤ": 1785,
      "ĠÐºÐ¾Ð¼Ð¿": 1786,
      "Ð³Ð¾Ð²Ð¾ÑĢ": 1787,
      "Ġregi": 1788,
      "kim": 1789,
      "ĠNo": 1790,
      "Ġloka": 1791,
      "ĠÐ±Ð¸Ð»Ð¾": 1792,
      "Ġdruge": 1793,
      "ĠÑĦÐ¾ÑĢÐ¼": 1794,
      "âĢŀ": 1795,
      "ĠÎ": 1796,
      "Ġsada": 1797,
      "Ġmaterija": 1798,
      "ĠÐ¨": 1799,
      "Ġkultu": 1800,
      "Ð¾ÑĴÐµ": 1801,
      "el": 1802,
      "Ġkroz": 1803,
      "ĠÑĤÐ¾Ðº": 1804,
      "Ġsrp": 1805,
      "th": 1806,
      "ĠÑĤÐ¾Ð¼": 1807,
      "Pro": 1808,
      "oma": 1809,
      "ĠÑĥÐ»": 1810,
      "Ġn": 1811,
      "Ġtak": 1812,
      "Ġsti": 1813,
      "Ġtome": 1814,
      "rij": 1815,
      "Ġfina": 1816,
      "Ð²Ð¾": 1817,
      "Ġzapo": 1818,
      "Ġnjego": 1819,
      "Ġzahte": 1820,
      "Ð¾Ð»Ð¾Ð³": 1821,
      "Ð¸ÑĩÐ¸ÑĤ": 1822,
      "RA": 1823,
      "rva": 1824,
      "nci": 1825,
      "nik": 1826,
      "ĠÐ¿Ð¸ÑĤ": 1827,
      "Ġjezi": 1828,
      "taka": 1829,
      "Ð¸ÑĩÐ½Ð¾": 1830,
      "Ġpredu": 1831,
      "Ġprogra": 1832,
      "ĠÐ·ÐµÐ¼ÑĻ": 1833,
      "Ð½Ð¸ÑĺÐµ": 1834,
      "Ġuspe": 1835,
      "mogu": 1836,
      "ĠÐ¿Ð¾Ð³": 1837,
      "Ġdrugo": 1838,
      "ĠVa": 1839,
      "Ġthe": 1840,
      "fini": 1841,
      "Ġpreko": 1842,
      "ÐµÑģÑĤÐ¾": 1843,
      "Ġsna": 1844,
      "âĢľ.": 1845,
      "ĠÐ°ÑĥÑĤ": 1846,
      "ĠÐ±Ð¸Ð»Ð°": 1847,
      "Ġdeo": 1848,
      "ÑħÐ¾Ð´": 1849,
      "Ð°Ð½Ð¾Ð²": 1850,
      "ĠSrbiji": 1851,
      "Ġhe": 1852,
      "Å¡nje": 1853,
      "ĠÐ¦": 1854,
      "II": 1855,
      "Ġsvi": 1856,
      "dova": 1857,
      "Ġsistema": 1858,
      "ĠEvro": 1859,
      "Ð°ÑĪÑļ": 1860,
      "Äįna": 1861,
      "nske": 1862,
      "ĠveÄĩi": 1863,
      "cijama": 1864,
      "Ġtaj": 1865,
      "ĠDe": 1866,
      "tka": 1867,
      "Ġviso": 1868,
      "ĠÐ¾ÑĢÐ³Ð°Ð½Ð¸Ð·": 1869,
      "dite": 1870,
      "Ġbole": 1871,
      "ĠÅ¡ko": 1872,
      "ĠÐºÐ¾ÑĢÐ¸ÑģÑĤ": 1873,
      "bri": 1874,
      "ment": 1875,
      "ĠÑĢÐ°Ð·Ð²Ð¾Ñĺ": 1876,
      "dna": 1877,
      "Ġjedna": 1878,
      "Ð°Ð½Ð¾": 1879,
      "vnom": 1880,
      "dio": 1881,
      "Ġnau": 1882,
      "ĠÐ½Ð°Ð´": 1883,
      "rad": 1884,
      "Ġbudu": 1885,
      "ÐµÑļÑĥ": 1886,
      "Ġprotiv": 1887,
      "novi": 1888,
      "ST": 1889,
      "stitu": 1890,
      "Ġpojedi": 1891,
      "met": 1892,
      "ĠÅ¡i": 1893,
      "ÐµÐºÑģÑĤ": 1894,
      "Ġnas": 1895,
      "Ð²Ð°Ð»": 1896,
      "Ta": 1897,
      "Ð¸ÑĺÐ¾Ð¼": 1898,
      "ĠkoriÅ¡Äĩe": 1899,
      "ĠÐ½Ð°Ð»": 1900,
      "Ġsla": 1901,
      "Mo": 1902,
      "Ġovom": 1903,
      "ÐĿÐ°": 1904,
      "ĠÐ¼Ð¾Ð³Ñĥ": 1905,
      "ĠRu": 1906,
      "Êģ": 1907,
      "Ġpore": 1908,
      "Ð°Ð´ÑĢÐ¶": 1909,
      "Ġsvet": 1910,
      "ĠÐ±Ð¸ÑĤÐ¸": 1911,
      "Ġobla": 1912,
      "Ġpokaza": 1913,
      "Ġmno": 1914,
      "Ġ30": 1915,
      "Ġona": 1916,
      "ĠÑĤÐ°ÐºÐ¾": 1917,
      "ĠÑĢÐ°Ð·Ð»Ð¸ÑĩÐ¸ÑĤ": 1918,
      "Ġdanas": 1919,
      "ĠNi": 1920,
      "____": 1921,
      "Ġzako": 1922,
      "ĠâĢĶ": 1923,
      "ĠÑĺÐµÑĢ": 1924,
      "ĠÑĻÑĥÐ´": 1925,
      "Ð¾Ð²Ð¾ÑĢ": 1926,
      "Ġgu": 1927,
      "ĠÐ¿Ð¾ÑģÑĤÐ¾Ñĺ": 1928,
      "vla": 1929,
      "ĠÐ¾Ð´Ð½Ð¾ÑģÐ½Ð¾": 1930,
      "ĠÐ¿ÑĢÐ¾ÑĨÐµÑģ": 1931,
      "Ð°Ð²Ð°ÑļÐ°": 1932,
      "tiva": 1933,
      "stvu": 1934,
      "ĠÐ¿ÑĢÐ¸Ð¿": 1935,
      "Ġokvi": 1936,
      "star": 1937,
      "mati": 1938,
      "Ġelek": 1939,
      "Pri": 1940,
      "ÉŃ": 1941,
      "ktiv": 1942,
      "Ġzavi": 1943,
      "ĠÐ¿ÑĢÐ¾Ð¸Ð·Ð²": 1944,
      "Ð¸ÑĺÐ°Ð¼Ð°": 1945,
      "Ð¸Ð»Ðµ": 1946,
      "ĠÐ½ÐµÐ³": 1947,
      "Ra": 1948,
      "ÑĢÑĥÐº": 1949,
      "ÑĦÐ¾ÑĢÐ¼": 1950,
      "Ð´ÑĢ": 1951,
      "ÐµÐ½Ð¸Ð¼": 1952,
      "plo": 1953,
      "Ð»ÐµÐ´": 1954,
      "Ð²ÐµÑĤ": 1955,
      "il": 1956,
      "Ġsvoji": 1957,
      "ĠÐ½Ð°ÑģÑĤ": 1958,
      "ÑĥÐ½ÐºÑĨ": 1959,
      "Ġpostoji": 1960,
      "kro": 1961,
      "ĠÑģÑĤÐ²Ð°ÑĢ": 1962,
      "ĠÐºÐ¾Ð»": 1963,
      "ĠÐ±ÑĥÐ´": 1964,
      "Ġpravo": 1965,
      "Ġ197": 1966,
      "rani": 1967,
      "ĠÑĤÑĢÐµÐ±": 1968,
      "ĠsadrÅ¾a": 1969,
      "ĠÐ°Ð½Ð°Ð»Ð¸Ð·": 1970,
      "ĠÐ¼Ð¾Ð³ÑĥÑĽ": 1971,
      "ĠÑģÑĤÑĢÐ°Ð½Ðµ": 1972,
      "Tako": 1973,
      "Ġpravi": 1974,
      "vao": 1975,
      "ove": 1976,
      "Ġstudi": 1977,
      "Ð»Ðµ": 1978,
      "ĠÑĥÑģÐ¿": 1979,
      "ÐĽ": 1980,
      "Ġutvr": 1981,
      "matra": 1982,
      "ĠÐ¿ÑĢÐ¸Ðº": 1983,
      "ĠÄĮ": 1984,
      "Ġdve": 1985,
      "21": 1986,
      "vija": 1987,
      "sne": 1988,
      "cijom": 1989,
      "klo": 1990,
      "ÐºÐ¾Ð¼": 1991,
      "50": 1992,
      "ÐµÐ¾Ð³ÑĢÐ°Ð´": 1993,
      "Ð¸ÑĤÐµÑĤÐ°": 1994,
      "loga": 1995,
      "Ġos": 1996,
      "sije": 1997,
      "Ġproizvod": 1998,
      "Ġdelo": 1999,
      "riji": 2000,
      "ĠÐ¿ÑĢÐ¾ÑģÑĤ": 2001,
      "ÑĢÐµÑĤ": 2002,
      "Ġkla": 2003,
      "Ð¾Ð½Ð¾Ð¼": 2004,
      "tua": 2005,
      "Ġtro": 2006,
      "ĠBa": 2007,
      "ÐµÐ»Ð¸": 2008,
      "ÑĥÐ»ÑĤÑĥÑĢ": 2009,
      "Ð°ÐºÑĤÐµÑĢ": 2010,
      "rna": 2011,
      "ĠDa": 2012,
      "Ġdela": 2013,
      "'',": 2014,
      "Ð¸ÑĦÐ¸Ðº": 2015,
      "Ð°Ð»Ð½Ðµ": 2016,
      "Ġener": 2017,
      "tima": 2018,
      "ĠÐ¸ÑģÐ¿Ð¸ÑĤ": 2019,
      "ĠÑĢÐ°Ñģ": 2020,
      "ÑĤÐ°": 2021,
      "vesti": 2022,
      "Ġskla": 2023,
      "tna": 2024,
      "Mi": 2025,
      "âĢ¦": 2026,
      "Ġupotre": 2027,
      "ĠÐ·Ð°ÐºÐ¾Ð½": 2028,
      "ĠÑĨÑĢ": 2029,
      "ĠÐ°ÑĢ": 2030,
      "Ġkarakteri": 2031,
      "Ġbili": 2032,
      "ĠTa": 2033,
      "Ġsmatra": 2034,
      "men": 2035,
      "NI": 2036,
      "uze": 2037,
      "ĠÑģÐ²Ð°Ðº": 2038,
      "Ġprisu": 2039,
      "Ġobje": 2040,
      "ĠÑĢÐµÐ³": 2041,
      "Ġzajedni": 2042,
      "Ð°ÑĺÐµ": 2043,
      "vna": 2044,
      "ĠÐ´Ð¾Ð¼": 2045,
      "ĠÐ·Ð°Ñĺ": 2046,
      "Ġodgova": 2047,
      "Ġnam": 2048,
      "bora": 2049,
      "Ġknji": 2050,
      "Äįuna": 2051,
      "Ġovaj": 2052,
      "ĠÐ²ÐµÑĢ": 2053,
      "Ġar": 2054,
      "ĠÐ½Ð°ÑĩÐ¸Ð½": 2055,
      "Ġoni": 2056,
      "spi": 2057,
      "vina": 2058,
      "ÐºÐ¾Ð»": 2059,
      "Ð¸ÑĩÐºÐ¸Ñħ": 2060,
      "Ġmeta": 2061,
      "vre": 2062,
      "ÄĲ": 2063,
      "Ġrada": 2064,
      "Ġprili": 2065,
      "ĠÑļÐ¸ÑħÐ¾Ð²": 2066,
      "ĠÑĢÐµÐ·ÑĥÐ»ÑĤ": 2067,
      "Ġuklju": 2068,
      "Ð°ÑģÑĤÐ¸": 2069,
      "ĠÐ¿Ð¾ÑĤÑĢÐµÐ±": 2070,
      "Ġ11": 2071,
      "Ġfinansi": 2072,
      "ÐµÐ½Ð·": 2073,
      "Ġdefini": 2074,
      "RE": 2075,
      "ĠMo": 2076,
      "ĠX": 2077,
      "Ġ194": 2078,
      "ĠÐ¿ÑĢÐ¸Ð»": 2079,
      "Ð²ÑĢÐ¾Ð¿": 2080,
      "ÑĻÐ¸Ð²": 2081,
      "Ð¸ÑĪÑĽ": 2082,
      "ÐµÐ¼Ñĥ": 2083,
      "vra": 2084,
      "ĠPro": 2085,
      "Ġnepo": 2086,
      "Ġobzi": 2087,
      "zima": 2088,
      "rvi": 2089,
      "Ġporodi": 2090,
      "Äįnog": 2091,
      "Ġmnogo": 2092,
      "ĠÐ°ÐºÑĤÐ¸Ð²": 2093,
      "ĠPe": 2094,
      "kata": 2095,
      "ÑĨÐ°": 2096,
      "Ġdobro": 2097,
      "ĠÑĢÐµ": 2098,
      "Ġmese": 2099,
      "ĠÑĩÐ»Ð°Ð½": 2100,
      "lije": 2101,
      "Ġfe": 2102,
      "ĠGo": 2103,
      "Ġsvoj": 2104,
      "Ġrazvo": 2105,
      "ĠmoguÄĩ": 2106,
      "publi": 2107,
      "ĠÐ½Ð°Ñģ": 2108,
      "ĠÑĦÑĥÐ½ÐºÑĨ": 2109,
      "Ð°ÑĺÑĥÑĽÐ¸": 2110,
      "Ġosi": 2111,
      "ĠÐ¿ÐµÑĢÐ¸": 2112,
      "Äĳenje": 2113,
      "ĠÑģÑĥÐ´": 2114,
      "Ð¾Ð½Ð°": 2115,
      "ĠVe": 2116,
      "ĠÑģÐ°Ð²": 2117,
      "ĠkaÅ¾e": 2118,
      "Ġispita": 2119,
      "vani": 2120,
      "rma": 2121,
      "Ġprija": 2122,
      "Ð°ÑĤÐµÑĢ": 2123,
      "Ġose": 2124,
      "meta": 2125,
      "Ġpreduze": 2126,
      "Ġprava": 2127,
      "Ð¾Ð²Ð°ÑļÐ°": 2128,
      "Ġaktivnosti": 2129,
      "zbe": 2130,
      "Ġrekao": 2131,
      "Ð¼ÐµÑĢ": 2132,
      "Ð¸ÑĩÐºÐ¾Ð³": 2133,
      "âĢĿ,": 2134,
      "ÑĢÑĥÐ¶": 2135,
      "Ġdece": 2136,
      "Ġpar": 2137,
      "stava": 2138,
      "Ġsvih": 2139,
      "Ġnajve": 2140,
      "Ġostva": 2141,
      "Ova": 2142,
      "ĠVi": 2143,
      "ĠÐ·Ð±Ð¾Ð³": 2144,
      "ĠÑĨÐ¸ÑĻ": 2145,
      "Ni": 2146,
      "Ġad": 2147,
      "Ġrea": 2148,
      "Ġmere": 2149,
      "ĠÑģÐ¿ÑĢ": 2150,
      "viÅ¡e": 2151,
      "Ġnu": 2152,
      "ĠÑĥÑĤÐ¸ÑĨ": 2153,
      "ĠÐ·Ð°ÑĤ": 2154,
      "ĠÐ½Ð°ÑĺÐ²": 2155,
      "Ð°ÑĢÐ¾Ð´": 2156,
      "Ġveoma": 2157,
      "Ġono": 2158,
      "Ġjedno": 2159,
      "zma": 2160,
      "Ġ&": 2161,
      "Ġdalje": 2162,
      "ĠÐ¿Ð¾ÐºÐ°Ð·": 2163,
      "Ġslede": 2164,
      "bor": 2165,
      "rane": 2166,
      "IJ": 2167,
      "tem": 2168,
      "mije": 2169,
      "Ġvode": 2170,
      "ĠÐ¿Ð¾ÑģÐµÐ±": 2171,
      "vala": 2172,
      "Å¡ka": 2173,
      "30": 2174,
      "ljivo": 2175,
      "ÐµÑĽÐµ": 2176,
      "Od": 2177,
      "ĠÐ²Ð»": 2178,
      "Ġkad": 2179,
      "laze": 2180,
      "ladi": 2181,
      "Ma": 2182,
      "Ġstruktu": 2183,
      "ĠÑĺÐ°Ð²": 2184,
      "ĠÅ¡e": 2185,
      "kcije": 2186,
      "vanjem": 2187,
      "Ġobrazo": 2188,
      "snosti": 2189,
      "Ġdija": 2190,
      "Ġkomenta": 2191,
      "ĠÐ¿Ð°": 2192,
      "Ġkomp": 2193,
      "nama": 2194,
      "ĠÐ·Ð°ÑĪÑĤ": 2195,
      "um": 2196,
      "Ġper": 2197,
      "Ð°ÑĨÐ¸ÑĺÐ¸": 2198,
      "ĠÐ½Ð¸Ð²Ð¾": 2199,
      "Ġprosto": 2200,
      "Ð°ÑĨÐ°": 2201,
      "ĠVu": 2202,
      "ktora": 2203,
      "noviÄĩ": 2204,
      "ÑĥÐ±Ð»": 2205,
      "vrÅ¡e": 2206,
      "stavlje": 2207,
      "Ð°Ð½Ñĥ": 2208,
      "ĠÑĥÑģ": 2209,
      "Ð¸Ð¼Ðµ": 2210,
      "NA": 2211,
      "Ð¾ÑĤÑĢÐµÐ±": 2212,
      "Ġspre": 2213,
      "Ġtrenu": 2214,
      "ĠÐ¿ÑĢÐµÐº": 2215,
      "ĠsluÄįaju": 2216,
      "Ð°ÐºÑģ": 2217,
      "ÑĨÑĥ": 2218,
      "Ġ25": 2219,
      "slu": 2220,
      "OV": 2221,
      "razu": 2222,
      "ĠÐĳÐµÐ¾Ð³ÑĢÐ°Ð´": 2223,
      "Ġsitua": 2224,
      "ÑĢÐ°ÑĤ": 2225,
      "Ġ24": 2226,
      "Ġsredi": 2227,
      "nce": 2228,
      "ĠÐ²ÐµÐ»Ð¸Ðº": 2229,
      "ĠÐºÑĥÐ»ÑĤÑĥÑĢ": 2230,
      "ĠÐ¸Ð½Ð´": 2231,
      "Ġpredse": 2232,
      "ĠÐ¿ÑĢÐ¸Ð²": 2233,
      "ÑĢÑĥÐºÑĤ": 2234,
      "ĠDo": 2235,
      "25": 2236,
      "ĠÐºÐ°ÑĢÐ°ÐºÑĤÐµÑĢ": 2237,
      "lim": 2238,
      "ĠÐ¸Ð´": 2239,
      "ĠÑģÐ°Ð´ÑĢÐ¶": 2240,
      "vije": 2241,
      "ĠÐ´ÐµÑĨ": 2242,
      ".-": 2243,
      "ww": 2244,
      "tnih": 2245,
      "Ġobu": 2246,
      "ĠÄįu": 2247,
      "Ġgrupe": 2248,
      "ĠÐ¿ÑĢÐ¾Ð±": 2249,
      "ĠÐ³ÑĢÐ°Ð´": 2250,
      "lnim": 2251,
      "Ġdobije": 2252,
      "tisti": 2253,
      "tku": 2254,
      "ĠÐ³Ð¾Ð´Ð¸Ð½Ð°": 2255,
      "kva": 2256,
      "Ġpacije": 2257,
      "Ġomogu": 2258,
      "janje": 2259,
      "ĠÐ°Ð»": 2260,
      "Ġpretho": 2261,
      "Ġpotpu": 2262,
      "menu": 2263,
      "koviÄĩ": 2264,
      "ĠÐµÐ½": 2265,
      "Ġefe": 2266,
      "com": 2267,
      "Ð½Ð¸ÑĨÐ¸": 2268,
      "us": 2269,
      "ĠÐ¿Ð¾ÑģÑĤÑĥÐ¿": 2270,
      "Ð¸ÑģÐ»": 2271,
      "ĠdruÅ¡tve": 2272,
      "Ã®": 2273,
      "kle": 2274,
      ");": 2275,
      "ĠÑģÐ½": 2276,
      "nistar": 2277,
      "ĠÐ²Ð¾Ñĺ": 2278,
      "mer": 2279,
      "ĠÐ·Ð°Ñħ": 2280,
      "kat": 2281,
      "Ð¸ÑĤÑĥ": 2282,
      "Ġtim": 2283,
      "Ġprote": 2284,
      "ĠnaÅ¡e": 2285,
      "Ġoblasti": 2286,
      "É§": 2287,
      "ÐµÑĤÐ¸": 2288,
      "Ġca": 2289,
      "Ġnekoliko": 2290,
      "ĠÐ·Ð°Ð´": 2291,
      "tan": 2292,
      "Ð¾Ñħ": 2293,
      "Ġsadr": 2294,
      "Ġnika": 2295,
      "Å¡nji": 2296,
      "Ð°ÑĨÐ¸Ð¾Ð½Ð°Ð»": 2297,
      "Ġpodataka": 2298,
      "ĠÐ¿Ð¾Ð¿": 2299,
      "ĠÐºÐ¾ÑĺÐ¸Ð¼Ð°": 2300,
      "ĠÐ¸ÑģÐº": 2301,
      "Ġsar": 2302,
      "sao": 2303,
      "Ġigra": 2304,
      "ĠÐ´ÐµÑĦ": 2305,
      "Ð¸ÑĩÐµ": 2306,
      "Ġpozna": 2307,
      "Ġobi": 2308,
      "Ð¾Ð´Ñĥ": 2309,
      "gli": 2310,
      "Ġuvek": 2311,
      "tivno": 2312,
      "Ð°ÑĨÐ¸Ð¾Ð½": 2313,
      "tora": 2314,
      "zni": 2315,
      "cioni": 2316,
      "Ġele": 2317,
      "ĠpovrÅ¡i": 2318,
      "Ġanti": 2319,
      "ÐµÐ´Ð¸Ð½": 2320,
      "Ġpostoje": 2321,
      "Ġkompa": 2322,
      "ĠÐ¿ÑĢÐ¸ÑĢ": 2323,
      "Äĳenja": 2324,
      "njima": 2325,
      "Ġ196": 2326,
      "Ð¸ÑĪÑĤÐ°": 2327,
      "Ġpona": 2328,
      "vine": 2329,
      "Ġpote": 2330,
      "ĠÐ´ÐµÐ»Ð°": 2331,
      "Ġneko": 2332,
      "Ġvide": 2333,
      "lima": 2334,
      "ĠÐ³Ð¾Ð²Ð¾ÑĢ": 2335,
      "Ġraspo": 2336,
      "ÑļÐ°": 2337,
      "Ġput": 2338,
      "ĠÐ½Ð°ÐºÐ¾Ð½": 2339,
      "sija": 2340,
      "ÐµÐ²Ð¸ÑĽ": 2341,
      "ĠÑĤÐ¾Ð³Ð°": 2342,
      "Ġkojoj": 2343,
      "ĠÐ½Ð¸ÑģÑĥ": 2344,
      "Ð½Ð°Ñĩ": 2345,
      "vore": 2346,
      "ĠÐ¼ÐµÑĴ": 2347,
      "grad": 2348,
      "ĠreÅ¡e": 2349,
      "ÐµÐ½ÑĥÑĤ": 2350,
      "Ð¾Ð²Ð¾ÑĻ": 2351,
      "Ġformi": 2352,
      "Ġtem": 2353,
      "Ġzaklju": 2354,
      "dnik": 2355,
      "ĠÐ¾ÑģÐ½Ð¾Ð²Ñĥ": 2356,
      "ĠÐ¿Ð»Ð°Ð½": 2357,
      "Ġtele": 2358,
      "ĠPri": 2359,
      "Ġspro": 2360,
      "ĠneÅ¡to": 2361,
      "vred": 2362,
      "nskog": 2363,
      "ĠÐ¼Ð¾ÑĢ": 2364,
      "Ġap": 2365,
      "ĠÐ¸ÑģÑĤÐ¾ÑĢ": 2366,
      "sna": 2367,
      "hvata": 2368,
      "lacije": 2369,
      "kazuje": 2370,
      "ĠÑģÑĤÑĥÐ´": 2371,
      "Ġnalazi": 2372,
      "tt": 2373,
      "ĠLa": 2374,
      "ÐµÐ³Ð°": 2375,
      "ĠÐ¸Ð½ÑģÑĤ": 2376,
      "rana": 2377,
      "ĠÐ¿ÑĢÐ°Ð²Ð°": 2378,
      "gije": 2379,
      "Ġunu": 2380,
      "bar": 2381,
      "jske": 2382,
      "Ġslobo": 2383,
      "lih": 2384,
      "Ġtom": 2385,
      "Ð¾Ð²Ð°ÑļÐµ": 2386,
      "ÐµÑĤÑĢ": 2387,
      "ÐµÐ¼Ð±": 2388,
      "Ġonda": 2389,
      "ĠRepubli": 2390,
      "ĠJo": 2391,
      "snika": 2392,
      "qu": 2393,
      "ĠÐ³Ð°": 2394,
      "Ġan": 2395,
      "gao": 2396,
      "sob": 2397,
      "ĠÐ¾Ð´Ð½Ð¾ÑģÑĥ": 2398,
      "tivne": 2399,
      "ĠÐ´Ð²Ð°": 2400,
      "Je": 2401,
      "Ġkarakteristi": 2402,
      "ĠtakoÄĳe": 2403,
      "Äįan": 2404,
      "Å¾no": 2405,
      "ĠDi": 2406,
      "Ġukup": 2407,
      "ÐµÐ½ÑĤÑĢ": 2408,
      "ÑĨÐ¸ÑĺÐµ": 2409,
      "Ð²Ð¸": 2410,
      "ĠÐ¸Ð·Ð±": 2411,
      "sam": 2412,
      "jte": 2413,
      "Ġkomu": 2414,
      "ĠÐ²Ð¸Ñģ": 2415,
      "AT": 2416,
      "ĠÐ¸Ð½ÑĤ": 2417,
      "Ġprikaza": 2418,
      "ĠÐ²ÑĢÐµÐ´Ð½Ð¾ÑģÑĤÐ¸": 2419,
      "Ġputa": 2420,
      "ĠÐ½Ð°Ð·": 2421,
      "bela": 2422,
      "Ð°Ð»Ð½Ð¾": 2423,
      "ndi": 2424,
      "Ð¤": 2425,
      "ÐµÐ¼Ð¾": 2426,
      "Å¡tu": 2427,
      "ĠÑĺÐµÐ´Ð°Ð½": 2428,
      "AD": 2429,
      "ĠJu": 2430,
      "ðĿ": 2431,
      "viti": 2432,
      "Ġrizi": 2433,
      "ĠBi": 2434,
      "ĠÐ§": 2435,
      "nde": 2436,
      "23": 2437,
      "Ð²ÑĢÑĴ": 2438,
      "Äįenja": 2439,
      "ĠistraÅ¾ivanja": 2440,
      "Ġmalo": 2441,
      "Ġskladu": 2442,
      "Ġneza": 2443,
      "lnom": 2444,
      "Ġneu": 2445,
      "ĠÐ½Ð¸": 2446,
      "Å¾be": 2447,
      "Ġkoncentra": 2448,
      "Ð°Ð²Ð°ÑĺÑĥ": 2449,
      "ĠÐ³Ð´Ðµ": 2450,
      "ĠBe": 2451,
      "Ġproda": 2452,
      "Ð¸ÑĩÐºÐ°": 2453,
      "ĠÐ²ÑĢÑģÑĤ": 2454,
      "ĠodrÅ¾a": 2455,
      "ĠÑĺÐµÐ´Ð¸Ð½": 2456,
      "ĠÐºÐ¾Ð½ÑĨ": 2457,
      "ÐµÐºÑĤÐ¸Ð²": 2458,
      "Ġvrednost": 2459,
      "Ġcr": 2460,
      "Ð²Ð¸ÑĢ": 2461,
      "Ġobli": 2462,
      "risti": 2463,
      "ĠÐ´ÑĢÑĥÑĪÑĤÐ²": 2464,
      "24": 2465,
      "ĠÐ¸Ð·Ð´": 2466,
      "ĠÐºÑĢÐ¸Ð²": 2467,
      "ĠSe": 2468,
      "Ġprepo": 2469,
      "ĠÐºÐ¾Ð½ÑĤ": 2470,
      "Ġrazvoj": 2471,
      "ĠÐ¿Ð¸Ñģ": 2472,
      "Ð¸ÑĤÐ°": 2473,
      "ĠÑĪÐºÐ¾Ð»": 2474,
      "ĠÑĦÐ¸Ð»": 2475,
      "Ð¾Ð¼Ð°": 2476,
      "Ð¸Ð½Ð³": 2477,
      "ÑĥÑĤÐ¸Ð¼": 2478,
      "laga": 2479,
      "Ġpru": 2480,
      "ĠÐ¿ÑĢÐ¸": 2481,
      "nskih": 2482,
      "ĠLi": 2483,
      "Äĳuje": 2484,
      "Ð¾Ð»Ð°": 2485,
      "Ġeks": 2486,
      "Ġ=": 2487,
      "tnog": 2488,
      "lar": 2489,
      "ĠÑĤÐ¾ÐºÐ¾Ð¼": 2490,
      "ĠÐºÐ»": 2491,
      "stri": 2492,
      "Ġpokre": 2493,
      "Ġsmi": 2494,
      "Ġfizi": 2495,
      "loÅ¾e": 2496,
      "Ġobezbe": 2497,
      "mom": 2498,
      "jan": 2499,
      "ĠÑģÑĤÐ°ÑĢ": 2500,
      "Ð½ÑĤ": 2501,
      "Ġokviru": 2502,
      "Ġuslu": 2503,
      "ĠÐ¿Ð¾ÑĤÐ¿": 2504,
      "ÑĥÐ²": 2505,
      "Ġizve": 2506,
      "Ġzemlji": 2507,
      "Ġintere": 2508,
      "Ġdoma": 2509,
      "ĠÑĺÐ¾ÑĪ": 2510,
      "ÑĥÐ¶Ð±": 2511,
      "ĠÑģÐ¸ÑģÑĤÐµÐ¼": 2512,
      "Ð¾Ð²Ð¾": 2513,
      "Ve": 2514,
      "Ġnaro": 2515,
      "Ġï": 2516,
      "Ð¾ÑĢÐ¸": 2517,
      "Ġdrugih": 2518,
      "Ð°ÑĩÐº": 2519,
      "Ð¸ÑģÐº": 2520,
      "Ġmre": 2521,
      "ĠTe": 2522,
      "ĠÐ¿ÑĢÐ¸ÑģÑĤ": 2523,
      "ĠÐ¿ÑĢÐ¾Ð³": 2524,
      "Ġispo": 2525,
      "peratu": 2526,
      "ĠÐ½Ð°Ð¼": 2527,
      "Ġgrupa": 2528,
      "ĠJa": 2529,
      "Äįkim": 2530,
      "sor": 2531,
      "ĠÐ¿Ð¾ÑģÐ»ÐµÐ´": 2532,
      "Ġneka": 2533,
      "Ġ50": 2534,
      "ÑĢÐ¾": 2535,
      "ÃŃ": 2536,
      "ĠÐ´ÑĢÐ¶Ð°Ð²": 2537,
      "line": 2538,
      "ĠÐ¿ÑĢÐµÐ²": 2539,
      "Ð²Ð°Ñĺ": 2540,
      "kuje": 2541,
      "Ð¸ÐºÐ¾Ð¼": 2542,
      "Ako": 2543,
      "ĠÐ´ÑĢÑĥÐ³Ðµ": 2544,
      "Ġnjih": 2545,
      "Ð¸ÑĨÑĥ": 2546,
      "Ġ<": 2547,
      "Ġname": 2548,
      "vet": 2549,
      "kraji": 2550,
      "od": 2551,
      "Ġusta": 2552,
      "ina": 2553,
      "ĠÐ²ÑĢÐµÐ¼Ðµ": 2554,
      "Iz": 2555,
      "Ġnajbo": 2556,
      "Ġelektro": 2557,
      "ty": 2558,
      "Ëĩ": 2559,
      "janja": 2560,
      "diti": 2561,
      "ÄĬ": 2562,
      "ĠtrÅ¾i": 2563,
      "Ð°Ð½Ð¸Ñħ": 2564,
      "es": 2565,
      "liti": 2566,
      "Ġsistem": 2567,
      "ĠÐ·Ð°ÑĺÐµÐ´Ð½": 2568,
      "ĠÑĢÐµÐ´": 2569,
      "Ð¾Ð¿Ð¸Ñģ": 2570,
      "Ġsocija": 2571,
      "ĠÐ¼Ð½Ð¾Ð³": 2572,
      "ÑģÑĤÐ²Ð°ÑĢ": 2573,
      "nos": 2574,
      "ĠÐ¾Ñĩ": 2575,
      "Ġidenti": 2576,
      "Ġdina": 2577,
      "ĠÐºÑĢÐ¾Ð·": 2578,
      "Ġure": 2579,
      "Ìģ": 2580,
      "Ð¸ÑĺÑĥÐ¼": 2581,
      "MeÄĳu": 2582,
      "Ġume": 2583,
      "ĠÐ¾Ð¿ÑĪÑĤ": 2584,
      "mini": 2585,
      "ÑĢÑĥÐºÑĤÑĥÑĢ": 2586,
      "ĠÐ¿ÑĢÐ¸ÐºÐ°Ð·": 2587,
      "Ð¸ÑĤÐµÑĻ": 2588,
      "ĠÐ½Ð°ÑĪ": 2589,
      "ĠÐ¿ÐµÑģ": 2590,
      "ĠÐ½Ð°ÑģÑĤÐ°Ð²": 2591,
      "risa": 2592,
      "kul": 2593,
      "NO": 2594,
      "ĠÑĤÐµÐ¼": 2595,
      "Ġmanje": 2596,
      "Ð°Ð²ÑĻÐ°": 2597,
      "Ġugovo": 2598,
      "kcija": 2599,
      "Äįkom": 2600,
      "ĠÐ·Ð°Ðº": 2601,
      "pak": 2602,
      "Ġstandar": 2603,
      "vod": 2604,
      "Ð²ÑĢÑĪ": 2605,
      "ĠneÄĩe": 2606,
      "Ð°Ð·Ðµ": 2607,
      "ĠÐľÐ¸Ð»": 2608,
      "Ġone": 2609,
      "ĠoÄįe": 2610,
      "Ġstatisti": 2611,
      "ĠÐ¿ÑĢÐ¾ÑĤÐ¸Ð²": 2612,
      "Ġveza": 2613,
      "Ġteo": 2614,
      "ĠÐµÑĦ": 2615,
      "ĠÐ´ÐµÑĤ": 2616,
      "sova": 2617,
      "Ġisku": 2618,
      "Ġizda": 2619,
      "ĠÑģÑĤÐ°Ð½Ð¾Ð²": 2620,
      "pad": 2621,
      "Ġvremena": 2622,
      "Ġtrans": 2623,
      "ruÅ¾e": 2624,
      "ĠÑģÑĤÐ°ÑĤ": 2625,
      "tio": 2626,
      "mp": 2627,
      "ĠÐ¼ÐµÐ´": 2628,
      "snost": 2629,
      "ĠÐ¾ÐºÐ¾": 2630,
      "Ġuo": 2631,
      "Pa": 2632,
      "ĠÐ¾Ð¼": 2633,
      "Ð°ÑĩÐ°": 2634,
      "Ġnastav": 2635,
      "Ġpolo": 2636,
      "ĠÐ¾Ð²Ð¾Ð³": 2637,
      "Ġtemperatu": 2638,
      "ĠÐ³ÑĢÐ°ÑĴ": 2639,
      "ÐµÑĪÑĽ": 2640,
      "ĠÐ¡ÑĢÐ±Ð¸ÑĺÐµ": 2641,
      "Ð¾ÑĢÑĥ": 2642,
      "ĠÐ¿ÑĢÐµÐ´ÑģÑĤÐ°Ð²ÑĻÐ°": 2643,
      "hu": 2644,
      "ĠÑģÐ²Ð¾ÑĺÐµ": 2645,
      "Ġprvi": 2646,
      "Ð¾Ð³ÑĢÐ°ÑĦ": 2647,
      "Ġâ": 2648,
      "ĠÐ¿ÐµÑĢ": 2649,
      "ĠÑĢÐµÑĪ": 2650,
      "ĠÐ¸Ð¼Ð°ÑĺÑĥ": 2651,
      "Å¡ava": 2652,
      "pred": 2653,
      "Ġvoj": 2654,
      "ĠÑĥÐ¿Ð¾ÑĤÑĢÐµÐ±": 2655,
      "Ġposti": 2656,
      "ĠÑĤÑĢÐµÐ±Ð°": 2657,
      "Ð°ÑĢÐ´": 2658,
      "ĠÐ¡Ð»": 2659,
      "ÐµÑĽÐ°": 2660,
      "Ã©": 2661,
      "ÑĢÐ°Ð¼": 2662,
      "Äįnim": 2663,
      "tke": 2664,
      "grani": 2665,
      "ÐµÑĢÐ·": 2666,
      "Ġvam": 2667,
      "ĠSi": 2668,
      "ĠÑĤÑĢÐ¸": 2669,
      "Å¡nja": 2670,
      "ĠÐ´ÐµÑĦÐ¸Ð½": 2671,
      "Ġ23": 2672,
      "ĠÑĤÑĥÑĢ": 2673,
      "ĠÐ½ÐµÐ¼": 2674,
      "ĠÐ¾Ð²Ðµ": 2675,
      "Ġnavede": 2676,
      "ĠÐ¼ÐµÑĴÑĥ": 2677,
      "ĠÐ¾ÐºÐ²Ð¸ÑĢ": 2678,
      "vnim": 2679,
      "Ġsko": 2680,
      "Ð»ÐµÐºÑģ": 2681,
      "Ġpotvr": 2682,
      "ĠÄįita": 2683,
      "ĠÐ¾Ð²Ð¾Ð¼": 2684,
      "Ġsaj": 2685,
      "Ġ100": 2686,
      "RI": 2687,
      "pr": 2688,
      "ĠÐ½ÐµÐ´": 2689,
      "ume": 2690,
      "ĠÐ´ÐµÐ¾": 2691,
      "vana": 2692,
      "Ġovih": 2693,
      "per": 2694,
      "ĠÐ¿Ð¾ÑĺÐµÐ´Ð¸Ð½": 2695,
      "Ġnedo": 2696,
      "vde": 2697,
      "ÐµÑĢÑĤ": 2698,
      "niver": 2699,
      "ĠÐ¼Ð°ÑĤÐµÑĢ": 2700,
      "Ġras": 2701,
      "bre": 2702,
      "Ġneki": 2703,
      "Äįnosti": 2704,
      "Ġzaposle": 2705,
      "Ð¸Ð¶ÐµÐ²": 2706,
      "Ġzi": 2707,
      "Ġposled": 2708,
      "ĠÐľÐ°ÑĢ": 2709,
      "Ð½Ð°ÑĤ": 2710,
      "smo": 2711,
      "Ġsvim": 2712,
      "ÐµÑĢÐ°ÑĤ": 2713,
      "ĠÑĪÐ¸ÑĢ": 2714,
      "ĠÄįak": 2715,
      "vez": 2716,
      "ÐºÑĢ": 2717,
      "liÄįi": 2718,
      "Ġekonom": 2719,
      "Ġfil": 2720,
      "Ð°ÑĤÐµÐ³": 2721,
      "nad": 2722,
      "ĠÐ±Ð¸Ð»Ð¸": 2723,
      "Ġupravlja": 2724,
      "ĠÐ¿ÑĢÐ¸Ð¼ÐµÑĢ": 2725,
      "Ġdete": 2726,
      "Äĩih": 2727,
      "Ġoce": 2728,
      "Ġvarija": 2729,
      "tori": 2730,
      "som": 2731,
      "ÑĥÐ³Ð¾ÑģÐ»": 2732,
      "Ð°Ð¼Ð¾": 2733,
      "ĠÐ¾ÑģÐ¾Ð±": 2734,
      "Ġnapo": 2735,
      "Ð¾ÑĪÑĤ": 2736,
      "jski": 2737,
      "ĠLe": 2738,
      "tin": 2739,
      "ĠÐ¿Ð¾ÑĩÐµÑĤ": 2740,
      "Ġjednom": 2741,
      "Ġpodr": 2742,
      "ĠPre": 2743,
      "ĠÐºÐ¾Ð½ÑĤÑĢ": 2744,
      "Ġdelu": 2745,
      "lnosti": 2746,
      "obra": 2747,
      "Ð¸ÑĤÐ¸Ð²": 2748,
      "Ġplani": 2749,
      "gen": 2750,
      "Ġuzor": 2751,
      "leksa": 2752,
      "Äįku": 2753,
      "ĠÑĤÐµÐºÑģÑĤ": 2754,
      "ĠÐ¼ÐµÑĢ": 2755,
      "Ġ2011": 2756,
      "Ġgrad": 2757,
      "Ġkoliko": 2758,
      "Ġstepe": 2759,
      "Ġnjegovo": 2760,
      "ĠÑĤÐ°ÐºÐ¾ÑĴÐµ": 2761,
      "lini": 2762,
      "ĠÐºÐ²Ð°Ð»": 2763,
      "ĠÑĨÑĢÐº": 2764,
      "ĠÐ¼Ñĥ": 2765,
      "ĠÐ¾ÑģÑĤÐ²Ð°ÑĢ": 2766,
      "Ð¸ÑĤÐµ": 2767,
      "Ġkise": 2768,
      "ÐµÐ»Ð¾": 2769,
      "Ġsup": 2770,
      "Ġime": 2771,
      "Ġindi": 2772,
      "Ġdruga": 2773,
      "ĠÐµÐ»": 2774,
      "Ð¸ÑĨÐ¸ÑĺÐµ": 2775,
      "ĠSrbija": 2776,
      "Ð°Ð»Ð½Ð¸": 2777,
      "Ð¸Ð³ÑĥÑĢ": 2778,
      "Ġvidi": 2779,
      "kav": 2780,
      "Ġvezi": 2781,
      "ĠÐ²ÐµÐºÐ°": 2782,
      "Äĩem": 2783,
      "sima": 2784,
      "ss": 2785,
      "Ġtehno": 2786,
      "Ġopre": 2787,
      "Ġha": 2788,
      "ÐµÐ¿ÑĤ": 2789,
      "Ð¸ÑĩÐ½Ðµ": 2790,
      "ÐµÐ¿ÑĥÐ±Ð»": 2791,
      "Ġizo": 2792,
      "Ġsmanje": 2793,
      "ÐµÐ½ÐµÑĢ": 2794,
      "ÐµÑģÑĤÐ¸": 2795,
      "ĠÐ¾Ð´ÑĢÐ¶": 2796,
      "ĠMar": 2797,
      "ly": 2798,
      "ĠÐ¾Ð´Ð±": 2799,
      "ĠÐ²Ð°Ð¶": 2800,
      "Å£e": 2801,
      "ĠÑĢÐµÐ»": 2802,
      "ĠOd": 2803,
      "De": 2804,
      "Ġodgovor": 2805,
      "Ã°": 2806,
      "ĠÐ´Ð°Ð½": 2807,
      "Ġneop": 2808,
      "uz": 2809,
      "Ð¸ÑĽÐ°": 2810,
      "ÑĥÐ½Ð°ÑĢÐ¾Ð´": 2811,
      "Ġdopri": 2812,
      "ĠÑĤÐ¸Ð¿": 2813,
      "ĠgraÄĳa": 2814,
      "Ġpono": 2815,
      "Ġekspe": 2816,
      "ĠÑĤÐµÑħ": 2817,
      "Ġ2012": 2818,
      "Ġposebno": 2819,
      "im": 2820,
      "laz": 2821,
      "ĠÐķÐ²ÑĢÐ¾Ð¿": 2822,
      "Ġpoveza": 2823,
      "Ġkr": 2824,
      "199": 2825,
      "ÑĥÐºÐ°": 2826,
      "ks": 2827,
      "ĠÐºÑĢÐ¸ÑĤ": 2828,
      "ĠÐ¿Ð¾Ð±": 2829,
      "ĠÐ±Ð»": 2830,
      "ĠÑģÐ¸Ð½": 2831,
      "Ð¾Ð²ÐµÐ½": 2832,
      "menti": 2833,
      "Ġpitanje": 2834,
      "ĠÐ½Ð°Ð³": 2835,
      "Ġodgovaraju": 2836,
      "\".": 2837,
      "gne": 2838,
      "Ġdvo": 2839,
      "ber": 2840,
      "niza": 2841,
      "Ġpoku": 2842,
      "ÐºÐ¾Ð²Ð¸ÑĽ": 2843,
      "ĠÐºÐ¾ÑĺÑĥ": 2844,
      "RO": 2845,
      "Ġsvako": 2846,
      "kazuju": 2847,
      "Ġzdrav": 2848,
      "ÑģÐ°": 2849,
      "cifi": 2850,
      "ĠÐ»Ð¾Ðº": 2851,
      "ciona": 2852,
      "Ġ2010": 2853,
      "Ġulo": 2854,
      "Kako": 2855,
      "Ġmnog": 2856,
      "ĠÑģÐ¸ÑģÑĤÐµÐ¼Ð°": 2857,
      "Ġobo": 2858,
      "Ġnacional": 2859,
      "Ġposledi": 2860,
      "Ġ22": 2861,
      "ĠÐ·Ð°ÑħÑĤ": 2862,
      "riti": 2863,
      "Ġsub": 2864,
      "Ð°Ð²ÐµÐ·": 2865,
      "Ð¾Ð³ÑĥÑĽ": 2866,
      "ĠJe": 2867,
      "Ð¸ÑĺÑģÐºÐ¸": 2868,
      "Ð°ÑĨÐ¸": 2869,
      "ÑģÑĤÑĢ": 2870,
      "grafi": 2871,
      "zije": 2872,
      "Ġsvega": 2873,
      "stro": 2874,
      "Ġ21": 2875,
      "ĠÐºÑļÐ¸Ð¶ÐµÐ²": 2876,
      "Ð¾ÑĢÑĤ": 2877,
      "Ġlica": 2878,
      "Ġneopho": 2879,
      "ĠÐ¸ÑģÑĤÑĢÐ°Ð¶Ð¸Ð²Ð°ÑļÐ°": 2880,
      "JE": 2881,
      "ÐµÐ½Ð´": 2882,
      "lina": 2883,
      "Äįenje": 2884,
      "ĠEU": 2885,
      "ÑļÑĥ": 2886,
      "Ð°Ð»Ð½Ð¾Ð³": 2887,
      "ÑĥÑģÑĤÑĢ": 2888,
      "ĠBeogradu": 2889,
      "ĠÅ¾ivot": 2890,
      "Å£i": 2891,
      "ĠÐ²Ð°ÑĢ": 2892,
      "ĠÐ´Ð¾Ð´": 2893,
      "ĠuÄįi": 2894,
      "ÑļÐ¸": 2895,
      "Ġuna": 2896,
      "Ġpostup": 2897,
      "ĠÐ¼ÐµÑģÑĤ": 2898,
      "Ġdoku": 2899,
      "ĠÐ¿ÑĢÐµÐ¿": 2900,
      "ĠÐ¿ÑĢÐ¸ÑģÑĤÑĥÐ¿": 2901,
      "Ġmili": 2902,
      "ĠÑĤÐ¾Ð¼Ðµ": 2903,
      "ĠÑĢÐ°Ð·Ð²": 2904,
      "vac": 2905,
      "kama": 2906,
      "ĠÐļÑĢ": 2907,
      "lnu": 2908,
      "ĠÑĦÐ¸Ð½": 2909,
      "Ġsarad": 2910,
      "ĠBu": 2911,
      "Bi": 2912,
      "Ġprodu": 2913,
      "kar": 2914,
      "feren": 2915,
      "ĠÄĲ": 2916,
      "ljenja": 2917,
      "bina": 2918,
      "Ġindu": 2919,
      "Ġ2013": 2920,
      "Ð°Ð²Ð¾": 2921,
      "Å¡ke": 2922,
      "Å¡ao": 2923,
      "gnu": 2924,
      "ĠÑĨÐµÐ»": 2925,
      "Ġura": 2926,
      "ÑĮ": 2927,
      "ÐµÑļÐµÐ¼": 2928,
      "kve": 2929,
      "ĠÐ¿Ð¾ÑĢÐ¾Ð´": 2930,
      "Ð¸ÑĨÐ¸Ð¼Ð°": 2931,
      "ĠÐºÐ¾": 2932,
      "ĠÑĤÐµÐ¾ÑĢ": 2933,
      "ĠÐ¾Ð±ÑĢÐ°Ð·": 2934,
      "ĠÑĥÐ±": 2935,
      "ĠTo": 2936,
      "Ġkompo": 2937,
      "ÄįiÄĩ": 2938,
      "ĠÐ½ÐµÐ³Ð¾": 2939,
      "Ġnove": 2940,
      "ĠreÄįi": 2941,
      "Å¡Äĩu": 2942,
      "kovi": 2943,
      "Ġkore": 2944,
      "Ġkoriste": 2945,
      "Ġpotrebno": 2946,
      "Slika": 2947,
      "Ġgre": 2948,
      "Ġpromene": 2949,
      "ljo": 2950,
      "Ġprofe": 2951,
      "Ð°Ð²Ð¸": 2952,
      "ĠÐ°Ð¿": 2953,
      "Naj": 2954,
      "Ġ2014": 2955,
      "Ġkome": 2956,
      "âĢĿ.": 2957,
      "ĠÑģÐ°ÑĢ": 2958,
      "ĠÐ¾Ð´Ð³Ð¾Ð²Ð¾ÑĢ": 2959,
      "ĠÐ¿Ð¾Ð´Ð°ÑĤ": 2960,
      "rke": 2961,
      "gled": 2962,
      "Ð¸Ð½Ð¸ÑģÑĤ": 2963,
      "Ð½ÑĥÑĤ": 2964,
      "ĠÐµÐºÐ¾Ð½Ð¾Ð¼": 2965,
      "Ġmisli": 2966,
      "ĠÐ¸Ð·Ð²ÑĢÑĪ": 2967,
      "ĠmoguÄĩe": 2968,
      "KO": 2969,
      "glo": 2970,
      "Äīe": 2971,
      "Ð°ÑĤÐµ": 2972,
      "Ġprocesa": 2973,
      "Ġsvojim": 2974,
      "snije": 2975,
      "Ġefika": 2976,
      "ĠÐ´ÑĥÐ¶": 2977,
      "ĠBeograd": 2978,
      "Ġ...": 2979,
      "Ġ26": 2980,
      "LI": 2981,
      "ĠKi": 2982,
      "ĠÉ©": 2983,
      "MeÄĳutim": 2984,
      "ÐµÑĢÐ³": 2985,
      "Äĳena": 2986,
      "Î±": 2987,
      "ĠÑģÐ»ÐµÐ´": 2988,
      "Ġban": 2989,
      "ÑĢÐ°Ð½Ð¸Ñĩ": 2990,
      "Ġbra": 2991,
      "ĠÅ½": 2992,
      "ĠHa": 2993,
      "Ġstano": 2994,
      "lago": 2995,
      ".\"": 2996,
      "ĠÄįesto": 2997,
      "ĠponaÅ¡a": 2998,
      "narod": 2999,
      "Ġsigu": 3000,
      "ĠÐºÐ¾Ð½ÑģÑĤ": 3001,
      "lisa": 3002,
      "ĠraÄįuna": 3003,
      "Ġnivou": 3004,
      "Ġ28": 3005,
      "jskih": 3006,
      "26": 3007,
      "ĠÐ¿ÑĢÐ¾ÑĦ": 3008,
      "Ġsvoju": 3009,
      ".âĢľ": 3010,
      "Ð¸ÑĢÐ°ÑļÐµ": 3011,
      "ÑĺÐµÐ´": 3012,
      "Ġpotencija": 3013,
      "stor": 3014,
      "Ð¸ÑĪÑĻ": 3015,
      "ĠÑĥÐºÑĻÑĥÑĩ": 3016,
      "Ġpodru": 3017,
      "Ġdozvo": 3018,
      "Ġ40": 3019,
      "ĠÑĩÐµÑĤ": 3020,
      "drÅ¾a": 3021,
      "Ġprimer": 3022,
      "son": 3023,
      "Ġkar": 3024,
      "Ġvodi": 3025,
      "ĠÐ²Ð»Ð°Ð´": 3026,
      "tski": 3027,
      "Ġkva": 3028,
      "ĠÐ°Ð´": 3029,
      "Ġtrebalo": 3030,
      "Ġ2008": 3031,
      "Ġkojih": 3032,
      "Ġneke": 3033,
      "Ð¸ÑģÑĤÐ°": 3034,
      "ÑĥÐ¿ÑĻ": 3035,
      "zom": 3036,
      "Ġposla": 3037,
      "ĠÐ±Ð¾ÑĢ": 3038,
      "Ġter": 3039,
      "ÐµÐ½Ð°ÑĤÐ°": 3040,
      "lacija": 3041,
      "ÑģÑĤÐ²Ñĥ": 3042,
      "Ġinstitu": 3043,
      "Ġ2009": 3044,
      "Te": 3045,
      "Ð°ÑĤÐ½Ð¾": 3046,
      "Ġbolesti": 3047,
      "Ġbli": 3048,
      "ĠÐ¸Ð½ÑĦÐ¾ÑĢÐ¼": 3049,
      "zija": 3050,
      "ĠÄįove": 3051,
      "Ġ27": 3052,
      "Ð¾ÑĢÐµÐ´": 3053,
      "ĠÐ´Ð¾Ð»": 3054,
      "Vi": 3055,
      "ĠÑģÐ¾ÑĨ": 3056,
      "ĠSta": 3057,
      "Ġbroja": 3058,
      "Ġtvr": 3059,
      "Äĳen": 3060,
      "Ð²ÑĢÐ´": 3061,
      "Ġizja": 3062,
      "ÑĥÑĺÑĥÑĽÐ¸": 3063,
      "ĠÑħÑĢ": 3064,
      "tivni": 3065,
      "Ð°Ð»Ð½Ð¸Ñħ": 3066,
      "bije": 3067,
      "Ġoda": 3068,
      "ÐµÐ»ÐµÐ¶": 3069,
      "Ð¦": 3070,
      "Kada": 3071,
      "ĠÐ¾Ð·": 3072,
      "Äĩeg": 3073,
      "ksa": 3074,
      "Ð¸Ð½Ð¾Ð¼": 3075,
      "Ġpripre": 3076,
      "Ð¥": 3077,
      "lac": 3078,
      "Å¡lo": 3079,
      "ĠÑĥÑģÑĤ": 3080,
      "ĠÐ·Ð°Ð±": 3081,
      "Ġdolazi": 3082,
      "nka": 3083,
      "ĠÑĢÐ°ÑģÐ¿": 3084,
      "27": 3085,
      "ĠÐ¾Ð±Ð·": 3086,
      "Ġzado": 3087,
      "28": 3088,
      "cep": 3089,
      "menata": 3090,
      "Ġperiodu": 3091,
      "ðĿĳ": 3092,
      "ĠÐ¼ÑĥÐ·": 3093,
      "Ð¸ÑĺÑģÐºÐµ": 3094,
      "ĠÐ¾Ð´Ð³Ð¾Ð²": 3095,
      "Å¾da": 3096,
      "ĠÑĥÐ´": 3097,
      "uma": 3098,
      "Ġproblem": 3099,
      "renja": 3100,
      "ry": 3101,
      "ud": 3102,
      "ĠÐ·Ð°ÐºÑĻÑĥÑĩ": 3103,
      "Ġopera": 3104,
      "ĠÐ¿ÑĢÐµÐ´ÑĥÐ·": 3105,
      "MA": 3106,
      "ĠÅ¾ivota": 3107,
      "ĠÐ¿Ð¾ÑģÑĤÐ¾ÑĺÐ¸": 3108,
      "pita": 3109,
      "ÐµÑģÐµÑĤ": 3110,
      "Ġjeste": 3111,
      "ĠÐ½ÐµÐ·": 3112,
      "tivnih": 3113,
      "vila": 3114,
      "Ġ195": 3115,
      "titi": 3116,
      "ĠÑģÐ»ÑĥÑĩÐ°Ñĺ": 3117,
      "Ġtehni": 3118,
      "29": 3119,
      ".)": 3120,
      "Ja": 3121,
      "ple": 3122,
      "Ġgenera": 3123,
      "ns": 3124,
      "ĠÑģÐ»ÑĥÑĩÐ°ÑĺÑĥ": 3125,
      "ĠRo": 3126,
      "ÐµÐ»Ðµ": 3127,
      "ĠÐ³Ð»Ð°Ð²": 3128,
      "ĠÐºÐ¾ÑĢÐ¸ÑĪÑĽ": 3129,
      "ĠÐ¿Ð¾Ð²ÐµÐ·": 3130,
      "Ġmikro": 3131,
      "ÐµÐ½Ð¸ÐºÐ°": 3132,
      "voljno": 3133,
      "tere": 3134,
      "ĠÐµÐ»ÐµÐ¼": 3135,
      "Ġproizvoda": 3136,
      "dro": 3137,
      "Ġreak": 3138,
      "05": 3139,
      "ĠznaÄįajno": 3140,
      "ĠÑĥÐ¼ÐµÑĤ": 3141,
      "Ġsre": 3142,
      "Ġmesto": 3143,
      "Ġuslovima": 3144,
      "Ġzemlje": 3145,
      "ĠÐ»Ð¸": 3146,
      "Ġjednog": 3147,
      "Ġradu": 3148,
      "Ġ+": 3149,
      "ĠÐ¿ÑĢÐ¾Ð¸Ð·Ð²Ð¾Ð´": 3150,
      "ĠÐµÐ¼": 3151,
      "Ġnede": 3152,
      "ĠÑģÑĤÐ°Ð²": 3153,
      "Ġdrugim": 3154,
      "njuje": 3155,
      "ÑĨÐ¸ÑĺÐ°": 3156,
      "jeva": 3157,
      "snik": 3158,
      "Ġkate": 3159,
      "kt": 3160,
      "NE": 3161,
      "ĠÐ½Ð°ÑĨÐ¸Ð¾Ð½Ð°Ð»": 3162,
      "mpa": 3163,
      "ĠÐ¿Ð¾Ð¼Ð¾ÑĽ": 3164,
      "Ġlu": 3165,
      "Ð²Ð°Ð½": 3166,
      "Ġograni": 3167,
      "Ġnega": 3168,
      "Ġproces": 3169,
      "ÑĨÐ¸Ð¿": 3170,
      "ÐµÑĴÑĥÑĤÐ¸Ð¼": 3171,
      "Ġrazvoja": 3172,
      "ĠrazliÄįitih": 3173,
      "ĠznaÄįi": 3174,
      "ĠÑģÑĤÑĢÑĥÐºÑĤÑĥÑĢ": 3175,
      "Ġvra": 3176,
      "ĠÐ¼Ð°ÑĢ": 3177,
      "Ġveliki": 3178,
      "ĠÑĥÐ½ÑĥÑĤ": 3179,
      "tvo": 3180,
      "Ð¸ÑĢÐ°ÑļÐ°": 3181,
      "ĠÄįini": 3182,
      "Ġ2015": 3183,
      "nska": 3184,
      "Ġtada": 3185,
      "//": 3186,
      "ĠÑĦÐ°ÐºÑĤ": 3187,
      "tiri": 3188,
      "Ġprilikom": 3189,
      "Äĳeno": 3190,
      "laza": 3191,
      "Ġstvari": 3192,
      "KA": 3193,
      "Ġug": 3194,
      "ĠÐµÐºÑģÐ¿": 3195,
      "TA": 3196,
      "Ġmodela": 3197,
      "rovatno": 3198,
      "ime": 3199,
      "ĠÐ¿Ð¾ÑĻ": 3200,
      "Ġukoliko": 3201,
      "vode": 3202,
      "ĠÐºÐ¾Ð½Ðº": 3203,
      "Ġdis": 3204,
      "ol": 3205,
      "Ġnazi": 3206,
      "ĠÐ¿ÑĢÐ¾Ð´": 3207,
      "Ð¡Ð»": 3208,
      "Ġpsi": 3209,
      "Ġmesta": 3210,
      "Ġzada": 3211,
      "ĠÐ´Ð²Ðµ": 3212,
      "ĠÑģÐ»Ð¾Ð±": 3213,
      "Äįnom": 3214,
      "</": 3215,
      "Ġporu": 3216,
      "Ġrazume": 3217,
      "Ð°Ð»Ð½Ð°": 3218,
      "Ð¡ÑĤ": 3219,
      "ĠÑĢÐ°ÑĤ": 3220,
      "ĠÐ´Ð¾ÑģÑĤ": 3221,
      "ĠÐ°ÐºÐ¾": 3222,
      "TE": 3223,
      "Ġvas": 3224,
      "vca": 3225,
      "dija": 3226,
      "TakoÄĳe": 3227,
      "tske": 3228,
      "ĠAl": 3229,
      "«É¬": 3230,
      "ĠÐµÐ¿": 3231,
      "Ð½Ð¸ÑĪÑĤ": 3232,
      "Ã¡": 3233,
      "metri": 3234,
      "Ð°Ð¶Ðµ": 3235,
      "ĠÐ¸Ñģ": 3236,
      "Ġbezbe": 3237,
      "ĠÐ±Ð¾Ð»": 3238,
      "LA": 3239,
      "Ġgovori": 3240,
      "che": 3241,
      "ÐµÐ½ÑĤÐ°": 3242,
      "ĠÐ¿Ð¾Ð²ÐµÑĽ": 3243,
      "Ġuticaj": 3244,
      "tog": 3245,
      "Ã¢": 3246,
      "ĠÑĢÐ°Ð·Ð¼": 3247,
      "Ġponu": 3248,
      "Ġvrsta": 3249,
      "Ñĭ": 3250,
      "ĠÐ½Ð°Ð²ÐµÐ´": 3251,
      "ou": 3252,
      "Ġdirek": 3253,
      "Ð¸ÑĤÐ¾ÑĢ": 3254,
      "Ġpitanju": 3255,
      "pske": 3256,
      "Ġpriti": 3257,
      "Ġeksperi": 3258,
      "ĠÐ·Ð°Ñģ": 3259,
      "35": 3260,
      "Äįkoj": 3261,
      "ĠnaÅ¡": 3262,
      "ÑĥÑĴ": 3263,
      "ĠÐ´Ð¸Ñģ": 3264,
      "Ð¸Ð¼Ð¾": 3265,
      "manje": 3266,
      "ĠÑĤÐ¸Ð¼": 3267,
      "Ġposmatra": 3268,
      "ĠÐ¸Ñħ": 3269,
      "ĠopÅ¡ti": 3270,
      "Ð¼Ð°Ð½": 3271,
      "ĠÐ¸Ð·Ð»": 3272,
      "Ð¾Ð»Ð¾ÑĪÐº": 3273,
      "ĠÐ´Ð¾Ð²": 3274,
      "ĠÐ¿ÑĢÐ¸Ñħ": 3275,
      "Ġdugo": 3276,
      "Ġpogo": 3277,
      "zora": 3278,
      "ĠÐºÐ°Ñģ": 3279,
      "ttp": 3280,
      "ĠÑĢÐ°Ð´Ð°": 3281,
      "Ð¸ÑĢÐ°Ð½": 3282,
      "ĠÑĩÐ¾Ð²": 3283,
      "Ð¸ÑĢÐµÐºÑĤ": 3284,
      "ĠÐ´Ð°ÑĻ": 3285,
      "Ġ2007": 3286,
      "ĠÑĤÐ°Ñĺ": 3287,
      "ĠÐ¿ÑĢÐ¾Ð±Ð»ÐµÐ¼": 3288,
      "Ð¼ÐµÑĤ": 3289,
      "ts": 3290,
      "vlju": 3291,
      "mera": 3292,
      "Ð¸ÑĩÐºÐ¸Ð¼": 3293,
      "://": 3294,
      "Ġvrste": 3295,
      "Å¡tva": 3296,
      "ali": 3297,
      "Ġinvesti": 3298,
      "Ð¸ÑĴ": 3299,
      "38": 3300,
      "san": 3301,
      "Ġosigu": 3302,
      "Ð¼Ðµ": 3303,
      "is": 3304,
      "39": 3305,
      "Ġvrlo": 3306,
      "ĠÐłÐµÐ¿ÑĥÐ±Ð»": 3307,
      "ĠÑĢÐµÐº": 3308,
      "Ġprose": 3309,
      "Ġosoba": 3310,
      "lin": 3311,
      "ĠÐĸ": 3312,
      "Ð°ÑĦ": 3313,
      "Ġspecifi": 3314,
      "vremeno": 3315,
      "Ġuda": 3316,
      "Ġfoto": 3317,
      "Ġkola": 3318,
      "Ġpode": 3319,
      "Ġgle": 3320,
      "40": 3321,
      "ĠÑĤÐµÑħÐ½": 3322,
      "Äįnu": 3323,
      "ĠÐ¿ÑĢÐ¸Ð½": 3324,
      "Ġpored": 3325,
      "ÐµÐ½ÑĨÐ¸ÑĺÐµ": 3326,
      "tko": 3327,
      "ÑĢÐ°Ð³": 3328,
      "Ð½Ð¾ÑĪ": 3329,
      "Ġsm": 3330,
      "Ġcentra": 3331,
      "Ġdone": 3332,
      "Ð¾ÑĢÐµ": 3333,
      "ÑĪÐ¸": 3334,
      "ban": 3335,
      "Ġispiti": 3336,
      "ĠÑĥÐºÐ°Ð·": 3337,
      "ĠÐ·Ð°Ð¼": 3338,
      "Ð°ÑĩÐºÐµ": 3339,
      "ĠÐ²Ð¸ÑģÐ¾Ðº": 3340,
      "Ġista": 3341,
      "ĠkoliÄįi": 3342,
      "razume": 3343,
      "Ð³Ð»ÐµÐ´": 3344,
      "zuje": 3345,
      "bru": 3346,
      "Ð»Ð°ÑĪ": 3347,
      "dnih": 3348,
      "Ð°ÑĢÐ¸": 3349,
      "Ð¸ÑĩÐ½Ð¾Ð³": 3350,
      "Ġmaterijala": 3351,
      "Ġstrate": 3352,
      "Ġ29": 3353,
      "ĠpomoÄĩ": 3354,
      "zbi": 3355,
      "telj": 3356,
      "ÐĺÐ·": 3357,
      "Ġbolje": 3358,
      "Ġkrivi": 3359,
      "dje": 3360,
      "ÑĺÐ°": 3361,
      "ĠÐ¼ÐµÑĴÑĥÐ½Ð°ÑĢÐ¾Ð´": 3362,
      "Ġrela": 3363,
      "zdu": 3364,
      "voje": 3365,
      "Ġanalizi": 3366,
      "ĠÑĢÐ°Ð´Ð¸": 3367,
      "ĠvaÅ¾": 3368,
      "Ġ2006": 3369,
      "ĠÐ¿Ð°ÑĢÑĤ": 3370,
      "ĠÐµÑĤ": 3371,
      ".âĢŀ": 3372,
      "ĠÐ³ÑĢÐ°Ð½": 3373,
      "Ġpromena": 3374,
      "ÐµÐºÑĤÑĢ": 3375,
      "mima": 3376,
      "ĠRepublike": 3377,
      "Ġtera": 3378,
      "OD": 3379,
      "Äīi": 3380,
      "Ġvozi": 3381,
      "ĠoseÄĩa": 3382,
      "Ġpredvi": 3383,
      "ĠznaÄįa": 3384,
      "ĠÐ°ÑĢÑħ": 3385,
      "ĠÄįinje": 3386,
      "ĠÐ¾Ð²Ð°Ñĺ": 3387,
      "Ġljud": 3388,
      "ĠÑģÐ¸Ð¼": 3389,
      "Prema": 3390,
      "ĠÐºÐ°Ð¿": 3391,
      "ĠÐ²Ð¾Ð´": 3392,
      "aj": 3393,
      "gaÄĳa": 3394,
      "ĠÐ·Ð°Ð²Ð¸Ñģ": 3395,
      "Ġspa": 3396,
      "ĠÐ¾ÐºÐ²Ð¸ÑĢÑĥ": 3397,
      "Ġcilje": 3398,
      "ĠÐ¸Ð·Ð³": 3399,
      "ÑĥÐºÐµ": 3400,
      "Ġzdravstve": 3401,
      "iz": 3402,
      "ĠÐ´Ð¾Ð³": 3403,
      "Ġnapra": 3404,
      "jum": 3405,
      "ĠÐ´Ð²": 3406,
      "Ġregu": 3407,
      "ĠÐĳÑĢ": 3408,
      "Å¡lja": 3409,
      "ĠÐ¿ÑĢÐµÑĤÑħÐ¾Ð´": 3410,
      "pisu": 3411,
      "ĠÐ¿ÑĢÐµÐºÐ¾": 3412,
      "ĠÄĩelija": 3413,
      "prav": 3414,
      "Ġ?": 3415,
      "ĠÐı": 3416,
      "Ġposeb": 3417,
      "ĠÐºÐ°ÑĢÐ°ÐºÑĤÐµÑĢÐ¸ÑģÑĤ": 3418,
      "ĠpodruÄį": 3419,
      "njih": 3420,
      "Ð¸Ð²ÐµÑĢÐ·": 3421,
      "Ġplo": 3422,
      "ĠÑģÐ¿ÐµÑĨ": 3423,
      "Ġneo": 3424,
      "ÐµÑĪÑĽÐµ": 3425,
      "................": 3426,
      "Ġugla": 3427,
      "Ġmeha": 3428,
      "Ð¸ÑĪÑĤÐµ": 3429,
      "Ġzato": 3430,
      "Ġiznosi": 3431,
      "ĠÐ½Ð°ÑĥÑĩ": 3432,
      "ĠÐºÐ¾Ð½ÑĤÑĢÐ¾Ð»": 3433,
      "logije": 3434,
      "Ġdan": 3435,
      "niti": 3436,
      "Ġsud": 3437,
      "É¬": 3438,
      "nak": 3439,
      "Ġsposob": 3440,
      "ĠÐºÐ¾ÑĺÐ¾Ñĺ": 3441,
      "Ġbrzi": 3442,
      "ĠÐ¾Ð´ÑĢÐµÐ´": 3443,
      "voji": 3444,
      "sio": 3445,
      "Ġpitanja": 3446,
      "Ð½Ð¸Ñĺ": 3447,
      "On": 3448,
      "Ġam": 3449,
      "mor": 3450,
      "ĠÐ¾Ð½Ð°": 3451,
      "No": 3452,
      "lici": 3453,
      "ÑĢÑĥÑĩ": 3454,
      "lite": 3455,
      "ĠSu": 3456,
      "jskog": 3457,
      "Ġsami": 3458,
      "ĠÐ¡Ð²ÐµÑĤ": 3459,
      "ÐµÑĢÐ°ÑĤÑĥÑĢ": 3460,
      "ljenje": 3461,
      "ĠÐ¾Ð³": 3462,
      "jima": 3463,
      "Ġnorma": 3464,
      "Ġuspo": 3465,
      "ĠÏ": 3466,
      "ĠÑģÑĥÐ±": 3467,
      "Ġpora": 3468,
      "Ġisklju": 3469,
      "Ġ2005": 3470,
      "ĠÐ¸Ð´ÐµÐ½ÑĤ": 3471,
      "ĠÐ½Ð°ÑĢÐ¾Ð´": 3472,
      "rao": 3473,
      "Kao": 3474,
      "Ġvlasti": 3475,
      "Ð¸ÑĩÐ½Ð¸Ñħ": 3476,
      "Ġputem": 3477,
      "laÅ¾e": 3478,
      "der": 3479,
      "ĠÐ´ÑĢÐ¶Ð°Ð²Ðµ": 3480,
      "Ġozna": 3481,
      "ĠÐ³Ð»Ð°Ð³": 3482,
      "Ð±ÐµÐ´": 3483,
      "Ġkatego": 3484,
      "mana": 3485,
      "ĠDu": 3486,
      "cama": 3487,
      "ĠÐ´Ð°Ð½Ð°": 3488,
      "Ġevro": 3489,
      "Ġpotro": 3490,
      "ĠÐ¼Ð¾ÑĤ": 3491,
      "Ð¾Ñļ": 3492,
      "Ġtru": 3493,
      "leÅ¾": 3494,
      "tus": 3495,
      "pis": 3496,
      "Ġdobija": 3497,
      "renje": 3498,
      "net": 3499,
      "dina": 3500,
      "lnost": 3501,
      "Ġkojim": 3502,
      "kli": 3503,
      "Ġtj": 3504,
      "36": 3505,
      "Ali": 3506,
      "Ã²": 3507,
      "logija": 3508,
      "ll": 3509,
      "ĠÑĥÑĤÐ¸ÑĨÐ°Ñĺ": 3510,
      "ĠÐ¿ÑĢÐ¾Ñģ": 3511,
      "ÐµÐ»Ñĥ": 3512,
      "TI": 3513,
      "Ð°Ð·Ð°": 3514,
      "ĠII": 3515,
      "vili": 3516,
      "Ġ%": 3517,
      "ĠÐ¸Ð½ÑģÑĤÐ¸ÑĤ": 3518,
      "Ovo": 3519,
      "bom": 3520,
      "Ġsave": 3521,
      "ÐµÐ½Ð¾ÑģÑĤÐ¸": 3522,
      "Ġrazlika": 3523,
      "ĠÐ³ÑĢÑĥÐ¿Ðµ": 3524,
      "Ġprima": 3525,
      "Ġminu": 3526,
      "Ġkraju": 3527,
      "ĠmoÅ¾ete": 3528,
      "ĠizveÅ¡ta": 3529,
      "ÑĥÐ»Ð°": 3530,
      "ĠÐ·Ð°Ð²ÑĢÑĪ": 3531,
      "Sve": 3532,
      "ĠÐ¿Ð¾ÑģÑĤÐ¾ÑĺÐµ": 3533,
      "Ġpriro": 3534,
      "ÑĽÑĥ": 3535,
      "Ġpet": 3536,
      "Ġizuze": 3537,
      "ĠÐºÐ»Ð°Ñģ": 3538,
      "Ã±": 3539,
      "ĠÐ¾Ð¿Ð¸Ñģ": 3540,
      "ler": 3541,
      "tivna": 3542,
      "Ġbri": 3543,
      "Ġbor": 3544,
      "ĠÐ½Ð°ÑģÐ»": 3545,
      "Ġmaj": 3546,
      "ĠÐ´ÑĢÑĥÐ³Ð¸Ñħ": 3547,
      "ĠÐĿÐ°": 3548,
      "Ð¨": 3549,
      "Ġsebe": 3550,
      "ĠÐ¸Ð½ÑĤÐµÑĢÐµÑģ": 3551,
      "ÑĢÐ°ÑĽ": 3552,
      "Ġkomunika": 3553,
      "Ð¸ÑĩÐºÐ¾Ð¼": 3554,
      "ĠÐ½ÐµÐ¿ÑĢ": 3555,
      "Å¾an": 3556,
      "ĠukljuÄįu": 3557,
      "Ġnavodi": 3558,
      "Î¿": 3559,
      "Ð¸ÑļÐµÐ½": 3560,
      "Ġglu": 3561,
      "ĠÑĥÐºÑĥÐ¿": 3562,
      "Ñı": 3563,
      "ft": 3564,
      "ĠSo": 3565,
      "lova": 3566,
      "Ġpodrazume": 3567,
      "ĠÐ¸ÑģÑĤÑĢÐ°Ð¶Ð¸Ð²": 3568,
      "led": 3569,
      "________": 3570,
      "Å¡enje": 3571,
      "Ġtog": 3572,
      "ris": 3573,
      "ili": 3574,
      "Ð¸ÑĺÐ°ÑĤ": 3575,
      "Äĩim": 3576,
      "ĠÄįemu": 3577,
      "Ġ2016": 3578,
      "Ġcilj": 3579,
      "ĠâĢ¢": 3580,
      "Ġsvaki": 3581,
      "ĠÐ¿Ð¾Ð²ÑĢÑĪ": 3582,
      "Ġprove": 3583,
      "ranju": 3584,
      "34": 3585,
      "ĠÐ¿ÑĢÐ¾ÑĪ": 3586,
      "Ġzahteva": 3587,
      "Ġpojedina": 3588,
      "Ð°ÑĻÐ°": 3589,
      "Ġgubi": 3590,
      "37": 3591,
      "tnosti": 3592,
      "Ġproblema": 3593,
      "Ġispu": 3594,
      "opÅ¡te": 3595,
      "Ð°ÑĺÑĥÑĽ": 3596,
      "Ġovoj": 3597,
      "Î½": 3598,
      "Ġprona": 3599,
      "ĠÐ¿ÑĢÐ²Ð¸": 3600,
      "ÑĢÐµ": 3601,
      "tova": 3602,
      "ĠÐ·Ð´ÑĢ": 3603,
      "Ġpriva": 3604,
      "dam": 3605,
      "Ġrodite": 3606,
      "ÐµÐ¾Ð¼Ð°": 3607,
      "Ġupu": 3608,
      "Ġ;": 3609,
      "ĠÐ¡ÑĢÐ±Ð¸ÑĺÐ¸": 3610,
      "kte": 3611,
      "ĠÐ³Ð»Ð°Ñģ": 3612,
      "Ġodnosi": 3613,
      "Ġstr": 3614,
      "Ġ2000": 3615,
      "ĠÐ¾Ð±Ð»Ð°ÑģÑĤÐ¸": 3616,
      "ÐµÑĤÐµ": 3617,
      "ĠÉ¢": 3618,
      "ĠÑĺÐµÐ·Ð¸ÐºÐ°": 3619,
      "tivi": 3620,
      "Ð¾Ð³Ñĥ": 3621,
      "Äįiti": 3622,
      "ck": 3623,
      "ÐµÐ²ÐµÑĢ": 3624,
      "we": 3625,
      "Ġdefinisa": 3626,
      "ÐŀÐ´": 3627,
      "ĠÐ²ÑĢÐµÐ´Ð½Ð¾ÑģÑĤ": 3628,
      "Ð¸ÑĩÐºÐ¾": 3629,
      "ÐµÐ¿ÑĢ": 3630,
      "Ð°ÑĩÑĥÐ½": 3631,
      "fu": 3632,
      "set": 3633,
      "Ð¸ÑĤÐ¾": 3634,
      "rali": 3635,
      "formi": 3636,
      "Ġsmislu": 3637,
      "Ġmeri": 3638,
      "dnici": 3639,
      "ĠÑģÐ²Ð¸Ñħ": 3640,
      "Ġvazdu": 3641,
      "Ġovim": 3642,
      "ĠÑĢÐ°ÑģÑĤ": 3643,
      "bio": 3644,
      "Ġdire": 3645,
      "ĠÐ¿Ð¾ÑģÐµÐ±Ð½Ð¾": 3646,
      "Ġispitanika": 3647,
      "ĠÄįetiri": 3648,
      "ĠÑģÐ¼Ð°Ñļ": 3649,
      "Ġveliko": 3650,
      "ĠAleksa": 3651,
      "ĠÐ½ÐµÐºÐ¾Ð»Ð¸ÐºÐ¾": 3652,
      "Ġkru": 3653,
      "Ġrazliku": 3654,
      "ĠpoÅ¡to": 3655,
      "ĠÐ¸ÑģÐ¿Ð¸ÑĤÐ°Ð½": 3656,
      "Äĳivanje": 3657,
      "Ġï¿½": 3658,
      "ĠÄįlana": 3659,
      "tanja": 3660,
      "ĠÐ¸Ð´Ðµ": 3661,
      "rent": 3662,
      "Ġmuzi": 3663,
      "Ð§": 3664,
      "ĠÐ¿ÑĢÐµÐ´ÑģÑĤÐ°Ð²": 3665,
      "Ġanalize": 3666,
      "zor": 3667,
      "Ã³": 3668,
      "rito": 3669,
      "Ġpobe": 3670,
      "ĠÅ¡a": 3671,
      "ĠmoguÄĩnost": 3672,
      "Ġ60": 3673,
      "Ð°ÑĤÑĢÐ°": 3674,
      "Äĩenja": 3675,
      "Ġnovi": 3676,
      "Ġstude": 3677,
      "Ġzara": 3678,
      "Ġtoku": 3679,
      "kna": 3680,
      "Ġzlo": 3681,
      "Ġnjima": 3682,
      "Ġimati": 3683,
      "ĠÐ¿ÑĢÐ°Ð²Ð¾": 3684,
      "ĠNA": 3685,
      "Ġmodel": 3686,
      "dnog": 3687,
      "Ġpola": 3688,
      "ĠÐ¸Ð³ÑĢ": 3689,
      "ÑĤÑĥ": 3690,
      "nal": 3691,
      "ĠÐºÐ¾Ð¼ÑĥÐ½": 3692,
      "ĠÑģÐ½Ð°Ð³": 3693,
      "60": 3694,
      "Ĥ·": 3695,
      "ksida": 3696,
      "Ġsvetu": 3697,
      "ĠÐºÑĢÐ°Ñĺ": 3698,
      "ĠmiÅ¡": 3699,
      "ĠÐ¦ÑĢ": 3700,
      "Ð¾ÑĺÐ¸": 3701,
      "tovo": 3702,
      "Ð¸Ð·Ð¼Ð°": 3703,
      "ĠFe": 3704,
      "rnih": 3705,
      "ĠÑĢÐ°Ð½": 3706,
      "ĠÑĻÑĥÐ´Ð¸": 3707,
      "ĠPO": 3708,
      "Ġgrada": 3709,
      "ĠÐºÐ°": 3710,
      "Ġepi": 3711,
      "rena": 3712,
      "ME": 3713,
      "Ð¼Ñĥ": 3714,
      "loÅ¡ki": 3715,
      "Ġotkri": 3716,
      "Ð¸ÑĩÐ½Ð°": 3717,
      "Ġjav": 3718,
      "Ġpostupa": 3719,
      "Ġinf": 3720,
      "ĠÐ¿Ð¾ÐºÑĢ": 3721,
      "Ð¸ÑĺÑģÐºÐ¸Ñħ": 3722,
      "tnu": 3723,
      "Ð¸ÑļÐµ": 3724,
      "Ġsvom": 3725,
      "**": 3726,
      "ĠÑģÐ¼Ð¾": 3727,
      "ÑĢÐ°Ð½ÑĨÑĥ": 3728,
      "ĠTi": 3729,
      "Ġbile": 3730,
      "ĠÐ½Ð°Ð»Ð°Ð·Ð¸": 3731,
      "Ġopa": 3732,
      "Ġvan": 3733,
      "Ġpisa": 3734,
      "ĠdrÅ¾ava": 3735,
      "VI": 3736,
      "Ġ2004": 3737,
      "ĠÐĲÐ½": 3738,
      "ĠÐ²ÐµÐ¾Ð¼Ð°": 3739,
      "Ð¸Ð¼Ð¸Ð½": 3740,
      "ĠÐ¶Ð¸Ð²Ð¾ÑĤÐ°": 3741,
      "ĠÐ´ÑĥÐ³": 3742,
      "ĠÐ´ÑĢÑĥÐ³Ð¸": 3743,
      "ĠÑĤÑĢÐ¶": 3744,
      "ĠÐ¾Ð±Ð°Ð²ÐµÐ·": 3745,
      "Ġjedne": 3746,
      "ĠzaÅ¡tite": 3747,
      "ĠÑģÐ¼Ð¸ÑģÐ»": 3748,
      "ĠpaÅ¾": 3749,
      "Ġobzirom": 3750,
      "Ġimao": 3751,
      "Ġrastvo": 3752,
      "ĠÐ¿ÑĢÐ¾ÑģÑĤÐ¾ÑĢ": 3753,
      "bili": 3754,
      "ĠdrÅ¾ave": 3755,
      "Ġrezultati": 3756,
      "Ð°Ð±Ð¸Ð»": 3757,
      "bija": 3758,
      "Di": 3759,
      "vlji": 3760,
      "ĠdogaÄĳa": 3761,
      "Ð°Ð²Ð½Ð¾Ð¼": 3762,
      "ĠAu": 3763,
      "Ð½Ð¸ÑĺÐ¸": 3764,
      "Ġsaobra": 3765,
      "Ġver": 3766,
      "Ð°ÑĤÐ¾ÑĢ": 3767,
      "ĠÐ²Ð°ÑĢÐ¸Ñĺ": 3768,
      "Ð¸ÑĨÐ°Ð¼Ð°": 3769,
      "tivnog": 3770,
      "ÐĹÐ°": 3771,
      "ĠÑģÑĥÐ¿": 3772,
      "In": 3773,
      "tnom": 3774,
      "Ġobavlja": 3775,
      "):": 3776,
      "Ð¸ÑĩÐ½Ð¸": 3777,
      "nio": 3778,
      "ĠpruÅ¾a": 3779,
      "Ġstav": 3780,
      "Ġfakul": 3781,
      "ĠÐ¿ÐµÑĢÐ¸Ð¾Ð´Ñĥ": 3782,
      "pravo": 3783,
      "Ġpotreb": 3784,
      "tnim": 3785,
      "Ð¸ÑĢÐ¾Ð¼": 3786,
      "Ġpotpuno": 3787,
      "rnog": 3788,
      "ljopri": 3789,
      "Ġkriti": 3790,
      "ksima": 3791,
      "ÑŁ": 3792,
      "ÑĥÐ³Ð°ÑĢ": 3793,
      "ĠnaÅ¡i": 3794,
      "ĠÐĺÐ·": 3795,
      "jemo": 3796,
      "stan": 3797,
      "Ġmestu": 3798,
      "Ġrezultata": 3799,
      "Ġodsto": 3800,
      "ĠÐ½ÐµÑģ": 3801,
      "Ġunutra": 3802,
      "blje": 3803,
      "Ġpacijenata": 3804,
      "ĠÐ¢ÑĢ": 3805,
      "ĠpriÄįa": 3806,
      "ĠÑĩÐµÑģÑĤÐ¾": 3807,
      "Äįava": 3808,
      "nicu": 3809,
      "Ġmla": 3810,
      "wa": 3811,
      "snih": 3812,
      "ÐµÐ½Ð¾ÑģÑĤ": 3813,
      "Ġmiliona": 3814,
      "riju": 3815,
      "ĠÐ¿Ð¾Ð´ÑĢÑĥÑĩ": 3816,
      "Ġode": 3817,
      "ĠÑĦÐ¸Ð½Ð°Ð½Ñģ": 3818,
      "ÄįeÅ¡Äĩe": 3819,
      "Ġkonta": 3820,
      "Ġdemo": 3821,
      "Ð°Ð²Ð½Ð¾": 3822,
      "den": 3823,
      "JA": 3824,
      "ĠÑģÐ¾ÑĨÐ¸ÑĺÐ°Ð»": 3825,
      "dili": 3826,
      "Ġovde": 3827,
      "ĠÐ¼Ð°Ð»": 3828,
      "ĠvrÅ¡i": 3829,
      "Ð¸ÑģÑĤÐ¸ÑĩÐºÐ¸": 3830,
      "ĠÐ¿ÑĢÐ¾Ñĺ": 3831,
      "Ġzatim": 3832,
      "ĠÐĤ": 3833,
      "Ġupravo": 3834,
      "Ġiako": 3835,
      "Ġemi": 3836,
      "ster": 3837,
      "Ġlice": 3838,
      "ĠÅ¾": 3839,
      "ĠÑģÐ¿ÑĢÐ¾Ð²": 3840,
      "Ð°Ð¼Ð¿": 3841,
      "sre": 3842,
      "ĠÑĥÑĤÐ²ÑĢÑĴ": 3843,
      "ĠveliÄįi": 3844,
      "ÑģÑĤÐ°Ð²Ð°": 3845,
      "45": 3846,
      "Ð¾ÑĢÐ´": 3847,
      "ÑĥÐ½Ð°": 3848,
      "rka": 3849,
      "ÐµÑĻÐ°": 3850,
      "Ġopo": 3851,
      "Ġverovatno": 3852,
      "ĠÐĺÑģÑĤ": 3853,
      "Ġevra": 3854,
      "ÑĥÑļ": 3855,
      "Å¡enja": 3856,
      "Ġstre": 3857,
      "33": 3858,
      "ĠÐ¿Ð¾Ð´Ð°ÑĤÐ°ÐºÐ°": 3859,
      "ĠÑģÐ¸ÑĤÑĥ": 3860,
      "dovi": 3861,
      "ĠÑĢÐ¾Ð´": 3862,
      "ĠÑĤÐµÑģÑĤ": 3863,
      "Ġzemlja": 3864,
      "Ġodra": 3865,
      "ĠÐ¿Ð¾ÑģÐ¼": 3866,
      "gija": 3867,
      "dnosti": 3868,
      "Ġpart": 3869,
      "tek": 3870,
      "lizacije": 3871,
      "neti": 3872,
      "rama": 3873,
      "ĠÑĢÐ¾Ð¼": 3874,
      "ĠreÄį": 3875,
      "Ġzakona": 3876,
      "ĠÐ´Ð¸ÑĢÐµÐºÑĤ": 3877,
      "Ġimali": 3878,
      "ĠÐĵÑĢ": 3879,
      "ĠVla": 3880,
      "niverzi": 3881,
      "ĠÐŀÐ´": 3882,
      "Ġodnosa": 3883,
      "ĠÐ°Ð²": 3884,
      "ĠÐ³ÐµÐ½ÐµÑĢ": 3885,
      "Ġklasi": 3886,
      "Ġindust": 3887,
      "Ġprizna": 3888,
      "Ð°Ð½Ð¸Ð¼": 3889,
      "ĠÑģÐ¼Ð¸ÑģÐ»Ñĥ": 3890,
      "ĠZA": 3891,
      "Ġanaliza": 3892,
      "Ġklju": 3893,
      "lti": 3894,
      "ravno": 3895,
      "ĠâĢĿ": 3896,
      "para": 3897,
      "ĠÅ¾ele": 3898,
      "lus": 3899,
      "ĠÐ¿ÑĢÐµÐ´Ð»": 3900,
      "tetu": 3901,
      "ĠMinistar": 3902,
      "Ġnjega": 3903,
      "ĠPi": 3904,
      "ĠKu": 3905,
      "ĠDra": 3906,
      "Ġjedin": 3907,
      "Ġprostor": 3908,
      "ĠÑĢÐ°ÑĤÐ°": 3909,
      "ĠÐ¾Ð¼Ð¾Ð³ÑĥÑĽ": 3910,
      "ĠÐ¾Ð½Ð¸": 3911,
      "ÑģÐµÐ´": 3912,
      "Ġkompone": 3913,
      "menzi": 3914,
      "nomi": 3915,
      "rve": 3916,
      "Äįio": 3917,
      "bele": 3918,
      "Ukoliko": 3919,
      "Ð²Ñĥ": 3920,
      "ĠÐ²Ð¸ÑĪ": 3921,
      "OR": 3922,
      "ĠmoguÄĩnosti": 3923,
      "Ġvlada": 3924,
      "ĠNema": 3925,
      "ĠmeÄĳunarod": 3926,
      "Ð¾Ð½ÑĤ": 3927,
      "ĠpokuÅ¡a": 3928,
      "ĠRi": 3929,
      "Ã«": 3930,
      "Ġx": 3931,
      "ĠnajviÅ¡e": 3932,
      "ĠÐ¿ÑĢÐµÐ´Ð²": 3933,
      "Ġispitiva": 3934,
      "ĠÑĤÑĢÐ°Ð´": 3935,
      "Ġ2017": 3936,
      "Ġparti": 3937,
      "ĠÐ¥ÑĢ": 3938,
      "vje": 3939,
      "Ġsveta": 3940,
      "Ġ2003": 3941,
      "Ġkoncep": 3942,
      "ĠÐļÐ°ÑĢ": 3943,
      "ĠÑģÐºÑĥÐ¿": 3944,
      "Ġdinara": 3945,
      "nove": 3946,
      "Ġradio": 3947,
      "Ġsig": 3948,
      "Ð»Ð¸Ðº": 3949,
      "Ġprvo": 3950,
      "min": 3951,
      "Ð¾ÐºÐ°": 3952,
      "bav": 3953,
      "ĠÐ°Ð½ÑĤ": 3954,
      "Ġpotrebe": 3955,
      "Ġskup": 3956,
      "ĠÑĩÐ¸ÑĤ": 3957,
      "Ġtradi": 3958,
      "Ð±Ðµ": 3959,
      "ED": 3960,
      "tual": 3961,
      "Ġud": 3962,
      "Ð¸ÑĺÑģÐºÐ¾Ð³": 3963,
      "Ġr": 3964,
      "Ġmenja": 3965,
      "Ġkvalitet": 3966,
      "80": 3967,
      "Ġkvaliteta": 3968,
      "Ġgleda": 3969,
      "ram": 3970,
      "Ð¾Ð²Ð°Ð½Ð°": 3971,
      "ĠVoj": 3972,
      "ĠÐºÑļÐ¸Ð³": 3973,
      "Ġ2002": 3974,
      "Ġnared": 3975,
      "Ġy": 3976,
      "stoji": 3977,
      "zne": 3978,
      "Ġdeta": 3979,
      "ĠÑĩÐ¸ÑļÐµÐ½": 3980,
      "Ð¸ÑĢÐ¸": 3981,
      "IJA": 3982,
      "Ġpretpo": 3983,
      "Ð¸Ð²ÑĻ": 3984,
      "Ġredo": 3985,
      "ĠmoÅ¾da": 3986,
      "ĠÐ¼ÐµÑģÑĤÐ¾": 3987,
      "ĠÐĪÑĥÐ³Ð¾ÑģÐ»": 3988,
      "Ġpristup": 3989,
      "Ġsvr": 3990,
      "ĠÐ¾ÑģÐ»": 3991,
      "Nakon": 3992,
      "lica": 3993,
      "ĠsaobraÄĩa": 3994,
      "Ġkorisni": 3995,
      "Ġjezika": 3996,
      "ĠJugo": 3997,
      "Ġjasno": 3998,
      "ĠÑĢÐ°Ð·ÑĥÐ¼": 3999,
      "ĠpreduzeÄĩa": 4000,
      "ld": 4001,
      "bolj": 4002,
      "gh": 4003,
      "ksu": 4004,
      "Ð¸Ð½Ð°Ð¼Ð°": 4005,
      "Ġdosta": 4006,
      "ĠÐ¿ÑĢÐ°ÐºÑģ": 4007,
      "Ġnarod": 4008,
      "Ð¸ÑĢÐ°ÑĺÑĥ": 4009,
      "ĠsadrÅ¾i": 4010,
      "ĠÑĥÐ³Ð»": 4011,
      "tica": 4012,
      "ĠÐ¿Ð¾ÑĢÐµÐ´": 4013,
      "ĠÑģÐ¿Ð¾ÑĢ": 4014,
      "ĠÐ½Ð¾Ñģ": 4015,
      "Äĳeni": 4016,
      "ranih": 4017,
      "ĠUkraji": 4018,
      "ÑĥÑģÐ°": 4019,
      "terna": 4020,
      "ĠÐ¿Ð¾ÑĤÐ¿Ñĥ": 4021,
      "Ġuglavnom": 4022,
      "ĠÑģÐ¼ÑĢÑĤ": 4023,
      "nose": 4024,
      "movi": 4025,
      "ĠÐºÐ¾ÑĢÐ¸ÑģÑĤÐ¸": 4026,
      "ĠÐ¿Ð¾ÑģÐ»Ðµ": 4027,
      "ĠÑĥÐ¿ÑĢÐ°Ð²ÑĻ": 4028,
      "Ġterapi": 4029,
      "ĠCa": 4030,
      "roma": 4031,
      "Ġsvaka": 4032,
      "Ġprograma": 4033,
      "Ġgodinu": 4034,
      "Ġoslo": 4035,
      "tive": 4036,
      "ĠÑĢÐ°Ð·Ð²Ð¾ÑĺÐ°": 4037,
      "vale": 4038,
      "Ġpredstav": 4039,
      "Ġjavlja": 4040,
      "ĠÐ¿Ð¾Ð³Ð»ÐµÐ´": 4041,
      "ÑĺÑĥ": 4042,
      "Pred": 4043,
      "ÐµÐ¼Ð±ÑĢÐ°": 4044,
      "ĠÑģÑĤÐµÐ¿": 4045,
      "ÑģÑĤÐµ": 4046,
      "Ġsop": 4047,
      "ĠHe": 4048,
      "ĠGa": 4049,
      "ĠÐ¾Ð³ÑĢÐ°Ð½Ð¸Ñĩ": 4050,
      "Ð¾Ð²Ð°Ð¾": 4051,
      "É¥": 4052,
      "kvi": 4053,
      "kaz": 4054,
      "Ġstudija": 4055,
      "Ġsebi": 4056,
      "ĠÑģÐµÐ±": 4057,
      "Ġkonku": 4058,
      "ut": 4059,
      "br": 4060,
      "Ġprihva": 4061,
      "Ð¼ÐµÐ½ÑĤ": 4062,
      "48": 4063,
      "Ġmetoda": 4064,
      "mir": 4065,
      "Tabela": 4066,
      "Ð¸Ð¾Ð½Ð°": 4067,
      "ĠÐ¿ÑĢÐµÑģ": 4068,
      "ÐµÐ·Ð°": 4069,
      "ĠÑģÐ¼Ð°ÑĤÑĢ": 4070,
      "Ġotvore": 4071,
      "ĠÑĢÐµÑĦ": 4072,
      "Ġodbra": 4073,
      "Ð¸Ð·Ð°Ð¼": 4074,
      "ĠÑģÐºÐ»Ð°Ð´": 4075,
      "ĠIz": 4076,
      "ĠÐłÐ°Ð´": 4077,
      "ĠÑĢÐµÑĩÐ¸": 4078,
      "ĠÐ½Ð°Ð·Ð¸Ð²": 4079,
      "ĠuspeÅ¡": 4080,
      "Ġnovo": 4081,
      "Ð¸ÑĺÐ°Ð½": 4082,
      "Ġ2018": 4083,
      "ĠÐ¸Ð·Ð½Ð¾Ñģ": 4084,
      "ÐµÐ²Ðµ": 4085,
      "Ġterito": 4086,
      "lama": 4087,
      "âĢĶ": 4088,
      "ĠÐ±ÑĥÐ´Ðµ": 4089,
      "ĠÐ°ÐºÑĤÐ¸Ð²Ð½Ð¾ÑģÑĤÐ¸": 4090,
      "Ġenergije": 4091,
      "Ġintenzi": 4092,
      "nin": 4093,
      "uro": 4094,
      "Ð¢Ð°Ðº": 4095,
      "Ġen": 4096,
      "Ð¸ÑĤÑĢ": 4097,
      "Ġmanji": 4098,
      "SA": 4099,
      "ĠÑģÐ»ÑĥÐ¶Ð±": 4100,
      "Ð¸Ð´Ð°": 4101,
      "ĠÑĨÐ°ÑĢ": 4102,
      "Ġhttp": 4103,
      "Ġovu": 4104,
      "%,": 4105,
      "Ð°Ð»Ð½Ð¾Ð¼": 4106,
      "Si": 4107,
      "Ġspecija": 4108,
      "Ġpoljopri": 4109,
      "Äİ": 4110,
      "listi": 4111,
      "Ġdovoljno": 4112,
      "Ð°Ð±ÐµÐ»Ð°": 4113,
      "ĠbiÄĩe": 4114,
      "ÐµÐºÑĤÐ°": 4115,
      "ĠÐĺÐ½": 4116,
      "ĠÐ±ÑĢÐ·": 4117,
      "sak": 4118,
      "Ġ35": 4119,
      "Å¡ku": 4120,
      "ĠÐ¾Ð²Ð¸Ñħ": 4121,
      "ÐľÐµÑĴÑĥÑĤÐ¸Ð¼": 4122,
      "Ġunapre": 4123,
      "Ġusluga": 4124,
      "govor": 4125,
      "gledu": 4126,
      "Sta": 4127,
      "ĠÐ¾ÑĨ": 4128,
      "Ġrazlike": 4129,
      "Ð¾ÑģÐ¾Ð±": 4130,
      "Ġizbo": 4131,
      "ĠomoguÄĩa": 4132,
      "rac": 4133,
      "%)": 4134,
      "ĠoÅ¡te": 4135,
      "Ġinformacije": 4136,
      "Ð¿Ð°Ðº": 4137,
      "dnika": 4138,
      "Ġuzro": 4139,
      "Äĳenju": 4140,
      "Ġtret": 4141,
      "oni": 4142,
      "ĠHrva": 4143,
      "ĠAmeri": 4144,
      "ĠmoÅ¾emo": 4145,
      "ÑĤÐ¾ÑĢ": 4146,
      "Ġ2020": 4147,
      "ĠKra": 4148,
      "Äĳuju": 4149,
      "ÑĢÐ°Ð½Ðµ": 4150,
      "Ġdise": 4151,
      "lnoj": 4152,
      "Ð¿Ð¾ÑģÑĤ": 4153,
      "metara": 4154,
      "Ð¿ÑĢÐ°Ð²": 4155,
      "ĠY": 4156,
      "Ġekstra": 4157,
      "dima": 4158,
      "Ð¾Ð»Ð¸ÑĤ": 4159,
      "Ð¿Ð¾ÑĢ": 4160,
      "Ġnezavi": 4161,
      "ĠÐ¼Ð¾ÑĢÐ°": 4162,
      "ÐµÐ½ÑĤÐ°ÑĢ": 4163,
      "chi": 4164,
      "ĠÐ¼Ð¾Ð´ÐµÐ»": 4165,
      "ĠÑĤÐ°Ñĩ": 4166,
      "tkom": 4167,
      "ĠÐµÐ»ÐµÐºÑĤÑĢ": 4168,
      "Å¡li": 4169,
      "Ġkasnije": 4170,
      "ĠÐ¿Ð¸ÑĤÐ°ÑļÐµ": 4171,
      "Ġvidu": 4172,
      "ton": 4173,
      "Ġpsiho": 4174,
      "Ġcilju": 4175,
      "ĠÐ²ÑĢÐµÐ¼ÐµÐ½Ð°": 4176,
      "Dru": 4177,
      "rancu": 4178,
      "Ġjoj": 4179,
      "ĠÑģÐµÑĢ": 4180,
      "Ð¸ÑĪÑĥ": 4181,
      "ĠrazliÄįite": 4182,
      "tru": 4183,
      "Ð¼Ð¸Ð½": 4184,
      "Ġpredstavljaju": 4185,
      "ĠÐĲÐ»": 4186,
      "vrede": 4187,
      "Ġnjihove": 4188,
      "Ġodnose": 4189,
      "Ġ!": 4190,
      "ĠÑĢÐ¸Ð·": 4191,
      "ĠÑĦÐ¸Ð·": 4192,
      "Le": 4193,
      "Ġpobolj": 4194,
      "Ð½Ð¸ÑĨÐ°": 4195,
      "Ġodnos": 4196,
      "Ð¾Ð½Ðµ": 4197,
      "ljeni": 4198,
      "Ð»Ð°ÑĤ": 4199,
      "ÐµÐ½Ð¾Ñĺ": 4200,
      "Ovaj": 4201,
      "É¤": 4202,
      "ĠteÅ¡ko": 4203,
      "ÐµÑĺÐ°": 4204,
      "ĠizvrÅ¡e": 4205,
      "ĠÐ¸Ð·ÑĢÐ°Ð·": 4206,
      "ĠÑģÐ°ÑĢÐ°Ð´": 4207,
      "ĠÐ¾Ð±ÐµÐ·": 4208,
      "Ð¸ÑĨÐ¸ÑĺÐ°": 4209,
      "Ġ[": 4210,
      "Ġveka": 4211,
      "Ġzajedno": 4212,
      "cena": 4213,
      "70": 4214,
      "dÅ¾e": 4215,
      "it": 4216,
      "Pored": 4217,
      "Ð¸ÑĩÐ°ÑĢ": 4218,
      "Ġizgrad": 4219,
      "Ġsopstve": 4220,
      "Äįnost": 4221,
      "vite": 4222,
      "Ġpreporu": 4223,
      "nosa": 4224,
      "ĠÑģÐ²Ð¾ÑĺÐ¸Ð¼": 4225,
      "Ġkolo": 4226,
      "loba": 4227,
      "Ġpoput": 4228,
      "ĠduÅ¾i": 4229,
      "ĠÐ½ÐµÐ¼Ð°": 4230,
      "Ġblo": 4231,
      "ĠÐºÐ¾Ð¼Ðµ": 4232,
      "ĠÑĢÑĥÐº": 4233,
      "Ġmedici": 4234,
      "ĠFa": 4235,
      "Ð°ÑĩÐ¸": 4236,
      "ĠÐ¸Ð¼Ð¿": 4237,
      "ĠstatistiÄįki": 4238,
      "paci": 4239,
      "ĠÐ´ÑĢÐ¶Ð°Ð²Ð°": 4240,
      "ĠÐļÐ¾Ð½": 4241,
      "Ġit": 4242,
      "Ð¸ÑĩÑĥ": 4243,
      "Ð¸ÑģÐ°Ð¾": 4244,
      "Ġslika": 4245,
      "Ġkapita": 4246,
      "Ġpolu": 4247,
      "Ġ2001": 4248,
      "Se": 4249,
      "Ġmogao": 4250,
      "ĠÐ¾ÐºÐ¾Ð»": 4251,
      "Ġbazi": 4252,
      "ĠistraÅ¾iva": 4253,
      "Ġdaje": 4254,
      "AR": 4255,
      "Å¾io": 4256,
      "ĠdruÅ¡tva": 4257,
      "Ima": 4258,
      "Ġizbor": 4259,
      "Ġgrupi": 4260,
      "ÐµÐºÑĥ": 4261,
      "Ġprinci": 4262,
      "ĠÐ¼Ð¾Ð½": 4263,
      "Î¹": 4264,
      "Ġstabi": 4265,
      "rita": 4266,
      "Ġizd": 4267,
      "ÑĨÐ¸Ð¼Ð°": 4268,
      "Iako": 4269,
      "kiva": 4270,
      "ĠÐ½Ð°ÑĺÐ±": 4271,
      "Ġnovih": 4272,
      "ĠSAD": 4273,
      "Ġnedosta": 4274,
      "Ġhemi": 4275,
      "zno": 4276,
      "Ġusled": 4277,
      "Ġprirod": 4278,
      "rem": 4279,
      "ficije": 4280,
      "ĠÐºÐ¾ÑĺÐ¸Ñħ": 4281,
      "Ġjednu": 4282,
      "Ġznanja": 4283,
      "kr": 4284,
      "nskom": 4285,
      "cione": 4286,
      "ĠZako": 4287,
      "IV": 4288,
      "Ġmladi": 4289,
      "lata": 4290,
      "ÐµÐ²Ð¸": 4291,
      "ÑĢÐ°Ð·ÑĥÐ¼": 4292,
      "www": 4293,
      "dnom": 4294,
      "ena": 4295,
      "Ġameri": 4296,
      "ĠÐµÐ½ÐµÑĢÐ³": 4297,
      "ĠÐ¼ÐµÑģ": 4298,
      "ĠÑģÑĤÐ°Ð½Ð´": 4299,
      "Ġkojem": 4300,
      "*''": 4301,
      "Ġzapa": 4302,
      "stica": 4303,
      "ĠÐ¿ÐµÑĤ": 4304,
      "Ġsvog": 4305,
      "Ġniti": 4306,
      "Ð°ÑļÐ¸Ð¼Ð°": 4307,
      "stima": 4308,
      "Ð¾ÐºÑģ": 4309,
      "Ð°ÑĢÑħ": 4310,
      "ĠÐ´Ð¾Ð¿ÑĢ": 4311,
      "ĠÑģÐ°Ð²ÑĢÐµÐ¼": 4312,
      "ĠÄįega": 4313,
      "tina": 4314,
      "Ġmoraju": 4315,
      "ĠÑĤÑĥÐ¼": 4316,
      "ĠoÄįi": 4317,
      "Ġnase": 4318,
      "ĠÐĴÐµÐ»": 4319,
      "ngle": 4320,
      "Ã¤": 4321,
      "Ġpodrazumeva": 4322,
      "ÐµÑģÑĤÐ²": 4323,
      "Ba": 4324,
      "Ġobjavlje": 4325,
      "ĠsluÄįaj": 4326,
      "Ġnivoa": 4327,
      "ĠÐ´Ð°ÑĤ": 4328,
      "rala": 4329,
      "ĠrazliÄįitim": 4330,
      "Ġpreda": 4331,
      "veo": 4332,
      "Ġemo": 4333,
      "Ðĭ": 4334,
      "Ġnovina": 4335,
      "ĠÑģÐ°Ð³": 4336,
      "Ġuvo": 4337,
      "Å¡tine": 4338,
      "ĠÑĺÐ°Ñģ": 4339,
      "Ð°ÑĨÐ¸ÑĺÐ°Ð¼Ð°": 4340,
      "Bo": 4341,
      "ĠÐ±Ð°Ð½": 4342,
      "Ġeksperimenta": 4343,
      "Ġprofi": 4344,
      "ĠÐ¸Ð·Ð²Ð¾ÑĢ": 4345,
      "lost": 4346,
      "Ġsredine": 4347,
      "kci": 4348,
      "Ġbilj": 4349,
      "ĠÐĲÑĢ": 4350,
      "Sva": 4351,
      "njenja": 4352,
      "Ġkraj": 4353,
      "Ġpredsednik": 4354,
      "Ġdne": 4355,
      "ÑĥÐ»Ð°ÑĢ": 4356,
      "ĠÐ¼ÑĢ": 4357,
      "44": 4358,
      "Be": 4359,
      "Ð¾Ð²Ð¾Ð¼": 4360,
      "Ð°Ð½Ð¾Ð²Ð¸ÑĽ": 4361,
      "Ġpripada": 4362,
      "ĠÐ´ÐµÐ»Ñĥ": 4363,
      "ĠÄįlan": 4364,
      "31": 4365,
      "ĠÐ¿ÑĢÐ¸Ð¿Ð°Ð´": 4366,
      "ĠÑģÐ²ÐµÐ³Ð°": 4367,
      "ĠÐĿÐµÐ¼": 4368,
      "Ġinformacija": 4369,
      "ĠÑĤÐµÑĢÐ¸ÑĤÐ¾ÑĢ": 4370,
      "ĠniÅ¡ta": 4371,
      "ÐµÐ½ÑĨÐ¸ÑĺÐ°Ð»": 4372,
      "Ġviru": 4373,
      "Ġaspe": 4374,
      "ĠÐ´ÑĢÑĥÐ³Ð¸Ð¼": 4375,
      "ĠLu": 4376,
      "Ġuni": 4377,
      "Äĳene": 4378,
      "Ð¸ÑģÑĤÑĢ": 4379,
      "ĠÄĩemo": 4380,
      "Ġ2019": 4381,
      "Ġrazloga": 4382,
      "Ġproto": 4383,
      "Ġizne": 4384,
      "ĠÑĢÐ°Ð·Ð»Ð¸ÑĩÐ¸ÑĤÐ¸Ñħ": 4385,
      "ĠÐºÐ°ÑģÐ½Ð¸ÑĺÐµ": 4386,
      "ÉŁÉ§": 4387,
      "198": 4388,
      "01": 4389,
      "ture": 4390,
      "ĠÐ¿Ð¾Ð½Ð°ÑĪ": 4391,
      "Ġum": 4392,
      "Ġstanja": 4393,
      "gom": 4394,
      "Ġreal": 4395,
      "ĠÐ¿Ð¾ÑĪÑĤ": 4396,
      "godine": 4397,
      "Ð°ÑĨÐ¸ÑĺÐ¾Ð¼": 4398,
      "ĠÑĥÐ·Ð¾ÑĢ": 4399,
      "Ġredu": 4400,
      "ĠÐºÑĥÑĽ": 4401,
      "vnu": 4402,
      "Ġ'": 4403,
      "ĠÐ¼Ð°Ñģ": 4404,
      "zam": 4405,
      "ĠÅ¾ena": 4406,
      "Ġfaktora": 4407,
      "Ġipak": 4408,
      "Ġzahva": 4409,
      "Ð¸ÑĩÐºÑĥ": 4410,
      "ĠÐ·Ð²": 4411,
      "vcu": 4412,
      "Ġklu": 4413,
      "Ð°ÑĤÐ¸Ð²Ð½Ð¾": 4414,
      "ĠÑģÐµÐ¼": 4415,
      "Ð°ÑĤÐµÐ³Ð¾ÑĢ": 4416,
      "ĠÐ¼Ð¸Ð½": 4417,
      "ĠÐ¿ÑĢÐ¸ÑĢÐ¾Ð´": 4418,
      "Ġnasi": 4419,
      "Ġinterak": 4420,
      "Ġprogram": 4421,
      "jska": 4422,
      "pote": 4423,
      "Ġsavreme": 4424,
      "Ãª": 4425,
      "mpi": 4426,
      "ĠÐ¿Ð¾Ð´ÑĢÐ°Ð·ÑĥÐ¼": 4427,
      "kuplja": 4428,
      "lizova": 4429,
      "zacije": 4430,
      "Ð¸ÑģÐ°Ð½": 4431,
      "ĠÑģÐ²Ð¾ÑĺÑĥ": 4432,
      "Ġope": 4433,
      "Ġkonstru": 4434,
      "Ġrade": 4435,
      "ĠÑģÑĥÐ±Ñĺ": 4436,
      "ĠÐ¿Ð¾Ð»Ð¾Ð¶": 4437,
      "fikova": 4438,
      "Ġzakon": 4439,
      "Ġbih": 4440,
      "ĠCo": 4441,
      "ĠÐ¸Ð·ÑĢÐ°Ð¶": 4442,
      "Äįeno": 4443,
      "Ġodli": 4444,
      "Ġsubje": 4445,
      "Ġsazna": 4446,
      "ĠÐ´ÐµÐ²": 4447,
      "ĠÐĪÑĥÐ³Ð¾ÑģÐ»Ð°Ð²": 4448,
      "Ġstanovni": 4449,
      "Ġisko": 4450,
      "ĠÐ¸Ð½ÑģÑĤÐ¸ÑĤÑĥÑĨ": 4451,
      "Ġorganizacije": 4452,
      "Ġrekla": 4453,
      "Ġstvar": 4454,
      "ĠÐ¾Ð±ÑĥÑħ": 4455,
      "ĠÐ¸Ð¼ÐµÐ½": 4456,
      "ÐµÑĢÑĨ": 4457,
      "Ġosim": 4458,
      "Ġtih": 4459,
      "Ð¾Ð·Ð½": 4460,
      "nskim": 4461,
      "Ġulogu": 4462,
      "Ð¾Ð½Ð¸": 4463,
      "ÐµÐ²Ð¸Ð¼Ð°": 4464,
      "bama": 4465,
      "laca": 4466,
      "ĠÑģÐµÐº": 4467,
      "ÐµÐ½ÑĨÐ¸ÑĺÐ°": 4468,
      "Ġvisi": 4469,
      "ĠÐ´Ð¾Ð¼Ð°ÑĽ": 4470,
      "Ð¸ÐºÐ°Ñģ": 4471,
      "por": 4472,
      "ĠsadrÅ¾aj": 4473,
      "nicija": 4474,
      "Ð¾ÑĻÐµ": 4475,
      "ĠÐ½ÐµÐ¾Ð¿": 4476,
      "lice": 4477,
      "ĠpoÄįi": 4478,
      "math": 4479,
      "ĠÑĥÐ³Ð¾Ð²Ð¾ÑĢ": 4480,
      "Ð¾Ð´Ð°Ð²": 4481,
      "ĠÐ¡ÐĲ": 4482,
      "EN": 4483,
      "njen": 4484,
      "Ġnalaze": 4485,
      "Äįito": 4486,
      "pti": 4487,
      "ĠÑĤÐµÐ¶": 4488,
      "Ġkonsta": 4489,
      "Ð¾Ð»Ð¾Ð³Ð¸ÑĺÐµ": 4490,
      "ĠÐ½Ð¸Ð²Ð¾Ñĥ": 4491,
      "dila": 4492,
      "ĠÑģÐµÐ´": 4493,
      "ÑĤÐ°Ð»": 4494,
      "ĠÑĥÐ²ÐµÐº": 4495,
      "Ġnagla": 4496,
      "Ġposao": 4497,
      "Äįar": 4498,
      "ĠPu": 4499,
      "Ġ31": 4500,
      "ĠÑģÑĢÐµÐ´Ñļ": 4501,
      "32": 4502,
      "kula": 4503,
      "Ġtrgo": 4504,
      "ĠÑĺÐµÐ´Ð½Ð¾Ð³": 4505,
      "75": 4506,
      "É¢Êģ": 4507,
      "Ġtoliko": 4508,
      "Ð¿ÑĢÐ¾ÑĤ": 4509,
      "Éľ": 4510,
      "ĠPra": 4511,
      "Ġrezultat": 4512,
      "Ġzavisnosti": 4513,
      "Ġpodaci": 4514,
      "ĠÐ»Ð¸ÑĨÐ°": 4515,
      "vaja": 4516,
      "ĠÐ¾Ð´Ð»ÑĥÑĩ": 4517,
      "Ġkole": 4518,
      "mbra": 4519,
      "zenta": 4520,
      "ĠÐ¡ÑĢÐ¿": 4521,
      "Ġzavisi": 4522,
      "Ġpostavlja": 4523,
      "Ġvrati": 4524,
      "Ġosobe": 4525,
      "ĠÑĥÐ·ÑĢ": 4526,
      "ĠSte": 4527,
      "rona": 4528,
      "SK": 4529,
      "ĠÐ½Ð¾ÑĢÐ¼": 4530,
      "ĠÐ¾Ð´Ð³Ð¾Ð²Ð°ÑĢ": 4531,
      "kupa": 4532,
      "loÅ¡ke": 4533,
      "ĠÐ´Ð¾Ð¿ÑĢÐ¸Ð½": 4534,
      "ÐºÐ°ÑĢ": 4535,
      "ĠÐ¾Ð´Ð½Ð¾ÑģÐ°": 4536,
      "Ġstaro": 4537,
      "ĠÐ¿ÑĢÐ¾ÑĦÐµÑģ": 4538,
      "Ġsara": 4539,
      "Ð¸ÑģÐ°": 4540,
      "Ġizbe": 4541,
      "ÐµÐºÐ°ÑĤ": 4542,
      "Ġiste": 4543,
      "ĠÐºÐ°Ð·": 4544,
      "ista": 4545,
      "Êĥ": 4546,
      "ljno": 4547,
      "ĠÑĢÐ°Ð´Ñĥ": 4548,
      "Ġdiserta": 4549,
      "Ð½Ð°Ð´": 4550,
      "ĠÐĳÐµÐ¾Ð³ÑĢÐ°Ð´Ñĥ": 4551,
      "zultati": 4552,
      "Ð½ÐµÐ²": 4553,
      "udba": 4554,
      "juma": 4555,
      "les": 4556,
      "49": 4557,
      "Ġmole": 4558,
      "Ġkriteri": 4559,
      "ĠreÅ¡enja": 4560,
      "bla": 4561,
      "Ġkapaci": 4562,
      "Ġodu": 4563,
      "ÑĢÐ°Ð´Ð°": 4564,
      "ĠÐ·ÐµÐ¼ÑĻÐµ": 4565,
      "Ġzema": 4566,
      "Ġjednostav": 4567,
      "Ġcelo": 4568,
      "Ð°Ð»Ð½Ð¸Ð¼": 4569,
      "Ġarhi": 4570,
      "ĠÐ´Ð¾ÑĪ": 4571,
      "Ġpropisa": 4572,
      "ĠZe": 4573,
      "volja": 4574,
      "Ġonih": 4575,
      "Ð°Ð²Ð°ÑļÑĥ": 4576,
      "ĠÐ¾Ð¿ÑĤ": 4577,
      "ĠÐ¿Ñģ": 4578,
      "ĠsadrÅ¾aja": 4579,
      "Ġprepozna": 4580,
      "Ð¢Ð¾": 4581,
      "Ġodma": 4582,
      "Ġco": 4583,
      "sve": 4584,
      "ĠÐ²Ð»Ð°ÑģÑĤÐ¸": 4585,
      "ÑĨÐµ": 4586,
      "ĠÐ¾Ð·Ð½Ð°Ñĩ": 4587,
      "Ġponovo": 4588,
      "Ġpoma": 4589,
      "Ġozbi": 4590,
      "ĠÐ¿ÑĢÐ¸Ñģ": 4591,
      "ĠÉ¨": 4592,
      "viÄĩa": 4593,
      "ljena": 4594,
      "ĠÐ¼Ð°Ñĺ": 4595,
      "Ð°Ð²Ð½Ð¸": 4596,
      "ĠÐ¾ÑģÑĤÐ°Ð»": 4597,
      "ĠnajÄįeÅ¡Äĩe": 4598,
      "ÑĥÐ¼Ð°": 4599,
      "Ġforma": 4600,
      "slov": 4601,
      "Ġzame": 4602,
      "ĠÑĩÐ°Ðº": 4603,
      "Ġostvari": 4604,
      "sional": 4605,
      "gram": 4606,
      "Ġposledica": 4607,
      "Ġumet": 4608,
      "mora": 4609,
      "ĠÑĺÐµÐ´Ð½Ð¾Ð¼": 4610,
      "ĠHo": 4611,
      "Ġkulture": 4612,
      "bine": 4613,
      "ĠÐ¾Ð±Ð»Ð¸Ðº": 4614,
      "Tre": 4615,
      "ĠÐ¿ÑĢÑĥÐ¶": 4616,
      "Va": 4617,
      "beli": 4618,
      "Ġodred": 4619,
      "ĠÐ³ÑĢÑĥÐ¿Ð°": 4620,
      "ĠÐ´Ð¾Ð½": 4621,
      "ĠÐºÐ¾Ð½ÑĤÐµÐºÑģÑĤ": 4622,
      "rano": 4623,
      "zaj": 4624,
      "tinu": 4625,
      "Ð°ÑĩÐºÐ¸": 4626,
      "ĠâĢĺ": 4627,
      "Ð¸ÑĩÐ½Ð¾ÑģÑĤÐ¸": 4628,
      "Ð°ÑĢÑĤ": 4629,
      "ljen": 4630,
      "rÅ¾i": 4631,
      "Ġstanje": 4632,
      "Ġfotografi": 4633,
      "ĠÐ¿Ð¾ÐºÑĥÑĪ": 4634,
      "ĠÐ¿ÑĢÐ¾Ð²": 4635,
      "ĠÐ´Ð¸ÑģÐº": 4636,
      "ĠpoloÅ¾a": 4637,
      "grada": 4638,
      "Jo": 4639,
      "Ġnisam": 4640,
      "Ġinstru": 4641,
      "ĠÑĩÐµÐ¼Ñĥ": 4642,
      "Ġranije": 4643,
      "Ð¾Ð¿ÑĪÑĤ": 4644,
      "liÄĩ": 4645,
      "ĠÐ±Ð¸Ð»Ðµ": 4646,
      "ĠÐ·Ð°Ð¿Ð¾ÑģÐ»": 4647,
      "kazi": 4648,
      "Ġposve": 4649,
      "ÐµÑĪÑĤÐ¾": 4650,
      "Ġuticaja": 4651,
      "Ð°ÐºÐ»Ðµ": 4652,
      "ĠnadleÅ¾": 4653,
      "ĠÐ¾Ð½Ðµ": 4654,
      "Ð¸ÑĤÐ°Ð½": 4655,
      "ĠThe": 4656,
      "graf": 4657,
      "stvom": 4658,
      "ĠÐ¸Ð·Ð°Ð·": 4659,
      "ĠJugosla": 4660,
      "ĠplaÄĩa": 4661,
      "sim": 4662,
      "Ð°Ð²Ð¸Ð¾": 4663,
      "Ð°Ð·Ð´": 4664,
      "stom": 4665,
      "ĠGra": 4666,
      "ĠÐ²ÐµÐ·Ð¸": 4667,
      "arti": 4668,
      "Ġ45": 4669,
      "Ð²Ð¾ÑĺÐµ": 4670,
      "ĪĴ": 4671,
      "ĠÐ¿ÑĢÐµÐ½": 4672,
      "ĠÐ±Ð¾Ð³": 4673,
      "ted": 4674,
      "Ð°Ð²Ð¸Ñģ": 4675,
      "ĠâĢĻ": 4676,
      "telji": 4677,
      "ĠÐ´Ð¾Ð³Ð°ÑĴ": 4678,
      "ÐµÐ´Ð½Ð¾": 4679,
      "ÐµÐ³ÑĢ": 4680,
      "ĠraÄįu": 4681,
      "ĠÐ»Ð¸ÑĤ": 4682,
      "ĠPred": 4683,
      "Ð½Ð¸ÑĨÐµ": 4684,
      "ĠÐ´Ð¾Ð±Ð¸ÑĺÐµ": 4685,
      "ĠÐ´ÐµÐ¼": 4686,
      "Ġnajbolje": 4687,
      "ÉļÉ§": 4688,
      "CI": 4689,
      "kola": 4690,
      "Ð¸ÑĩÐ°Ð½": 4691,
      "nijih": 4692,
      "Ġdra": 4693,
      "Ġskoro": 4694,
      "ĠÐ¿Ð¸ÑĤÐ°ÑļÐ°": 4695,
      "nike": 4696,
      "ĠÑģÐ²Ð¸Ð¼": 4697,
      "Ġ1999": 4698,
      "Ġpomenu": 4699,
      "ĠÐºÐ°ÑĤÐµÐ³Ð¾ÑĢ": 4700,
      "ĠpoboljÅ¡a": 4701,
      "loÅ¡kih": 4702,
      "vid": 4703,
      "ĠÐ°ÑĥÑĤÐ¾ÑĢ": 4704,
      "Ġizgleda": 4705,
      "ĠÐ´Ð°ÑĻÐµ": 4706,
      "ĠÐ½ÐµÐ¾Ð¿ÑħÐ¾Ð´": 4707,
      "ĠÑĽÐµÐ»": 4708,
      "46": 4709,
      "ĠÑĤÑĢÐ°Ð½Ñģ": 4710,
      "Ġporta": 4711,
      "Ġmnogi": 4712,
      "ĠÑģÐ¿Ð¾ÑĻ": 4713,
      "ÑĥÐ·ÐµÑĤ": 4714,
      "vori": 4715,
      "len": 4716,
      "Ġmarke": 4717,
      "klu": 4718,
      "Ġministar": 4719,
      "ÐĿÐ°Ñĺ": 4720,
      "Ð°ÐºÑĥÐ»ÑĤ": 4721,
      "Ð°ÑĤÐ¸Ð²Ð½Ðµ": 4722,
      "Ġniko": 4723,
      "sen": 4724,
      "ÑĢÐµÐ¼ÐµÐ½Ð¾": 4725,
      "ĠÐ¾Ð²Ð°": 4726,
      "ÑĥÑĤÐ°": 4727,
      "sur": 4728,
      "ine": 4729,
      "Ġprivred": 4730,
      "ÑĺÐµÑĤ": 4731,
      "Ġdostup": 4732,
      "mobi": 4733,
      "din": 4734,
      "ĠÑĥÐ½ÑĥÑĤÑĢ": 4735,
      "tanje": 4736,
      "ĠÐ¿ÑĢÐ¾ÑĨÐµÑģÐ°": 4737,
      "Å¡Äĩa": 4738,
      "sis": 4739,
      "ĠveÄĩa": 4740,
      "Ġprimene": 4741,
      "Ġperiod": 4742,
      "90": 4743,
      "stribu": 4744,
      "Ġrazvija": 4745,
      "Å¡tvo": 4746,
      "Ġsredstava": 4747,
      "Ġmetode": 4748,
      "Ġkontek": 4749,
      "ĠÐºÑĥÐ¿": 4750,
      "ĠÐ¿ÑĢÐ¾Ð¿Ð¸Ñģ": 4751,
      "ĠÐ¿ÑĢÐ¸Ð·": 4752,
      "ĠÉŃ": 4753,
      "ÐµÑĤÑĥ": 4754,
      "ĠKO": 4755,
      "ĠÑĢÐµÐ·ÑĥÐ»ÑĤÐ°ÑĤ": 4756,
      "ĠÐ¾Ð½Ð¾": 4757,
      "Ġl": 4758,
      "Ġprevo": 4759,
      "ĠÐ¾ÑĤÐ²Ð¾ÑĢ": 4760,
      "ĠÄįiji": 4761,
      "Ġrata": 4762,
      "vÅ¡i": 4763,
      "Ð¸Ð½ÑģÐºÐ¸": 4764,
      "ĠÐ¿ÑĢÐ¸Ð»Ð¸ÐºÐ¾Ð¼": 4765,
      "ĠÐ¾Ð´Ð½Ð¾ÑģÐ¸": 4766,
      "ĠveÄĩe": 4767,
      "rba": 4768,
      "ĠÑĤÑĺ": 4769,
      "Ġunutar": 4770,
      "Ġmeseci": 4771,
      "ĠÑģÑħ": 4772,
      "Äįena": 4773,
      "ara": 4774,
      "dekva": 4775,
      "VE": 4776,
      "vaj": 4777,
      "ĠÐ¿ÑĢÐ¸Ð´": 4778,
      "ĠÐ¿ÑĢÐ¸Ð²ÑĢÐµÐ´": 4779,
      "vidu": 4780,
      "ĠduÅ¾": 4781,
      "ĠmuÅ¡ka": 4782,
      "naÄįe": 4783,
      "The": 4784,
      "ÑĢÐ¾ÑĪ": 4785,
      "Ġteme": 4786,
      "ĠÑĺÐµÐ´Ð½Ð°": 4787,
      "ĠÐĿÐ¸Ðº": 4788,
      "ĠÑĺÐµÑģÑĤÐµ": 4789,
      "ĠÑĦÐ¸Ð»Ð¼": 4790,
      "ĠÐ¿ÑĢÐ¾Ð¼ÐµÐ½Ðµ": 4791,
      "ÑĩÐµÑĪÑĽÐµ": 4792,
      "!!": 4793,
      "Ġprakti": 4794,
      "ĠokruÅ¾e": 4795,
      "55": 4796,
      "ÑģÑĥ": 4797,
      "Ð¸Ð·Ð°ÑĨÐ¸ÑĺÐµ": 4798,
      "Ð¾Ð·Ð²": 4799,
      "ĠÐ¿Ð¾ÑģÑĤÐ°Ð²ÑĻ": 4800,
      "Ġtipa": 4801,
      "gar": 4802,
      "Ġvisoko": 4803,
      "LE": 4804,
      "Å£a": 4805,
      "ÐµÐ½ÑĤÐ¸": 4806,
      "Îµ": 4807,
      "ĠÐ·Ð°ÑĤÐ¸Ð¼": 4808,
      "ĠRS": 4809,
      "ÐĬ": 4810,
      "kse": 4811,
      "Ġdimenzi": 4812,
      "ĠÑĤÑĢÐµÐ½ÑĥÑĤ": 4813,
      "Ġsvojih": 4814,
      "Ġdrugog": 4815,
      "ÐµÐºÐ°ÑĤÐ°": 4816,
      "Ġstavo": 4817,
      "ĠdomaÄĩi": 4818,
      "Ġzemalja": 4819,
      "Ġkoncentracije": 4820,
      "Ġmali": 4821,
      "ĠÐ¿ÑĢÐ²ÐµÐ½": 4822,
      "Ġsasta": 4823,
      "ĠKoso": 4824,
      "Ġ*": 4825,
      "rina": 4826,
      "ĠÑĤÐµÐ»": 4827,
      "ĠÐ¾Ð±ÑĺÐ°Ð²ÑĻ": 4828,
      "É«É": 4829,
      "Ġat": 4830,
      "Ġenerge": 4831,
      "Go": 4832,
      "Äįak": 4833,
      "ĠÐ¸Ð½ÑĦ": 4834,
      "Ġlako": 4835,
      "sanje": 4836,
      "ĠÐ¿Ð¾Ð·Ð¸ÑĤÐ¸Ð²": 4837,
      "Ġnjegov": 4838,
      "ĠÐºÐ°Ð´": 4839,
      "Kod": 4840,
      "ÑĥÑĢÑĥ": 4841,
      "Ġnjegove": 4842,
      "ÐµÑĢÐµ": 4843,
      "Ġsum": 4844,
      "rin": 4845,
      "Ġukazuje": 4846,
      "ĠÑĢÐµÐ°Ð»Ð¸Ð·": 4847,
      "Pe": 4848,
      "ĠiskljuÄįi": 4849,
      "Ġgodini": 4850,
      "Ð»Ð¾Ð¼": 4851,
      "Ġevrop": 4852,
      "eficije": 4853,
      "ĠÐĬ": 4854,
      "ÐµÐ³Ð¾Ð²": 4855,
      "Ð¾ÑģÐ¿": 4856,
      "Å¾o": 4857,
      "Ġdokumenta": 4858,
      "ĠÐ¾ÑģÐ½": 4859,
      "ĠÑĤÐµÑĪ": 4860,
      "ĠÐ½Ð¸Ðº": 4861,
      "Ġ36": 4862,
      "Ġaktivnost": 4863,
      "78": 4864,
      "Ð¾Ð´Ð¸Ð½Ðµ": 4865,
      "ĠÑģÐºÐ»Ð°Ð´Ñĥ": 4866,
      "Ġtamo": 4867,
      "Ġruko": 4868,
      "Ð¸ÑĺÐ°Ð»Ð°": 4869,
      "Ġpokazuje": 4870,
      "miÅ¡lja": 4871,
      "ĠÐ¼Ð°ÑļÐµ": 4872,
      "kade": 4873,
      "Ġ80": 4874,
      "leko": 4875,
      "Ġitd": 4876,
      "Ġsezo": 4877,
      "ĠÐ±ÐµÐ·Ð±ÐµÐ´": 4878,
      "VA": 4879,
      "ÐµÐ·ÐµÐ½ÑĤ": 4880,
      "ĠÐ¿ÑĢÐ¾Ð³ÑĢÐ°Ð¼": 4881,
      "Ġmogli": 4882,
      "Äĩenje": 4883,
      "Ġmate": 4884,
      "rea": 4885,
      "lozo": 4886,
      "ntar": 4887,
      "ĠÐŀÑģ": 4888,
      "Ġpodi": 4889,
      "ĠÑĺÐµÐ·Ð¸ÐºÑĥ": 4890,
      "ĠÑĨÐµÐ½ÑĤÑĢ": 4891,
      "ÑĢÑĥÐºÑĨ": 4892,
      "Ð¾ÑģÑĤÐ°Ð²ÑĻ": 4893,
      "ĠgraÄĳe": 4894,
      "ĠÐ¼Ð¾Ð³ÑĥÑĽÐ½Ð¾ÑģÑĤ": 4895,
      "Ġkredi": 4896,
      "Ġnajmanje": 4897,
      "Ġprostora": 4898,
      "jih": 4899,
      "Ġvelike": 4900,
      "ĠÑĤÑĢÐ°Ð½": 4901,
      "Ġpogledu": 4902,
      "Ð°ÑĩÐºÐ°": 4903,
      "ĠÐ³Ð»Ð°Ð³Ð¾Ð»": 4904,
      "ĠÐ»ÐµÐºÑģ": 4905,
      "Ð²Ð¸Ð¼": 4906,
      "ĠÑģÑĤÐ°Ð½Ð¾Ð²Ð½Ð¸ÑĪÑĤ": 4907,
      "ÏĦ": 4908,
      "CA": 4909,
      "Ã¬": 4910,
      "Ġsupro": 4911,
      "ĠÑĩÐ°Ñģ": 4912,
      "SP": 4913,
      "ĠÐ¼Ð°Ñļ": 4914,
      "Ġtime": 4915,
      "ĠÐ¼Ð¸ÑĪÑĻ": 4916,
      "ĠÑģÐ°ÑģÑĤ": 4917,
      "ĠÑĺÐµÐ´Ð½Ðµ": 4918,
      "Ġimala": 4919,
      "sred": 4920,
      "ĠÐ¼Ð¾Ð´ÐµÐ»Ð°": 4921,
      "ĠÐ¼Ð¾Ð³ÑĥÑĽÐµ": 4922,
      "ÐŀÑģ": 4923,
      "Ġminuta": 4924,
      "sme": 4925,
      "ĠÐ°ÑģÐ¿": 4926,
      "ljive": 4927,
      "nicima": 4928,
      "ĠÐ¾ÑĤÐºÑĢ": 4929,
      "rava": 4930,
      "Ġgod": 4931,
      "Ġsvakog": 4932,
      "ĠÐłÐµÐ¿ÑĥÐ±Ð»Ð¸ÐºÐµ": 4933,
      "ĠÐ´Ð°Ð½Ð°Ñģ": 4934,
      "Ġrizika": 4935,
      "Ġpotom": 4936,
      "Ġobrazovanja": 4937,
      "ie": 4938,
      "ĠsluÅ¾be": 4939,
      "Ð¾Ð²Ð¸ÑĽÐ°": 4940,
      "Ġpristupa": 4941,
      "IN": 4942,
      "Ð¾Ð½Ñĥ": 4943,
      "Ġcent": 4944,
      "ĠGe": 4945,
      "nke": 4946,
      "Å¾ila": 4947,
      "Ð¾Ð»Ð¾Ð³Ð¸ÑĺÐ°": 4948,
      "Ġmaksima": 4949,
      "ĠÐ¿ÑĢÐ¸Ð¼ÐµÑļ": 4950,
      "Ġtrenutku": 4951,
      "Ġ90": 4952,
      "ĠÐ¿ÑĥÑĤÐ°": 4953,
      "Ġ70": 4954,
      "Ġboga": 4955,
      "ĠÐ´ÑĢÑĥÑĪÑĤÐ²Ð°": 4956,
      "Ġstudije": 4957,
      "ĠKon": 4958,
      "dar": 4959,
      "limo": 4960,
      "ruje": 4961,
      "dnost": 4962,
      "Ġpokazuju": 4963,
      "Ġformu": 4964,
      "Ġ2021": 4965,
      "njena": 4966,
      "ĠÐ¿Ð°ÑĢÐ°Ð¼": 4967,
      "ĠzaÅ¡titu": 4968,
      "Ġsredstva": 4969,
      "Ð»Ð°ÑĴ": 4970,
      "sh": 4971,
      "ĠÐ±ÑĢÐ¾ÑĺÐ°": 4972,
      "Ġtela": 4973,
      "Ð¾ÑĽÐ¸": 4974,
      "LO": 4975,
      "Ð¸Ð²Ð°ÑļÑĥ": 4976,
      "ĠÑĤÑĢÐ°Ð´Ð¸ÑĨ": 4977,
      "Zbog": 4978,
      "ĠÐ¸ÑģÐ¿Ð¸ÑĤÐ°Ð½Ð¸ÐºÐ°": 4979,
      "Ð°Ð½Ð°ÑģÑĤ": 4980,
      "ĠSve": 4981,
      "ĠÐ·Ð°ÑģÑĤ": 4982,
      "ĠÑģÐ¿ÐµÑĨÐ¸ÑĦ": 4983,
      "47": 4984,
      "alka": 4985,
      "ĠïĤ·": 4986,
      "Ġpodatke": 4987,
      "ĠÑĢÐµÑģ": 4988,
      "ĠMilo": 4989,
      "nca": 4990,
      "nicama": 4991,
      "ÐĺÑģÑĤ": 4992,
      "ĠÐ·Ð½Ð°ÑĩÐ°ÑĺÐ½Ð¾": 4993,
      "Ġopisa": 4994,
      "Äįen": 4995,
      "Ġvozila": 4996,
      "ĠÑģÐ¿Ð¾ÑģÐ¾Ð±": 4997,
      "Ġdrugom": 4998,
      "Ġtesti": 4999,
      "Ġcm": 5000,
      "Ð±Ð¸": 5001,
      "Sr": 5002,
      "Ġkonkre": 5003,
      "jne": 5004,
      "njuju": 5005,
      "Ġproizvodnje": 5006,
      "ĠÐºÐ¾ÑĢÐ¸Ñģ": 5007,
      "Ġreda": 5008,
      "ÑĢÐ°Ð´Ðµ": 5009,
      "Ð¾Ð²Ð°Ð½Ð¸": 5010,
      "ĠSlo": 5011,
      "dera": 5012,
      "Ġmehani": 5013,
      "ĠÐ²ÐµÐ»Ð¸ÐºÐ¸": 5014,
      "Ġvoda": 5015,
      "ĠproÅ¡": 5016,
      "Ġkompanije": 5017,
      "Ġkupo": 5018,
      "Ġosu": 5019,
      "ĠÉ§": 5020,
      "gita": 5021,
      "ĠÐĶÑĢÑĥÐ³": 5022,
      "cionih": 5023,
      "jevima": 5024,
      "ĠÑĤÑĢÐ°Ñĺ": 5025,
      "ÐµÑħÐ°Ð½": 5026,
      "á½": 5027,
      "Ġsvojoj": 5028,
      "ĠÑĥÑĢÐµÑĴ": 5029,
      "zuju": 5030,
      "Ġmm": 5031,
      "Ð¾ÑĺÐ°": 5032,
      "Ġuzima": 5033,
      "ĠÑĺÐµÐ´Ð½": 5034,
      "ĠdoÅ¾i": 5035,
      "pusti": 5036,
      "VO": 5037,
      "Ġska": 5038,
      "Ð¾ÐºÐ¾Ð¼": 5039,
      "Ġreci": 5040,
      "Ġprocedu": 5041,
      "Ð¾ÐºÑĢÐ°ÑĤ": 5042,
      "Ð¾Ð»Ð¾ÑĪÐºÐ¸": 5043,
      "ĠÑĺÑĥÐ½": 5044,
      "Ð±Ð¾Ð»": 5045,
      "Ð¾ÑĪÐº": 5046,
      "ĠÐ¿ÑĢÐµÐ´Ð¼ÐµÑĤ": 5047,
      "Ġ190": 5048,
      "Ġnosi": 5049,
      "neta": 5050,
      "tes": 5051,
      "ĠÑģÐ²Ð¾Ð¼": 5052,
      "ĠVuÄįiÄĩ": 5053,
      "ul": 5054,
      "Ð¸ÑĪÑĤÑĥ": 5055,
      "ĠÐ¿ÑĢÐ¸Ð½ÑĨÐ¸Ð¿": 5056,
      "Ġstanju": 5057,
      "dru": 5058,
      "Ġrazvije": 5059,
      "lazak": 5060,
      "Ġdej": 5061,
      "ĠÅ¾a": 5062,
      "nala": 5063,
      "ĠÑĤÐµÐ¼Ð¿": 5064,
      "Ipak": 5065,
      "Ġnekim": 5066,
      "Ð¸ÑĺÑģÐºÐ°": 5067,
      "ĠÐ¿Ð¾ÑģÐ»Ð¾Ð²": 5068,
      "Ġzvani": 5069,
      "ĠreÅ¾i": 5070,
      "Ġzau": 5071,
      "mbo": 5072,
      "ĠÑĥÐ³": 5073,
      "ĠÐ¼Ð»Ð°Ð´": 5074,
      "Ġprojekta": 5075,
      "Ġdovodi": 5076,
      "Ð»ÐµÐ¶": 5077,
      "Ð°ÑĤÐ°Ðº": 5078,
      "ĠÐµÑĦÐ¸ÐºÐ°Ñģ": 5079,
      "niju": 5080,
      "Ġvest": 5081,
      "ÑĥÐ´Ð°": 5082,
      "Ġradova": 5083,
      "ĠvaÅ¡e": 5084,
      "Ð¸ÑĩÐ½Ð¸Ð¼": 5085,
      "ĠÐ¿ÑĢÐµÐ´Ð²Ð¸ÑĴ": 5086,
      "tine": 5087,
      "Ġprisustvo": 5088,
      "ĠÐĹÐ°ÐºÐ¾Ð½": 5089,
      "Ð¸ÑģÑĤÐ¸ÑĩÐºÐµ": 5090,
      "ĠÐ´ÐµÑĦÐ¸Ð½Ð¸Ñģ": 5091,
      "ĠÑĥÐ¾Ñĩ": 5092,
      "pora": 5093,
      "ĠÐ²ÑĢÑģÑĤÐµ": 5094,
      "Ð»Ð°Ð¼": 5095,
      "kciju": 5096,
      "Ġkona": 5097,
      "ĠÐ½Ð¸Ð·": 5098,
      "ÄĬe": 5099,
      "Ġturi": 5100,
      "ĠÐ´Ð¾ÐºÑĥÐ¼": 5101,
      "Ġmera": 5102,
      "Ġzabra": 5103,
      "Äįeni": 5104,
      "ir": 5105,
      "Ð¾Ð½Ð´": 5106,
      "vane": 5107,
      "jedna": 5108,
      "ĠÐ¼Ð°ÑĤÐµÑĢÐ¸ÑĺÐ°Ð»": 5109,
      "gno": 5110,
      "grade": 5111,
      "misli": 5112,
      "snog": 5113,
      "Ġnjihovog": 5114,
      "Ð¾Ð²Ð¾Ð³": 5115,
      "Ġfeno": 5116,
      "Li": 5117,
      "Ġinicija": 5118,
      "ÑĢÐ°ÑĻ": 5119,
      "telja": 5120,
      "Ð¸Ð³Ð½": 5121,
      "Ġpreci": 5122,
      "ĠÐ·Ð°ÑĪÑĤÐ¸ÑĤÐµ": 5123,
      "Ġgloba": 5124,
      "dije": 5125,
      "ĠÐ¿ÑĢÐ¾Ð¿": 5126,
      "ĠÐ¿Ð¾Ð·Ð½Ð°ÑĤ": 5127,
      "ĠuÄįenika": 5128,
      "Ġsagla": 5129,
      "Ġsvakom": 5130,
      "ĠÐ¼Ð¸Ð»": 5131,
      "ĠÑĥÑĩÐµÑģÑĤÐ²": 5132,
      "Ïģ": 5133,
      "Ġfunkcije": 5134,
      "ĠÐ¼ÐµÑĤÐ¾Ð´": 5135,
      "tili": 5136,
      "Ġpreva": 5137,
      "ĠÐ´ÑĥÑħ": 5138,
      "ĠAr": 5139,
      "Ã£": 5140,
      "Ġkata": 5141,
      "Äĩemo": 5142,
      "nat": 5143,
      "ĠÐºÐ¾ÑĺÐ¸Ð¼": 5144,
      "pom": 5145,
      "ĠÐ¿ÑĢÐµÐ»": 5146,
      "Ġdoba": 5147,
      "ljene": 5148,
      "ĠÑģÐ¼Ð°ÑĤÑĢÐ°": 5149,
      "Ð¾Ð²Ð°ÑĤÐ¸": 5150,
      "ĠpomoÄĩi": 5151,
      "Ġzavr": 5152,
      "Ġlitera": 5153,
      "PO": 5154,
      "65": 5155,
      "ĠÑĩÐ¸Ð½": 5156,
      "tacije": 5157,
      "ĠbaÅ¡": 5158,
      "Ġmani": 5159,
      "ruka": 5160,
      "ĠLo": 5161,
      "ÏĤ": 5162,
      "Ġpone": 5163,
      "gan": 5164,
      "Ġj": 5165,
      "ces": 5166,
      "jskim": 5167,
      "Ġana": 5168,
      "ĠutiÄįe": 5169,
      "ĠÑĥÐ³Ð»Ð°Ð²Ð½Ð¾Ð¼": 5170,
      "ĠÑĩÐ¸Ð½Ð¸": 5171,
      "Ġkoga": 5172,
      "Ġstrana": 5173,
      "É©": 5174,
      "sci": 5175,
      "Ġodluka": 5176,
      "%.": 5177,
      "Ġveze": 5178,
      "Ġgotovo": 5179,
      "ĠSto": 5180,
      "ĠÐ¸Ð·ÑĢ": 5181,
      "Ð¸Ð½Ð¸ÑģÑĤÐ°ÑĢ": 5182,
      "Ġnekog": 5183,
      "ĠÐ½ÐµÑĪÑĤÐ¾": 5184,
      "Ġimamo": 5185,
      "Ġoblika": 5186,
      "ĠÐºÑĢÐ°ÑĺÑĥ": 5187,
      "snu": 5188,
      "Ġkomi": 5189,
      "ĠSrbiju": 5190,
      "ĠÐ²ÑĢÑģÑĤÐ°": 5191,
      "La": 5192,
      "ÐµÑĢÐ¸Ð¼": 5193,
      "MI": 5194,
      "ĠÑĺÐµÐ·Ð¸Ðº": 5195,
      "ÐļÐ°Ð¾": 5196,
      "ĠÐ¿ÑĢÐµÑĤÐ¿Ð¾ÑģÑĤ": 5197,
      "Ġ189": 5198,
      "ĠnaroÄįito": 5199,
      "Ġleka": 5200,
      "ktori": 5201,
      "ĠÐ¸Ð¼Ð°Ð¾": 5202,
      "Su": 5203,
      "nas": 5204,
      "tuje": 5205,
      "stina": 5206,
      "ntno": 5207,
      "ÐµÐ·ÑĥÐ»ÑĤ": 5208,
      "ĠÐ°Ð¼": 5209,
      "Ġnikada": 5210,
      "Äįuje": 5211,
      "ĠÐ»Ð¾Ð³": 5212,
      "ĠureÄĳa": 5213,
      "ĠÑĢÐµÐ³ÑĥÐ»": 5214,
      "lio": 5215,
      "ĠÐ¼ÑĥÑĪ": 5216,
      "Ð¾ÑĨÐ°": 5217,
      "ĠEvrop": 5218,
      "ĠÉŀ": 5219,
      "Ġodmah": 5220,
      "rnu": 5221,
      "Ġcena": 5222,
      "Ġ2022": 5223,
      "ĠÐºÑĢÐ°ÑĻ": 5224,
      "Ġnapre": 5225,
      "ĠÐ¸Ð¼Ðµ": 5226,
      "ĠÑģÐ²ÑĢ": 5227,
      "ĠzadrÅ¾a": 5228,
      "ĠÐ·Ð´ÑĢÐ°Ð²": 5229,
      "TO": 5230,
      "ptem": 5231,
      "ĠzavrÅ¡e": 5232,
      "Ġfunkcioni": 5233,
      "Ð²Ð°ÑĤÐ°": 5234,
      "Ġsklo": 5235,
      "Ġkomentara": 5236,
      "ima": 5237,
      "like": 5238,
      "ÑĬ": 5239,
      "Ġposlu": 5240,
      "Ð½Ð¸ÑĨÐ¸Ð¼Ð°": 5241,
      "Ð¸ÑĩÐ½Ð¾Ð¼": 5242,
      "reni": 5243,
      "ĠdrugaÄįi": 5244,
      "ĠMu": 5245,
      "Ġlogi": 5246,
      "gro": 5247,
      "ĠÄįetvr": 5248,
      "ĠknjiÅ¾e": 5249,
      "ĠÑĤÑĢÐ³Ð¾Ð²": 5250,
      "Ġhidro": 5251,
      "Ð°ÑŁ": 5252,
      "mija": 5253,
      "Ġcon": 5254,
      "Nije": 5255,
      "ĠpomoÄĩu": 5256,
      "ĠÐ¸Ð°ÐºÐ¾": 5257,
      "ĠÅ¾ivoti": 5258,
      "rica": 5259,
      "Ġhra": 5260,
      "ĠÐ¼ÐµÑģÑĤÐ°": 5261,
      "Ð±ÑĢ": 5262,
      "Ġmr": 5263,
      "Ġinfe": 5264,
      "Ġbrzo": 5265,
      "Ġravno": 5266,
      "Ġrazvoju": 5267,
      "ER": 5268,
      "Ð¢Ð°ÐºÐ¾ÑĴÐµ": 5269,
      "Posle": 5270,
      "Ġkoeficije": 5271,
      "Ġmg": 5272,
      "Ð¾ÑĴÐµÑļÐµ": 5273,
      "Ġke": 5274,
      "struktu": 5275,
      "Éŀ": 5276,
      "PS": 5277,
      "Ġprocesu": 5278,
      "Ð¾Ð±ÑĢ": 5279,
      "ĠÑĩÐµÑĤÐ¸ÑĢÐ¸": 5280,
      "ĠÉ¤": 5281,
      "Ġmenad": 5282,
      "Ġkorisnika": 5283,
      "Ð°ÑĺÐ½": 5284,
      "Ð³Ð¾Ð²Ð¾ÑĢÐ°": 5285,
      "ÐµÑĢÐ¸ÑĺÑĥÐ¼": 5286,
      "ĠÐºÐ°Ð½": 5287,
      "É¨Éľ": 5288,
      "njeg": 5289,
      "Ġsnage": 5290,
      "ÑģÐ¸": 5291,
      "ĠÑļÐµÐ³Ð¾Ð²Ðµ": 5292,
      "dnim": 5293,
      "Ġindividu": 5294,
      "ĠÐ¼Ð½Ð¾Ð³Ð¾": 5295,
      "Ð°Ð´Ð°ÑĪÑļ": 5296,
      "tivnim": 5297,
      "ĠÐ¾Ð±Ð·Ð¸ÑĢÐ¾Ð¼": 5298,
      "ĠFi": 5299,
      "É¢É§": 5300,
      "Å¡iÄĩ": 5301,
      "ser": 5302,
      "ĠizvrÅ¡i": 5303,
      "Ð±Ð°Ð½": 5304,
      "ĠÑģÐ¾Ð¿": 5305,
      "ĠBeograda": 5306,
      "Ð°Ð»Ðº": 5307,
      "ĠÑĤÐ°Ð´Ð°": 5308,
      "ĠÑģÐ²ÐµÐ´": 5309,
      "Ġpolitike": 5310,
      "Ġkarakteristike": 5311,
      "Ġposlova": 5312,
      "kuju": 5313,
      "siju": 5314,
      "ĠÑĦÑĢ": 5315,
      "Ð½Ð°ÑĤÐ°": 5316,
      "Ð¾Ð³Ðµ": 5317,
      "Ġputo": 5318,
      "76": 5319,
      "Ð»ÐµÑĤ": 5320,
      "''.": 5321,
      "ĠÐ²Ð¸Ð´Ñĥ": 5322,
      "Ġzat": 5323,
      "ĠVo": 5324,
      "Ġnakna": 5325,
      "ĠÐ¿Ð°ÑĨÐ¸ÑĺÐµ": 5326,
      "Ð¸ÑĺÐµÐ¼": 5327,
      "ĠÐ¼ÐµÑĢÐ¸": 5328,
      "ĠÑģÐ²Ð¾Ð³": 5329,
      "ĠÐºÐ¾ÑĢÐ¸ÑģÑĤÐµ": 5330,
      "Ġpovra": 5331,
      "NK": 5332,
      "ĠÐ¼Ð¸": 5333,
      "Ð¼Ð¸": 5334,
      "Ð³Ð»Ðµ": 5335,
      "Raz": 5336,
      "ĠFo": 5337,
      "Ġnajbolji": 5338,
      "vide": 5339,
      "ten": 5340,
      "Ġresur": 5341,
      "ĠÄįine": 5342,
      "Ġtere": 5343,
      "ÐŁÑĢÐµÐ¼Ð°": 5344,
      "Ġboje": 5345,
      "vini": 5346,
      "ĠgraÄĳana": 5347,
      "ĠÐ¡Ðº": 5348,
      "Ġfudba": 5349,
      "ĠÑĥÑĢ": 5350,
      "ĠÐ¿Ð¸ÑĤÐ°ÑļÑĥ": 5351,
      "ĠÐ¾ÑĪÑĤ": 5352,
      "ĠÑĥÐ»Ð¾Ð³Ñĥ": 5353,
      "ĠodluÄįi": 5354,
      "ĠÐ´ÐµÐ»Ð¾": 5355,
      "Ġrepre": 5356,
      "dove": 5357,
      "ĠbudÅ¾e": 5358,
      "Ð¸ÑĽÐµ": 5359,
      "ĠVojvodi": 5360,
      "ĠÑĤÑĢÐµÐ±Ð°Ð»Ð¾": 5361,
      "ct": 5362,
      "Ð½Ð¸ÐºÑĥ": 5363,
      "Ġkog": 5364,
      "roj": 5365,
      "59": 5366,
      "Ġmase": 5367,
      "ĠkolaÄįi": 5368,
      "one": 5369,
      "Ġkraja": 5370,
      "vajuÄĩi": 5371,
      "Ð°Ð´Ðµ": 5372,
      "ĠÐ´Ð¸Ñĺ": 5373,
      "ĠÐ¾Ð²Ð¾": 5374,
      "Ġsnima": 5375,
      "Ġodluke": 5376,
      "Ġprilago": 5377,
      "tivan": 5378,
      "BA": 5379,
      "ard": 5380,
      "ger": 5381,
      "ĠÑĤÐµÐº": 5382,
      "siji": 5383,
      "Ġrazmatra": 5384,
      "Ð¾Ð·Ð¸": 5385,
      "ÐµÐ½Ð¸ÑĨÐ¸": 5386,
      "ria": 5387,
      "ĠÐµÐ²ÑĢÐ¾Ð¿": 5388,
      "ĠÐ¿ÑĢÐ¾Ð½": 5389,
      "Ġreze": 5390,
      "Ð²ÐµÑĽ": 5391,
      "sanja": 5392,
      "laganja": 5393,
      "Ġizgu": 5394,
      "blja": 5395,
      "Ġrasta": 5396,
      "ĠÐºÐ¾Ð½ÐºÑĥÑĢ": 5397,
      "Ġzabele": 5398,
      "ĠÐ¿ÑĢÐµÐ´ÑĥÐ·ÐµÑĽÐ°": 5399,
      "ĠÐ¸Ð½Ð²": 5400,
      "Ġpriho": 5401,
      "Ġjako": 5402,
      "Ġpopula": 5403,
      "Ġporeme": 5404,
      "Äįnja": 5405,
      "ĠÐ¾ÐºÑĢÑĥÐ¶": 5406,
      "ĠÑħÐ¸Ð¿": 5407,
      "Ġpoj": 5408,
      "ĠÐ¿Ð°Ð¶": 5409,
      "ĠuopÅ¡te": 5410,
      "Ġuslova": 5411,
      "ÐµÑĢÐ²": 5412,
      "ĠÐ»Ð¸Ð½": 5413,
      "41": 5414,
      "ljiva": 5415,
      "Ð±Ð°": 5416,
      "ĠÐ´Ð¸ÑģÐµÑĢÑĤ": 5417,
      "ĠÑģÐ»Ð¾Ð±Ð¾Ð´": 5418,
      "ĠÐ¸ÑģÐºÑĻÑĥÑĩ": 5419,
      "RED": 5420,
      "ĠÑĤÑĢÐ°Ð¶": 5421,
      "Ġnaja": 5422,
      "ÑĤÐµ": 5423,
      "Ġobuhvata": 5424,
      "Ġkomplek": 5425,
      "Ġkompanija": 5426,
      "eng": 5427,
      "ĠÐ¿ÑĢÐµÑģÑĤ": 5428,
      "leva": 5429,
      "Å¾ava": 5430,
      "Ġrezultate": 5431,
      "kida": 5432,
      "ziju": 5433,
      "Ġelektri": 5434,
      "Ð¸ÑĩÐºÐ¾Ñĺ": 5435,
      "ĠÐºÐ¾Ð½ÑĨÐµÐ½ÑĤÑĢ": 5436,
      "ĠÐ¾Ð²Ð°Ðº": 5437,
      "Ð¾Ð»ÑĥÑĨ": 5438,
      "ĠÐ¾Ð¿ÐµÑĢ": 5439,
      "Ð¼Ð¾": 5440,
      "ĠmoÄĩi": 5441,
      "ĠÐ²ÑĢÑĪ": 5442,
      "Ġprvom": 5443,
      "ĠÑĤÐ¾Ð¿": 5444,
      "ĠÐ¸Ð½Ð´ÑĥÑģÑĤÑĢ": 5445,
      "Ġpredsta": 5446,
      "zan": 5447,
      "Å¡taj": 5448,
      "ĠreÅ¡a": 5449,
      "58": 5450,
      "ĠÐ¿ÐµÑĢÐ¸Ð¾Ð´": 5451,
      "tskog": 5452,
      "Ġubi": 5453,
      "Ġzaista": 5454,
      "Ġkli": 5455,
      "ĠÑģÑĤÐ°Ð½Ð´Ð°ÑĢÐ´": 5456,
      "Ġtranspo": 5457,
      "Ġbes": 5458,
      "Ð¾Ð²Ñĥ": 5459,
      "jim": 5460,
      "gri": 5461,
      "Ð¸Ð´Ñĥ": 5462,
      "ĠÑĢÐ°Ð·Ð»Ð¸Ðº": 5463,
      "Ġparametara": 5464,
      "ĠÐ»Ð¸ÑģÑĤ": 5465,
      "Äįnoj": 5466,
      "Ġorganizacija": 5467,
      "Ġznam": 5468,
      "ĠÐºÐ°Ðº": 5469,
      "Gra": 5470,
      "Ð²Ð°Ðº": 5471,
      "Ġ1998": 5472,
      "Ġsinte": 5473,
      "ting": 5474,
      "ĠÐ¼Ð°Ð½Ð°ÑģÑĤ": 5475,
      "ĠpovrÅ¡ine": 5476,
      "nuo": 5477,
      "ĠIII": 5478,
      "ĠÑģÐ²ÐµÑĤÐ°": 5479,
      "Äĩena": 5480,
      "ĠpodrÅ¾a": 5481,
      "Ġodgovara": 5482,
      "mbe": 5483,
      "Ġvid": 5484,
      "ĠÐºÑĢÐµ": 5485,
      "Ġnjegova": 5486,
      "ĠÐĲÐ»ÐµÐºÑģ": 5487,
      "Ġbismo": 5488,
      "ssi": 5489,
      "ÑĢÐ°Ñĺ": 5490,
      "ĠÅ¾ivotne": 5491,
      "ĠtraÅ¾i": 5492,
      "Å¾en": 5493,
      "Ġkm": 5494,
      "Ġ38": 5495,
      "Ð¾ÑĴÐµÑļÐ°": 5496,
      "ÐµÑĻÐµ": 5497,
      "ĠÅ¡est": 5498,
      "volu": 5499,
      "Ġzaposlenih": 5500,
      "ĠÑĤÐ²ÑĢÐ´": 5501,
      "ÑĢÐ°Ñļ": 5502,
      "Ġanga": 5503,
      "zori": 5504,
      "ĠopÅ¡te": 5505,
      "cal": 5506,
      "fici": 5507,
      "Ġnesta": 5508,
      "SI": 5509,
      "ĠÐºÐ²": 5510,
      "Å¡tina": 5511,
      "veta": 5512,
      "stoje": 5513,
      "66": 5514,
      "ĠÐ¼ÐµÑħÐ°Ð½": 5515,
      "Ġpostavlje": 5516,
      "Ġklini": 5517,
      "ÑĤÐ¸": 5518,
      "Ġprofesional": 5519,
      "mentu": 5520,
      "ĠÅ¾ive": 5521,
      "Ġuze": 5522,
      "tska": 5523,
      "Ð½o": 5524,
      "Ġsor": 5525,
      "Ġslici": 5526,
      "ĠÐ¿ÑģÐ¸Ñħ": 5527,
      "Ð¾ÑģÑĢÐµÐ´": 5528,
      "Äīa": 5529,
      "Ġfunkcional": 5530,
      "ĠÑĢÐ°Ð·Ð»Ð¸ÑĩÐ¸ÑĤÐµ": 5531,
      "Ġsvakodne": 5532,
      "Ġgro": 5533,
      "Ð¸Ð½ÑģÐºÐµ": 5534,
      "ĠÐ·Ð½Ð°ÑĩÐ¸": 5535,
      "ĠÑģÑĤÑĢÐ°ÑĤÐµÐ³": 5536,
      "ĠÑĥÑģÐ»Ð¾Ð²": 5537,
      "Ġzastup": 5538,
      "ph": 5539,
      "ĠÐ´ÐµÑģ": 5540,
      "ĠÐ¸Ð·Ð±Ð¾ÑĢ": 5541,
      "ms": 5542,
      "ljeno": 5543,
      "42": 5544,
      "ÑĨÐ¸ÑĺÑĥ": 5545,
      "lena": 5546,
      "Ġodo": 5547,
      "Ġneophodno": 5548,
      "ĠÐ±Ð¸ÑĻ": 5549,
      "ĠreÅ¡enje": 5550,
      "Ġhrane": 5551,
      "Ġizbora": 5552,
      "ĠÑģÐ²Ð¸": 5553,
      "Naime": 5554,
      "43": 5555,
      "ĠtroÅ¡ko": 5556,
      "Ġkombina": 5557,
      "ramo": 5558,
      "ĠÅ¡kole": 5559,
      "Ġispod": 5560,
      "ĠÐ·Ð°ÑħÑĤÐµÐ²": 5561,
      "ĠÐºÑĢÐµÑĤ": 5562,
      "Ġcu": 5563,
      "Ġotva": 5564,
      "ĠDru": 5565,
      "Ġwe": 5566,
      "Ġautora": 5567,
      "Ġpost": 5568,
      "Ġvakci": 5569,
      "ĠÑĦÐ°ÐºÑĥÐ»ÑĤ": 5570,
      "dia": 5571,
      "ron": 5572,
      "tskih": 5573,
      "Ġpredsednika": 5574,
      "ĠÑĢÐµÐ²": 5575,
      "ÐµÐ²ÑĢ": 5576,
      "ljivi": 5577,
      "Ġusluge": 5578,
      "ĠomoguÄĩava": 5579,
      "Ġimu": 5580,
      "Ð°Ð½ÐºÐ°": 5581,
      "ĠomoguÄĩi": 5582,
      "É¨ÉĿ": 5583,
      "ĠÐ¼Ð¸Ñģ": 5584,
      "ĠÐ²ÐµÑĢÐ¾Ð²": 5585,
      "ĠCe": 5586,
      "ĠÑĥÑģÐ»ÐµÐ´": 5587,
      "DE": 5588,
      "Ġprvog": 5589,
      "Ġdola": 5590,
      "ĠÐ¸Ð½ÑĤÐµÐ³ÑĢ": 5591,
      "fikacije": 5592,
      "Ġdirektno": 5593,
      "Ġ37": 5594,
      "mpto": 5595,
      "Ġpenzi": 5596,
      "raz": 5597,
      "ĠÐ¾ÑĩÐµÐº": 5598,
      "ĠÑĤÐ¾Ð³": 5599,
      "ÑĤÐ¾Ð±": 5600,
      "Ġprimenom": 5601,
      "ĠÐ½Ð°ÑĺÑĩÐµÑĪÑĽÐµ": 5602,
      "rtu": 5603,
      "prave": 5604,
      "Ġprese": 5605,
      "tional": 5606,
      "Ġsedi": 5607,
      "ÑĺÐµÐ´Ð¸Ñļ": 5608,
      "ĠÐĴÐ¾Ñĺ": 5609,
      "Ð¸ÑĺÑģÐºÐ¸Ð¼": 5610,
      "ĠÑģÑĤÑĢÑĥÑĩ": 5611,
      "ĠÐ¾Ð²Ð¾Ñĺ": 5612,
      "ĠÐ¿Ð¾Ð¼ÐµÐ½ÑĥÑĤ": 5613,
      "Ġopse": 5614,
      "Ġporodice": 5615,
      "ĠtrÅ¾iÅ¡tu": 5616,
      "ĠuÅ¾i": 5617,
      "ĠÑģÐ¾Ð¿ÑģÑĤÐ²": 5618,
      "ĠteÅ¾i": 5619,
      "ction": 5620,
      "Ġvideo": 5621,
      "ĠÐ½Ð°Ð»Ð°Ð·": 5622,
      "Å¡ki": 5623,
      "Ġoptere": 5624,
      "Ġzapravo": 5625,
      "ĠÐ¿ÑĢÐµÐ´ÑģÑĤÐ°Ð²ÑĻÐ°ÑĺÑĥ": 5626,
      "ĠUniverzi": 5627,
      "Ġmeseca": 5628,
      "Å¾ena": 5629,
      "Ġdeca": 5630,
      "Sto": 5631,
      "Ġugovora": 5632,
      "ÑĢÐ¸": 5633,
      "100": 5634,
      "doc": 5635,
      "ĠÑĥÐ½Ð°Ð¿": 5636,
      "Ġinteresa": 5637,
      "Ġobzira": 5638,
      "Ġuzora": 5639,
      "Ġfazi": 5640,
      "Ġdopu": 5641,
      "ÑĥÑĢÐ°": 5642,
      "ĠÄĩelije": 5643,
      "Ð¾Ð²Ð°Ð½Ðµ": 5644,
      "Ġumetni": 5645,
      "ĠÐ¿Ð¾Ð´ÑĢÑĪ": 5646,
      "Zna": 5647,
      "Äĩen": 5648,
      "ĠÐ²Ð»Ð°ÑģÑĤ": 5649,
      "Ð°Ð´ÐµÐ¼": 5650,
      "Ġistorij": 5651,
      "Ġkor": 5652,
      "ĠÐ£Ð½": 5653,
      "ĠpiÅ¡e": 5654,
      "osta": 5655,
      "ĠÑĢÐµÐ¿ÑĢ": 5656,
      "Ġnemaju": 5657,
      "Ġstrukture": 5658,
      "pisi": 5659,
      "Oni": 5660,
      "68": 5661,
      "ĠÐ¼ÑĢÐµÐ¶": 5662,
      "ĠÐ²Ð°Ð½": 5663,
      "Ġvelika": 5664,
      "Ġovak": 5665,
      "mino": 5666,
      "deo": 5667,
      "njene": 5668,
      "Ġokto": 5669,
      "Rezultati": 5670,
      "sniva": 5671,
      "Ð°ÑĩÐºÐ¾Ð³": 5672,
      "ÑĥÐ½Ð´": 5673,
      "Ð°Ð½Ð¾Ð³": 5674,
      "isto": 5675,
      "ĠnajveÄĩi": 5676,
      "snim": 5677,
      "ĠÐ°Ð½Ð°Ð»Ð¸Ð·Ðµ": 5678,
      "Ġsigurno": 5679,
      "meti": 5680,
      "Ġekspre": 5681,
      "âĢ¢": 5682,
      ".).": 5683,
      "ĠÑĤÑĥ": 5684,
      "Ġbroju": 5685,
      "kad": 5686,
      "ĠbuduÄĩ": 5687,
      "nse": 5688,
      "Ġnjihov": 5689,
      "zacija": 5690,
      "Ð»Ñĥ": 5691,
      "JU": 5692,
      "Ð±Ð¸Ð½": 5693,
      "Ġautomobi": 5694,
      "ĠÐ¾ÑģÐ¸Ð³ÑĥÑĢ": 5695,
      "Ġdonosi": 5696,
      "OVI": 5697,
      "Ð³ÑĥÑģÑĤ": 5698,
      "rvo": 5699,
      "Ġdistribu": 5700,
      "Ġnapisa": 5701,
      "Ġturisti": 5702,
      "vica": 5703,
      "ĠÐ½Ð°Ð²Ð¾Ð´Ð¸": 5704,
      "ĠÐ¼Ð¾ÑĤÐ¸Ð²": 5705,
      "Ġzu": 5706,
      "Pi": 5707,
      "ĠÐ¿Ð¾Ð³Ð»ÐµÐ´Ñĥ": 5708,
      "Ã¶": 5709,
      "ÐºÐ¾Ð³": 5710,
      "Ð°ÑĢÑĥ": 5711,
      "ĠÑļÐ¸Ð¼Ð°": 5712,
      "Ġupozna": 5713,
      "ed": 5714,
      "Ġmogla": 5715,
      "ÑĥÑĢÐµ": 5716,
      "Å¡njeg": 5717,
      "gina": 5718,
      "Ð¾ÑĩÐ¸ÑĤÐ¾": 5719,
      "Ġgr": 5720,
      "Ġenzi": 5721,
      "Ð¸ÐºÑģ": 5722,
      "cionog": 5723,
      "Ġzasno": 5724,
      "jedno": 5725,
      "Ġkrei": 5726,
      "Ġshva": 5727,
      "ĠQ": 5728,
      "pli": 5729,
      "ĠiskljuÄįivo": 5730,
      "ĠÅ¾ene": 5731,
      "III": 5732,
      "69": 5733,
      "ĠAn": 5734,
      "ĠdoÅ¡lo": 5735,
      "ĠÐ°Ð¿ÑĢ": 5736,
      "ĠÐ³ÑĥÐ±": 5737,
      "ĠÐ¸ÑģÐºÑĥ": 5738,
      "67": 5739,
      "ktima": 5740,
      "ĠÐ²ÑĢÐµÐ¼ÐµÐ½": 5741,
      "nj": 5742,
      "ĠÐ¿ÑĢÐ¸ÑģÑĥÑĤ": 5743,
      "Ġuzoraka": 5744,
      "ĠÐ¡Ð¿": 5745,
      "mje": 5746,
      "ĠÐ²Ð°Ð·Ð´": 5747,
      "ĠÐ¾ÑĤÐ¿": 5748,
      "ĠÐºÐ°Ð¼": 5749,
      "É¢É¦": 5750,
      "ĠÑĥÐ½ÑĥÑĤÑĢÐ°ÑĪÑļ": 5751,
      "njoj": 5752,
      "Ġmerenja": 5753,
      "Ġfon": 5754,
      "zmu": 5755,
      "blika": 5756,
      "DA": 5757,
      "ĠÐ´Ð¾Ð¼Ð¸Ð½": 5758,
      "Ð¸ÑĢÐ°Ð¾": 5759,
      "ĠÐ»Ð¸Ðº": 5760,
      "ĠznaÄįaja": 5761,
      "Ġljudima": 5762,
      "Ġdemokra": 5763,
      "ĠÑģÐµÐ²ÐµÑĢ": 5764,
      "Ġnjemu": 5765,
      "Ð²ÐµÑĢ": 5766,
      "ĠÑĢÑĥ": 5767,
      "ĠÐļÐ¾Ð¼": 5768,
      "Ġefekat": 5769,
      "Ġuslove": 5770,
      "Ġpotra": 5771,
      "lla": 5772,
      "Ġusme": 5773,
      "Ð¸Ð²ÑĢÐµÐ´": 5774,
      "ĠÑģÑĢÐ¿ÑģÐºÐµ": 5775,
      "Ġ48": 5776,
      "ÐµÐ½ÑĤÑĥ": 5777,
      "ĠâĢĶ,": 5778,
      "ĠÐĪÐ¾Ð²Ð°Ð½": 5779,
      "ĠÐ°ÑĤ": 5780,
      "Ġpravila": 5781,
      "Ġsprovo": 5782,
      "Ð¸Ð·Ñĥ": 5783,
      "ĠÑĤÐµÐ¼Ð¿ÐµÑĢÐ°ÑĤÑĥÑĢ": 5784,
      "hemi": 5785,
      "nac": 5786,
      "ÐµÑĽÑĥ": 5787,
      "Å¡la": 5788,
      "MS": 5789,
      "Ġmoze": 5790,
      "Ġadekva": 5791,
      "ĠÑģÐµÐ¿ÑĤ": 5792,
      "ĠÑĢÐµÑĨ": 5793,
      "Ġzemljama": 5794,
      "fera": 5795,
      "Ð°Ð´Ñĥ": 5796,
      "ĠVladi": 5797,
      "Ð°ÑĩÐµ": 5798,
      "ĠÐ¶ÐµÐ½": 5799,
      "Ġdisku": 5800,
      "ĠvaÅ¾no": 5801,
      "ĠÑĤÑĢÐ¾ÑĪÐº": 5802,
      "ĠÐºÐ²Ð°Ð»Ð¸ÑĤÐµÑĤ": 5803,
      "Ġ1996": 5804,
      "ÐºÐ»": 5805,
      "ĠÐ±Ð¸ÑĤ": 5806,
      "ljiv": 5807,
      "Ġvodo": 5808,
      "ĠÐºÐ¾Ð¼ÑĥÐ½Ð¸Ðº": 5809,
      "ĠAleksandar": 5810,
      "53": 5811,
      "ÐµÐ½Ð¸Ðº": 5812,
      "Ġispitivanja": 5813,
      "ĠzavrÅ¡i": 5814,
      "id": 5815,
      "Ġtoplo": 5816,
      "baci": 5817,
      "Ð¸ÑĢÐ°Ð½Ð°": 5818,
      "Ð°Ð»Ñĥ": 5819,
      "Ona": 5820,
      "Ġmini": 5821,
      "Ġex": 5822,
      "Ġmene": 5823,
      "ĠÐ¿ÑĢÐ¸ÑħÐ²Ð°ÑĤ": 5824,
      "Ġpostoja": 5825,
      "ĠÑģÐ°Ð·": 5826,
      "Ġ1997": 5827,
      "Ġrast": 5828,
      "ĠÐ½Ð°Ð´Ð»ÐµÐ¶": 5829,
      "Ġtelef": 5830,
      "ĠÐ¾ÑĢÐ³Ð°Ð½Ð¸Ð·Ð°ÑĨÐ¸ÑĺÐµ": 5831,
      "Ġhro": 5832,
      "ntne": 5833,
      "ĠÐ¼ÐµÑģÑĤÑĥ": 5834,
      "ÐµÐ½ÑĤÐµ": 5835,
      "nov": 5836,
      "ĠÐµÐºÑģÐ¿ÐµÑĢÐ¸Ð¼": 5837,
      "Ġtekstu": 5838,
      "Ġmedija": 5839,
      "klanja": 5840,
      "valu": 5841,
      "Ġpremije": 5842,
      "ÑĻÐ°": 5843,
      "ĠkuÄĩe": 5844,
      "Ġfunkcija": 5845,
      "ĠÐ½ÐµÐ·Ð°Ð²Ð¸Ñģ": 5846,
      "Ġjezik": 5847,
      "Ġkandi": 5848,
      "prija": 5849,
      "ĠpodrÅ¡ku": 5850,
      "Ro": 5851,
      "njom": 5852,
      "Ð¾Ð·Ð½Ð°ÑĤ": 5853,
      "Ð¡Ð»Ð¸ÐºÐ°": 5854,
      "Ġ(âĢŀ": 5855,
      "nuti": 5856,
      "Ġtakmi": 5857,
      "É¨Êģ": 5858,
      "ĠÑĻÑĥÐ±": 5859,
      "her": 5860,
      "Ġ1991": 5861,
      "ÑĢÐ°Ð½Ð°": 5862,
      "lizacija": 5863,
      "Ġseku": 5864,
      "Ġinde": 5865,
      "ÑĥÐ³Ð°": 5866,
      "Ġsposobnosti": 5867,
      "ĠÐºÐ¾ÑĺÐµÐ¼": 5868,
      "É¨É¦": 5869,
      "ĠÐ·Ð°Ð´Ð¾Ð²Ð¾ÑĻ": 5870,
      "Ġnaroda": 5871,
      "Ġelemenata": 5872,
      "Â°": 5873,
      "ĠHer": 5874,
      "Ġtema": 5875,
      "Ġdeli": 5876,
      "Ġneposred": 5877,
      "Ġqu": 5878,
      "ĠÐºÐ¾Ð½ÐºÑĢÐµÑĤ": 5879,
      "Ġpostupak": 5880,
      "Ġpredi": 5881,
      "Ð¾ÑģÐ»Ð°Ð²": 5882,
      "as": 5883,
      "ĠÐ²ÐµÑĽÐ¸": 5884,
      "uzda": 5885,
      "Ð¸ÑļÐ°": 5886,
      "Ci": 5887,
      "Ġoblik": 5888,
      "Ġperioda": 5889,
      "Ñĸ": 5890,
      "duje": 5891,
      "Ġpoz": 5892,
      "Ġpredmet": 5893,
      "Ð¾Ð²ÑĢÐµÐ¼ÐµÐ½Ð¾": 5894,
      "ĠÑļÐµÐ³Ð°": 5895,
      "Ġsan": 5896,
      "dovima": 5897,
      "Å¾enje": 5898,
      "Ġobjasni": 5899,
      "Ġsuda": 5900,
      "ĠÐ¿Ð¾ÑĤÑĢÐµÐ±Ð½Ð¾": 5901,
      "ĠÐ´Ð¾Ð¿ÑĢÐ¸Ð½Ð¾Ñģ": 5902,
      "ĠÑĥÐºÐ¾Ð»Ð¸ÐºÐ¾": 5903,
      "Ġpada": 5904,
      "Äĩuje": 5905,
      "Ð¸Ð½Ð°ÑĢ": 5906,
      "77": 5907,
      "ÐĮ": 5908,
      "Ġsport": 5909,
      "Kon": 5910,
      "Ġobzir": 5911,
      "hibi": 5912,
      "ĠÐ¿ÑĢÐ¸ÑģÑĥ": 5913,
      "dju": 5914,
      "Ġprven": 5915,
      "ÑģÐ¾Ð½": 5916,
      "akle": 5917,
      "Ġproteina": 5918,
      "Ð¸Ð»Ñĥ": 5919,
      "ĠÑĥÑģÐ»Ð¾Ð²Ð¸Ð¼Ð°": 5920,
      "ĠÐ°Ð¼ÐµÑĢ": 5921,
      "loviÄĩ": 5922,
      "ĠâĢ¦": 5923,
      "Ġbolni": 5924,
      "ziste": 5925,
      "ĠÐºÐ¾Ð¼Ð¿Ð¾Ð½": 5926,
      "vosti": 5927,
      "tila": 5928,
      "Ġ1990": 5929,
      "ĠÑĢÐ°Ð·Ð»Ð¸ÐºÐ°": 5930,
      "ĠÐ·Ð°ÑĢ": 5931,
      "gru": 5932,
      "Ġtest": 5933,
      "ĠÉ©Éª": 5934,
      "Ġbar": 5935,
      "Ġdevoj": 5936,
      "gor": 5937,
      "fer": 5938,
      "ĠÐ´Ð¾Ð¿": 5939,
      "ÑĥÐºÑĥ": 5940,
      "ĠÐ¿Ð¾ÐºÑĢÐµÑĤ": 5941,
      "Ġtala": 5942,
      "Ð¢Ð°ÐºÐ¾": 5943,
      "Ġjavnog": 5944,
      "Ð¸ÐºÐ»": 5945,
      "Ġstepen": 5946,
      "Ġopti": 5947,
      "Ð¸ÑĢÐ°Ð½Ð¸": 5948,
      "ĠÑģÑĢÐ¿ÑģÐºÐ¾Ð³": 5949,
      "Ġsamou": 5950,
      "Ġimate": 5951,
      "ĠÑĤÑĢÐµÑĤ": 5952,
      "Ġprve": 5953,
      "Åłta": 5954,
      "Ð°ÑĨÐ¸Ð¼Ð°": 5955,
      "Ġsistemu": 5956,
      "ĠSE": 5957,
      "tum": 5958,
      "ĠÐºÑĥÐ»ÑĤÑĥÑĢÐµ": 5959,
      "ĠÐ´ÑĥÐ±": 5960,
      "Ġintegra": 5961,
      "dese": 5962,
      "Ġizaz": 5963,
      "09": 5964,
      "ĠÐ¸Ð¼Ð¾Ð²": 5965,
      "gnosti": 5966,
      "ĠmreÅ¾a": 5967,
      "ĠÑģÐµÐ·": 5968,
      "Ġpogla": 5969,
      "ĠÑĩÐ»": 5970,
      "ĠzemljiÅ¡ta": 5971,
      "Äĳivanja": 5972,
      "Ġupravljanja": 5973,
      "ĠzaÅ¡to": 5974,
      "Ġzatvo": 5975,
      "Ġcene": 5976,
      "vencije": 5977,
      "dela": 5978,
      "ĠÐ½ÐµÐºÐ¸": 5979,
      "ĠÐºÑĻÑĥÑĩ": 5980,
      "Ð²Ð¸Ð´": 5981,
      "ĠÐ¿ÑĢÐµÐ³": 5982,
      "Ð¸Ð¼ÐµÐ½Ð·": 5983,
      "ĠÐ¾Ð´Ð½Ð¾ÑģÐµ": 5984,
      "Å¡njih": 5985,
      "Ġaplika": 5986,
      "Å¾nje": 5987,
      "ĠÐī": 5988,
      "ĠÐ²ÐµÐ»Ð¸Ñĩ": 5989,
      "Ġprva": 5990,
      "ĠÐ´Ð¾Ð»Ð°Ð·Ð¸": 5991,
      "ĠÐ¾Ð²Ð¸Ð¼": 5992,
      "ĠÐ½ÐµÐºÐµ": 5993,
      "Ġ1995": 5994,
      "vaÅ¾": 5995,
      "Ġ,,": 5996,
      "ĠÐ¢ÑĥÑĢ": 5997,
      "ÄĬu": 5998,
      "Ġkojom": 5999,
      "ĠpoveÄĩanje": 6000,
      "Ð¸Ð¶Ðµ": 6001,
      "ori": 6002,
      "Ð±Ð¾Ð³": 6003,
      "ĠÐ¤Ð¸Ð»": 6004,
      "ĠÐ¿Ð¾Ð¿ÑĥÑĤ": 6005,
      "Ġoru": 6006,
      "cha": 6007,
      "sub": 6008,
      "ĠÐ½Ð°Ðº": 6009,
      "Ġoptu": 6010,
      "Ġnjihova": 6011,
      "ĠÐ¿Ð°Ð´": 6012,
      "Ġnekih": 6013,
      "ĠÑĩÐµÐ³Ð°": 6014,
      "Ġiskustvo": 6015,
      "Ġtraja": 6016,
      "Ġnov": 6017,
      "Zato": 6018,
      "Ġugro": 6019,
      "solu": 6020,
      "79": 6021,
      "ĠÐ±ÑĥÐ´ÑĥÑĽ": 6022,
      "ĠÑĢÐ°Ð·Ð»Ð¸ÐºÑĥ": 6023,
      "ÑĥÐ´Ðµ": 6024,
      "Ġsaop": 6025,
      "ĠÑĥÑģÐ¼ÐµÑĢ": 6026,
      "ĠznaÄįajna": 6027,
      "NS": 6028,
      "Ġtemperature": 6029,
      "ĠÐ¿ÑĢÐ¾Ð¼ÐµÐ½": 6030,
      "ÑĥÐ³Ð¾ÑģÐ»Ð¾Ð²ÐµÐ½": 6031,
      "Ġdomina": 6032,
      "Ġseg": 6033,
      "ĠÑĪÑĤÐ°": 6034,
      "ĠÑģÑĨ": 6035,
      "ĠnaÄįina": 6036,
      "Ġdizaj": 6037,
      "cke": 6038,
      "ĠliÄįnosti": 6039,
      "Ġostalih": 6040,
      "ĠÑĢÐ°Ð·Ð»Ð¸ÑĩÐ¸ÑĤÐ¸Ð¼": 6041,
      "Ġiskustva": 6042,
      "ÐµÑĤÐ°ÑĢ": 6043,
      "ĠÐºÑĢÐ¸ÑĤÐµÑĢÐ¸ÑĺÑĥÐ¼": 6044,
      "ĠÐ¾Ð½Ð´Ð°": 6045,
      "ĠoÄįeki": 6046,
      "kove": 6047,
      "Ġobliku": 6048,
      "ĠÐĳÐ¾Ð³": 6049,
      "Tu": 6050,
      "ĠÄįime": 6051,
      "Ġ39": 6052,
      "ĠÐ³ÑĢÐ°Ð´Ð°": 6053,
      "ĠÐ¼Ð¾Ð³ÑĥÑĽÐ½Ð¾ÑģÑĤÐ¸": 6054,
      "Ġmodi": 6055,
      "Ġobaveza": 6056,
      "ÑĢÐµÑģ": 6057,
      "ĠÑĥÐ¿ÑĢÐ°Ð²Ð¾": 6058,
      "Ġvaspi": 6059,
      "ĠÐ³Ð¾Ð²Ð¾ÑĢÐ¸": 6060,
      "ĠodreÄĳene": 6061,
      "Å¾ba": 6062,
      "Ġsmanji": 6063,
      "ĠmreÅ¾e": 6064,
      "ĠkoriÅ¡Äĩenje": 6065,
      "Ġroku": 6066,
      "zem": 6067,
      "rene": 6068,
      "Ġfaktor": 6069,
      "ĠÐ¿ÑĢÐµÐ´ÑģÐµÐ´": 6070,
      "Ð¾Ð»Ð¾ÑĪÐºÐµ": 6071,
      "ĠÐ¸Ð·ÑĥÐ·ÐµÑĤ": 6072,
      "Ð°Ð»Ð½Ñĥ": 6073,
      "Ġfir": 6074,
      "Ġperforma": 6075,
      "lozi": 6076,
      "Ð°Ð±ÑĢ": 6077,
      "ĠÑģÑĤÐ°ÑĤÐ¸ÑģÑĤÐ¸ÑĩÐºÐ¸": 6078,
      "ĠÄįovek": 6079,
      "ĠÐ¸Ð·Ñĺ": 6080,
      "ĠÑļÐµÐ³Ð¾Ð²Ð¾Ð³": 6081,
      "takmi": 6082,
      "tite": 6083,
      "ĠÐ¿Ð¾Ð´ÑĢÐ°Ð·ÑĥÐ¼ÐµÐ²Ð°": 6084,
      "Ġnjegovog": 6085,
      "Ġpoljoprivred": 6086,
      "Ġstruktura": 6087,
      "res": 6088,
      "Ġuslovi": 6089,
      "ĠOD": 6090,
      "ĠsledeÄĩe": 6091,
      "Ġorganizova": 6092,
      "Ġkarakteristika": 6093,
      "lis": 6094,
      "Ġorgana": 6095,
      "IS": 6096,
      "Ġobrazovanje": 6097,
      "Ġsuko": 6098,
      "Ġfilozo": 6099,
      "ĠÐ¾Ð±Ð»Ð¸ÐºÐ°": 6100,
      "Ġregula": 6101,
      "Ð°Ð²Ñĥ": 6102,
      "ĠÐ¿ÑĥÑĤÐµÐ¼": 6103,
      "Ġispla": 6104,
      "Ġbolesnika": 6105,
      "Ġaku": 6106,
      "ljivost": 6107,
      "Ġzvez": 6108,
      "Ġ188": 6109,
      "É¨Éª": 6110,
      "sorp": 6111,
      "Ðĸ": 6112,
      "Ġzdravlje": 6113,
      "ĠÐ¾ÐºÑĤÐ¾Ð±": 6114,
      "Ca": 6115,
      "Äįita": 6116,
      "Ð°ÑĺÐ¸": 6117,
      "ranjem": 6118,
      "Ġdecu": 6119,
      "Ġgeo": 6120,
      "Ġstrani": 6121,
      "ntima": 6122,
      "ĠÐ¿Ð¾Ð»Ð¸ÑĤÐ¸ÐºÐµ": 6123,
      "Ð¾Ð²Ð¾ÑĻÐ½Ð¾": 6124,
      "Ġtradicional": 6125,
      "ljenih": 6126,
      "Ġizvr": 6127,
      "nili": 6128,
      "ĠÑļÐ¸ÑħÐ¾Ð²Ðµ": 6129,
      "nite": 6130,
      "Ġzadovolj": 6131,
      "nsko": 6132,
      "ĠÑģÑĥÐ¿ÑĢÐ¾ÑĤ": 6133,
      "ĠÐºÐ°ÑĤ": 6134,
      "ĠÐ½ÐµÐ´Ð¾ÑģÑĤ": 6135,
      "ii": 6136,
      "Ð»ÐµÐ¼Ð°": 6137,
      "Äĳan": 6138,
      "Ġservi": 6139,
      "Ġukazuju": 6140,
      "ĠÅ¡iro": 6141,
      "veli": 6142,
      "Ð¸Ð»Ð°ÑĨ": 6143,
      "govora": 6144,
      "Ġizuzetno": 6145,
      "Ġuzorka": 6146,
      "Ġsati": 6147,
      "Ġadre": 6148,
      "Ġured": 6149,
      "mene": 6150,
      "Ġkomple": 6151,
      "ĠukljuÄįujuÄĩi": 6152,
      "ĠÐ¾Ð±ÐµÐ»ÐµÐ¶": 6153,
      "Ð¸ÑĺÐµÐ½ÑĤ": 6154,
      "ĠÅ¾ivi": 6155,
      "Ġljude": 6156,
      "ĠÐļÑĢÐ°ÑĻ": 6157,
      "ĠÑĩÐ¾Ð²ÐµÐº": 6158,
      "RU": 6159,
      "pozi": 6160,
      "ĠÉ«": 6161,
      "Ġobele": 6162,
      "tela": 6163,
      "guje": 6164,
      "ĠÐ¾Ð»": 6165,
      "Ð´Ð°Ð½": 6166,
      "Ð°ÑĪÑļÐµ": 6167,
      "ĠÐ¡ÐĲÐĶ": 6168,
      "Ġish": 6169,
      "ĠÐ²Ð¾Ð´Ðµ": 6170,
      "ĠÐľÐ°Ðº": 6171,
      "Ġistovremeno": 6172,
      "ÑĤÐ¾": 6173,
      "ĠÐ¿ÑĢÐµÐ¼": 6174,
      "Ġagre": 6175,
      "ÑĢÐ°Ñģ": 6176,
      "ĠpoÄįetka": 6177,
      "ĠreÄĩi": 6178,
      "vnoj": 6179,
      "56": 6180,
      "ĠÑĥÑĩÐµÐ½Ð¸ÐºÐ°": 6181,
      "nisti": 6182,
      "Ð¾Ð¿Ð°": 6183,
      "ĠÐ½Ð¾Ð²Ðµ": 6184,
      "Ġjeziku": 6185,
      "ĠÐ¿Ð¾ÑĤÑĢÐ¾ÑĪ": 6186,
      "ĠÐ¼Ð¸ÑĢ": 6187,
      "ĠPla": 6188,
      "ĠÐ½Ð°ÑĢÐµÐ´": 6189,
      "Ġmulti": 6190,
      "ÑĦÐµÑĢ": 6191,
      "Ġnavode": 6192,
      "loÅ¡kog": 6193,
      "ĠBalka": 6194,
      "Ð½Ð¾ÑĪÑĽÑĥ": 6195,
      "ĠÐ½Ð°ÑĺÐ¼": 6196,
      "Ðİ": 6197,
      "Ð°ÑĤÐ¸Ð²Ð½Ð¸": 6198,
      "ote": 6199,
      "ĠSlika": 6200,
      "Ġhilja": 6201,
      "ĠÐ¾ÑģÐµÑĽ": 6202,
      "pova": 6203,
      "Ġglavni": 6204,
      "ĠÐ²ÑĢÐ»Ð¾": 6205,
      "Ġzra": 6206,
      "ÐµÐ¼Ð°ÑĤ": 6207,
      "ĠEvrope": 6208,
      "Ġvlasni": 6209,
      "Ġoti": 6210,
      "ĠproÅ¡i": 6211,
      "Ġdokaza": 6212,
      "ĠÐ¼Ð¾Ð´ÐµÑĢ": 6213,
      "STI": 6214,
      "ĠÑĢÐ°": 6215,
      "logiju": 6216,
      "É¦": 6217,
      "rga": 6218,
      "ksual": 6219,
      "Ġfaze": 6220,
      "ĠÑģÐ»Ð¾Ð¶": 6221,
      "ĠÑĩÐ¸ÑĺÐ¸": 6222,
      "ĠÐ´ÐµÑĨÐµ": 6223,
      "ĠSA": 6224,
      "Ġdiplo": 6225,
      "ĠÑĤÐ¸Ð¿Ð°": 6226,
      "Ġdono": 6227,
      "Ġsituacija": 6228,
      "ĠpotroÅ¡a": 6229,
      "ĠÐ½ÐµÐ¿Ð¾ÑģÑĢÐµÐ´": 6230,
      "Ġneuro": 6231,
      "ĠÐ¿Ð¾ÑĤÐ²ÑĢÑĴ": 6232,
      "Ġispra": 6233,
      "ĠÐ½Ð°ÑĢÐ¾ÑĩÐ¸ÑĤÐ¾": 6234,
      "Ð°Ð½ÑģÐºÐ¾Ð³": 6235,
      "ĠÐºÐ¾Ð»Ð¸Ñĩ": 6236,
      "Ġgene": 6237,
      "Ð¸ÑĤÐµÐºÑĤ": 6238,
      "57": 6239,
      "Ġzahtev": 6240,
      "ĠNovom": 6241,
      "Ġrecep": 6242,
      "ĠÅ¾eli": 6243,
      "Ġmor": 6244,
      "Ġengle": 6245,
      "lizaciju": 6246,
      "ÑĻÐµÐ½": 6247,
      "Ġ32": 6248,
      "ĠÄĩu": 6249,
      "ĠÐºÑĢÐ¸Ð¼Ð¸Ð½": 6250,
      "Ġspolj": 6251,
      "Ġsprem": 6252,
      "Ġpuno": 6253,
      "ljivosti": 6254,
      "ĠÑģÐ¼ÑĢÑĤÐ¸": 6255,
      "fiko": 6256,
      "tura": 6257,
      "ĠÄįvr": 6258,
      "ÑĢÐ°Ð½Ð¸": 6259,
      "Ġsedam": 6260,
      "Ġkrimina": 6261,
      "Ġljuba": 6262,
      "Ġkoristiti": 6263,
      "PA": 6264,
      "Ġpostupku": 6265,
      "ĠÐ¿ÑĢÐ¾Ð±Ð»ÐµÐ¼Ð°": 6266,
      "ĠÑģÐ°ÑģÑĤÐ°Ð²": 6267,
      "Ð¾ÑĤÐ¾Ð²Ð¾": 6268,
      "ĠÐ·Ð½Ð°ÑļÐ°": 6269,
      "ĠÐ¸Ð³": 6270,
      "svim": 6271,
      "ĠÑĢÐ°Ð·Ð»Ð¸ÐºÐµ": 6272,
      "arma": 6273,
      "ĠizloÅ¾e": 6274,
      "ĠÑģÐ¸Ð½ÑĤ": 6275,
      "ĠporemeÄĩa": 6276,
      "É¨Éŀ": 6277,
      "CE": 6278,
      "Ġnapa": 6279,
      "tnik": 6280,
      "ĠÐ¶ÐµÐ½Ð°": 6281,
      "Ġsporazu": 6282,
      "ĠÐ¿Ð¾ÑĤÐµÐ½ÑĨÐ¸ÑĺÐ°Ð»": 6283,
      "ĠÐ´Ð¸Ð½": 6284,
      "Ġinost": 6285,
      "Ð¸Ð±Ð»Ð¸": 6286,
      "tr": 6287,
      "ĠponaÅ¡anja": 6288,
      "Ġprethodno": 6289,
      "ĠÐ¼ÐµÑģÐµÑĨ": 6290,
      "pravda": 6291,
      "ĠÑĢÐµÑģÑĥÑĢ": 6292,
      "sloven": 6293,
      "Äįene": 6294,
      "IJE": 6295,
      "Ġobjekata": 6296,
      "Ð°ÑĤÐ¾ÑĢÐ°": 6297,
      "Ġizabra": 6298,
      "ĠSR": 6299,
      "Ġnova": 6300,
      "ĠÐ·Ð°ÑħÑĤÐµÐ²Ð°": 6301,
      "ĠÐ¾ÑģÐ»Ð¾Ð±": 6302,
      "Ġnjihovo": 6303,
      "Ġpredmeta": 6304,
      "Ð¾Ð²ÐµÐ´": 6305,
      "fikacija": 6306,
      "Ġjavnosti": 6307,
      "riÅ¡e": 6308,
      "ĠÐ»ÐµÐº": 6309,
      "ĠÑĢÐ°ÑĩÑĥÐ½": 6310,
      "ÐŁÐ¾ÑĢÐµÐ´": 6311,
      "Ġpostaje": 6312,
      "ĠÐ·ÐµÐ¼Ð°ÑĻÐ°": 6313,
      "Ġbora": 6314,
      "Ġgradu": 6315,
      "ĠÐºÐ¾Ð½ÑĨÐµÐ¿ÑĤ": 6316,
      "ĠmeÄĳutim": 6317,
      "Ð¾ÐºÑĥ": 6318,
      "Ġzajednice": 6319,
      "jskom": 6320,
      "Ġdosti": 6321,
      "Ġkandida": 6322,
      "Ġautori": 6323,
      "gde": 6324,
      "ĠÑģÐ°Ð´Ð°": 6325,
      "ÑĢÐ°Ð´Ñĥ": 6326,
      "ad": 6327,
      "Ġae": 6328,
      "Ġseptem": 6329,
      "Ð½Ð¾ÑģÑĤÐ¸Ð¼Ð°": 6330,
      "ĠÐ£Ð½Ð¸Ð²ÐµÑĢÐ·": 6331,
      "Ð½Ð¸ÐºÐµ": 6332,
      "Ġorije": 6333,
      "Ġprimenu": 6334,
      "ÑĢÐ¿": 6335,
      "Ð¸Ð³ÑĢ": 6336,
      "cy": 6337,
      "Ġznatno": 6338,
      "Ġnasle": 6339,
      "Ġnaru": 6340,
      "losti": 6341,
      "Ġnama": 6342,
      "rit": 6343,
      "ĠÐ´Ð¾Ð±ÑĢ": 6344,
      "ĠÑģÐ¿Ð¾Ð¼": 6345,
      "Ġupi": 6346,
      "zv": 6347,
      "mula": 6348,
      "Au": 6349,
      "Ð°Ð½ÑģÐºÐ¸": 6350,
      "ĠÐ±Ð¸Ð²": 6351,
      "ĠÈ": 6352,
      "ĠÐ¾Ð±ÐµÐ·Ð±": 6353,
      "Ti": 6354,
      "vnika": 6355,
      "ĠÄĩete": 6356,
      "Ġdesi": 6357,
      "Ġdati": 6358,
      "Svi": 6359,
      "Ġdigita": 6360,
      "ida": 6361,
      "tions": 6362,
      "ĠÐ·Ð°ÑģÐ½Ð¾Ð²": 6363,
      "ÐµÐ´Ð¾Ð½": 6364,
      "Ð°ÐºÑģÐ¸Ð¼": 6365,
      "ĠÐ°Ð²Ð³ÑĥÑģÑĤ": 6366,
      "njeni": 6367,
      "ĠÑĤÐ°Ð±": 6368,
      "ĠÑĢÐµÐ·ÑĥÐ»ÑĤÐ°ÑĤÐ°": 6369,
      "ministra": 6370,
      "Ġlak": 6371,
      "ÐĺÐ°ÐºÐ¾": 6372,
      "mente": 6373,
      "mova": 6374,
      "ĠÄĩeli": 6375,
      "vice": 6376,
      "ĠÐ´Ð¾Ð¶": 6377,
      "Ġsvedo": 6378,
      "Ġjavno": 6379,
      "Ġsajta": 6380,
      "Ġfaza": 6381,
      "Ġ@": 6382,
      "tali": 6383,
      "Å¾ne": 6384,
      "Ġage": 6385,
      "ĠÑģÐ»Ð°Ð±": 6386,
      "stre": 6387,
      "ĠÑĥÑģÐ¿ÐµÑĪ": 6388,
      "Ġsprovede": 6389,
      "ok": 6390,
      "stupi": 6391,
      "Ġkontrole": 6392,
      "Ð¾ÑĢÐ¾": 6393,
      "Ġsoft": 6394,
      "ĠreÄįima": 6395,
      "ĠÐ±Ð°Ð·": 6396,
      "Ġutakmi": 6397,
      "Ð°Ð½Ð¾Ð¼": 6398,
      "rum": 6399,
      "Ġpresu": 6400,
      "Ġopet": 6401,
      "Ġnovog": 6402,
      "Ġsvakako": 6403,
      "Dakle": 6404,
      "Ð¾Ð·Ð¾ÑĦ": 6405,
      "Ð¾Ð¿ÑĢÐ¸Ð²ÑĢÐµÐ´": 6406,
      "Ġas": 6407,
      "99": 6408,
      "Ġvec": 6409,
      "Ġjuna": 6410,
      "pisuje": 6411,
      "ÐĶÐ°": 6412,
      "Ġjedinjenja": 6413,
      "rnim": 6414,
      "ĠÐ¿Ð¾ÑĤÐ¾Ð¼": 6415,
      "Ġzakonom": 6416,
      "ĠÐ·Ð´ÑĢÐ°Ð²ÑģÑĤÐ²": 6417,
      "ĠInstitu": 6418,
      "Ġsku": 6419,
      "Ġzdravlja": 6420,
      "ĠÉ«É": 6421,
      "nus": 6422,
      "ĠPRO": 6423,
      "ĠÐ°ÑĥÑĤÐ¾ÑĢÐ°": 6424,
      "tije": 6425,
      "ĠÑĥÐºÐ°Ð·ÑĥÑĺÐµ": 6426,
      "ĠÑĺÐ°ÑģÐ½Ð¾": 6427,
      "Ð¸ÑģÐ°ÑļÐµ": 6428,
      "Ġple": 6429,
      "loge": 6430,
      "Ġinhibi": 6431,
      "ĠNarod": 6432,
      "des": 6433,
      "Ġautor": 6434,
      "Ġostale": 6435,
      "Ġumetnosti": 6436,
      "Ð²Ð¾Ð³": 6437,
      "ĠÑĺÑĥÐ³Ð¾ÑģÐ»Ð¾Ð²ÐµÐ½": 6438,
      "SS": 6439,
      "Ġkrea": 6440,
      "Ġkak": 6441,
      "Ð¸ÑĢÐ°Ð½Ðµ": 6442,
      "Ġtreti": 6443,
      "vama": 6444,
      "ÐļÐ°Ð´Ð°": 6445,
      "ĠÑĥÐ³Ð¾Ð²Ð¾ÑĢÐ°": 6446,
      "Ġradni": 6447,
      "Ġovi": 6448,
      "ÑĻÐµ": 6449,
      "ĠÐ¸Ð·Ð²ÐµÑĪÑĤ": 6450,
      "jama": 6451,
      "ĠÑģÑħÐ²Ð°ÑĤ": 6452,
      "Ġwi": 6453,
      "ĠÑģÐ¸Ð¼Ð±Ð¾Ð»": 6454,
      "Al": 6455,
      "Ġstava": 6456,
      "ĠÐ´Ð¾Ð·Ð²": 6457,
      "Ð°Ð²Ð°Ð¾": 6458,
      "%),": 6459,
      "ĠÐ¸Ð·Ð³ÑĢÐ°Ð´": 6460,
      "han": 6461,
      "ĠÐ¸Ð½ÑĤÐµÐ½Ð·": 6462,
      "ljaka": 6463,
      "ĠÐ¼Ð°ÑĤ": 6464,
      "Ð²ÐµÐ½ÑĨ": 6465,
      "nila": 6466,
      "ÑģÑĤÐ²Ð¾Ð¼": 6467,
      "ĠÐ¸Ð¼Ð°Ð»Ð°": 6468,
      "Äĩeno": 6469,
      "njo": 6470,
      "Ġpodacima": 6471,
      "wi": 6472,
      "ĠÑĢÐ°Ð·Ð²Ð¸ÑĺÐµ": 6473,
      "ĠkoriÅ¡Äĩenja": 6474,
      "ning": 6475,
      "Ġogla": 6476,
      "Ġpredstavlje": 6477,
      "Ð°ÐºÐµ": 6478,
      "Ġizvora": 6479,
      "Ġnjihovih": 6480,
      "Ġprenosi": 6481,
      "ĠÐ·Ð°Ð³": 6482,
      "Ġtuma": 6483,
      "ĠÐ¿Ð¾ÑģÐµÐ´": 6484,
      "Ġkoncentracija": 6485,
      "ĠÐ½Ð°Ð»Ð°Ð·Ðµ": 6486,
      "Äįara": 6487,
      "Ġblago": 6488,
      "Ð¸ÑĺÐ°ÑĤÐµÑĻ": 6489,
      "Ġparame": 6490,
      "ĠÄįeka": 6491,
      "Ġozbilj": 6492,
      "ĠistiÄįe": 6493,
      "Ġzvu": 6494,
      "ÐµÐ¾Ð³ÑĢÐ°ÑĦ": 6495,
      "Ġfilm": 6496,
      "ĠÑĤÑĥÐ¼Ð°Ñĩ": 6497,
      "Ġrizik": 6498,
      "Ġumesto": 6499,
      "ĠÐ¿ÑĢÐ¾Ð»": 6500,
      "stova": 6501,
      "ĠÐ·Ð°ÑĺÐµÐ´Ð½Ð¾": 6502,
      "ĠuÄįestvu": 6503,
      "Ġmobi": 6504,
      "Ġsimbo": 6505,
      "Ġkrvi": 6506,
      "giju": 6507,
      "Ġsmanjenje": 6508,
      "ÐĶÑĢÑĥÐ³": 6509,
      "64": 6510,
      "Ð¾Ð²Ð°ÑļÑĥ": 6511,
      "noma": 6512,
      "Pra": 6513,
      "ĠÐłÑĥÑģ": 6514,
      "Ð¾Ð»Ð¾ÑĪÐºÐ¸Ñħ": 6515,
      "Ġakade": 6516,
      "âĢ¦âĢ¦": 6517,
      "Ġreprezenta": 6518,
      "Ġcom": 6519,
      "ĠÐ´ÑĢÑĥÐ³Ð¾Ð¼": 6520,
      "Ð°ÑģÐ°": 6521,
      "04": 6522,
      "52": 6523,
      "Ð¾ÑĨÐ¸": 6524,
      "Ð¾Ð·Ð°": 6525,
      ".),": 6526,
      "ĠÐ¸ÑģÑĤÐ¾": 6527,
      "ĠCr": 6528,
      "ĠÐ·Ð°Ð¿Ð°Ð´": 6529,
      "ĠÑģÑĤÐ°Ð½": 6530,
      "ĠÐ¿Ð¾ÑĺÐµÐ´Ð¸Ð½Ð°Ñĩ": 6531,
      "Ġanalizu": 6532,
      "ĠÐ¾Ð´Ð²": 6533,
      "ĠÐºÐ¾Ð¼Ð¿Ð»ÐµÐºÑģ": 6534,
      "ĠÑģÑĥÐº": 6535,
      "Ġsimpto": 6536,
      "lijar": 6537,
      "Ġpokazala": 6538,
      "ĠÐ°Ð½Ð°Ð»Ð¸Ð·Ð°": 6539,
      "Ġdes": 6540,
      "Ð¸ÑĺÐµÑĢ": 6541,
      "ĠpH": 6542,
      "ziva": 6543,
      "ĠÐ¾Ð´Ð³Ð¾Ð²Ð°ÑĢÐ°ÑĺÑĥÑĽ": 6544,
      "Ġflu": 6545,
      "Ġgrupu": 6546,
      "ĠÐ´Ð¾ÐºÐ°Ð·": 6547,
      "Ġ1992": 6548,
      "Ġplan": 6549,
      "Ġpraksi": 6550,
      "ĠproizvoÄĳa": 6551,
      "Äĩeni": 6552,
      "ĠSrp": 6553,
      "Ð³Ð¾ÑĢ": 6554,
      "dnu": 6555,
      "Ġdinami": 6556,
      "ĠÐ½Ð°ÑĢÐ¾Ð´Ð°": 6557,
      "ĠÐ¾ÑĢÐ³": 6558,
      "ÐµÐ¼Ð±Ð°ÑĢ": 6559,
      "ĠÐ¸Ð·Ð»Ð¾Ð¶": 6560,
      "ĠÐ¿Ð¾ÑĢÐµÐº": 6561,
      "njeno": 6562,
      "Ġslike": 6563,
      "Ð£Ðº": 6564,
      "Ġjugo": 6565,
      "ĠÐ´Ðµ": 6566,
      "ĠÑĥÑģÑĤÐ°Ð½": 6567,
      "Ġdobar": 6568,
      "tero": 6569,
      "Ġpresta": 6570,
      "Ġnovca": 6571,
      "ĠÑļÐµÐ³Ð¾Ð²Ð°": 6572,
      "03": 6573,
      "Ð½ÐµÑĤ": 6574,
      "Ġizvor": 6575,
      "Ġpovre": 6576,
      "ĠÑĺÐ°Ð½Ñĥ": 6577,
      "Ġprou": 6578,
      "ÊĦ": 6579,
      "ĠÐ¿ÑĢÐ¸Ð²Ð°ÑĤ": 6580,
      "Ġvise": 6581,
      "ĠÑĥÐ½Ð¸Ð²ÐµÑĢÐ·": 6582,
      "Ġaktu": 6583,
      "Ġodvija": 6584,
      "Å¾iti": 6585,
      "ĠÐ³ÐµÐ½": 6586,
      "tivnom": 6587,
      "ÐłÐ°Ð·": 6588,
      "Ġusa": 6589,
      "Ġkontinu": 6590,
      "Ġnabav": 6591,
      "Ġvelikim": 6592,
      "Ġovla": 6593,
      "riva": 6594,
      "Ð¸ÑħÐ°": 6595,
      "ĠobiÄįno": 6596,
      "ĠoÄįekuje": 6597,
      "Ġpotpunosti": 6598,
      "jni": 6599,
      "ĠÐĳÐ¾Ñģ": 6600,
      "ĠÑĺÐµÐ´Ð½Ñĥ": 6601,
      "Ġpodne": 6602,
      "Ġtip": 6603,
      "ĠÊģ": 6604,
      "ĠÑĥÑĩÐµÑģ": 6605,
      "ÐµÐ²Ð¾": 6606,
      "Ġ33": 6607,
      "ĠÐ°Ð¿Ñģ": 6608,
      "Ð¸Ð·Ð°ÑĨÐ¸ÑĺÐ°": 6609,
      "ĠÑĢÐµÐ¶": 6610,
      "Ð°ÐºÑĨÐ¸ÑĺÐµ": 6611,
      "mbar": 6612,
      "Ġzaga": 6613,
      "MO": 6614,
      "08": 6615,
      "tnost": 6616,
      "ĠÐ¿ÑĢÐ¾Ð¼ÐµÐ½Ð°": 6617,
      "ĠÅ¡kol": 6618,
      "Ġarhite": 6619,
      "ĠÐ»Ð¸ÑĤÐµÑĢÐ°ÑĤÑĥÑĢ": 6620,
      "zio": 6621,
      "ĠÑģÑĤÐ²Ð°ÑĢÐ¸": 6622,
      "at": 6623,
      "stvima": 6624,
      "Ġhla": 6625,
      "ĠÐ¼Ð°Ð½": 6626,
      "sup": 6627,
      "ĠÐŁÐ°ÑĢ": 6628,
      "ntu": 6629,
      "ĠNE": 6630,
      "ĠÐ¿ÑĢÐ¾ÑĺÐµÐºÑĤ": 6631,
      "63": 6632,
      "Ġmoglo": 6633,
      "Ġkora": 6634,
      "ĠÐ¾Ð±ÑĺÐ°ÑĪÑļ": 6635,
      "ĠÑģÐ²Ð¾ÑĺÐ¾Ñĺ": 6636,
      "ĠÐºÐ²Ð°Ð»Ð¸ÑĤÐµÑĤÐ°": 6637,
      "mira": 6638,
      "kada": 6639,
      "Ġpostignu": 6640,
      "sada": 6641,
      "Ġukupno": 6642,
      "veni": 6643,
      "ÑĢÐ°Ñħ": 6644,
      "Ġmatemati": 6645,
      "Osim": 6646,
      "ÐµÐ½Ð°ÑĤ": 6647,
      "Ġnekom": 6648,
      "Ġosam": 6649,
      "strova": 6650,
      "ĠÑģÐ²Ð¾ÑĺÐ¸Ñħ": 6651,
      "Ð¸ÑĨÐ¾Ð¼": 6652,
      "Ð¿ÑĢÐµÑģ": 6653,
      "ĠÑĨÑĢÐºÐ²": 6654,
      "kos": 6655,
      "Ġubr": 6656,
      "ÑĥÑĦ": 6657,
      "ĠutiÄįu": 6658,
      "Isto": 6659,
      "ĠÐ´Ð¾Ð±ÑĢÐ¾": 6660,
      "Ġmle": 6661,
      "ĠÐ½ÐµÑĢ": 6662,
      "ĠÐ³Ð¾ÑĢ": 6663,
      "Bu": 6664,
      "ĠÐ½Ð°Ð¿ÑĢ": 6665,
      "Ġlepo": 6666,
      "ĠrazmiÅ¡lja": 6667,
      "ĠÐ¸ÑĤ": 6668,
      "Ð¸Ð¿Ð»Ð¾Ð¼": 6669,
      "zanja": 6670,
      "ĠdruÅ¡tvo": 6671,
      "puÅ¡ta": 6672,
      "Ġsvake": 6673,
      "Ġkupa": 6674,
      "nina": 6675,
      "Ð½Ð¸ÑĺÐ¸Ñħ": 6676,
      "ĠÐ¿Ð¾Ð³Ð»": 6677,
      "Å¡avanja": 6678,
      "Ð°Ð¿Ð°Ð´": 6679,
      "ĠÐ¿ÑĢÐ¸Ð±": 6680,
      "ĠÑģÑĤÑĢÑĥ": 6681,
      "ÑĢÐ°Ð¼Ð°": 6682,
      "ĠÐ´Ð°ÑĺÐµ": 6683,
      "ĠÑĥÐ½ÑĥÑĤÐ°ÑĢ": 6684,
      "Ġisho": 6685,
      "ĠÑĩÐ¸Ð½Ðµ": 6686,
      "gencije": 6687,
      "ĠÑĢÐ¾Ð´Ð¸ÑĤÐµÑĻ": 6688,
      "ĠÐºÐ¾Ð½ÑĤÐµÐºÑģÑĤÑĥ": 6689,
      "ĠÐ»ÐµÐ³": 6690,
      "Ġkoma": 6691,
      "ĠÐ¿ÑĢÐ¾ÑģÑĤÐ¾ÑĢÐ°": 6692,
      "Ġsasvim": 6693,
      "ĠobjaÅ¡nja": 6694,
      "Ð²Ð°ÑĽ": 6695,
      "Ġ1994": 6696,
      ".âĢĿ": 6697,
      "ĠÅ¾ivotu": 6698,
      "ĠproÅ¡lo": 6699,
      "ĠÑģÑĢÐ¿ÑģÐºÐ¸": 6700,
      "ĠÑĥÑĤÐ¸ÑĨÐ°ÑĺÐ°": 6701,
      "ĠÑĦÑĢÐ°Ð½ÑĨÑĥ": 6702,
      "Ð¸ÑĺÑģÐºÐ¾Ð¼": 6703,
      "Ġnovac": 6704,
      "slav": 6705,
      "ĠÐ²ÐµÑĢÐ¾Ð²Ð°ÑĤÐ½Ð¾": 6706,
      "sk": 6707,
      "Ġtoj": 6708,
      "onu": 6709,
      "ĠÐ¤ÑĢÐ°Ð½ÑĨÑĥ": 6710,
      "ĠRusije": 6711,
      "Ġpregleda": 6712,
      "Ġdobio": 6713,
      "ene": 6714,
      "sma": 6715,
      "ĠÑĺÐµÐ´Ð½Ð¾": 6716,
      "ĠOdg": 6717,
      "riÄĩ": 6718,
      "ĠÐ¼Ð¾Ð³Ð°Ð¾": 6719,
      "Äĳenih": 6720,
      "Ġminima": 6721,
      "ÑĥÐ·Ð¸Ð¼": 6722,
      "Ð¾Ð²Ð°Ð½Ð¸Ñħ": 6723,
      "ĠpoÄįetku": 6724,
      "54": 6725,
      "ĠÑĤÐ¾ÐºÑĥ": 6726,
      "jno": 6727,
      "Å¾eni": 6728,
      "Â»": 6729,
      "ĠÑĤÐ°ÐºÐ¼": 6730,
      "Ð°Ð½ÑģÐºÐµ": 6731,
      "tivnu": 6732,
      "Ġtrenutno": 6733,
      "nema": 6734,
      "Ġvelikog": 6735,
      "71": 6736,
      "Ġ\\": 6737,
      "naliza": 6738,
      "Ð¾Ð²Ð¾Ð´": 6739,
      "Ġfoku": 6740,
      "Ð¸ÑĪÑļ": 6741,
      "ĠEvropi": 6742,
      "72": 6743,
      "Ġbanke": 6744,
      "jana": 6745,
      "ĠÐ¿ÑĢÐ¾ÑģÐµÑĩ": 6746,
      "Ïĥ": 6747,
      "Ġknjiga": 6748,
      "ATO": 6749,
      "ĠÐ³Ð¾Ð´Ð¸Ð½Ð¸": 6750,
      "ĠNovi": 6751,
      "Ġiznad": 6752,
      "Ġizazo": 6753,
      "ĠZo": 6754,
      "mos": 6755,
      "Ġbavi": 6756,
      "Ġfrek": 6757,
      "Ġizjavio": 6758,
      "ĠÑĢÐ°Ð·Ð»Ð¾Ð³Ð°": 6759,
      "Ġkompe": 6760,
      "Ġzad": 6761,
      "Ġdaleko": 6762,
      "Ġmono": 6763,
      "Ġdodatno": 6764,
      "02": 6765,
      "Ġmatri": 6766,
      "ĠÐ¾Ð±ÐµÐ·Ð±ÐµÑĴ": 6767,
      "Ã¼": 6768,
      "ĠÐºÑĢÐ°ÑĤ": 6769,
      "ĠÐĴÐ»Ð°Ð´": 6770,
      "Ð½Ð¸ÑĺÐ°": 6771,
      "ĠÐ¿Ð¾ÑģÑĤÑĥÐ¿ÐºÑĥ": 6772,
      "ÐµÐ´ÐµÑĢ": 6773,
      "ĠÑģÑĥÐºÐ¾Ð±": 6774,
      "ĠÐ¿Ð¾ÑĤÑĢÐµÐ±Ðµ": 6775,
      "ĠÐ¿Ð¾ÑĤÐ¿ÑĥÐ½Ð¾": 6776,
      "Ġsamosta": 6777,
      "Ġpotreba": 6778,
      "Ġsl": 6779,
      "Ð¢Ð°Ð±ÐµÐ»Ð°": 6780,
      "ÐļÐ°ÐºÐ¾": 6781,
      "straÅ¾i": 6782,
      "Ġsrednje": 6783,
      "Ġpolitika": 6784,
      "ĠTur": 6785,
      "Ġdaju": 6786,
      "Vo": 6787,
      "ĠEvropske": 6788,
      "Ð°ÑģÐ¿": 6789,
      "Ð¾ÑĤÐ°": 6790,
      "ĠÑģÑĤÐ°Ð½Ð¾Ð²Ð½Ð¸ÑĪÑĤÐ²Ð°": 6791,
      "ĠÐ²Ð°Ð·Ð´ÑĥÑħ": 6792,
      "mentima": 6793,
      "Ġdirektor": 6794,
      "ĠudruÅ¾e": 6795,
      "ÐµÐ±ÑĢÑĥ": 6796,
      "Ã§": 6797,
      "Ġkarije": 6798,
      "73": 6799,
      "ĠpaÅ¾nju": 6800,
      "ĠÐ¿ÑĢÐ¸ÑĤ": 6801,
      "Ġneku": 6802,
      "ĠÐ¿Ð¾Ð´ÑģÑĤ": 6803,
      "ÉļÉľ": 6804,
      "ĠÐ°ÐºÐ°Ð´ÐµÐ¼": 6805,
      "ĠZakona": 6806,
      "Ð¸Ð½ÑģÐºÐ¾Ð³": 6807,
      "Ġnjen": 6808,
      "ĠÑĤÑĢÐ°Ð´Ð¸ÑĨÐ¸Ð¾Ð½Ð°Ð»": 6809,
      "Ġnedelje": 6810,
      "turi": 6811,
      "ĠÐ·Ð°Ð±ÐµÐ»ÐµÐ¶": 6812,
      "ĠÐ¸Ð´ÐµÐ½ÑĤÐ¸ÑĦÐ¸Ðº": 6813,
      "lak": 6814,
      "06": 6815,
      "Ġgodinama": 6816,
      "ÉŁÉª": 6817,
      "ĠÐ¿Ð¾Ð½Ð¾Ð²Ð¾": 6818,
      "rov": 6819,
      "ĠÐ¼Ð°ÑĤÐµÑĢÐ¸ÑĺÐ°Ð»Ð°": 6820,
      "ĠÑĢÐµÐ·ÑĥÐ»ÑĤÐ°ÑĤÐ¸": 6821,
      "ĠÑĦÐ°ÐºÑĤÐ¾ÑĢÐ°": 6822,
      "ĠnaÅ¡eg": 6823,
      "ls": 6824,
      "ĠsledeÄĩi": 6825,
      "Ġglasa": 6826,
      "sednik": 6827,
      "ĠÑĨÑĢÐºÐ²Ðµ": 6828,
      "Ġgor": 6829,
      "ĠSer": 6830,
      "ĠmaÅ¡i": 6831,
      "Ġvideti": 6832,
      "ĠÐ½Ð¸Ð²Ð¾Ð°": 6833,
      "51": 6834,
      "Ġprati": 6835,
      "Ġveru": 6836,
      "ĠsluÄįajeva": 6837,
      "ĠÐŀÐ±": 6838,
      "ĠÐ°Ñģ": 6839,
      "ÉŁÉŀ": 6840,
      "ĠÅ¾u": 6841,
      "ĠÐĪÑĥÐ³Ð¾ÑģÐ»Ð°Ð²Ð¸ÑĺÐµ": 6842,
      "ĠÂµ": 6843,
      "Ġpojave": 6844,
      "ferencija": 6845,
      "2011": 6846,
      "Ġmilijar": 6847,
      "up": 6848,
      "ĠÐ¼Ð°Ð³": 6849,
      "Ġrevi": 6850,
      "Ġsajtu": 6851,
      "Ð¡Ð°": 6852,
      "Ð¸Ð¼Ð¿": 6853,
      "Ġniz": 6854,
      "rd": 6855,
      "Ġinfra": 6856,
      "ĠÐ¿Ð¾ÑģÐ¼Ð°ÑĤÑĢ": 6857,
      "stavi": 6858,
      "ĠÑģÐºÐ»": 6859,
      "ĠgraÄĳevi": 6860,
      "Ġpogleda": 6861,
      "ĠÑģÑĤÐ°Ð±Ð¸Ð»": 6862,
      "Ġobjekta": 6863,
      "ĠoÄįu": 6864,
      "ĠÑģÐµÐºÑĤ": 6865,
      "Ġupotrebu": 6866,
      "ĠCom": 6867,
      "blji": 6868,
      "Ġnapada": 6869,
      "ĠÐ±Ð°ÑĢ": 6870,
      "Ġbre": 6871,
      "Ġindividual": 6872,
      "ĠÑģÑĤÐ°ÑļÐµ": 6873,
      "ĠÐ·Ð½Ð°ÑĩÐµÑļÐ°": 6874,
      "ĠRE": 6875,
      "ĠÐ²Ð¾Ð·": 6876,
      "ĠÐ·Ð°ÑĺÐµÐ´Ð½Ð¸ÑĨÐµ": 6877,
      "cho": 6878,
      "ĠÐŁÐµÑĤÑĢ": 6879,
      "ĠnaÅ¡em": 6880,
      "ĠÐ¿ÐµÑĢÐ¸Ð¾Ð´Ð°": 6881,
      "ĠÐ·Ð½Ð°ÑĩÐµÑļÐµ": 6882,
      "vanoviÄĩ": 6883,
      "ĠmeÅ¡a": 6884,
      "jevi": 6885,
      "ÐĿÐ°ÐºÐ¾Ð½": 6886,
      "vena": 6887,
      "Ġcentar": 6888,
      "ÉļÉ¬": 6889,
      "ĠÄįoveka": 6890,
      "mio": 6891,
      "ĠÐ¸Ð½Ð¸ÑĨ": 6892,
      "Ġpomi": 6893,
      "ĠÐ¿Ð¾ÑģÐ»ÐµÐ´Ð¸ÑĨÐ°": 6894,
      "ĠÐ¾ÑĪÑĤÐµÑĽ": 6895,
      "ĠÃ¯": 6896,
      "stepe": 6897,
      "ĠÑļÐµÐ¼Ñĥ": 6898,
      "ĠTu": 6899,
      "--": 6900,
      "ĠÐ·ÑĢ": 6901,
      "Ġkorona": 6902,
      "loÅ¡ka": 6903,
      "ĠÑģÐ²ÐµÑĤÑĥ": 6904,
      "Ð¸Ñı": 6905,
      "Ġklije": 6906,
      "Ġposlove": 6907,
      "Ġbezbednosti": 6908,
      "ÑĺÐµÑĢ": 6909,
      "Ġjedini": 6910,
      "ĠInter": 6911,
      "Ġteksta": 6912,
      "ĠÐºÐ¾Ð¼Ð±Ð¸Ð½": 6913,
      "ĠÑģÐµÐ±Ðµ": 6914,
      "ĠÐŁÐ°Ð²": 6915,
      "Ġregional": 6916,
      "ĠÐ¿ÑĢÐ¾ÑĥÑĩ": 6917,
      "Ġsnaga": 6918,
      "Ð²Ð¾Ð¼": 6919,
      "ĠÉ¬": 6920,
      "Ġpretpostav": 6921,
      "ĠÐ¿ÑĢÐ¸Ð¼ÐµÐ½Ðµ": 6922,
      "Ð¸ÑģÑĤÐ¸": 6923,
      "Ð¸ÑĺÐµÐ´": 6924,
      "ĠdoÄĳe": 6925,
      "ĠÐ¿ÑĢÐ°Ð²Ð¸Ð»Ð°": 6926,
      "ĠÅ¾rt": 6927,
      "Ġvazduha": 6928,
      "Ġupotrebe": 6929,
      "Ġjedinstve": 6930,
      "ÑģÐ¾Ð±": 6931,
      "teo": 6932,
      "ljujuÄĩi": 6933,
      "ĠÃ¨": 6934,
      "Ġeki": 6935,
      "ĠÐ´ÑĢÑĥÐ³Ð¾Ð³": 6936,
      "ĠÂ«": 6937,
      "Ð°ÑĽÐ¸": 6938,
      "ĠÐ¸ÑĤÐ´": 6939,
      "Ha": 6940,
      "Ġog": 6941,
      "Ġbiste": 6942,
      "pove": 6943,
      "Ð¾Ð¿ÑĢÐ°Ð²": 6944,
      "ĠBer": 6945,
      "socija": 6946,
      "ĠÐļÐ¾Ñģ": 6947,
      "Ġkupi": 6948,
      "kov": 6949,
      "rup": 6950,
      "Ð»Ð¾Ð²": 6951,
      "ĠÐ°ÑĢÑħÐ¸ÑĤÐµÐºÑĤ": 6952,
      "Å¾bi": 6953,
      "logu": 6954,
      "Ġurba": 6955,
      "ĠÐ¼Ð¾Ð¶ÐµÐ¼Ð¾": 6956,
      "Ġsastav": 6957,
      "Ġsmatraju": 6958,
      "Ġsrpske": 6959,
      "Ġ500": 6960,
      "ĠÐºÐ°Ð¿Ð¸ÑĤ": 6961,
      "ĠÑģÐ°Ñĩ": 6962,
      "Ġgrani": 6963,
      "Ġuzra": 6964,
      "tho": 6965,
      "ĠGr": 6966,
      "Ð°ÐºÑĥ": 6967,
      "ĠmoÅ£e": 6968,
      "ĠdeÅ¡ava": 6969,
      "ĠznaÄįajne": 6970,
      "ĠFrancu": 6971,
      "ĠÐºÐ¸Ñģ": 6972,
      "ĠÑģÐ»ÑĥÐ¶": 6973,
      "ĠBiH": 6974,
      "Ġdode": 6975,
      "ĠÃ±": 6976,
      "Ġplu": 6977,
      "Ġstatu": 6978,
      "Ġsusre": 6979,
      "ĠÐ¾Ð±Ð»Ð°ÑģÑĤ": 6980,
      "Ġoset": 6981,
      "Ġeksplo": 6982,
      "Ġoksida": 6983,
      "Å¡no": 6984,
      "stali": 6985,
      "Ġpromo": 6986,
      "ĠÑģÑĢÐ¿ÑģÐºÐ¾Ð¼": 6987,
      "ĠistraÅ¾ivanje": 6988,
      "potre": 6989,
      "ĠTabela": 6990,
      "Nje": 6991,
      "Ġnekada": 6992,
      "ANJE": 6993,
      "Ġreli": 6994,
      "He": 6995,
      "ĠÐ¿ÑĥÐ±Ð»": 6996,
      "ĠsaopÅ¡ti": 6997,
      "ĠtiÄįe": 6998,
      "ĠÑģÑĢÐµÐ´Ð¸Ð½Ðµ": 6999,
      "vinu": 7000,
      "Ġekonomi": 7001,
      "ĠznaÄįajan": 7002,
      "Ġtabeli": 7003,
      "ĠÐ¸Ð¿Ð°Ðº": 7004,
      "Ġspek": 7005,
      "ÑĥÐ±ÑĢ": 7006,
      "Ð¸Ð²Ð¸Ð´Ñĥ": 7007,
      "ĠÑĨÐ¸ÑĻÑĥ": 7008,
      "Ġsrpski": 7009,
      "Ð¾Ð²Ð°Ð»Ð°": 7010,
      "ĠsadrÅ¾e": 7011,
      "ĠÐ³Ð»ÐµÐ´": 7012,
      "Ġpokazali": 7013,
      "ĠvraÄĩa": 7014,
      "Ġpribli": 7015,
      "ĠÑĥÐ¼ÐµÑĤÐ½Ð¾ÑģÑĤÐ¸": 7016,
      "ĠÐ¼Ð¾Ð»": 7017,
      "Ġmislim": 7018,
      "ĠÐ²ÐµÑĪÑĤ": 7019,
      "74": 7020,
      "reno": 7021,
      "Ġkolek": 7022,
      "Ġmoje": 7023,
      "Ñķ": 7024,
      "ĠÑĪÐµÑģÑĤ": 7025,
      "Ð¾Ð³ÑĢÐ°ÑĦÐ¸ÑĺÐ°": 7026,
      "govori": 7027,
      "Ġpodse": 7028,
      "ĠÐ¾Ð¿ÑĢ": 7029,
      "Ġmodu": 7030,
      "Ġkilo": 7031,
      "ĠÐ¿Ð¾ÐºÐ°Ð·ÑĥÑĺÐµ": 7032,
      "Ġsupru": 7033,
      "ÐµÐ¼Ðµ": 7034,
      "Ġbolji": 7035,
      "tiÄĩ": 7036,
      "Ġsituacije": 7037,
      "Ġjednoj": 7038,
      "Ġprostoru": 7039,
      "ĠCi": 7040,
      "Ġteritoriji": 7041,
      "kaÅ¾e": 7042,
      "Ġosnovne": 7043,
      "ĠÑĦÐµÐ±ÑĢÑĥ": 7044,
      "Ġindika": 7045,
      "Ġlokalne": 7046,
      "ÐĲÐ½": 7047,
      "ĠÐºÐ°Ð»": 7048,
      "ĠÐļÐ»": 7049,
      "ĠveliÄįine": 7050,
      "Ð¸Ð²Ð°ÑĤÐ¸": 7051,
      "Ġpreuze": 7052,
      "Ġ34": 7053,
      "Samo": 7054,
      "ÐµÑĢÑĥ": 7055,
      "slika": 7056,
      "ÑģÐµ": 7057,
      "ĠDO": 7058,
      "kiÄĩ": 7059,
      "Ð¾Ð·Ðµ": 7060,
      "ÐµÑĨÐ¸Ð·": 7061,
      "ĠÐ¸Ð¼Ð°Ð»Ð¸": 7062,
      "ĠXX": 7063,
      "Ġprikazani": 7064,
      "ĠÐ¼Ð¸Ðº": 7065,
      "Tokom": 7066,
      "Ġostali": 7067,
      "ĠpodruÄįja": 7068,
      "ĠÑĥÐ¶": 7069,
      "Ð½Ð°ÑĩÐ°Ñĺ": 7070,
      "ĠÐĲÐ¼ÐµÑĢ": 7071,
      "Ġmar": 7072,
      "ĠVas": 7073,
      "2012": 7074,
      "Ġuspostavlja": 7075,
      "ĠÐµÐ³": 7076,
      "Äįina": 7077,
      "TS": 7078,
      "val": 7079,
      "Ġsekre": 7080,
      "tel": 7081,
      "ĠÐ¿ÑĢÐ¾ÑĪÐ»": 7082,
      "Ġkup": 7083,
      "Ġobjavlji": 7084,
      "Ġsrpskog": 7085,
      "Ġokru": 7086,
      "ĠÑģÐ²Ð°ÐºÐ¸": 7087,
      "koj": 7088,
      "nsku": 7089,
      "Uz": 7090,
      "ĠÐ¾ÑĢÐ³Ð°Ð½Ð¸Ð·Ð°ÑĨÐ¸ÑĺÐ°": 7091,
      "DI": 7092,
      "Ġinova": 7093,
      "ĠHi": 7094,
      "89": 7095,
      "Ġtzv": 7096,
      "ĠÐ½Ð°ÑĺÐ±Ð¾ÑĻ": 7097,
      "ĠÄįlanova": 7098,
      "ĠÐ³Ð»Ð¾Ð±": 7099,
      "ĠÐ¿Ð¾ÑĢÐ¾Ð´Ð¸ÑĨÐµ": 7100,
      "Ġmoz": 7101,
      "ĠÐºÑĢÐ°ÑĺÐ°": 7102,
      "vela": 7103,
      "ĠÐĹÐ°": 7104,
      "62": 7105,
      "ĠponaÅ¡anje": 7106,
      "Ġnepri": 7107,
      "61": 7108,
      "SO": 7109,
      "Ġneprija": 7110,
      "É«É¤": 7111,
      "Ġprirode": 7112,
      "zanje": 7113,
      "Ġshvata": 7114,
      "lia": 7115,
      "ĠÐ¿Ð¾ÑģÐ²ÐµÑĽ": 7116,
      "ĠÐ¡Ð²": 7117,
      "âĢķ": 7118,
      "ĠÑĥÐ¿ÑĢÐ°Ð²": 7119,
      "ĠÐ¿ÑĢÐµÑĤÐ¿Ð¾ÑģÑĤÐ°Ð²": 7120,
      "ĠÐĲÐ»ÐµÐºÑģÐ°Ð½Ð´": 7121,
      "ĠÐ¼ÐµÑĤÐ¾Ð´Ð°": 7122,
      "Ġspolja": 7123,
      "ĠÐ¶ÐµÐ»": 7124,
      "ĠTra": 7125,
      "ĠÐ¡Ð°Ð²": 7126,
      "ĠÑĥÑģÐ¿Ð¾ÑģÑĤÐ°Ð²ÑĻ": 7127,
      "Ð¾Ð²Ð½Ðµ": 7128,
      "Ġpromen": 7129,
      "ÑĻÐ¸Ð²Ð¾": 7130,
      "Ð¾ÑĻÑĪ": 7131,
      "cki": 7132,
      "ĠÐĶÑĢ": 7133,
      "ĠKe": 7134,
      "ĠÐ½Ð¾Ð²Ð¸Ñħ": 7135,
      "Ġodabra": 7136,
      "ĠÐ½Ð°ÑģÐ¸ÑĻ": 7137,
      "ÐŀÐ²Ð°": 7138,
      "Ġposlednjih": 7139,
      "Ġkontra": 7140,
      "Du": 7141,
      "ltra": 7142,
      "ĠÐ¿ÑĢÐ¾ÑĪÐ¸ÑĢ": 7143,
      "ĠÐ¿Ð¾ÑĻÐ¾Ð¿ÑĢÐ¸Ð²ÑĢÐµÐ´": 7144,
      "Ġokolnosti": 7145,
      "Ġpostupka": 7146,
      "vgu": 7147,
      "ĠÐ¸Ð¼Ð°ÑĤÐ¸": 7148,
      "Î»": 7149,
      "Å¾ene": 7150,
      "Ġupravljanje": 7151,
      "Ġopravda": 7152,
      "ĠÐ·Ð°ÐºÐ¾Ð½Ð°": 7153,
      "intere": 7154,
      "pto": 7155,
      "tike": 7156,
      "ĠÐĿÐ°ÑĢÐ¾Ð´": 7157,
      "koho": 7158,
      "rus": 7159,
      "rijski": 7160,
      "Ġsmrt": 7161,
      "ĠBan": 7162,
      "Ð¾Ð»Ðµ": 7163,
      "ĠÐ¿ÑĢÐ¾Ð¸Ð·Ð²Ð¾Ð´Ð°": 7164,
      "ĠÑĩÐ¸Ð¼Ðµ": 7165,
      "ntna": 7166,
      "Ġpregled": 7167,
      "2013": 7168,
      "Ġdobiti": 7169,
      "ĠÄĨ": 7170,
      "Ð°Ð²ÑĻÐ°ÑĺÑĥ": 7171,
      "Ð¸ÑĦÐµÑĢ": 7172,
      "ĠuÄįestvo": 7173,
      "ĠÐ·Ð°ÐºÐ¾Ð½Ð¾Ð´Ð°Ð²": 7174,
      "Ġdje": 7175,
      "2014": 7176,
      "Ġdelatnosti": 7177,
      "Ð³Ð»ÐµÐ´Ð°": 7178,
      "ĠnajvaÅ¾": 7179,
      "ĠÐºÐ¾Ð½ÑģÑĤÑĢÑĥÐºÑĨ": 7180,
      "vencija": 7181,
      "Ġreleva": 7182,
      "ĠÑĪÑĤÐ°Ð¼Ð¿": 7183,
      "Ġalterna": 7184,
      "borato": 7185,
      "ĠÐĶÐ°Ð½": 7186,
      "Ð¸Ð²Ð°Ð¾": 7187,
      "Ġrelativno": 7188,
      "ĠÐ¸Ð½ÑģÑĤÑĢÑĥ": 7189,
      "Ġobaveze": 7190,
      "ĠÑģÐµÐ»Ð°": 7191,
      "Ġpoti": 7192,
      "Ġtransforma": 7193,
      "Ġsata": 7194,
      "ĠÐ¿ÑĢÐ¸Ñĩ": 7195,
      "ĠÑĪÐºÐ¾Ð»Ðµ": 7196,
      "ĠÐ¶ÑĢÑĤ": 7197,
      "ĠÐ´ÐµÑĤÐ°ÑĻ": 7198,
      "ĠÐ¾Ð´ÑĢÐµÑĴÐµÐ½Ðµ": 7199,
      "Ð¾ÑĢÑĴ": 7200,
      "ĠNiko": 7201,
      "Â´": 7202,
      "dimo": 7203,
      "Ġapri": 7204,
      "ĠWe": 7205,
      "É¡": 7206,
      "ÐµÐºÐ²Ð°ÑĤ": 7207,
      "ĠÑĥÐ¿ÑĥÑĽ": 7208,
      "Ð¾ÑĢÐ¸ÑĺÐ°": 7209,
      "ĠÐ¿Ð¾Ð»Ð¾Ð²": 7210,
      "Äįavanje": 7211,
      "ÐµÑĺÑĥ": 7212,
      "ĠÅ¡te": 7213,
      "gene": 7214,
      "Ġsiro": 7215,
      "Pod": 7216,
      "lnik": 7217,
      "Ġulja": 7218,
      "Ġsen": 7219,
      "Ġodbrane": 7220,
      "ĠÑħÑĢÐ¸ÑĪÑĽ": 7221,
      "ĠÐ¸Ð½ÑĦÐ¾ÑĢÐ¼Ð°ÑĨÐ¸ÑĺÐ°": 7222,
      "Ġaktivi": 7223,
      "Ġinfrastruktu": 7224,
      "Ġvremenu": 7225,
      "ĠÐ²Ð¸Ð´Ð¸": 7226,
      "Ġtelevi": 7227,
      "tika": 7228,
      "ĠÑģÑĥÑĪÑĤ": 7229,
      "boj": 7230,
      "É¢É¯": 7231,
      "07": 7232,
      "CR": 7233,
      "ĠÑĤÐ°": 7234,
      "Ð¼Ð°ÑĤ": 7235,
      "ĠÐºÐ½": 7236,
      "Ġvita": 7237,
      "ĠAlba": 7238,
      "nga": 7239,
      "ĠÑģÑĤÐ²Ð¾ÑĢ": 7240,
      "Ġ(''": 7241,
      "Å¾nja": 7242,
      "ĠÐºÑļÐ¸Ð¶ÐµÐ²Ð½Ð¾ÑģÑĤÐ¸": 7243,
      "Ġnaravno": 7244,
      "ĠÑģÐ»Ð¸Ðº": 7245,
      "JI": 7246,
      "ĠÅ¾ivotinja": 7247,
      "au": 7248,
      "ĠveÄįe": 7249,
      "ĠSvet": 7250,
      "ĠÐ¾ÑģÐ¾Ð±Ð°": 7251,
      "ĠodrÅ¾i": 7252,
      "Ġradnika": 7253,
      "velo": 7254,
      "ĠÑģÐµÐ±Ð¸": 7255,
      "stoja": 7256,
      "ĠBra": 7257,
      "ĠÑģÑĤÐ°ÑļÐ°": 7258,
      "Ġstepena": 7259,
      "Ġkiseline": 7260,
      "dere": 7261,
      "ĠStra": 7262,
      "ĠÑģÐµÐ¼Ð°Ð½ÑĤ": 7263,
      "Ð¸ÑĩÐ½Ð¾ÑģÑĤ": 7264,
      "ĠÑģÑĥÐ´Ð°": 7265,
      "Ġfu": 7266,
      "ĠÐ´Ð¾Ð´Ð°ÑĤ": 7267,
      "ĠAna": 7268,
      "2010": 7269,
      "ĠÑĦÑĥÐ½ÐºÑĨÐ¸Ð¾Ð½": 7270,
      "Ð°ÑĤÐ¸Ð²Ð½Ð°": 7271,
      "ĠMinistarstva": 7272,
      "Ġsnim": 7273,
      "ÐĺÐ½": 7274,
      "ÉļÉª": 7275,
      "ĠÅ¡an": 7276,
      "ml": 7277,
      "tnika": 7278,
      "ĠÐ±Ð»Ð°Ð³": 7279,
      "ĠÐºÐ°Ð¶Ðµ": 7280,
      "ĠAko": 7281,
      "Ð±Ð¾ÑĢ": 7282,
      "ÑĢÐ·": 7283,
      "Ġroditelji": 7284,
      "ranu": 7285,
      "Ð¾ÑģÐ°": 7286,
      "ĠÐ³Ðµ": 7287,
      "ĠÐ¼ÐµÑĢÐµ": 7288,
      "Ð°ÑĤÐ¸Ð²Ð½Ð¸Ñħ": 7289,
      "ĠÅ¡kola": 7290,
      "ĠÐĶÑĢÐ°Ð³": 7291,
      "ĠveÄĩina": 7292,
      "ĠÑģÐ°Ð´ÑĢÐ¶Ð°Ñĺ": 7293,
      "ĠsluÄįajevima": 7294,
      "Ġ300": 7295,
      "ĠÐºÐ¾Ð½Ð°Ñĩ": 7296,
      "Jedan": 7297,
      "ĠÐ±Ð¾Ð»ÐµÑģÑĤÐ¸": 7298,
      "Ð·Ð²": 7299,
      "ÐĿÐ°Ð¸Ð¼Ðµ": 7300,
      "dak": 7301,
      "Ġpogre": 7302,
      "Ġkoor": 7303,
      "ĠÐ¿ÑĢÐ¾Ð´ÑĥÐº": 7304,
      "ZA": 7305,
      "Å¾ni": 7306,
      "meni": 7307,
      "Ġadministra": 7308,
      "ĠNATO": 7309,
      "ĠÐµÑĤÐ½": 7310,
      "ny": 7311,
      "ktorska": 7312,
      "92": 7313,
      "biÄįa": 7314,
      "ĠÐµÐºÑģÐ¿ÐµÑĢÐ¸Ð¼ÐµÐ½ÑĤ": 7315,
      "Ð¸ÑĺÐ¸Ñħ": 7316,
      "talija": 7317,
      "Ð¾Ð²Ð°Ð»Ð¸": 7318,
      "ĠÐ¿ÑĢÐ°ÐºÑĤ": 7319,
      "ĠÐķÐ£": 7320,
      "Ġ1993": 7321,
      "Ð¾Ð²Ð½Ð¾": 7322,
      "Ġzele": 7323,
      "vera": 7324,
      "Ġkontekstu": 7325,
      "Ð½Ð¾ÑģÐ¸": 7326,
      "ÑĥÑĢÐ³": 7327,
      "liÅ¡e": 7328,
      "Ð°Ð²Ð°ÑļÐµÐ¼": 7329,
      "ĠÐºÐ¾Ð½Ð·": 7330,
      "ĠÎ¼": 7331,
      "Ġreakcije": 7332,
      "Ġjedino": 7333,
      "njenih": 7334,
      "Å¡im": 7335,
      "Ġsastoji": 7336,
      "Äĩima": 7337,
      "vju": 7338,
      "Ġraste": 7339,
      "ĠÐ´Ð¸Ð¼ÐµÐ½Ð·": 7340,
      "ĠÑĺÐµÐ´Ð½Ð¾ÑģÑĤ": 7341,
      "rske": 7342,
      "ĠÐ¿ÑĢÐ²Ð¾Ð¼": 7343,
      "Ġapsolu": 7344,
      "Ġimple": 7345,
      "ĠÑĢÐµÑĪÐµÑļÐ°": 7346,
      "Ġhipote": 7347,
      "ĠÑģÐ°Ð´ÑĢÐ¶Ð¸": 7348,
      "Ġpato": 7349,
      "Ð°Ð½Ð°Ðº": 7350,
      "ĠÐµÐ½Ð³Ð»Ðµ": 7351,
      "Ru": 7352,
      "ĠÐ¿ÑĢÐ¾ÑĨÐµÑģÑĥ": 7353,
      "ÐŀÐ²Ð°Ñĺ": 7354,
      "ÐĪÐµÐ´": 7355,
      "ĠÄįasova": 7356,
      "orga": 7357,
      "Ã¦": 7358,
      "ĠÐ´ÐµÐ»Ð°ÑĤ": 7359,
      "Ð²Ð°ÑĢÐ°": 7360,
      "Ġproizvodnju": 7361,
      "................................": 7362,
      "Ġtakav": 7363,
      "Ġprihvata": 7364,
      "ĠstanovniÅ¡tva": 7365,
      "ĠÐ¿Ð¾ÑģÑĤÐ°ÑĺÐµ": 7366,
      "cita": 7367,
      "Ġsvaku": 7368,
      "Ġnavi": 7369,
      "ĠMeÄĳu": 7370,
      "Ġpubli": 7371,
      "ĠÐ¿ÑĢÐ¸Ð¿ÑĢÐµÐ¼": 7372,
      "Ġsmrti": 7373,
      "konstru": 7374,
      "ĠÐµÐºÑģ": 7375,
      "Äįenju": 7376,
      "Ġputu": 7377,
      "ĠÑģÑĤÐµÐ¿ÐµÐ½": 7378,
      "Ġodgovora": 7379,
      "Ð¸Ð²Ð°ÑļÐµÐ¼": 7380,
      "Ġsupsta": 7381,
      "ĠÐ¿Ð¾Ð±ÐµÐ´": 7382,
      "cs": 7383,
      "Ġdrugoj": 7384,
      "ĠtrÅ¾iÅ¡ta": 7385,
      "ĠAleksand": 7386,
      "ĠÐ¿ÑĢÐµÑĦ": 7387,
      "ĠÑħÐµÐ¼": 7388,
      "ĠÐŁÑĢÐµÐ´": 7389,
      "ĠÐĳÑĥÐ³Ð°ÑĢ": 7390,
      "ĠÐ·Ð»": 7391,
      "Ġgospo": 7392,
      "Fo": 7393,
      "jn": 7394,
      "Drugi": 7395,
      "98": 7396,
      "ĠCon": 7397,
      "ÐŀÐ²Ð¾": 7398,
      "ĠstruÄįnja": 7399,
      "Ð¸Ð²Ð°Ð»": 7400,
      "Ð°Ð´Ð¸": 7401,
      "Ġknjige": 7402,
      "sov": 7403,
      "ntni": 7404,
      "Ð´Ð¸": 7405,
      "Ð¯": 7406,
      "ĠÐ¿Ð¾ÑģÑĤÐ¸Ð³": 7407,
      "Ġpredsedni": 7408,
      "ĠÑĢÐ°Ð·Ð²Ð¾ÑĺÑĥ": 7409,
      "ĠÐ¿ÑĢÐ¾Ð¸Ð·Ð²Ð¾Ð´ÑļÐµ": 7410,
      "Ġvre": 7411,
      "ĠÑģÑĤÐ°Ð½Ð¾Ð²Ð½Ð¸ÐºÐ°": 7412,
      "Ġeli": 7413,
      "Ġdijagnosti": 7414,
      "Ð°ÑĢÑģÐºÐµ": 7415,
      "Ġsce": 7416,
      "voda": 7417,
      "ĠEuro": 7418,
      "ÐµÐºÐµ": 7419,
      "Ġstatus": 7420,
      "ĠÑĤÑĢÐµÑĽ": 7421,
      "ĠÐĴÑĢ": 7422,
      "UP": 7423,
      "ĠpoveÄĩava": 7424,
      "ĠnaÅ¡oj": 7425,
      "ĠÑĢÐ¾ÑĴ": 7426,
      "Ġseksual": 7427,
      "ĠÄĮa": 7428,
      "Ġispred": 7429,
      "ziji": 7430,
      "Ġugovor": 7431,
      "bliote": 7432,
      "dine": 7433,
      "ĠÐ¿Ð¾ÑģÑĤÑĥÐ¿ÐºÐ°": 7434,
      "Ð¾Ð²Ð½Ð¾Ð³": 7435,
      "Ġprije": 7436,
      "ÑĥÐ»Ð°ÑĨÐ¸ÑĺÐµ": 7437,
      "Ġcelu": 7438,
      "Ġalgo": 7439,
      "ĠÐ²ÑĢÑħ": 7440,
      "Ġdobijenih": 7441,
      "Ġvesti": 7442,
      "Ġnukle": 7443,
      "ĠÐ·Ð½Ð°ÑĩÐ°ÑĺÐ°": 7444,
      "Ġproizvodi": 7445,
      "ÐļÐ¾Ð½": 7446,
      "ĠVlade": 7447,
      "Ð°ÑĤÐ¾": 7448,
      "ĠÑĤÑĥÐ¶": 7449,
      "Äįaka": 7450,
      "Ġmeni": 7451,
      "ÑĢÐ°Ð²Ð¾": 7452,
      "Ġspi": 7453,
      "ĠÑĪÑĥÐ¼": 7454,
      "ĠÑģÐ¸Ð³ÑĥÑĢ": 7455,
      "ĠÐ½Ð°ÑĺÐ²Ð¸ÑĪÐµ": 7456,
      "Ġzabora": 7457,
      "Äįima": 7458,
      "2015": 7459,
      "ĠÐ¿o": 7460,
      "ĠÑĢÐµÑĤ": 7461,
      "laganje": 7462,
      "Ð¸ÑģÐ°Ðº": 7463,
      "Äĩoj": 7464,
      "nula": 7465,
      "Ġvrednostima": 7466,
      "ĠvrÅ¡e": 7467,
      "Ġmanife": 7468,
      "nto": 7469,
      "ĠÐ¿Ð¾ÑĢÐµÑĴ": 7470,
      "ĠÑĺÑĥÐ¶": 7471,
      "cka": 7472,
      "ĠÐºÐ¾ÑĢÐµÐ»": 7473,
      "ĠÐ¾Ð²Ñĥ": 7474,
      "forme": 7475,
      "Ġfra": 7476,
      "ĠÐ½Ð°ÑģÐµÑĻ": 7477,
      "Ġuskla": 7478,
      "laska": 7479,
      "Ð¸ÑģÐ°ÑļÐ°": 7480,
      "Ġeg": 7481,
      "ĠÉ¡": 7482,
      "Ð®": 7483,
      "ĠÐ¿Ð¾Ð´Ð°ÑĨÐ¸": 7484,
      "ĠÑĥÐ¼ÐµÑĤÐ½": 7485,
      "ĠÐŀÑĢ": 7486,
      "ker": 7487,
      "ĠAnd": 7488,
      ".âĢĵ": 7489,
      "Ġideja": 7490,
      "TU": 7491,
      "ĠÐ¿Ð¾ÑģÑĤÐ¾ÑĺÐµÑĽ": 7492,
      "Ð¸ÑĢÐ°ÑĤÐ¸": 7493,
      "ĠÑĩÐ¾Ð²ÐµÐºÐ°": 7494,
      "ranog": 7495,
      "ĠÑĥÐ¾Ð¿ÑĪÑĤ": 7496,
      "Ġkontrolu": 7497,
      "ĠÑģÐ¿ÑĢÐµÑĩ": 7498,
      "Ð¸ÑĢÑĥ": 7499,
      "ĠÄĮlan": 7500,
      "ĠÑģÐ½Ð°Ð³Ðµ": 7501,
      "ih": 7502,
      "Ġselek": 7503,
      "ĠÐ°ÐºÑĨ": 7504,
      "Ð°ÐºÐ¼": 7505,
      "Ð¸Ð½ÑģÐºÐ¸Ñħ": 7506,
      "Ġstari": 7507,
      "ĠÄįija": 7508,
      "Ġiznena": 7509,
      "Co": 7510,
      "Ġoslobo": 7511,
      "Ð°ÐºÑĤÐ¸Ð²": 7512,
      "pije": 7513,
      "njim": 7514,
      "ĠpreÅ¾i": 7515,
      "Ġdogodi": 7516,
      "Ġsposobnost": 7517,
      "Ġinformi": 7518,
      "Ġuloga": 7519,
      "ntnih": 7520,
      "cno": 7521,
      "mpe": 7522,
      "ĠÅ½i": 7523,
      "cro": 7524,
      "Ð°Ð»Ð½Ð¾Ñĺ": 7525,
      "Ono": 7526,
      "Ġpojedinih": 7527,
      "ĠÐ¼ÐµÑĴÑĥÑģÐ¾Ð±": 7528,
      "Ġposlovanja": 7529,
      "Ġkiselina": 7530,
      "ĠÐ¸Ð½Ð´Ð¸Ð²Ð¸Ð´Ñĥ": 7531,
      "ĠÑģÐ°Ð½": 7532,
      "ĠangaÅ¾o": 7533,
      "ĠÐ°Ð³": 7534,
      "del": 7535,
      "Ġistom": 7536,
      "Ð¸Ð³Ð°": 7537,
      "________________": 7538,
      "Ġizgra": 7539,
      "ĠÑĤÐ¸Ñħ": 7540,
      "âĪĴ": 7541,
      "lega": 7542,
      "Ġparla": 7543,
      "ĠÑĤÑĢÐ°Ð³": 7544,
      "Ġpoklo": 7545,
      "luÅ¾be": 7546,
      "ÐµÐ·ÑĥÐ»ÑĤÐ°ÑĤÐ¸": 7547,
      "Ð»Ð¸Ð¶": 7548,
      "ĠÐ´Ð¾ÑģÑĤÑĥÐ¿": 7549,
      "Ð¾ÑģÐ»ÐµÐ´": 7550,
      "Ð¸ÑĢÐ°Ð½Ð¸Ñħ": 7551,
      "rnom": 7552,
      "ÐºÐ¸Ñħ": 7553,
      "ï¿½ï¿½": 7554,
      "ĠÐ¸Ð·Ð½": 7555,
      "ĠÐºÑĢÐ¸Ð·": 7556,
      "Ġ1941": 7557,
      "prkos": 7558,
      "tacija": 7559,
      "Ġobuhva": 7560,
      "ff": 7561,
      "Å¡kova": 7562,
      "hat": 7563,
      "Ġvlast": 7564,
      "ĠÑĢÐ°Ð·ÑĥÐ¼ÐµÐ²": 7565,
      "Ġsamim": 7566,
      "ĠParti": 7567,
      "Ð»Ð°ÑĪÑĽ": 7568,
      "pija": 7569,
      "Ġizvede": 7570,
      "ĠÐ¿ÑĢÐµÐ´Ð¼": 7571,
      "ĠÐ·Ð°ÑĪÑĤÐ¸ÑĤÑĥ": 7572,
      "Ġzadovolja": 7573,
      "ĠÑĦÑĥÐ½ÐºÑĨÐ¸ÑĺÐµ": 7574,
      "posle": 7575,
      "2009": 7576,
      "produ": 7577,
      "Ġpat": 7578,
      "Ġjedinica": 7579,
      "Ġori": 7580,
      "ps": 7581,
      "ĠÐ·Ð°Ð»": 7582,
      "Ð°ÑĤÐ¸Ð²Ð½Ð¾Ð³": 7583,
      "ÐŀÐ½": 7584,
      "Å¡ne": 7585,
      "ĠÂ°": 7586,
      "Ġpute": 7587,
      "Ð¼Ð¸Ð½Ð¸ÑģÑĤ": 7588,
      "jsku": 7589,
      "ĠÑĢÐ°Ð½Ð¸ÑĺÐµ": 7590,
      "snici": 7591,
      "ĠÐ·Ð°Ð¿Ð¾Ñĩ": 7592,
      "ĠistraÅ¾ivanju": 7593,
      "Ġski": 7594,
      "ĠÐ±ÑĢÐ¾ÑĺÑĥ": 7595,
      "lizam": 7596,
      "ĠsaobraÄĩaj": 7597,
      "Ġpolja": 7598,
      "Ġreali": 7599,
      "Ġlinija": 7600,
      "cus": 7601,
      "ĠÐ³Ð¾ÑĤÐ¾Ð²Ð¾": 7602,
      "Äįica": 7603,
      "ncije": 7604,
      "Ġpokri": 7605,
      "Ġdese": 7606,
      "Ġimo": 7607,
      "ĠJugoslavije": 7608,
      "ght": 7609,
      "Ġtelo": 7610,
      "ÉļÊĥ": 7611,
      "Ġgaran": 7612,
      "Ġgena": 7613,
      "nis": 7614,
      "Ġprera": 7615,
      "ĠÄĮe": 7616,
      "Ġhuma": 7617,
      "sad": 7618,
      "ĠÐĿÐ°Ñĺ": 7619,
      "ĠÐĲÐ½Ð´ÑĢ": 7620,
      "Ġnaziva": 7621,
      "Ð°Ð±Ð¾ÑĢ": 7622,
      "Ġglasnik": 7623,
      "Ġpodu": 7624,
      "ĠÐ½Ð¾Ð²Ð¸": 7625,
      "Å¡an": 7626,
      "ĠÑĢÐµÐ¿ÑĢÐµÐ·ÐµÐ½ÑĤ": 7627,
      "kedo": 7628,
      "lov": 7629,
      "Å¡tini": 7630,
      "Ð¾Ð»Ð¸": 7631,
      "Ġobole": 7632,
      "konom": 7633,
      "ĠÑĤÐµÐ»Ð°": 7634,
      "ĠÑģÐ½Ð¸Ð¼": 7635,
      "Ð¸ÑĺÐ°Ð»Ð¸Ð·": 7636,
      "ÐµÑļÐ¸Ð¼Ð°": 7637,
      "tnoj": 7638,
      "ĠKri": 7639,
      "ĠÐ¸ÑģÑĤÐ¾Ð²ÑĢÐµÐ¼ÐµÐ½Ð¾": 7640,
      "ĠÐ¿Ð¾ÑģÑĤÐ°Ð¾": 7641,
      "ĠÐ¸Ð»": 7642,
      "Nema": 7643,
      "ĠÐ¿Ð¾ÑģÑĤÑĥÐ¿Ð°Ðº": 7644,
      "Ð¾Ð²Ð½Ð¸": 7645,
      "ÐµÐºÑĤÐ¸": 7646,
      "loÅ¡kim": 7647,
      "ĠmiÅ¡ljenje": 7648,
      "Ġmje": 7649,
      "Ġsama": 7650,
      "Ġnastavi": 7651,
      "nizam": 7652,
      "ĠÐ¿ÑĢÐ¾ÑģÑĤÐ¾ÑĢÑĥ": 7653,
      "ĠIV": 7654,
      "ĠnaÅ¡ih": 7655,
      "ĠÐ·Ð°ÑĤÐ¾": 7656,
      "ĠÑĦÐ°ÐºÑĤÐ¾ÑĢ": 7657,
      "mercija": 7658,
      "Ġmnoge": 7659,
      "Ġnismo": 7660,
      "ĠÐ¥ÑĢÐ²Ð°ÑĤ": 7661,
      "ĠÐ¾Ð½Ð¸Ñħ": 7662,
      "ÉļÉ¥": 7663,
      "dÅ¾": 7664,
      "ĠÐ²ÐµÐ»Ð¸ÐºÐµ": 7665,
      "Ð¾Ð±ÑĢÐ°ÑĽ": 7666,
      "ĠÐ´Ð¾ÑĪÐ»Ð¾": 7667,
      "Ġnastave": 7668,
      "ĠÐļÑĢÐ°ÑĻÐµÐ²": 7669,
      "Ġprojekat": 7670,
      "ĠÐ¿Ð¾Ð·Ð¸ÑĨ": 7671,
      "Â£": 7672,
      "ĠKosova": 7673,
      "ĠÐºÐ¾Ð¼Ð¿Ð°Ð½": 7674,
      "Ġ>": 7675,
      "ĠÐ¶ÐµÐ½Ðµ": 7676,
      "Ġvole": 7677,
      "Ġsmanjuje": 7678,
      "ĠÑĢÐ°ÑģÐ¿Ð¾Ð»": 7679,
      "ĠÄįinjenica": 7680,
      "Ð¸ÑĩÐ½Ñĥ": 7681,
      "Ġsamog": 7682,
      "oca": 7683,
      "Ġpripa": 7684,
      "hodno": 7685,
      "500": 7686,
      "ĠÐ¾Ð±Ð¸ÑĩÐ½Ð¾": 7687,
      "ĠmoÄĩ": 7688,
      "cem": 7689,
      "Ð¾ÐºÐ¾": 7690,
      "ĠÄįije": 7691,
      "ĠÐĳÐµÐ»": 7692,
      "ĠSrba": 7693,
      "ĠÑĥÑĩÐ¸Ð½": 7694,
      "ĠÑĥÐ½Ð°Ð¿ÑĢÐµÑĴ": 7695,
      "ĠÐ¿Ð¾Ð·Ð½": 7696,
      "ĠÐ¼Ð°ÑĢÐº": 7697,
      "Äįine": 7698,
      "Ġhrva": 7699,
      "Ġkorak": 7700,
      "ĠÐ¿Ð¾Ð²ÑĢÐµÐ´": 7701,
      "Ġregistrova": 7702,
      "á¼": 7703,
      "ĠÄįaso": 7704,
      "Ġdeteta": 7705,
      "naro": 7706,
      "ae": 7707,
      "ÑĥÑĻ": 7708,
      "Ġedu": 7709,
      "Ġjavnih": 7710,
      "ĠÐ¿Ð°Ðº": 7711,
      "ĠÐ³Ð»Ð°Ð³Ð¾Ð»Ð°": 7712,
      "siste": 7713,
      "ĠÐ´ÐµÐº": 7714,
      "ĠizraÄįuna": 7715,
      "ÑĨÐ¸Ð¿Ð»": 7716,
      "ĠkuÄĩi": 7717,
      "ĠÐ·Ð°ÑĤÐ²Ð¾ÑĢ": 7718,
      "ĠÑĤÐ¸Ð¼Ðµ": 7719,
      "ĠÐ±Ð¸Ð±Ð»Ð¸": 7720,
      "znog": 7721,
      "ĠÑģÐ¿Ð¾ÑĢÐ°Ð·": 7722,
      "ĠloÅ¡e": 7723,
      "Ġdisertacija": 7724,
      "Ġjos": 7725,
      "Ġkg": 7726,
      "ĠÏĦ": 7727,
      "Ġtkiva": 7728,
      "Ð²ÑĢÑĤ": 7729,
      "Äĩene": 7730,
      "Ġ42": 7731,
      "rila": 7732,
      "ĠÐ·Ð°Ð´Ð°ÑĤ": 7733,
      "ĠkoriÅ¡Äĩenjem": 7734,
      "ĠÐ¸ÑģÑĤÐ¸": 7735,
      "Ġtehnologija": 7736,
      "Ð°Ð¶Ñĥ": 7737,
      "rine": 7738,
      "ĠÐ²Ð°ÑĢÐ¸ÑĺÐ°Ð±": 7739,
      "Ġpozori": 7740,
      "88": 7741,
      "Ġogleda": 7742,
      "ĠSadu": 7743,
      "ĠÐ·Ð²Ð°Ð½": 7744,
      "ĠkaÅ¾u": 7745,
      "Ð¸Ð´ÑĢ": 7746,
      "ÑĥÐ´Ð¸": 7747,
      "elek": 7748,
      "ÐµÑĤÐ°ÑĢÐ°": 7749,
      "gena": 7750,
      "Ġref": 7751,
      "Ġveliku": 7752,
      "loÅ¾i": 7753,
      "ĠÐºÑĢÐ¸Ð²Ð¸ÑĩÐ½Ð¾Ð³": 7754,
      "Ð¿ÑĢÐµ": 7755,
      "ĠÑĤÐµÑĢÐ¼Ð¸Ð½": 7756,
      "Ð¸ÑģÑĤÑĢÐ¸Ð±": 7757,
      "ĠÐ½Ð°ÑĩÐ¸Ð½Ð°": 7758,
      "ĠÐ·ÐµÐ¼ÑĻÐ°Ð¼Ð°": 7759,
      "ĠpriÄįe": 7760,
      "ĠÐ¿ÑĢÐ¸ÑĢÐ¾Ð´Ðµ": 7761,
      "Ġjanu": 7762,
      "Ġneda": 7763,
      "Ð°ÑĢÐ½Ðµ": 7764,
      "DÐĮ": 7765,
      "leksi": 7766,
      ".(": 7767,
      "veza": 7768,
      "Ġgore": 7769,
      "Âł": 7770,
      "Ġbele": 7771,
      "ĠÑģÐ¿Ð¾ÑĢÑĤ": 7772,
      "Ð½ÐµÑĢ": 7773,
      "Ġdobra": 7774,
      "ĠÐ¼ÐµÐ´Ð¸ÑĨ": 7775,
      "vnosti": 7776,
      "ÐĲÐºÐ¾": 7777,
      "ĠÐºÐ¾ÑĺÐ¾Ð¼": 7778,
      "Ġpartner": 7779,
      "Ġosnovnih": 7780,
      "ĠÑĦÑĥÐ½ÐºÑĨÐ¸ÑĺÐ°": 7781,
      "Ġlj": 7782,
      "ot": 7783,
      "Ġpake": 7784,
      "ĠÑĢÐµÐ¿": 7785,
      "ĠÐĶÑĢÐ¶": 7786,
      "zmi": 7787,
      "ĠÐ±ÑĥÐ´Ñĥ": 7788,
      "ĠÑĤÑĢÐ°Ð½ÑģÐ¿": 7789,
      "ĠobjaÅ¡nje": 7790,
      "ÐºÐ¾Ð²": 7791,
      "Ð±Ñĥ": 7792,
      "Ð¾Ð²Ð°Ð½Ð¾": 7793,
      "ĠuÄīe": 7794,
      "ĠVr": 7795,
      "Ġcivi": 7796,
      "ĠkoliÄįine": 7797,
      "Ġvelikih": 7798,
      "ĠveÄĩu": 7799,
      "Ð°Ð²Ð°ÑĺÑĥÑĽÐ¸": 7800,
      "ĠÑģÐ¸ÑģÑĤÐµÐ¼Ñĥ": 7801,
      "tija": 7802,
      "ĠÐ¾ÑģÐ¸Ð¼": 7803,
      "ini": 7804,
      "ĠÐŀÐ¿": 7805,
      "Â²": 7806,
      "ĠÐĵÐ»": 7807,
      "ĠÐ¾Ð¿Ð°Ñģ": 7808,
      "Ġrazlog": 7809,
      "Ġradika": 7810,
      "ĠOp": 7811,
      "Ġbiljaka": 7812,
      "ĠÐ¸ÑģÑĤÐ¸ÑĩÐµ": 7813,
      "boli": 7814,
      "Ġkance": 7815,
      "ĠÐ·Ð°Ð´ÑĢÐ¶": 7816,
      "Ð°ÐºÑĪ": 7817,
      "naca": 7818,
      "Ġnovim": 7819,
      "ĠÐ¾ÐºÑĢ": 7820,
      "É¢É¬": 7821,
      "SE": 7822,
      "Ġoptima": 7823,
      "ÐµÑĦÐ¸ÑĨÐ¸ÑĺÐµ": 7824,
      "Ġgovore": 7825,
      "ĠÐ¾Ð´Ð»ÑĥÐºÐ°": 7826,
      "ĠSkup": 7827,
      "Ġprobleme": 7828,
      "ĠtroÅ¡kova": 7829,
      "ĠmuÅ¡kar": 7830,
      "Ġnastavnika": 7831,
      "ĠÐ¸Ð½ÑĤÐµÑĢÐ²": 7832,
      "Ġprave": 7833,
      "Ġtehnologije": 7834,
      "GA": 7835,
      "ĠÐ°Ð½Ð³": 7836,
      "Ġrazgova": 7837,
      "ĠÐ¼ÐµÑĴÑĥÑĤÐ¸Ð¼": 7838,
      "ljivih": 7839,
      "Ġkomentar": 7840,
      "Ġtvrdi": 7841,
      "Ð°ÑĢÐµ": 7842,
      "ĠÑģÑĤÑĢÑĥÐºÑĤÑĥÑĢÐµ": 7843,
      "uzima": 7844,
      "ĠÐĺÑĤÐ°Ð»": 7845,
      "ĠIZ": 7846,
      "Ġkojeg": 7847,
      "ÐµÐ½Ð¸ÑĨÐµ": 7848,
      "Ġzapre": 7849,
      "Äįili": 7850,
      "Kad": 7851,
      "Ð¾Ð²ÑĺÐµÑĤ": 7852,
      "Ð°ÑĪÐ°": 7853,
      "ya": 7854,
      "ĠÐ´Ð¸Ð¿Ð»Ð¾Ð¼": 7855,
      "ĠÐµÐ»ÐµÐ¼ÐµÐ½Ð°ÑĤÐ°": 7856,
      "deset": 7857,
      "Ġ1989": 7858,
      "Ġdalji": 7859,
      "ktoru": 7860,
      "Ġbiv": 7861,
      "Ġdobili": 7862,
      "Ġpouzda": 7863,
      "ÑĥÑĺÑĥÑĽ": 7864,
      "valo": 7865,
      "Ġbira": 7866,
      "ĠÑĥÐºÑĻÑĥÑĩÑĥÑĺÑĥÑĽÐ¸": 7867,
      "Ð¸ÑĤÐµÑĤÑĥ": 7868,
      "ĠÐ¿Ð¾Ð±Ð¾ÑĻÑĪ": 7869,
      "ĠJE": 7870,
      "Ð°Ð±ÑĢÐ°Ð½": 7871,
      "DP": 7872,
      "MP": 7873,
      "Ġbak": 7874,
      "ĠÐ¾Ð¿ÑĤÐ¸Ð¼": 7875,
      "SKI": 7876,
      "znih": 7877,
      "ĠÑĤÐµÑĢÐ¼": 7878,
      "ĠoÅ¡teÄĩenja": 7879,
      "vljena": 7880,
      "Ġnemogu": 7881,
      "ĠÑĤÐ°Ð»": 7882,
      "ĠÐ´ÑĢÑĥÐ³Ð°": 7883,
      "Ġ65": 7884,
      "Ġostaje": 7885,
      "Ġkapitala": 7886,
      "ĠÐ¿Ð¾ÑģÐ»ÐµÐ´Ñļ": 7887,
      "ĠÐ¸ÑģÑĤÐ°Ðº": 7888,
      "Ġvizu": 7889,
      "ĠÑĨÐµÐ½ÑĤ": 7890,
      "Ð¸Ð½ÑģÐºÐ°": 7891,
      "ĠÑĢÐ°ÑģÐ¿ÑĢ": 7892,
      "Ġupla": 7893,
      "Pose": 7894,
      "Ð°ÐºÑĨ": 7895,
      "Ġradnog": 7896,
      "ÐĲÐĿ": 7897,
      "Ġ49": 7898,
      "Ġvoza": 7899,
      "ĠÑģÐ°Ð·Ð½": 7900,
      "Ð¸ÑģÑĤÐ¸ÑĩÐºÐ¸Ñħ": 7901,
      "Ġ75": 7902,
      "ĠÐ¿ÑĢÐ²Ðµ": 7903,
      "vljuje": 7904,
      "Ġmale": 7905,
      "ĠÑĢÐ¾Ð±": 7906,
      "ntan": 7907,
      "Ġjavne": 7908,
      "ĠÐŁÐ¾Ð¿": 7909,
      "Ġstopa": 7910,
      "ĠÑģÑĤÑĥÐ´Ð¸ÑĺÐµ": 7911,
      "Ġpriprema": 7912,
      "ĠdomaÄĩin": 7913,
      "Ġalkoho": 7914,
      "Ġsek": 7915,
      "ĠÐ¾Ð´Ð¼": 7916,
      "Ð°ÑĤÑĥ": 7917,
      "Ġtretmana": 7918,
      "ĠÐ´ÐµÐ¼Ð¾ÐºÑĢÐ°ÑĤ": 7919,
      "Ġotvo": 7920,
      "ĠÐ¿Ð¾ÑģÑĢÐµÐ´": 7921,
      "ĠÐ¿ÑĢÐ°ÐºÑģÐ¸": 7922,
      "ĠÐ¼Ð°Ðº": 7923,
      "Ġautoma": 7924,
      "Ġdolara": 7925,
      "Ð°ÑĩÐºÐ¸Ñħ": 7926,
      "ĠÐ´ÑĢÐ°Ð¼": 7927,
      "ĠÐ¸Ð½ÑĤÐµÐ»": 7928,
      "ĠÐ¾Ð²Ð´Ðµ": 7929,
      "ÊĤ": 7930,
      "ĠÑĢÐµÐ»Ð¸Ð³": 7931,
      "Ġdeset": 7932,
      "Ġwith": 7933,
      "ĠÐ¸ÑģÐºÐ°Ð·": 7934,
      "tva": 7935,
      "Ġavi": 7936,
      "ĠÐ·Ð°Ð½": 7937,
      "Ġznaju": 7938,
      "Ġcrkve": 7939,
      "rur": 7940,
      "krimina": 7941,
      "ĠÐºÑļÐ¸Ð³Ð°": 7942,
      "vodom": 7943,
      "ĠÐ¸ÑģÐ¿Ð¸ÑĤÐ¸Ð²": 7944,
      "tnije": 7945,
      "ĠpolitiÄįke": 7946,
      "Ġsuo": 7947,
      "Å¡kog": 7948,
      "Ġovako": 7949,
      "ĠÐ´ÐµÑĺ": 7950,
      "Ġdakle": 7951,
      "Ð¼Ð°Ð½Ð°": 7952,
      "Ð¸ÑģÐ¿": 7953,
      "Ġsoli": 7954,
      "ĠÐ²Ð¾Ð´Ð¸": 7955,
      "CIJA": 7956,
      "ĠÑģÐ°Ð´ÑĢÐ¶Ð°ÑĺÐ°": 7957,
      "Ġkretanja": 7958,
      "Ġsin": 7959,
      "ĠuÄįeÅ¡Äĩe": 7960,
      "nosu": 7961,
      "ĠpoÄįinje": 7962,
      "liki": 7963,
      "Ku": 7964,
      "ĠÑģÐ¸Ð³Ð½": 7965,
      "Ð¿ÑĢÐµÑĤ": 7966,
      "ÑģÐºÑĢ": 7967,
      "ĠÐºÐ¾Ð³Ð°": 7968,
      "Ġgranice": 7969,
      "Å¡ni": 7970,
      "É¢É¤": 7971,
      "Ġciklu": 7972,
      "the": 7973,
      "ĠÐ¿Ð¾ÐºÐ°Ð·ÑĥÑĺÑĥ": 7974,
      "feri": 7975,
      "Ġzatvore": 7976,
      "ĠCen": 7977,
      "Äĩom": 7978,
      "ÑĥÐ´Ð±": 7979,
      "ÐµÐºÐ¾": 7980,
      "ferent": 7981,
      "ÉŃÉ": 7982,
      "Ġodluku": 7983,
      "Å¾eno": 7984,
      "Ġpropi": 7985,
      "ÐµÑĢÐ»": 7986,
      "Ġ150": 7987,
      "ĠÐ¿Ð°ÑĤÑĢ": 7988,
      "rijama": 7989,
      "Äįavaju": 7990,
      "Ġhomo": 7991,
      "Ġinternet": 7992,
      "Ġatmos": 7993,
      "Ð¸ÑĺÑģÐºÐ¾": 7994,
      "Ġline": 7995,
      "Ġendo": 7996,
      "Ġamba": 7997,
      "Ġoktobra": 7998,
      "Ġjednostavno": 7999,
      "Ð²Ð¸Ñħ": 8000,
      "So": 8001,
      "Ġvrata": 8002,
      "Ġpotrebna": 8003,
      "ĠÑĥÑĤÐ²ÑĢÐ´": 8004,
      "ĠÑĤÐµÐºÑģÑĤÐ°": 8005,
      "ĠÐ½ÐµÐºÐ¸Ð¼": 8006,
      "lovi": 8007,
      "Ġmigra": 8008,
      "ĠÑļÐµÐ³Ð¾Ð²Ð¾": 8009,
      "ĠLju": 8010,
      "ĠÐ¿ÑĢÐµÑĨÐ¸Ð·": 8011,
      "Ho": 8012,
      "Ġpostojanje": 8013,
      "Ġkarci": 8014,
      "Å¡avanje": 8015,
      "ĠÐµÐ½ÐµÑĢÐ³Ð¸ÑĺÐµ": 8016,
      "Ġzemlju": 8017,
      "Ð¸ÑĩÐ°ÑĢÐ°": 8018,
      "ĠÐµÐ¼Ð¾ÑĨ": 8019,
      "Ġoptimi": 8020,
      "Ġpovr": 8021,
      "ĠÐºÐ¾Ð»Ð¸ÐºÐ¾": 8022,
      "sr": 8023,
      "Ġnapred": 8024,
      "Ġbrzine": 8025,
      "Ġizrazi": 8026,
      "Ð¾Ð¿Ð¾Ð»": 8027,
      "ĠÐ´Ð¾Ð±Ð°": 8028,
      "Å¡en": 8029,
      "ĠÐŁÐ¾Ð´": 8030,
      "OVA": 8031,
      "ĠkoÅ¡ta": 8032,
      "ĠdruÅ¡tvu": 8033,
      "Ġkategorije": 8034,
      "vlada": 8035,
      "Å¾na": 8036,
      "sani": 8037,
      "tskoj": 8038,
      "ĠÐºÐ¾Ð½ÑĨÐµÐ¿": 8039,
      "ĠÐ¿Ð¾ÑĩÐµÑĤÐºÑĥ": 8040,
      "ĠÐĴÑĥÐº": 8041,
      "Ġmoj": 8042,
      "Osno": 8043,
      "ljenju": 8044,
      "ĠzaÅ¡titi": 8045,
      "ĠÐ³ÑĢÑĥÐ¿Ð¸": 8046,
      "Ġhor": 8047,
      "Ġinstitucija": 8048,
      "ĠÐ½Ð°ÑģÑĤÑĥÐ¿": 8049,
      "Ð°Ð¼Ð±": 8050,
      "ĠÐ¼Ð¾Ð¼": 8051,
      "Ġrat": 8052,
      "ĠÐ´Ð¾Ð±Ð¸Ñĺ": 8053,
      "Ð¸Ð½Ð³Ð²": 8054,
      "ĠAd": 8055,
      "ĠuspeÅ¡no": 8056,
      "ÐŁÑĢÐµÐ´": 8057,
      "ĠÎ±": 8058,
      "Ð°ÐºÑĨÐ¸ÑĺÐ°": 8059,
      "LU": 8060,
      "Ġprakse": 8061,
      "ÐµÐºÑĤÑĥ": 8062,
      "Ð¸ÑĽÐ¸": 8063,
      "ia": 8064,
      "Ð¸ÑĢÐ°ÑļÑĥ": 8065,
      "ĠÐ½Ð¸ÑĤÐ¸": 8066,
      "ĠÑĺÐ¾Ñĺ": 8067,
      "BI": 8068,
      "ĠÐ³Ð»ÑĥÐ¼": 8069,
      "ĠÐ·Ð°Ð²Ð¸ÑģÐ½Ð¾ÑģÑĤÐ¸": 8070,
      "ĠnaÅ¡u": 8071,
      "Åłto": 8072,
      "Ġfakultet": 8073,
      "Ð»Ð¾Ð¶": 8074,
      "ĠÐ·Ð±Ð¸ÑĢ": 8075,
      "Ð²ÑĢÑģÑĤ": 8076,
      "vano": 8077,
      "Ð¸ÑĺÐµÐ²": 8078,
      "Ġnjene": 8079,
      "ĠÐ´ÑĢÑĥÐ³Ð°Ñĩ": 8080,
      "Ġproizvode": 8081,
      "Ġdrugu": 8082,
      "ĠdogaÄĳaja": 8083,
      "vljeno": 8084,
      "nts": 8085,
      "ÑĥÐ»Ðµ": 8086,
      "ÑĢÐ¾Ð¼": 8087,
      "Ð°Ð½Ð¾ÑģÑĤ": 8088,
      "Ð¸ÑĨÐ°Ñĺ": 8089,
      "Ġ.-": 8090,
      "ĠdruÅ¡tvene": 8091,
      "ĠPetro": 8092,
      "ĠÐ¼Ð°ÐºÑģÐ¸Ð¼": 8093,
      "que": 8094,
      "Ġvirusa": 8095,
      "ĠÐ¾ÑģÐ²Ð¾Ñĺ": 8096,
      "ĠStu": 8097,
      "Ġ.\"": 8098,
      "ÐµÑĢÑĨÐµÐ³Ð¾Ð²": 8099,
      "put": 8100,
      "Ġ44": 8101,
      "ĠÑļÐ¸ÑħÐ¾Ð²Ð¾Ð³": 8102,
      "roviÄĩ": 8103,
      "Ġkontinui": 8104,
      "ĠÑģÑĤÐ°ÑĤÑĥÑģ": 8105,
      "Ġvrije": 8106,
      "KE": 8107,
      "ÐŀÐĴ": 8108,
      "Ġstavlja": 8109,
      "ĠpodruÄįju": 8110,
      "ĠÑģÐµÐ³": 8111,
      "Äĳar": 8112,
      "don": 8113,
      "port": 8114,
      "ktivno": 8115,
      "EÐİ": 8116,
      "Ġputovanja": 8117,
      "Ġ55": 8118,
      "ÑĤÐµÑĢÐ½": 8119,
      "Ġprojekto": 8120,
      "ĠuÄįesta": 8121,
      "ĠÑģÐ°Ð²ÐµÐ·": 8122,
      "ĠÐ²Ð»Ð°Ñģ": 8123,
      "ÐŁÐ¾": 8124,
      "ĠÐ½Ð°Ð·Ð¸Ð²Ð°": 8125,
      "Ġnjihovu": 8126,
      "ĠÑģÐ²ÐµÑĤÑģÐºÐ¾Ð³": 8127,
      "ĠÐºÐ°ÑĢÐ°ÐºÑĤÐµÑĢÐ¸ÑģÑĤÐ¸ÐºÐµ": 8128,
      "Ġrezultatima": 8129,
      "Ð°Ð½Ð³": 8130,
      "ÐŀÐ±": 8131,
      "ĠÐ¿ÑĢÐµÐ³Ð»ÐµÐ´": 8132,
      "ĠÐ´Ð¾Ñģ": 8133,
      "raca": 8134,
      "ĠÐ½Ð°ÑĺÐ²ÐµÑĽ": 8135,
      "Ġraspode": 8136,
      "ÐµÐ½Ð¸ÑĨÐ°": 8137,
      "Ġzaintere": 8138,
      "ĠÐ²ÐµÐºÑĥ": 8139,
      "ĠduÅ¾e": 8140,
      "stveno": 8141,
      "ĠSad": 8142,
      "Ġopreme": 8143,
      "mail": 8144,
      "Ġprate": 8145,
      "psi": 8146,
      "Ġrazre": 8147,
      "Lo": 8148,
      "tosti": 8149,
      "Ð¼Ð¸Ð½Ð¸ÑģÑĤÑĢ": 8150,
      "ĠvaÅ¡": 8151,
      "ĠÅ¡tampa": 8152,
      "Ġtraje": 8153,
      "ĠtaÄįno": 8154,
      "Ġtesta": 8155,
      "ÄĮe": 8156,
      "Ġmenta": 8157,
      "Ġkriteriju": 8158,
      "OS": 8159,
      "ĠdoÄĩi": 8160,
      "Ġvezu": 8161,
      "Ġprimena": 8162,
      "Ġbaze": 8163,
      "ĠMeto": 8164,
      "ĠnaÄįe": 8165,
      "ork": 8166,
      "Ġuklanja": 8167,
      "ĠVI": 8168,
      "ĠÐ¸ÑģÑĤÐ¾Ñĩ": 8169,
      "Ġustanova": 8170,
      "pp": 8171,
      "Î·": 8172,
      "Ġpreduzetni": 8173,
      "Ġokre": 8174,
      "ĠKar": 8175,
      "Ġstalno": 8176,
      "Ġminera": 8177,
      "ĠÑģÐ°Ð¼Ð¾ÑģÑĤ": 8178,
      "Ġparametri": 8179,
      "Ġ43": 8180,
      "Ð°ÑĢÐ¼": 8181,
      "sobno": 8182,
      "Ġnano": 8183,
      "ÐŁÐ¾ÑģÑĤ": 8184,
      "vnik": 8185,
      "Ġstavove": 8186,
      "ĠÐ±ÑĥÐ³Ð°ÑĢ": 8187,
      "ĠÐ¾Ð´Ð»ÑĥÐºÐµ": 8188,
      "ĠSP": 8189,
      "Ġzadu": 8190,
      "ĠÅ¡irom": 8191,
      "ĠÐ¾Ð±Ð°": 8192,
      "Ġpokreta": 8193,
      "ĠÐ¿Ð¾Ð»Ð¾Ð¶Ð°Ñĺ": 8194,
      "ĠovlaÅ¡Äĩe": 8195,
      "Ġdetalj": 8196,
      "Ġplat": 8197,
      "izvo": 8198,
      "Ġstranke": 8199,
      "ĠÐ½Ð°Ð¿ÑĢÐµÐ´": 8200,
      "ticaj": 8201,
      "ĠÐ¿Ð¾ÑĺÐ°Ð²ÑĻ": 8202,
      "Ġnajpo": 8203,
      "Ġperspe": 8204,
      "ĠÐ³Ð¾Ð´Ð¸Ð½Ñĥ": 8205,
      "vek": 8206,
      "ĠÐ¸Ð½Ð²ÐµÑģÑĤ": 8207,
      "Ġopozi": 8208,
      "tona": 8209,
      "Äīaj": 8210,
      "ÑĤÑĥÐµÐ»": 8211,
      "ĠÐºÐ¾Ð¼Ð°Ð½Ð´": 8212,
      "ĠÑĥÑģÐ¿ÐµÑħ": 8213,
      "ĠÐ¸Ð·Ð±ÐµÐ³": 8214,
      "ĠÐ¼ÐµÑĢÐ°": 8215,
      "ĠÑģÑĤÐ¸Ð»": 8216,
      "ranim": 8217,
      "ĠÐļÐ¾ÑĢ": 8218,
      "Ġonaj": 8219,
      "spira": 8220,
      "Ġprikuplja": 8221,
      "ĠÐ¿Ð¾Ð·Ð¾ÑĢ": 8222,
      "ĠÐĿÐ°ÐºÐ¾Ð½": 8223,
      "Ġcito": 8224,
      "ĠÐ½ÐµÑĽÐµ": 8225,
      "Ġzla": 8226,
      "ĠÐ´Ð¾ÐºÑĤÐ¾ÑĢ": 8227,
      "ĠRA": 8228,
      "Ġzbi": 8229,
      "ĠÐ¸Ð·Ð½Ð¾ÑģÐ¸": 8230,
      "ĠÐ½ÐµÑģÑĤ": 8231,
      "âĢĺ": 8232,
      "ĠÐ¿Ð¾Ð´ÑĢÑĥÑĩÑĺÐ°": 8233,
      "vljen": 8234,
      "2016": 8235,
      "ĠÐ¿Ð¾Ð²ÐµÑĢ": 8236,
      "Ġdoktor": 8237,
      "ÑĢÐ°ÑĦÐ¸Ðº": 8238,
      "ĠuÄįenja": 8239,
      "Ġpm": 8240,
      "ĠÑĤÐ¸": 8241,
      "Ġsocio": 8242,
      "Ð¸Ð±ÑĢ": 8243,
      "Ġdepre": 8244,
      "ĠÐ¾Ð¿Ñģ": 8245,
      "Ð°ÑĩÐºÐ¾Ñĺ": 8246,
      "bera": 8247,
      "Ġisporu": 8248,
      "ĠGu": 8249,
      "ĠÐ´Ð²Ð¾ÑĢ": 8250,
      "hom": 8251,
      "Ġsja": 8252,
      "Ġsprovodi": 8253,
      "Ġzanima": 8254,
      "Ġtekst": 8255,
      "ĠÐ±ÐµÐ·Ð±ÐµÐ´Ð½Ð¾ÑģÑĤÐ¸": 8256,
      "kupi": 8257,
      "ĠGrad": 8258,
      "Ġmladih": 8259,
      "ĠÐ²ÑĢÑĪÐ¸": 8260,
      "ĠÐ¼ÑĥÑĪÐºÐ°ÑĢ": 8261,
      "ÑĤÐµÐ¶": 8262,
      "Ġmaterijal": 8263,
      "dri": 8264,
      "Ð»Ð¸ÑĨ": 8265,
      "ĠÐ´ÐµÑģÐµÑĤ": 8266,
      "Pu": 8267,
      "rtika": 8268,
      "ĠÐºÐ¾Ð³": 8269,
      "ÐļÑĢ": 8270,
      "Ð°Ð²Ð½": 8271,
      "Ð¸Ð³Ð¸Ð½": 8272,
      "vka": 8273,
      "rhi": 8274,
      "ĠÐ¿ÑĢÐ°Ð²Ð¸Ð»": 8275,
      "nijim": 8276,
      "Ġdelova": 8277,
      "ĠÑģÐ°Ð¾Ð±ÑĢÐ°ÑĽ": 8278,
      "Ġlaborato": 8279,
      "Ġvredno": 8280,
      "kovima": 8281,
      "ĠÐ¿ÑĢÐ²Ð¾Ð³": 8282,
      "dama": 8283,
      "ÐµÑģÐ°": 8284,
      "95": 8285,
      "hy": 8286,
      "zorak": 8287,
      "ĠBar": 8288,
      "Ġodsu": 8289,
      "jsko": 8290,
      "ĠÐºÐ»ÑĥÐ±": 8291,
      "Ġkvadra": 8292,
      "Ge": 8293,
      "ĠPoruka": 8294,
      "ĠporeÄĳenju": 8295,
      "biÄįaje": 8296,
      "ĠdruÅ¡tvenih": 8297,
      "Ġtur": 8298,
      "Å¡o": 8299,
      "ĠÐľÐµÑĴÑĥÑĤÐ¸Ð¼": 8300,
      "ĠÐ¿Ð¾ÑĺÐ¼": 8301,
      "Ð¹": 8302,
      "snoj": 8303,
      "Ġkompozi": 8304,
      "ĠÐºÑĢÑĥÐ³": 8305,
      "ds": 8306,
      "ĠÐ¾Ð±Ð»Ð¸ÐºÑĥ": 8307,
      "Ġpritiska": 8308,
      "ĠÐ¿ÑĢÐ¸Ð·Ð½": 8309,
      "Ġprocene": 8310,
      "ĠÐ´Ð¸ÑĺÐ°Ð»": 8311,
      "king": 8312,
      "Ġinostran": 8313,
      "Ġposledice": 8314,
      "ĠÐ¾Ð±Ð°Ð²": 8315,
      "ĠTele": 8316,
      "ĠÑĢÐ¸Ð·Ð¸ÐºÐ°": 8317,
      "Ġmetala": 8318,
      "ĠÐ»Ð¸ÑĨÐµ": 8319,
      "ĠÑĦÐ¸Ð»Ð¾Ð·Ð¾ÑĦ": 8320,
      "ĠÐ¡ÑĤÐµÑĦ": 8321,
      "ĠÑģÑĥÐ¼": 8322,
      "ĠÐ¼ÐµÑĤÐ¾Ð´Ðµ": 8323,
      "Fa": 8324,
      "ĠpovrÅ¡ina": 8325,
      "Ð°ÑĢÐº": 8326,
      "Ġ41": 8327,
      "Ġrazno": 8328,
      "lli": 8329,
      "Ġ64": 8330,
      "ĠÐ³ÑĢÐµÑĪ": 8331,
      "Ġceo": 8332,
      "ĠistraÅ£i": 8333,
      "ĠÑĺÐ°Ð²ÑĻÐ°": 8334,
      "Ġkratko": 8335,
      "ĠÑĥÐ¿ÑĢÐ°Ð²ÑĻÐ°ÑļÐ°": 8336,
      "Ïħ": 8337,
      "ĠÐ¿Ð¾ÑĢÐµ": 8338,
      "Ġcentru": 8339,
      "ĠÐ·Ð°Ð¿ÑĢÐ°Ð²Ð¾": 8340,
      "Ġnikad": 8341,
      "ĠÑĢÐµÑĦÐ¾ÑĢÐ¼": 8342,
      "Ð¸Ð½ÑĤ": 8343,
      "Ġpodstica": 8344,
      "Ġtima": 8345,
      "bje": 8346,
      "ĠDE": 8347,
      "Ġpopulacije": 8348,
      "Å¡tvu": 8349,
      "Ġukaza": 8350,
      "Ġpapi": 8351,
      "ĠÐ¸Ð·Ð²ÐµÐ´": 8352,
      "Ġpropa": 8353,
      "Prvi": 8354,
      "ĠÐľÐ°ÑĤ": 8355,
      "Ð¸ÑģÐ°Ð½Ð°": 8356,
      "ĠÐķÐ½": 8357,
      "Ñİ": 8358,
      "ĠÑĺÐµÐ´Ð¸Ð½ÑģÑĤÐ²": 8359,
      "Ġspada": 8360,
      "ÐµÐ·Ðµ": 8361,
      "ĠÐµÐ²": 8362,
      "2022": 8363,
      "rajuÄĩi": 8364,
      "ĠÐ²ÐµÑĽÐµ": 8365,
      "Ġnjoj": 8366,
      "ÐĺÐĪ": 8367,
      "ĠÐ¼Ð¾ÑĢÐ°ÑĺÑĥ": 8368,
      "âĢ¡": 8369,
      "ĠÑĥÑĤÐ¸ÑĩÐµ": 8370,
      "Ð¾Ð±Ð¸Ð»": 8371,
      "Ġzadatak": 8372,
      "Ġfabri": 8373,
      "ÐµÑĤÐµÑĢ": 8374,
      "Ġistakao": 8375,
      "ĠÐ¸ÑģÐ¿ÑĥÑļ": 8376,
      "ĠÐ´Ð¸Ð½Ð°Ð¼": 8377,
      "Ġnere": 8378,
      "ĠÐ¿ÑĢÐµÐ½Ð¾Ñģ": 8379,
      "Ð¸Ð²Ð¸": 8380,
      "Å¡njem": 8381,
      "ĠÐ·Ð°ÑģÑĤÑĥÐ¿ÑĻ": 8382,
      "ĠÐ¿ÑĢÐ¸Ð»Ð°Ð³": 8383,
      "Ġscena": 8384,
      "Ġ400": 8385,
      "ĠÑĨÐ¸ÑĤ": 8386,
      "Ġfrancu": 8387,
      "ĠÐ²ÐµÑĽÐ°": 8388,
      "ĠreÅ¡i": 8389,
      "ĠÐ¸ÑģÑĤÐµ": 8390,
      "ĠÐĳÐ¾Ð¶": 8391,
      "org": 8392,
      "ĠÐºÐ¾Ð½ÑĦ": 8393,
      "jna": 8394,
      "ÉļÊģ": 8395,
      "ÑĥÐ³Ðµ": 8396,
      "mon": 8397,
      "ĠÐ³ÑĢÑĩ": 8398,
      "Ġprogla": 8399,
      "ÐºÐ¾Ñģ": 8400,
      "ĠÐ½a": 8401,
      "Ðī": 8402,
      "ĠÉª": 8403,
      "Ġtakve": 8404,
      "ĠÑĩÑĥÐ²": 8405,
      "Ġodi": 8406,
      "Ġpotpisa": 8407,
      "pravi": 8408,
      "ÐµÑģÐµÑĤÐ¸Ñħ": 8409,
      "Ġnpr": 8410,
      "ĠÐľÐ¸Ð½Ð¸ÑģÑĤÐ°ÑĢ": 8411,
      "riÅ¡Äĩe": 8412,
      "niÄĩ": 8413,
      "Äĩanje": 8414,
      "Ġcelokup": 8415,
      "ĠkuÄĩa": 8416,
      "ĠÉ¦": 8417,
      "ĠÑģÐ»Ð¸ÐºÐ°": 8418,
      "Ju": 8419,
      "ĠnaÅ¡a": 8420,
      "Ġkomponente": 8421,
      "ĠopÅ¡tine": 8422,
      "Ġskladi": 8423,
      "ĠTre": 8424,
      "Ġintervju": 8425,
      "Ġprodaje": 8426,
      "ĠÑĥÐ³ÑĢ": 8427,
      "ĠÐ¼Ð°Ð»Ð¾": 8428,
      "Ġkomunikacije": 8429,
      "ĠÑĺÑĥÐ³": 8430,
      "ĠCrve": 8431,
      "ĠdoÅ¾ivlja": 8432,
      "Ġ-,": 8433,
      "ĠÐ½Ð°ÑĺÐ²ÐµÑĽÐ¸": 8434,
      "ĠÐ¿Ð¾Ð½Ð°ÑĪÐ°ÑļÐ°": 8435,
      "ĠÐ·ÐµÐ¼ÑĻÐ¸ÑĪÑĤÐ°": 8436,
      "Ġistog": 8437,
      "ĠpredviÄĳa": 8438,
      "Ġobavesti": 8439,
      "ĠÐ´Ð¾Ð²Ð¾ÑĻÐ½Ð¾": 8440,
      "MoÅ¾e": 8441,
      "nae": 8442,
      "Ġtemperatura": 8443,
      "Ð°ÑĩÐºÐ¾Ð¼": 8444,
      "ĠÐ½ÐµÐ¾Ð¿ÑħÐ¾Ð´Ð½Ð¾": 8445,
      "teh": 8446,
      "%).": 8447,
      "Ð¾Ð»Ð¾ÑĪÐºÐ¾Ð³": 8448,
      "Ġproiz": 8449,
      "Ġcar": 8450,
      "Ġzanim": 8451,
      "Äįari": 8452,
      "ĠÑģÐµÐ»": 8453,
      "mato": 8454,
      "Ġupa": 8455,
      "lati": 8456,
      "Ġblizi": 8457,
      "ĠlakÅ¡e": 8458,
      "Ð¾Ð¼ÐµÑĤÑĢ": 8459,
      "Ð¾ÑģÐ»Ðµ": 8460,
      "lep": 8461,
      "Ð»Ð¾ÑĤ": 8462,
      "ĠPA": 8463,
      "ĠÑĩÐµÑģÑĤ": 8464,
      "Ġuklo": 8465,
      "Ġnepre": 8466,
      "ĠNova": 8467,
      "Ð¾ÑĢÐ¸Ð·": 8468,
      "Ġregiona": 8469,
      "ĠâĪĴ": 8470,
      "ĠÐ´Ð¾Ð½Ð¾ÑĪ": 8471,
      "ĠÑģÐ°Ð³Ð»ÐµÐ´": 8472,
      "Ð¸ÐºÐ¸": 8473,
      "ĠÑģÐ¾Ð±": 8474,
      "reo": 8475,
      "ĠÑģÐ²ÐµÐ´Ð¾Ñĩ": 8476,
      "ĠÑĴ": 8477,
      "Ġavgu": 8478,
      "Ġsvima": 8479,
      "ĠMiha": 8480,
      "ĠÐ¿ÑĢÐµÑĢ": 8481,
      "Ġmasa": 8482,
      "ĠÑģÑĤÑĢÐ°Ð½Ð¸": 8483,
      "2008": 8484,
      "ÐµÐ½ÑĤÐ¸Ð¼Ð°": 8485,
      "Ġnjegovom": 8486,
      "Å¾avaju": 8487,
      "ĠÐ¼Ð»": 8488,
      "gov": 8489,
      "Mar": 8490,
      "Ġ120": 8491,
      "ĠÐ¾ÑĢÐ³Ð°Ð½Ð°": 8492,
      "Ð¸ÑģÐ¸ÑĺÐµ": 8493,
      "ÑģÑĤÐ¸ÑĤ": 8494,
      "Ġveb": 8495,
      "Äİe": 8496,
      "Ð¸Ð·Ð°Ð½ÑĤ": 8497,
      "Ġstimu": 8498,
      "Ġimovi": 8499,
      "ĠmiÅ¡ljenja": 8500,
      "xi": 8501,
      "Ġnado": 8502,
      "ĠÐ¿ÑĢÐ°ÑĽ": 8503,
      "hro": 8504,
      "ĠÅłe": 8505,
      "Ġznanje": 8506,
      "Ġeven": 8507,
      "knu": 8508,
      "ĠpoveÄĩanja": 8509,
      "Ð°Ð²Ð°Ð»Ð¸": 8510,
      "ÐŁÑĢÐ¸Ð¼": 8511,
      "Ð°Ð²Ð¸Ð»Ð°": 8512,
      "ĠÐ¿Ð°ÑĨÐ¸ÑĺÐµÐ½Ð°ÑĤÐ°": 8513,
      "Ġkaza": 8514,
      "Ġsnagu": 8515,
      "ĠDA": 8516,
      "ĠSrpske": 8517,
      "Å¡kih": 8518,
      "ĠÐ¾ÑģÑĤÐ°Ð»Ð¸Ñħ": 8519,
      "Ġsagleda": 8520,
      "Ġpriori": 8521,
      "Å¾avanje": 8522,
      "ĠÐľÐ°ÐºÐµÐ´Ð¾Ð½": 8523,
      "Ġnovu": 8524,
      "Ġmana": 8525,
      "ĠÐ½Ð°ÑĺÐ·": 8526,
      "ĠÑģÐºÑĥÐ¿ÑĪÑĤ": 8527,
      "Ġkarti": 8528,
      "ras": 8529,
      "Ġresursa": 8530,
      "zaciju": 8531,
      "Ġnjegovim": 8532,
      "ljava": 8533,
      "Ð°Ð²ÑĻÐµ": 8534,
      "Ovi": 8535,
      "Ġstoji": 8536,
      "Ġpritisak": 8537,
      "ĠÐ°Ð½Ð³Ð°Ð¶": 8538,
      "ĠÐ¸ÑģÑĤÑĢÐ°Ð¶Ð¸Ð²Ð°ÑļÐµ": 8539,
      "Ġby": 8540,
      "ÐŁÐ¾Ð´": 8541,
      "grama": 8542,
      "ĠÐ¼ÐµÐ½": 8543,
      "Ġrezo": 8544,
      "Ġregionu": 8545,
      "Äįnik": 8546,
      "ĠDrÅ¾a": 8547,
      "Ġjedinice": 8548,
      "ĠÐ»ÐµÑĤ": 8549,
      "ĠÐ¾Ð±ÑĢ": 8550,
      "Ġtehnika": 8551,
      "nia": 8552,
      "ĠukljuÄįi": 8553,
      "Ġlinije": 8554,
      "Ġpostao": 8555,
      "Ð¿Ð°Ð½": 8556,
      "ĠÑļÐ¸ÑħÐ¾Ð²Ð¸Ñħ": 8557,
      "ĠÐµÐºÑģÑĤ": 8558,
      "ÑĢÐµÑĪ": 8559,
      "ĠoruÅ¾": 8560,
      "Ð»Ð°Ñĩ": 8561,
      "ĠÐ´Ð¸Ð·": 8562,
      "Ġkama": 8563,
      "Ġ1988": 8564,
      "tskim": 8565,
      "Ġprikaz": 8566,
      "Ð¸Ð¿Ð°": 8567,
      "ĠÅła": 8568,
      "Ġodgovornost": 8569,
      "kako": 8570,
      "Ġnapla": 8571,
      "ÐºÐ¾Ñĺ": 8572,
      "Ġpravu": 8573,
      "Ð¾Ð¼Ð¸Ð½": 8574,
      "vajanje": 8575,
      "ĠÑļÐµÐ³Ð¾Ð²Ð¾Ð¼": 8576,
      "znu": 8577,
      "ĠÐ´Ð¸ÑģÑĤÑĢÐ¸Ð±": 8578,
      "tac": 8579,
      "Ġotpor": 8580,
      "logy": 8581,
      "rili": 8582,
      "RS": 8583,
      "Ġmati": 8584,
      "mentari": 8585,
      "ĠÐ¾ÑĩÑĥÐ²": 8586,
      "¬ģ": 8587,
      "ĠproÅ¡le": 8588,
      "Ġpreo": 8589,
      "ĠRado": 8590,
      "Ġportala": 8591,
      "Ð¾Ð²ÐµÐº": 8592,
      "ĠÐ³ÑĥÐ±Ð¸ÑĤ": 8593,
      "ĠÐ¿Ð¾ÑĩÐµÑĤÐºÐ°": 8594,
      "lat": 8595,
      "ĠnaÅ¡im": 8596,
      "Ð°ÑĢÐ½Ð¸": 8597,
      "lle": 8598,
      "Ġciljeva": 8599,
      "Ð²Ð¾Ð´": 8600,
      "ÉļÉŀ": 8601,
      "Ġfunkciju": 8602,
      "Ġroditelja": 8603,
      "ĠÐ½Ð°ÐºÐ½Ð°Ð´": 8604,
      "ĠTV": 8605,
      "ĠÑĩÐ»Ð°Ð½Ð°": 8606,
      "Ġnjegovu": 8607,
      "Ð¾Ð¼Ð°ÑĤ": 8608,
      "Ġporodica": 8609,
      "Ġciljem": 8610,
      "PoÅ¡to": 8611,
      "Ð¾Ð»ÑĥÑĤ": 8612,
      "Gla": 8613,
      "mske": 8614,
      "ĠkoliÄįina": 8615,
      "jenja": 8616,
      "ĠtreÄĩi": 8617,
      "ĠÐ¾Ð¼Ð¾Ð³ÑĥÑĽÐ°Ð²Ð°": 8618,
      "Ġpripad": 8619,
      "Ġsmanjenja": 8620,
      "Ġbitno": 8621,
      "ÐµÐ½Ð³": 8622,
      "Î¼": 8623,
      "Ġdao": 8624,
      "Ġstariji": 8625,
      "ĠobjaÅ¡njava": 8626,
      "ĠÑļÐ¸ÑħÐ¾Ð²Ð°": 8627,
      "CC": 8628,
      "ĠsaopÅ¡te": 8629,
      "ĠÐ¿Ð¾Ð»Ð¸ÑĤÐ¸ÑĩÐºÐµ": 8630,
      "Îº": 8631,
      "bde": 8632,
      "Ġkupu": 8633,
      "ĠVojvodine": 8634,
      "Ġsame": 8635,
      "É¢Éľ": 8636,
      "zin": 8637,
      "Ð°Ð²Ð°ÑĤÐ¸": 8638,
      "plici": 8639,
      "ÐµÐ½Ð¸ÑĺÐµ": 8640,
      "manu": 8641,
      "ĠPar": 8642,
      "Ġpredme": 8643,
      "ĠSara": 8644,
      "ĠÐ·Ð½Ð°ÑĩÐ°ÑĺÐ½Ð°": 8645,
      "Ġoprede": 8646,
      "Ġnjihovim": 8647,
      "Ġdobijeni": 8648,
      "ĠÐ¾Ð¿ÑĢÐ°Ð²": 8649,
      "ĠGru": 8650,
      "ĠÐºÐ¾Ð¼Ð¿Ð¾Ð·": 8651,
      "ÑĻÐµÐ½Ð°": 8652,
      "gura": 8653,
      "ĠÐ½Ð¾ÑģÐ¸": 8654,
      "Ġdobri": 8655,
      "Ġizlo": 8656,
      "Ġteorije": 8657,
      "ĠHerce": 8658,
      "logiji": 8659,
      "more": 8660,
      "ĠÐ°Ð´ÐµÐºÐ²Ð°ÑĤ": 8661,
      "ĠÐ¿ÑĢÐ¾Ð³ÑĢÐ°Ð¼Ð°": 8662,
      "snom": 8663,
      "sed": 8664,
      "BO": 8665,
      "njava": 8666,
      "tivnost": 8667,
      "Ġfilozofi": 8668,
      "novima": 8669,
      "ĠÐ¾Ð±Ð°Ð²ÑĻ": 8670,
      "rite": 8671,
      "Ġodobre": 8672,
      "Ġogrom": 8673,
      "cin": 8674,
      "Å¡kol": 8675,
      "Ġkombi": 8676,
      "ĠÐĲÑĥÑģÑĤÑĢ": 8677,
      "Ġpoe": 8678,
      "ĠÐ±ÑĥÐ´ÑĥÑĽÐ¸": 8679,
      "ĠtaÄįke": 8680,
      "Ð¾Ð²Ð°Ð½Ð¾Ð³": 8681,
      "Ð¸ÑĤÐ½Ð¾": 8682,
      "ĠÐ¿Ð¾ÑģÐ¼Ð°ÑĤ": 8683,
      "ĠST": 8684,
      "ĠÐ¿Ð¾ÑĪÑĤÐ¾": 8685,
      "Ġiskoristi": 8686,
      "ĠÐµÐ³Ð·": 8687,
      "Ġpojava": 8688,
      "85": 8689,
      "ĠÐ¸Ð½ÑĦÐ¾ÑĢÐ¼Ð°ÑĨÐ¸ÑĺÐµ": 8690,
      "lori": 8691,
      "ĠÑģÐ²ÑĢÑħ": 8692,
      "ĠRepublici": 8693,
      "ĠÐ´Ð¸ÑĺÐ°Ð³": 8694,
      "ĠÐ¾Ð±ÑĥÑħÐ²Ð°ÑĤÐ°": 8695,
      "Ġborbe": 8696,
      "Ð¾ÑģÐº": 8697,
      "ÐĹÐ±Ð¾Ð³": 8698,
      "spita": 8699,
      "ĠÑĦÐ¾ÑĤ": 8700,
      "rsa": 8701,
      "ĠÑĥÑģÑĤÐ°Ð²": 8702,
      "ĠÑģÑĤÑĥÐ´Ð¸ÑĺÐ°": 8703,
      "ĠÑĩÐ»Ð°Ð½Ð¾Ð²Ð°": 8704,
      "nes": 8705,
      "ĠÐ¾Ð´ÐµÑĻ": 8706,
      "Ð¸ÑĢÐµ": 8707,
      "ĠÐ²ÑĢÐ°ÑĤ": 8708,
      "ĠodreÄĳeni": 8709,
      "Ġnauka": 8710,
      "zad": 8711,
      "ANI": 8712,
      "ĠÐ¿ÑĢÐ°ÑĤ": 8713,
      "ĠÐ¼Ð¸Ð½Ð¸Ð¼": 8714,
      "ĠÑĥÐ¾Ð¿ÑĪÑĤÐµ": 8715,
      "Danas": 8716,
      "Ġporek": 8717,
      "ĠÐĲÐ½ÑĤ": 8718,
      "ĠÐĴÐ¸Ð´": 8719,
      "Ð²Ð°ÑĻ": 8720,
      "Ġadvo": 8721,
      "kinja": 8722,
      "Å¡tava": 8723,
      "ĠÐ·Ð°ÑģÐ½": 8724,
      "Ġkogni": 8725,
      "PI": 8726,
      "ĠnaÄĩi": 8727,
      "Ġder": 8728,
      "Ġbrojne": 8729,
      "ĠÐ¡Ð¼": 8730,
      "Ġsocijalne": 8731,
      ".:": 8732,
      "ĠÐ´Ð¾Ð²Ð¾Ð´Ð¸": 8733,
      "Ð²ÐµÐ´": 8734,
      "ĠÐ¿Ð¾ÑĺÐµÐ´": 8735,
      "Ġopada": 8736,
      "bilnost": 8737,
      "ĠÐ¿ÐµÑģÐ¼Ðµ": 8738,
      "Ġtranzi": 8739,
      "Ġ46": 8740,
      "ĠÑĢÐµÑĦÐµÑĢ": 8741,
      "ĠÑģÐ²Ð°": 8742,
      "rku": 8743,
      "ĠÐ¿ÑĢÐµÑĤÑħÐ¾Ð´Ð½Ð¾": 8744,
      "Ġseptembra": 8745,
      "NIK": 8746,
      "likom": 8747,
      "Ġske": 8748,
      "Ġvari": 8749,
      "ang": 8750,
      "Ġpromeni": 8751,
      "Ð¿Ð»": 8752,
      "ÐµÑĤÑĢÐ°": 8753,
      "Äĳenjem": 8754,
      "ĠÑģÐ½Ð°Ð³Ð°": 8755,
      "Ġrado": 8756,
      "ĠÑĢÐ°Ð´Ð¸Ð¾": 8757,
      "Ð¸Ð²Ðµ": 8758,
      "ĠÐ¿ÑĢÐµÐ´Ð¼ÐµÑĤÐ°": 8759,
      "Ġstambe": 8760,
      "ĠMI": 8761,
      "ĠÐ´Ð¾Ð±Ð¸Ð¾": 8762,
      "Ġprvih": 8763,
      "ÑĻÐ¸Ð²Ðµ": 8764,
      "lana": 8765,
      "lon": 8766,
      "mili": 8767,
      "zme": 8768,
      "ĠÐ¿ÐµÐ²": 8769,
      "ĠÐ·Ð½Ð°ÑĤÐ½Ð¾": 8770,
      "Ġekonomske": 8771,
      "ĠÐºÐ¾ÐµÑĦÐ¸ÑĨÐ¸ÑĺÐµ": 8772,
      "land": 8773,
      "ĠÑĺÐµÐ´Ð¸Ð½Ð¸ÑĨÐ°": 8774,
      "rovi": 8775,
      "ĠÐ¿Ð¾ÑģÑĤÐ¾ÑĺÐ°ÑļÐµ": 8776,
      "ĠÐ³ÑĢÐ°ÑĴÐ°Ð½": 8777,
      "Ġteorij": 8778,
      "ĠÐļÐ¾Ð»": 8779,
      "Ð¾Ð´Ð½ÐµÐ²": 8780,
      "Ġsezone": 8781,
      "Ġsaradnju": 8782,
      "ĠÐºÑļÐ¸Ð³Ðµ": 8783,
      "Ð°Ð»Ð¸Ð·Ð°ÑĨÐ¸ÑĺÐµ": 8784,
      "ĠÐ·Ð°Ð²Ð¸ÑģÐ¸": 8785,
      "Ġboja": 8786,
      "Ġkampa": 8787,
      "ĠÄįesti": 8788,
      "Ġmolekula": 8789,
      "Ð¾ÐºÑĥÐ¿": 8790,
      "ĠÊģÉŁ": 8791,
      "Ġostalim": 8792,
      "Ġorganizo": 8793,
      "Ġperi": 8794,
      "Naravno": 8795,
      "aÐ²": 8796,
      "Ġane": 8797,
      "ĠÐ¿ÑĢÐ¸Ñĺ": 8798,
      "Ġnaselja": 8799,
      "Ġnajvi": 8800,
      "CO": 8801,
      "ÉĽ": 8802,
      "Ġolak": 8803,
      "ĠÐ»ÐµÐ¿": 8804,
      "Ð»Ð°Ð³": 8805,
      "Ġanaliti": 8806,
      "jete": 8807,
      "ĠÐºÐ°Ð¿Ð°ÑĨ": 8808,
      "Ð¾Ð½Ð¸Ð¼": 8809,
      "Ġprocenat": 8810,
      "Ġfakulteta": 8811,
      "Ð¡Ð¢": 8812,
      "Ġsamom": 8813,
      "ĠÑĪÐºÐ¾Ð»Ð°": 8814,
      "timo": 8815,
      "Ġmotiva": 8816,
      "Ġsrpskom": 8817,
      "dici": 8818,
      "Ġprene": 8819,
      "Ġstudiji": 8820,
      "Ġlim": 8821,
      "Ð¸ÑģÑĤÐ¸ÑĩÐºÐ°": 8822,
      "ĠÐ¾Ð±ÐµÐ·Ð±ÐµÐ´": 8823,
      "ĠSla": 8824,
      "kg": 8825,
      "ĠLon": 8826,
      "ĠÐ¿Ð¾Ð²ÑĢÑĪÐ¸Ð½Ðµ": 8827,
      "ĠÐ¿Ð¾Ð¼Ð¾ÑĽÑĥ": 8828,
      "phi": 8829,
      "Ð¾Ð³Ð¾Ð´": 8830,
      "Ġrekonstru": 8831,
      "Ã±Ã²": 8832,
      "Ġideje": 8833,
      "ĠÐ¾ÑĢÑĥÐ¶": 8834,
      "Ġdubo": 8835,
      "Ġponavlja": 8836,
      "Ð°Ð½ÑģÐµ": 8837,
      "Ġcrve": 8838,
      "ĠÐ·ÐµÐ¼ÑĻÐ¸": 8839,
      "Treba": 8840,
      "Ð¾ÑĢÐ¾Ð´": 8841,
      "Ð¾Ð¼Ðµ": 8842,
      "ĠÐ¿ÑĢÐ²Ð¾": 8843,
      "ĠÑĢÐµÑĩÐ¸Ð¼Ð°": 8844,
      "ĠÐºÐ»Ð°ÑģÐ¸ÑĦÐ¸Ðº": 8845,
      "Ð°Ð»ÐµÑĢ": 8846,
      "ĠnovÄįa": 8847,
      "npr": 8848,
      "gledno": 8849,
      "Ġtero": 8850,
      "Ġplana": 8851,
      "Ġprocenu": 8852,
      "ÐłÐĲ": 8853,
      "ĠÐ°Ð½Ð°Ð»": 8854,
      "ĠÐ·Ð½Ð°ÑĩÐ°ÑĺÐ°Ð½": 8855,
      "ĠÑģÐ¿ÑĢÐ¾Ð²ÐµÐ´": 8856,
      "ĠUniverziteta": 8857,
      "Ġkapaciteta": 8858,
      "ĠÐ¼Ð¾ÑĽÐ¸": 8859,
      "njenje": 8860,
      "tovi": 8861,
      "Ġpreki": 8862,
      "Ġ95": 8863,
      "ÉŁÉ¬": 8864,
      "ĠÐ¿Ð¾ÑĤÐ¿ÑĥÐ½Ð¾ÑģÑĤÐ¸": 8865,
      "Ġgi": 8866,
      "Ġnavo": 8867,
      "ĠÑĤÐ°ÐºÐ¼Ð¸Ñĩ": 8868,
      "Ġimam": 8869,
      "Ġpriliku": 8870,
      "qa": 8871,
      "2017": 8872,
      "ĠÐ½Ð°ÑĥÐºÐ°": 8873,
      "ĠÐĳÐ°Ð»Ðº": 8874,
      "ÐĿÐµ": 8875,
      "Ġsituaciji": 8876,
      "Ð¸ÑĺÑĥÐ¼Ð°": 8877,
      "ĠbuduÄĩnosti": 8878,
      "Bio": 8879,
      "znaÄįaj": 8880,
      "ĠÑĢÐ°Ð´Ð¾Ð²Ð°": 8881,
      "ĠÐ¾Ð±Ð·Ð¸ÑĢ": 8882,
      "Fi": 8883,
      "ĠÐ¿ÑĢÐ°Ð²Ñĥ": 8884,
      "ĠÑĤÐ·Ð²": 8885,
      "ĠÐĲÑĤ": 8886,
      "nskoj": 8887,
      "ÉŁÉ¦": 8888,
      "Ġnauke": 8889,
      "ĠÐ´Ð°ÐºÐ»Ðµ": 8890,
      "Ġdelimi": 8891,
      "Ġada": 8892,
      "ĠGore": 8893,
      "PP": 8894,
      "Ġbave": 8895,
      "pta": 8896,
      "ĠreÄįe": 8897,
      "ĠIsto": 8898,
      "ĠÑļÐ¸ÑħÐ¾Ð²Ð¾": 8899,
      "Ġbibliote": 8900,
      "ĠÑĺÐ°": 8901,
      "Ġruke": 8902,
      "Ġrastu": 8903,
      "Ġimena": 8904,
      "ĠÐ¿ÑĢÐµÐ´Ð»Ð¾Ð¶": 8905,
      "ïĤ·": 8906,
      "Ġstro": 8907,
      "ĠÐ¸Ð·Ð²ÐµÑģ": 8908,
      "linu": 8909,
      "ĠÐķÐ²ÑĢÐ¾Ð¿Ðµ": 8910,
      "Ġtende": 8911,
      "Ġprevazi": 8912,
      "Ġeventual": 8913,
      "ĠÐ¿Ð°Ð¿": 8914,
      "slim": 8915,
      "ĠBrita": 8916,
      "ĠÑģÐ»ÑĥÑĩÐ°ÑĺÐµÐ²Ð¸Ð¼Ð°": 8917,
      "Ġdobre": 8918,
      "ĠÑģÑĤÐ²Ð°ÑĢÐ°Ð»": 8919,
      "Ġubije": 8920,
      "let": 8921,
      "Ġprete": 8922,
      "ĠÐ¼Ð¾Ð³Ð»Ð¸": 8923,
      "Ġsaradnji": 8924,
      "Ġïģ": 8925,
      "vaÄįa": 8926,
      "ĠÐ¼Ð¾Ð³Ð»Ð°": 8927,
      "ÑĺÐµÐ´Ð½": 8928,
      "Ġdrza": 8929,
      "ĠÐºÐ²Ð°Ð»Ð¸ÑĦÐ¸Ðº": 8930,
      "Ġmala": 8931,
      "Ġpolju": 8932,
      "ÑĥÑĨÐ¸": 8933,
      "ĠÐ½Ð°ÑģÐµÑĻÐ°": 8934,
      "2007": 8935,
      "Ġnju": 8936,
      "lera": 8937,
      "Ġstudenata": 8938,
      "Stoga": 8939,
      "Ġnastavlja": 8940,
      "Ġposlednje": 8941,
      "Å¾em": 8942,
      "Ġukupnog": 8943,
      "Ġdeluje": 8944,
      "ĠÐ°Ð¼Ð±": 8945,
      "Ð¸Ð²Ð°Ð»Ð¸": 8946,
      "Ġispitivanje": 8947,
      "Ġmada": 8948,
      "Ġupisa": 8949,
      "duju": 8950,
      "Ġkonzu": 8951,
      "87": 8952,
      "oksida": 8953,
      "ele": 8954,
      "Ġefikasnosti": 8955,
      "ĠÑħÐ¸Ð¿Ð¾ÑĤ": 8956,
      "Ġmorfo": 8957,
      "ĠÐ³Ð»Ð°Ð²Ð½Ð¸": 8958,
      "Ġnada": 8959,
      "ĠgraÄĳani": 8960,
      "ĠSan": 8961,
      "ĠÐ½Ð°Ð³Ð»Ð°ÑĪ": 8962,
      "Ð¾ÑĢÐµÑĴ": 8963,
      "ĠÑĤÐº": 8964,
      "Ġinspe": 8965,
      "ĠÐ½Ð¸Ð¶": 8966,
      "Ġbizni": 8967,
      "kor": 8968,
      "ĠÐ±ÐµÑģ": 8969,
      "str": 8970,
      "ĠTE": 8971,
      "Kom": 8972,
      "ĠÐ¸Ð½Ð¾Ð²": 8973,
      "ĠÑļÐµÐ½": 8974,
      "ĠÐ¿Ð°ÑĤ": 8975,
      "publika": 8976,
      "Ġ1980": 8977,
      "Ġmin": 8978,
      "ĠÐ¸ÑģÐºÑĻÑĥÑĩÐ¸Ð²Ð¾": 8979,
      "Ġnavedenih": 8980,
      "ĠCD": 8981,
      "ĠPan": 8982,
      "mb": 8983,
      "Ġkvanti": 8984,
      "ÑĥÑĤÐ¾ÑĢ": 8985,
      "ĠÐ´ÑĢÑĥÐ³Ð¾Ñĺ": 8986,
      "ĠÐ°Ð´Ð¼Ð¸Ð½Ð¸ÑģÑĤÑĢ": 8987,
      "ĠðĿĳ": 8988,
      "ĠÐ½ÐµÐ²": 8989,
      "KI": 8990,
      "Ġkaraktera": 8991,
      "Ġtrudno": 8992,
      "ĠÐ¿Ð¾Ð²ÑĢÐ°ÑĤ": 8993,
      "Ð¸Ð½ÑĤÐµÑĢ": 8994,
      "Ġakcija": 8995,
      "ĠÐºÐ°ÑĢÐ°ÐºÑĤÐµÑĢÐ¸ÑģÑĤÐ¸ÐºÐ°": 8996,
      "ÑħÐ¾Ð´Ð½Ð¾": 8997,
[...]
