{
  "version": "1.0",
  "truncation": null,
  "padding": null,
  "added_tokens": [
    {
      "id": 0,
      "content": "[PAD]",
      "single_word": false,
      "lstrip": false,
      "rstrip": false,
      "normalized": false,
      "special": true
    },
    {
      "id": 1,
      "content": "[UNK]",
      "single_word": false,
      "lstrip": false,
      "rstrip": false,
      "normalized": false,
      "special": true
    },
    {
      "id": 2,
      "content": "[CLS]",
      "single_word": false,
      "lstrip": false,
      "rstrip": false,
      "normalized": false,
      "special": true
    },
    {
      "id": 3,
      "content": "[SEP]",
      "single_word": false,
      "lstrip": false,
      "rstrip": false,
      "normalized": false,
      "special": true
    },
    {
      "id": 4,
      "content": "[MASK]",
      "single_word": false,
      "lstrip": false,
      "rstrip": false,
      "normalized": false,
      "special": true
    },
    {
      "id": 5,
      "content": "[UNUSED_1]",
      "single_word": false,
      "lstrip": false,
      "rstrip": false,
      "normalized": false,
      "special": true
    },
    {
      "id": 6,
      "content": "[UNUSED_2]",
      "single_word": false,
      "lstrip": false,
      "rstrip": false,
      "normalized": false,
      "special": true
    },
    {
      "id": 7,
      "content": "[UNUSED_3]",
      "single_word": false,
      "lstrip": false,
      "rstrip": false,
      "normalized": false,
      "special": true
    },
    {
      "id": 8,
      "content": "[UNUSED_4]",
      "single_word": false,
      "lstrip": false,
      "rstrip": false,
      "normalized": false,
      "special": true
    },
    {
      "id": 9,
      "content": "[UNUSED_5]",
      "single_word": false,
      "lstrip": false,
      "rstrip": false,
      "normalized": false,
      "special": true
    },
    {
      "id": 10,
      "content": "[UNUSED_6]",
      "single_word": false,
      "lstrip": false,
      "rstrip": false,
      "normalized": false,
      "special": true
    },
    {
      "id": 11,
      "content": "[UNUSED_7]",
      "single_word": false,
      "lstrip": false,
      "rstrip": false,
      "normalized": false,
      "special": true
    },
    {
      "id": 12,
      "content": "[UNUSED_8]",
      "single_word": false,
      "lstrip": false,
      "rstrip": false,
      "normalized": false,
      "special": true
    },
    {
      "id": 13,
      "content": "[UNUSED_9]",
      "single_word": false,
      "lstrip": false,
      "rstrip": false,
      "normalized": false,
      "special": true
    },
    {
      "id": 14,
      "content": "[UNUSED_10]",
      "single_word": false,
      "lstrip": false,
      "rstrip": false,
      "normalized": false,
      "special": true
    },
    {
      "id": 15,
      "content": "[UNUSED_11]",
      "single_word": false,
      "lstrip": false,
      "rstrip": false,
      "normalized": false,
      "special": true
    },
    {
      "id": 16,
      "content": "[UNUSED_12]",
      "single_word": false,
      "lstrip": false,
      "rstrip": false,
      "normalized": false,
      "special": true
    },
    {
      "id": 17,
      "content": "[UNUSED_13]",
      "single_word": false,
      "lstrip": false,
      "rstrip": false,
      "normalized": false,
      "special": true
    },
    {
      "id": 18,
      "content": "[UNUSED_14]",
      "single_word": false,
      "lstrip": false,
      "rstrip": false,
      "normalized": false,
      "special": true
    },
    {
      "id": 19,
      "content": "[UNUSED_15]",
      "single_word": false,
      "lstrip": false,
      "rstrip": false,
      "normalized": false,
      "special": true
    },
    {
      "id": 20,
      "content": "[UNUSED_16]",
      "single_word": false,
      "lstrip": false,
      "rstrip": false,
      "normalized": false,
      "special": true
    },
    {
      "id": 21,
      "content": "[UNUSED_17]",
      "single_word": false,
      "lstrip": false,
      "rstrip": false,
      "normalized": false,
      "special": true
    },
    {
      "id": 22,
      "content": "[UNUSED_18]",
      "single_word": false,
      "lstrip": false,
      "rstrip": false,
      "normalized": false,
      "special": true
    },
    {
      "id": 23,
      "content": "[UNUSED_19]",
      "single_word": false,
      "lstrip": false,
      "rstrip": false,
      "normalized": false,
      "special": true
    },
    {
      "id": 24,
      "content": "[UNUSED_20]",
      "single_word": false,
      "lstrip": false,
      "rstrip": false,
      "normalized": false,
      "special": true
    },
    {
      "id": 25,
      "content": "[UNUSED_21]",
      "single_word": false,
      "lstrip": false,
      "rstrip": false,
      "normalized": false,
      "special": true
    },
    {
      "id": 26,
      "content": "[UNUSED_22]",
      "single_word": false,
      "lstrip": false,
      "rstrip": false,
      "normalized": false,
      "special": true
    },
    {
      "id": 27,
      "content": "[UNUSED_23]",
      "single_word": false,
      "lstrip": false,
      "rstrip": false,
      "normalized": false,
      "special": true
    },
    {
      "id": 28,
      "content": "[UNUSED_24]",
      "single_word": false,
      "lstrip": false,
      "rstrip": false,
      "normalized": false,
      "special": true
    },
    {
      "id": 29,
      "content": "[UNUSED_25]",
      "single_word": false,
      "lstrip": false,
      "rstrip": false,
      "normalized": false,
      "special": true
    },
    {
      "id": 30,
      "content": "[UNUSED_26]",
      "single_word": false,
      "lstrip": false,
      "rstrip": false,
      "normalized": false,
      "special": true
    },
    {
      "id": 31,
      "content": "[UNUSED_27]",
      "single_word": false,
      "lstrip": false,
      "rstrip": false,
      "normalized": false,
      "special": true
    },
    {
      "id": 32,
      "content": "[UNUSED_28]",
      "single_word": false,
      "lstrip": false,
      "rstrip": false,
      "normalized": false,
      "special": true
    },
    {
      "id": 33,
      "content": "[UNUSED_29]",
      "single_word": false,
      "lstrip": false,
      "rstrip": false,
      "normalized": false,
      "special": true
    },
    {
      "id": 34,
      "content": "[UNUSED_30]",
      "single_word": false,
      "lstrip": false,
      "rstrip": false,
      "normalized": false,
      "special": true
    },
    {
      "id": 35,
      "content": "[UNUSED_31]",
      "single_word": false,
      "lstrip": false,
      "rstrip": false,
      "normalized": false,
      "special": true
    },
    {
      "id": 36,
      "content": "[UNUSED_32]",
      "single_word": false,
      "lstrip": false,
      "rstrip": false,
      "normalized": false,
      "special": true
    },
    {
      "id": 37,
      "content": "[UNUSED_33]",
      "single_word": false,
      "lstrip": false,
      "rstrip": false,
      "normalized": false,
      "special": true
    },
    {
      "id": 38,
      "content": "[UNUSED_34]",
      "single_word": false,
      "lstrip": false,
      "rstrip": false,
      "normalized": false,
      "special": true
    },
    {
      "id": 39,
      "content": "[UNUSED_35]",
      "single_word": false,
      "lstrip": false,
      "rstrip": false,
      "normalized": false,
      "special": true
    },
    {
      "id": 40,
      "content": "[UNUSED_36]",
      "single_word": false,
      "lstrip": false,
      "rstrip": false,
      "normalized": false,
      "special": true
    },
    {
      "id": 41,
      "content": "[UNUSED_37]",
      "single_word": false,
      "lstrip": false,
      "rstrip": false,
      "normalized": false,
      "special": true
    },
    {
      "id": 42,
      "content": "[UNUSED_38]",
      "single_word": false,
      "lstrip": false,
      "rstrip": false,
      "normalized": false,
      "special": true
    },
    {
      "id": 43,
      "content": "[UNUSED_39]",
      "single_word": false,
      "lstrip": false,
      "rstrip": false,
      "normalized": false,
      "special": true
    },
    {
      "id": 44,
      "content": "[UNUSED_40]",
      "single_word": false,
      "lstrip": false,
      "rstrip": false,
      "normalized": false,
      "special": true
    },
    {
      "id": 45,
      "content": "[UNUSED_41]",
      "single_word": false,
      "lstrip": false,
      "rstrip": false,
      "normalized": false,
      "special": true
    },
    {
      "id": 46,
      "content": "[UNUSED_42]",
      "single_word": false,
      "lstrip": false,
      "rstrip": false,
      "normalized": false,
      "special": true
    },
    {
      "id": 47,
      "content": "[UNUSED_43]",
      "single_word": false,
      "lstrip": false,
      "rstrip": false,
      "normalized": false,
      "special": true
    },
    {
      "id": 48,
      "content": "[UNUSED_44]",
      "single_word": false,
      "lstrip": false,
      "rstrip": false,
      "normalized": false,
      "special": true
    },
    {
      "id": 49,
      "content": "[UNUSED_45]",
      "single_word": false,
      "lstrip": false,
      "rstrip": false,
      "normalized": false,
      "special": true
    },
    {
      "id": 50,
      "content": "[UNUSED_46]",
      "single_word": false,
      "lstrip": false,
      "rstrip": false,
      "normalized": false,
      "special": true
    },
    {
      "id": 51,
      "content": "[UNUSED_47]",
      "single_word": false,
      "lstrip": false,
      "rstrip": false,
      "normalized": false,
      "special": true
    },
    {
      "id": 52,
      "content": "[UNUSED_48]",
      "single_word": false,
      "lstrip": false,
      "rstrip": false,
      "normalized": false,
      "special": true
    },
    {
      "id": 53,
      "content": "[UNUSED_49]",
      "single_word": false,
      "lstrip": false,
      "rstrip": false,
      "normalized": false,
      "special": true
    },
    {
      "id": 54,
      "content": "[UNUSED_50]",
      "single_word": false,
      "lstrip": false,
      "rstrip": false,
      "normalized": false,
      "special": true
    }
  ],
  "normalizer": {
    "type": "Sequence",
    "normalizers": [
      {
        "type": "NFKC"
      }
    ]
  },
  "pre_tokenizer": {
    "type": "Sequence",
    "pretokenizers": [
      {
        "type": "Split",
        "pattern": {
          "String": "[\\p{L}]+|\\d+[.,]\\d+|\\d+|[^\\s\\p{L}\\p{N}]+|\\s+"
        },
        "behavior": "Isolated",
        "invert": false
      },
      {
        "type": "ByteLevel",
        "add_prefix_space": true,
        "trim_offsets": true,
        "use_regex": true
      }
    ]
  },
  "post_processor": {
    "type": "BertProcessing",
    "sep": [
      "[SEP]",
      3
    ],
    "cls": [
      "[CLS]",
      2
    ]
  },
  "decoder": {
    "type": "ByteLevel",
    "add_prefix_space": true,
    "trim_offsets": true,
    "use_regex": true
  },
  "model": {
    "type": "BPE",
    "dropout": null,
    "unk_token": "[UNK]",
    "continuing_subword_prefix": null,
    "end_of_word_suffix": null,
    "fuse_unk": false,
    "byte_fallback": false,
    "ignore_merges": false,
    "vocab": {
      "[PAD]": 0,
      "[UNK]": 1,
      "[CLS]": 2,
      "[SEP]": 3,
      "[MASK]": 4,
      "[UNUSED_1]": 5,
      "[UNUSED_2]": 6,
      "[UNUSED_3]": 7,
      "[UNUSED_4]": 8,
      "[UNUSED_5]": 9,
      "[UNUSED_6]": 10,
      "[UNUSED_7]": 11,
      "[UNUSED_8]": 12,
      "[UNUSED_9]": 13,
      "[UNUSED_10]": 14,
      "[UNUSED_11]": 15,
      "[UNUSED_12]": 16,
      "[UNUSED_13]": 17,
      "[UNUSED_14]": 18,
      "[UNUSED_15]": 19,
      "[UNUSED_16]": 20,
      "[UNUSED_17]": 21,
      "[UNUSED_18]": 22,
      "[UNUSED_19]": 23,
      "[UNUSED_20]": 24,
      "[UNUSED_21]": 25,
      "[UNUSED_22]": 26,
      "[UNUSED_23]": 27,
      "[UNUSED_24]": 28,
      "[UNUSED_25]": 29,
      "[UNUSED_26]": 30,
      "[UNUSED_27]": 31,
      "[UNUSED_28]": 32,
      "[UNUSED_29]": 33,
      "[UNUSED_30]": 34,
      "[UNUSED_31]": 35,
      "[UNUSED_32]": 36,
      "[UNUSED_33]": 37,
      "[UNUSED_34]": 38,
      "[UNUSED_35]": 39,
      "[UNUSED_36]": 40,
      "[UNUSED_37]": 41,
      "[UNUSED_38]": 42,
      "[UNUSED_39]": 43,
      "[UNUSED_40]": 44,
      "[UNUSED_41]": 45,
      "[UNUSED_42]": 46,
      "[UNUSED_43]": 47,
      "[UNUSED_44]": 48,
      "[UNUSED_45]": 49,
      "[UNUSED_46]": 50,
      "[UNUSED_47]": 51,
      "[UNUSED_48]": 52,
      "[UNUSED_49]": 53,
      "[UNUSED_50]": 54,
      "!": 55,
      "\"": 56,
      "#": 57,
      "$": 58,
      "%": 59,
      "&": 60,
      "'": 61,
      "(": 62,
      ")": 63,
      "*": 64,
      "+": 65,
      ",": 66,
      "-": 67,
      ".": 68,
      "/": 69,
      "0": 70,
      "1": 71,
      "2": 72,
      "3": 73,
      "4": 74,
      "5": 75,
      "6": 76,
      "7": 77,
      "8": 78,
      "9": 79,
      ":": 80,
      ";": 81,
      "<": 82,
      "=": 83,
      ">": 84,
      "?": 85,
      "@": 86,
      "A": 87,
      "B": 88,
      "C": 89,
      "D": 90,
      "E": 91,
      "F": 92,
      "G": 93,
      "H": 94,
      "I": 95,
      "J": 96,
      "K": 97,
      "L": 98,
      "M": 99,
      "N": 100,
      "O": 101,
      "P": 102,
      "Q": 103,
      "R": 104,
      "S": 105,
      "T": 106,
      "U": 107,
      "V": 108,
      "W": 109,
      "X": 110,
      "Y": 111,
      "Z": 112,
      "[": 113,
      "\\": 114,
      "]": 115,
      "^": 116,
      "_": 117,
      "`": 118,
      "a": 119,
      "b": 120,
      "c": 121,
      "d": 122,
      "e": 123,
      "f": 124,
      "g": 125,
      "h": 126,
      "i": 127,
      "j": 128,
      "k": 129,
      "l": 130,
      "m": 131,
      "n": 132,
      "o": 133,
      "p": 134,
      "q": 135,
      "r": 136,
      "s": 137,
      "t": 138,
      "u": 139,
      "v": 140,
      "w": 141,
      "x": 142,
      "y": 143,
      "z": 144,
      "{": 145,
      "|": 146,
      "}": 147,
      "~": 148,
      "¡": 149,
      "¢": 150,
      "£": 151,
      "¤": 152,
      "¥": 153,
      "¦": 154,
      "§": 155,
      "¨": 156,
      "©": 157,
      "ª": 158,
      "«": 159,
      "¬": 160,
      "®": 161,
      "¯": 162,
      "°": 163,
      "±": 164,
      "²": 165,
      "³": 166,
      "´": 167,
      "µ": 168,
      "¶": 169,
      "·": 170,
      "¸": 171,
      "¹": 172,
      "º": 173,
      "»": 174,
      "¼": 175,
      "½": 176,
      "¾": 177,
      "¿": 178,
      "Â": 179,
      "Ã": 180,
      "Ä": 181,
      "Å": 182,
      "Æ": 183,
      "Ç": 184,
      "È": 185,
      "É": 186,
      "Ê": 187,
      "Ë": 188,
      "Ì": 189,
      "Í": 190,
      "Î": 191,
      "Ï": 192,
      "Ð": 193,
      "Ñ": 194,
      "Ò": 195,
      "Ó": 196,
      "Ô": 197,
      "Õ": 198,
      "Ö": 199,
      "×": 200,
      "Ø": 201,
      "Ù": 202,
      "Ú": 203,
      "Û": 204,
      "Ü": 205,
      "Ý": 206,
      "Þ": 207,
      "ß": 208,
      "à": 209,
      "á": 210,
      "â": 211,
      "ã": 212,
      "ä": 213,
      "å": 214,
      "æ": 215,
      "ç": 216,
      "è": 217,
      "é": 218,
      "ê": 219,
      "ë": 220,
      "ì": 221,
      "í": 222,
      "î": 223,
      "ï": 224,
      "ð": 225,
      "ñ": 226,
      "ò": 227,
      "ó": 228,
      "ô": 229,
      "ĉ": 230,
      "Ċ": 231,
      "č": 232,
      "Ġ": 233,
      "Ģ": 234,
      "ģ": 235,
      "Ĥ": 236,
      "ĥ": 237,
      "Ħ": 238,
      "ħ": 239,
      "Ĩ": 240,
      "ĩ": 241,
      "Ī": 242,
      "ī": 243,
      "Ĭ": 244,
      "ĭ": 245,
      "Į": 246,
      "į": 247,
      "İ": 248,
      "ı": 249,
      "Ĳ": 250,
      "ĳ": 251,
      "Ĵ": 252,
      "ĵ": 253,
      "Ķ": 254,
      "ķ": 255,
      "ĸ": 256,
      "Ĺ": 257,
      "ĺ": 258,
      "Ļ": 259,
      "ļ": 260,
      "Ľ": 261,
      "ľ": 262,
      "Ŀ": 263,
      "ŀ": 264,
      "Ł": 265,
      "ł": 266,
      "Ń": 267,
      "Ġs": 268,
      "Ġp": 269,
      "na": 270,
      "Ġi": 271,
      "ra": 272,
      "ni": 273,
      "ko": 274,
      "Ġo": 275,
      "no": 276,
      "st": 277,
      "Ġd": 278,
      "re": 279,
      "Ġu": 280,
      "Äį": 281,
      "ja": 282,
      "va": 283,
      "Å¡": 284,
      "li": 285,
      "ne": 286,
      "ti": 287,
      "ri": 288,
      "ma": 289,
      "ka": 290,
      "Ġpo": 291,
      "la": 292,
      "Ġj": 293,
      "ro": 294,
      "Ġna": 295,
      "za": 296,
      "ta": 297,
      "te": 298,
      "Ġje": 299,
      "nj": 300,
      "vo": 301,
      "vi": 302,
      "Äĩ": 303,
      "ve": 304,
      "Å¾": 305,
      "ci": 306,
      "Ġko": 307,
      "Ġm": 308,
      "Ġza": 309,
      "to": 310,
      "Ġb": 311,
      "di": 312,
      "lo": 313,
      "ju": 314,
      "da": 315,
      "Ġda": 316,
      "nje": 317,
      "Ġse": 318,
      "le": 319,
      "ji": 320,
      "Ġa": 321,
      "me": 322,
      "go": 323,
      "Ġod": 324,
      "ru": 325,
      "Ġsa": 326,
      "Ġdo": 327,
      "Ġne": 328,
      "ki": 329,
      "ku": 330,
      "Ġsu": 331,
      "sti": 332,
      "sta": 333,
      "Ġpro": 334,
      "Ġka": 335,
      "nja": 336,
      "Ġra": 337,
      "mo": 338,
      "Ġiz": 339,
      "ke": 340,
      "de": 341,
      "nu": 342,
      "lj": 343,
      "ga": 344,
      "Äĳ": 345,
      "Ġpre": 346,
      "zi": 347,
      "ĠS": 348,
      "Ġt": 349,
      "Ġbi": 350,
      "Ġpri": 351,
      "ĠP": 352,
      "Äįi": 353,
      "po": 354,
      "Äĩe": 355,
      "Ġmo": 356,
      "ce": 357,
      "Äįe": 358,
      "si": 359,
      "âĢ": 360,
      "mi": 361,
      "Å¾e": 362,
      "tu": 363,
      "lu": 364,
      "Ġ1": 365,
      "ca": 366,
      "Ġg": 367,
      "Ġk": 368,
      "bi": 369,
      "ba": 370,
      "lje": 371,
      "Ġ(": 372,
      "Ġz": 373,
      "Ġte": 374,
      "nih": 375,
      "pa": 376,
      "sa": 377,
      "Ġre": 378,
      "ĠÅ¡": 379,
      "ĠM": 380,
      "ĠN": 381,
      "nog": 382,
      "se": 383,
      "Ġto": 384,
      "Äįa": 385,
      "Å¾i": 386,
      "lja": 387,
      "Ġ2": 388,
      "Ġv": 389,
      "Ġ|": 390,
      "Äĩi": 391,
      "ĠK": 392,
      "cij": 393,
      "du": 394,
      "sto": 395,
      "Ġkoji": 396,
      "Ġf": 397,
      "pi": 398,
      "sko": 399,
      "ski": 400,
      "Ġgo": 401,
      "Ġe": 402,
      "ĠB": 403,
      "Å¡e": 404,
      "ĠO": 405,
      "Ġni": 406,
      "Ġve": 407,
      "ĠD": 408,
      "gu": 409,
      "do": 410,
      "nom": 411,
      "bo": 412,
      "ĠI": 413,
      "Ġob": 414,
      "ĠU": 415,
      "Å¾a": 416,
      "ĠâĢ": 417,
      "nim": 418,
      "ĠT": 419,
      "ĠA": 420,
      "cija": 421,
      "cije": 422,
      "nji": 423,
      "Äĳe": 424,
      "Ġme": 425,
      "lju": 426,
      "Ġin": 427,
      "Ġma": 428,
      "Äĩa": 429,
      "gi": 430,
      "tra": 431,
      "Ġvi": 432,
      "Ġraz": 433,
      "Ġde": 434,
      "be": 435,
      "pe": 436,
      "gra": 437,
      "Ġta": 438,
      "nosti": 439,
      "nju": 440,
      "or": 441,
      "Ġpa": 442,
      "00": 443,
      "ĠR": 444,
      "su": 445,
      "so": 446,
      "ĠV": 447,
      "Ġsta": 448,
      "pu": 449,
      "ĠZ": 450,
      "Ġkoj": 451,
      "Ġgodi": 452,
      "ho": 453,
      "vr": 454,
      "Ġmi": 455,
      "red": 456,
      "ze": 457,
      "Ġkao": 458,
      "Ġili": 459,
      "Å¡a": 460,
      "Ġdi": 461,
      "rij": 462,
      "ske": 463,
      "Ġli": 464,
      "vu": 465,
      "Ġdru": 466,
      "voj": 467,
      "ĠÄĩe": 468,
      "lji": 469,
      "Ġkoje": 470,
      "ĠÅ¡to": 471,
      "Ġno": 472,
      "vanje": 473,
      "ge": 474,
      "Ġpra": 475,
      "Å¡i": 476,
      "ĠG": 477,
      "tiv": 478,
      "Ġh": 479,
      "Ġsi": 480,
      "ĠH": 481,
      "Ġsve": 482,
      "ed": 483,
      "ste": 484,
      "..": 485,
      "kom": 486,
      "stav": 487,
      "Ġva": 488,
      "nost": 489,
      "Ġima": 490,
      "fi": 491,
      "nika": 492,
      "Ġpod": 493,
      "Ġpred": 494,
      "Ġis": 495,
      "pra": 496,
      "mu": 497,
      "stu": 498,
      "zo": 499,
      "zu": 500,
      "ĠJ": 501,
      "Äĳu": 502,
      "Ġja": 503,
      "Ġpos": 504,
      "ĠC": 505,
      "nt": 506,
      "Ġst": 507,
      "sno": 508,
      "Äįu": 509,
      "vanja": 510,
      "ĠNa": 511,
      "rÅ¾a": 512,
      "Ġvo": 513,
      "ĠPo": 514,
      "Ġpot": 515,
      "Ġtre": 516,
      "Ġbo": 517,
      "Ġus": 518,
      "ĠE": 519,
      "Ġpu": 520,
      "rije": 521,
      "Ġ3": 522,
      "Ġzna": 523,
      "om": 524,
      "01": 525,
      "Ġti": 526,
      "ĠL": 527,
      "Ġgra": 528,
      "vj": 529,
      "Ġnaj": 530,
      "Ġku": 531,
      "ĠZa": 532,
      "vje": 533,
      "Ġ-": 534,
      "ĠmoÅ¾e": 535,
      "ska": 536,
      "nta": 537,
      "pre": 538,
      "nici": 539,
      "Ġkako": 540,
      "er": 541,
      "mj": 542,
      "Ġjed": 543,
      "Ġgodine": 544,
      "Äįki": 545,
      "Å¡ti": 546,
      "Ġnij": 547,
      "ek": 548,
      "Ġnje": 549,
      "nij": 550,
      "Ġkori": 551,
      "Ġkoja": 552,
      "Ġ\"": 553,
      "Äĳa": 554,
      "Ġnije": 555,
      "Å¡ta": 556,
      "cu": 557,
      "nti": 558,
      "skog": 559,
      "jed": 560,
      "govo": 561,
      "Ġsamo": 562,
      "zna": 563,
      "nik": 564,
      "ar": 565,
      "ona": 566,
      "Ġpi": 567,
      "on": 568,
      "ĠF": 569,
      "vat": 570,
      "Ġstra": 571,
      "Ġpla": 572,
      "Ġbe": 573,
      "Ġmogu": 574,
      "ĠÄį": 575,
      "mje": 576,
      "nije": 577,
      "ĠâĢĵ": 578,
      "liko": 579,
      "rija": 580,
      "noj": 581,
      "ĠÄįi": 582,
      "ran": 583,
      "Å¡te": 584,
      "Ġali": 585,
      "em": 586,
      "skih": 587,
      "Åł": 588,
      "Ġfi": 589,
      ").": 590,
      "vom": 591,
      "Ġkon": 592,
      "bu": 593,
      "roj": 594,
      "nica": 595,
      "Ġsvi": 596,
      "Ġba": 597,
      "ĠÅ¾i": 598,
      "reme": 599,
      "ĠâĢŀ": 600,
      "ĠÄįe": 601,
      "kon": 602,
      "stra": 603,
      "stva": 604,
      "ha": 605,
      "Ġdu": 606,
      "Ġ4": 607,
      "Äĩu": 608,
      "ciju": 609,
      "Ġc": 610,
      "Ġot": 611,
      "ĠKa": 612,
      "he": 613,
      "Ġnji": 614,
      "ÄĮ": 615,
      "vlja": 616,
      "Ġtako": 617,
      "oj": 618,
      "Ġpe": 619,
      "Ġ19": 620,
      "Ġpr": 621,
      "Ġlju": 622,
      "Ġodno": 623,
      "gle": 624,
      "Ġbiti": 625,
      "Ġuz": 626,
      "),": 627,
      "Ġslu": 628,
      "Å¡t": 629,
      "Ġvr": 630,
      "viÄĩ": 631,
      "Ġbu": 632,
      "Ġsvoj": 633,
      "Ġ5": 634,
      "zvo": 635,
      "vog": 636,
      "Ġsam": 637,
      "ĠMi": 638,
      "Ġdana": 639,
      "ĠviÅ¡e": 640,
      "kla": 641,
      "Ġro": 642,
      "klju": 643,
      "vima": 644,
      "ĠMa": 645,
      "bra": 646,
      "lan": 647,
      "Ġmu": 648,
      "raju": 649,
      "Ġsva": 650,
      "vati": 651,
      "ĠSa": 652,
      "...": 653,
      "jek": 654,
      "Ġop": 655,
      "nice": 656,
      "Ġce": 657,
      "Ġak": 658,
      "Ġspo": 659,
      "âĢľ": 660,
      "fe": 661,
      "Äįno": 662,
      "ĠÅ¾e": 663,
      "Ġ201": 664,
      "ter": 665,
      "Ġtra": 666,
      "Ġor": 667,
      "Ġtreba": 668,
      "ĠĠ": 669,
      "spo": 670,
      "Ġgla": 671,
      "Äįko": 672,
      "Ġlo": 673,
      "Ġga": 674,
      "vali": 675,
      "dj": 676,
      "rt": 677,
      "Ġtu": 678,
      "Ġle": 679,
      "vno": 680,
      "dje": 681,
      "gla": 682,
      "al": 683,
      "for": 684,
      "ruÄį": 685,
      "Ġrad": 686,
      "ĠKo": 687,
      "hi": 688,
      "lika": 689,
      "dra": 690,
      "Ġbio": 691,
      "Ġdj": 692,
      "Ġdje": 693,
      "Äįke": 694,
      "dan": 695,
      "kup": 696,
      "onal": 697,
      "Ġmj": 698,
      "rati": 699,
      "skom": 700,
      "rvat": 701,
      "Å¾u": 702,
      "vni": 703,
      "Ġmje": 704,
      "nda": 705,
      "stvo": 706,
      "sni": 707,
      "Ġci": 708,
      "ako": 709,
      "vaju": 710,
      "njem": 711,
      "edi": 712,
      "ng": 713,
      "rom": 714,
      "rod": 715,
      "Ġpotre": 716,
      "ĠNe": 717,
      "ĠÅ¾ivo": 718,
      "pri": 719,
      "Ġorga": 720,
      "tor": 721,
      "tno": 722,
      "lek": 723,
      "stavlja": 724,
      "Ġsvo": 725,
      "nd": 726,
      "Ġproi": 727,
      "Ġjer": 728,
      "Ġvla": 729,
      "Ġradi": 730,
      "Ġbroj": 731,
      "Äįaj": 732,
      "sku": 733,
      "Ġposto": 734,
      "Ġ6": 735,
      "ĠÅł": 736,
      "Ġdrugi": 737,
      "Ġru": 738,
      "Ġoba": 739,
      "oÅ¡": 740,
      "Ġkada": 741,
      "vih": 742,
      "ĠuÄįe": 743,
      "Ġso": 744,
      "kre": 745,
      "ĠRe": 746,
      "Ġosta": 747,
      "Ġbilo": 748,
      "skim": 749,
      "Ġobra": 750,
      "ĠDa": 751,
      "liti": 752,
      "Ġpove": 753,
      "ciji": 754,
      "tak": 755,
      "Ġkom": 756,
      "Ġstu": 757,
      "liÄįi": 758,
      "âĢĿ": 759,
      "Ġoso": 760,
      "tom": 761,
      "stup": 762,
      "pro": 763,
      "Ġbez": 764,
      "Ġprema": 765,
      "ĠRa": 766,
      "bli": 767,
      "bog": 768,
      "Ġoko": 769,
      "Å¡ko": 770,
      "tni": 771,
      "vne": 772,
      "tim": 773,
      "ĠBo": 774,
      "lazi": 775,
      "gova": 776,
      "Ġproizvo": 777,
      "vlje": 778,
      "ĠnaÄįi": 779,
      "Ġnjiho": 780,
      "lne": 781,
      "Ġosno": 782,
      "Ġsto": 783,
      "Ġfa": 784,
      "gre": 785,
      "Ġsmo": 786,
      "vim": 787,
      "Ġos": 788,
      "ranje": 789,
      "van": 790,
      "mij": 791,
      "ĠSr": 792,
      "nima": 793,
      "dno": 794,
      "skoj": 795,
      "Ġvreme": 796,
      "02": 797,
      "Å¡to": 798,
      "ĠdrÅ¾a": 799,
      "Ġau": 800,
      "pisa": 801,
      "Ġdok": 802,
      "Ġstva": 803,
      "vij": 804,
      "Ġkra": 805,
      "ĠveÄĩ": 806,
      "Ġkri": 807,
      "ĠTo": 808,
      "Ġdobi": 809,
      "tj": 810,
      "Ġproce": 811,
      "bno": 812,
      "Ġsma": 813,
      "jedi": 814,
      "ble": 815,
      "Ġ7": 816,
      "juÄĩi": 817,
      "Ġposlo": 818,
      "Ġgodina": 819,
      "Ġorgani": 820,
      "Ġzah": 821,
      "Ġla": 822,
      "Ġupra": 823,
      "redi": 824,
      "ĠDo": 825,
      "tro": 826,
      "tje": 827,
      "Ġako": 828,
      "vije": 829,
      "Ġpose": 830,
      "Ġova": 831,
      "ĠjoÅ¡": 832,
      "reÄĳe": 833,
      "ver": 834,
      "forma": 835,
      "in": 836,
      "Ġ200": 837,
      "Ġisto": 838,
      "lno": 839,
      "Ġkod": 840,
      "ĠzaÅ¡ti": 841,
      "un": 842,
      "Ġpita": 843,
      "Å¡Äĩe": 844,
      "ĠÄįla": 845,
      "Å½": 846,
      "sli": 847,
      "ven": 848,
      "ĠMe": 849,
      "Ġneko": 850,
      "ĠBe": 851,
      "Ġzbog": 852,
      "rio": 853,
      "kaza": 854,
      "met": 855,
      "Ġok": 856,
      "Ġpomo": 857,
      "Ġbr": 858,
      "ĠmeÄĳu": 859,
      "vanju": 860,
      "ĠÅ¡ko": 861,
      "stve": 862,
      "Ġ8": 863,
      "ner": 864,
      "Ġzem": 865,
      "Ġmora": 866,
      "**": 867,
      "Äįka": 868,
      "Äįne": 869,
      "Ġizra": 870,
      "cional": 871,
      "ĠBi": 872,
      "Ġistra": 873,
      "bro": 874,
      "menta": 875,
      "Ġnakon": 876,
      "vede": 877,
      "an": 878,
      "Ġzajed": 879,
      "ĠÄįa": 880,
      "RA": 881,
      "Ġizme": 882,
      "Ġpoda": 883,
      "log": 884,
      "rÅ¾i": 885,
      "lni": 886,
      "ĠPro": 887,
      "Ġsred": 888,
      "rno": 889,
      "ĠMo": 890,
      "Ġinte": 891,
      "Ġljudi": 892,
      "Ġsvoje": 893,
      "kri": 894,
      "gij": 895,
      "en": 896,
      "tar": 897,
      "cima": 898,
      "Ġsad": 899,
      "teta": 900,
      "ĠdruÅ¡t": 901,
      "Ġide": 902,
      "stru": 903,
      "Ġodlu": 904,
      "ren": 905,
      "niji": 906,
      "stavi": 907,
      ".,": 908,
      "Ġ0": 909,
      "ĠHrvat": 910,
      "rad": 911,
      "JE": 912,
      "sle": 913,
      "Ġslo": 914,
      "mije": 915,
      "Ġobi": 916,
      "liza": 917,
      "Na": 918,
      "rak": 919,
      "govor": 920,
      "Ġ10": 921,
      "lta": 922,
      "nan": 923,
      "telj": 924,
      "Ġprij": 925,
      "Ġobja": 926,
      "Ġupo": 927,
      "Ġste": 928,
      "vrÅ¡i": 929,
      "Ġprogra": 930,
      "tvr": 931,
      "ĠâĢľ": 932,
      "ĠÄĮ": 933,
      "Ġ9": 934,
      "pla": 935,
      "Ġveli": 936,
      "nosi": 937,
      "Ġbila": 938,
      "Ġzdra": 939,
      "ĠPa": 940,
      "dom": 941,
      "Ġnad": 942,
      "stava": 943,
      "Ġih": 944,
      "vori": 945,
      "Ġnema": 946,
      "ĠpoÄįe": 947,
      "Ġkro": 948,
      "000": 949,
      "dio": 950,
      "Ġprosto": 951,
      "ĠSrbi": 952,
      "sla": 953,
      "Ġkoristi": 954,
      "ene": 955,
      "cio": 956,
      "Ġpoliti": 957,
      "sij": 958,
      "mena": 959,
      "vnog": 960,
      "Ġof": 961,
      "Ġproble": 962,
      "ĠVi": 963,
      "Ġim": 964,
      "lom": 965,
      "ĠpodruÄį": 966,
      "Ġaktiv": 967,
      "ĠnaÄįin": 968,
      "Ġsli": 969,
      "ĠNo": 970,
      "Ġnego": 971,
      "Ġnisu": 972,
      "Ġprije": 973,
      "rek": 974,
      "Ġju": 975,
      "Äĳi": 976,
      "tet": 977,
      "Å¾be": 978,
      "ĠNi": 979,
      "ĠOd": 980,
      "Ġuklju": 981,
      "ranja": 982,
      "Ġiza": 983,
      "tre": 984,
      "ĠIn": 985,
      "Ġtri": 986,
      "Ġri": 987,
      "Ġtoga": 988,
      "NI": 989,
      "ĠistraÅ¾i": 990,
      "ltu": 991,
      "ĠPre": 992,
      "ĠizmeÄĳu": 993,
      "Ġjedi": 994,
      "Ġosi": 995,
      "Ġjedan": 996,
      "Po": 997,
      "Ġhi": 998,
      "loÅ¡": 999,
      "ĠGo": 1000,
      "Ġthe": 1001,
      "Ġdoda": 1002,
      "Ġnjego": 1003,
      "nova": 1004,
      "Ġove": 1005,
      "rti": 1006,
      "Ġzapo": 1007,
      "Ġon": 1008,
      "Ġdva": 1009,
      "kra": 1010,
      "tora": 1011,
      "ĠPri": 1012,
      "tne": 1013,
      "telji": 1014,
      "vnih": 1015,
      "Ġpret": 1016,
      "Ġponu": 1017,
      "dij": 1018,
      "Ġnas": 1019,
      "Ġfor": 1020,
      "Äįkih": 1021,
      "risti": 1022,
      "ĠuÄįi": 1023,
      "Ġteh": 1024,
      "grad": 1025,
      "Ġkre": 1026,
      "Ġsiste": 1027,
      "vodi": 1028,
      "kao": 1029,
      "nija": 1030,
      "Ġknji": 1031,
      "ĠVe": 1032,
      "Ġprime": 1033,
      "tori": 1034,
      "Ġpopu": 1035,
      "spe": 1036,
      "men": 1037,
      "Ġodnosno": 1038,
      "Ġposta": 1039,
      "Ġsvoji": 1040,
      "stupa": 1041,
      "Ġstrane": 1042,
      "zulta": 1043,
      "Äįkog": 1044,
      "dne": 1045,
      "ĠodrÅ¾a": 1046,
      "Ġmate": 1047,
      "rani": 1048,
      "Ġtak": 1049,
      "gleda": 1050,
      "201": 1051,
      "vna": 1052,
      "Ġvj": 1053,
      "gije": 1054,
      "Ġprojek": 1055,
      "Ġinforma": 1056,
      "Ġfo": 1057,
      "tima": 1058,
      "ĠIz": 1059,
      "Ġpozi": 1060,
      "NA": 1061,
      "tka": 1062,
      "volj": 1063,
      "lij": 1064,
      "pada": 1065,
      "nski": 1066,
      "ĠJa": 1067,
      "Ġkroz": 1068,
      "Ġgru": 1069,
      "Äįni": 1070,
      "ktu": 1071,
      "eka": 1072,
      "star": 1073,
      "rni": 1074,
      "Å¡nje": 1075,
      "Ġloka": 1076,
      "Ġsna": 1077,
      "vla": 1078,
      "Ġkoju": 1079,
      "Ġsr": 1080,
      "ĠrazliÄįi": 1081,
      "Ġdr": 1082,
      "meri": 1083,
      "ST": 1084,
      "ĠW": 1085,
      "Ġtek": 1086,
      "rta": 1087,
      "fika": 1088,
      "nama": 1089,
      "vao": 1090,
      "--": 1091,
      "Ġ15": 1092,
      "Ġ18": 1093,
      "Ġ12": 1094,
      "vreme": 1095,
      "ĠÅ¡i": 1096,
      "klo": 1097,
      "\",": 1098,
      "Ġneki": 1099,
      "vine": 1100,
      "Ġprija": 1101,
      "Ġfinan": 1102,
      "Ġorganiza": 1103,
      "ĠBa": 1104,
      "uro": 1105,
      "19": 1106,
      "op": 1107,
      "tri": 1108,
      "ksi": 1109,
      "ĠTa": 1110,
      "nske": 1111,
      "rne": 1112,
      "Å¡u": 1113,
      "vore": 1114,
      "Ġki": 1115,
      "Ġw": 1116,
      "godi": 1117,
      "Ġovo": 1118,
      "Ġimaju": 1119,
      "Ġsla": 1120,
      "Ġkojima": 1121,
      "Ġpoja": 1122,
      "Ġovog": 1123,
      "unk": 1124,
      "mogu": 1125,
      "Ġisti": 1126,
      "ĠtakoÄĳe": 1127,
      "tica": 1128,
      "Ġkultu": 1129,
      "hva": 1130,
      "Ġinter": 1131,
      "Ġtro": 1132,
      "bora": 1133,
      "dova": 1134,
      "sne": 1135,
      "ĠVa": 1136,
      "pera": 1137,
      "ÄĨ": 1138,
      "pita": 1139,
      "Ġprotiv": 1140,
      "rima": 1141,
      "ele": 1142,
      "ntro": 1143,
      "Ġrezulta": 1144,
      "jem": 1145,
      "Ġsada": 1146,
      "Ġskla": 1147,
      "man": 1148,
      "Ġigra": 1149,
      "Ġkvali": 1150,
      "OV": 1151,
      "Ġek": 1152,
      "Ġana": 1153,
      "Ġdobro": 1154,
      "vnom": 1155,
      "ĠÅ½": 1156,
      "ur": 1157,
      "Ġho": 1158,
      "ĠveÄĩi": 1159,
      "Ġcije": 1160,
      "RE": 1161,
      "Ġmla": 1162,
      "Ġdrugo": 1163,
      "Ġkad": 1164,
      "lnih": 1165,
      "viti": 1166,
      "Ġdruge": 1167,
      "Ġtome": 1168,
      "Ġtaj": 1169,
      "Ġrada": 1170,
      "ĠodreÄĳe": 1171,
      "ch": 1172,
      "10": 1173,
      "Ġvje": 1174,
      "Ġmode": 1175,
      "taka": 1176,
      "Ġjedno": 1177,
      "kazu": 1178,
      "bor": 1179,
      "dija": 1180,
      "nira": 1181,
      "jte": 1182,
      "ĠDe": 1183,
      "ĠPe": 1184,
      "telja": 1185,
      "lija": 1186,
      "Ġtij": 1187,
      "Ġeko": 1188,
      "lova": 1189,
      "nak": 1190,
      "lna": 1191,
      "Ġtije": 1192,
      "Ġfunk": 1193,
      "Ġrea": 1194,
      "Ġ20": 1195,
      "cijama": 1196,
      "Ġnau": 1197,
      "lnog": 1198,
      "Äįuna": 1199,
      "pli": 1200,
      "Ġzako": 1201,
      "Ġspe": 1202,
      "Ġsti": 1203,
      "Ġuslu": 1204,
      "zira": 1205,
      "vio": 1206,
      "lije": 1207,
      "mina": 1208,
      "zima": 1209,
      "Ġdij": 1210,
      "bri": 1211,
      "Ġstru": 1212,
      "Ġizvo": 1213,
      "kova": 1214,
      "Ġutvr": 1215,
      "Ġbudu": 1216,
      "nicima": 1217,
      "ĠDi": 1218,
      "rijed": 1219,
      "Ġpar": 1220,
      "Ġbro": 1221,
      "tion": 1222,
      "Ġjezi": 1223,
      "liku": 1224,
      "meta": 1225,
      "Ġcr": 1226,
      "AN": 1227,
      "vrÅ¡e": 1228,
      "Ġal": 1229,
      "eÄĩa": 1230,
      "vesti": 1231,
      "dru": 1232,
      "Ġras": 1233,
      "loga": 1234,
      "novi": 1235,
      "Ġnekoliko": 1236,
      "Äįna": 1237,
      "Ġbili": 1238,
      "lima": 1239,
      "Ġpravi": 1240,
      "Ġdije": 1241,
      "Ġbole": 1242,
      "Ġprava": 1243,
      "jeka": 1244,
      "Ġkr": 1245,
      "Ġauto": 1246,
      "ĠSve": 1247,
      "vina": 1248,
      "Ġener": 1249,
      "kle": 1250,
      "stvu": 1251,
      "Ġunu": 1252,
      "tko": 1253,
      "Ġpravo": 1254,
      "stitu": 1255,
      "Ġmaterija": 1256,
      "Ġgu": 1257,
      "Ġjedna": 1258,
      "Ġtr": 1259,
      "Ġpru": 1260,
      "Ġona": 1261,
      "Ġpojedi": 1262,
      "ĠpoveÄĩa": 1263,
      "Å¾no": 1264,
      "ĠÅ¡ta": 1265,
      "Ġand": 1266,
      "zij": 1267,
      "Ġ202": 1268,
      "Ġono": 1269,
      "Ġrije": 1270,
      "dar": 1271,
      "12": 1272,
      "Ġmno": 1273,
      "logi": 1274,
      "gli": 1275,
      "Ġobrazo": 1276,
      "Ġpredstavlja": 1277,
      "com": 1278,
      "ĠSta": 1279,
      "Ġpozna": 1280,
      "ĠÄįlan": 1281,
      "ĠÄįu": 1282,
      "Ġaktivnosti": 1283,
      "Å¡nji": 1284,
      "Ġsigu": 1285,
      "Ġtrenu": 1286,
      "duze": 1287,
      "ncija": 1288,
      "Ġelek": 1289,
      "Ġviso": 1290,
      "ĠTako": 1291,
      "Ġkomu": 1292,
      "vija": 1293,
      "kti": 1294,
      "Ġsvako": 1295,
      "Ġpreko": 1296,
      "laga": 1297,
      "Ġvode": 1298,
      "RI": 1299,
      "Ġposle": 1300,
      "tke": 1301,
      "Ġ'": 1302,
      "ĠAko": 1303,
      "Ġmalo": 1304,
      "sije": 1305,
      "Ġosigu": 1306,
      "Å¡ka": 1307,
      "nskog": 1308,
      "Ġnam": 1309,
      "Äįnih": 1310,
      "mati": 1311,
      "Ġnasta": 1312,
      "ndi": 1313,
      "lim": 1314,
      "Ġbude": 1315,
      "tih": 1316,
      "pad": 1317,
      "Ġdoku": 1318,
      "diti": 1319,
      "ĠOp": 1320,
      "Äįaju": 1321,
      "el": 1322,
      "Ġ11": 1323,
      "tku": 1324,
      "Ġsmatra": 1325,
      "Ġovaj": 1326,
      "ĠnaÅ¡e": 1327,
      "ĠÅ¡e": 1328,
      "uze": 1329,
      "Ġvrije": 1330,
      "Ġnepo": 1331,
      "ĠGra": 1332,
      "ĠznaÄįaj": 1333,
      "ndar": 1334,
      "Ġar": 1335,
      "Ġostva": 1336,
      "pis": 1337,
      "Ġnu": 1338,
      "hu": 1339,
      "fa": 1340,
      "Ġime": 1341,
      "Ġregi": 1342,
      "Ġovom": 1343,
      "rane": 1344,
      "vala": 1345,
      "nistar": 1346,
      "Za": 1347,
      "Ġkontro": 1348,
      "Ġdanas": 1349,
      "viÅ¡e": 1350,
      "Ġteme": 1351,
      "JA": 1352,
      "ĠSi": 1353,
      "tna": 1354,
      "nci": 1355,
      "ĠLi": 1356,
      "sjed": 1357,
      "rodi": 1358,
      "Ġproizvod": 1359,
      "Ġtokom": 1360,
      "Ġomogu": 1361,
      "Ġ14": 1362,
      "niti": 1363,
      "ment": 1364,
      "tem": 1365,
      "vnim": 1366,
      "Ġtran": 1367,
      "nata": 1368,
      "vod": 1369,
      "ljivo": 1370,
      "ĠmoguÄĩ": 1371,
      "ĠTe": 1372,
      "ĠSu": 1373,
      "laze": 1374,
      "Å¡tine": 1375,
      "nka": 1376,
      "jeÄĩa": 1377,
      "Ġsvih": 1378,
      "ĠkaÅ¾e": 1379,
      "tera": 1380,
      "plo": 1381,
      "Ġvred": 1382,
      "publi": 1383,
      "vjet": 1384,
      "Ġrekao": 1385,
      "Ġ13": 1386,
      "Ġhrvat": 1387,
      "ple": 1388,
      "rj": 1389,
      "Ġdio": 1390,
      "ĠstruÄį": 1391,
      "ĠukljuÄįu": 1392,
      "vez": 1393,
      "Ġput": 1394,
      "riji": 1395,
      "stavlje": 1396,
      "kih": 1397,
      "Ġprepo": 1398,
      "slo": 1399,
      "Ġtvr": 1400,
      "lat": 1401,
      "ĠZako": 1402,
      "rje": 1403,
      "dije": 1404,
      "Ġoni": 1405,
      "ĠJo": 1406,
      "Ġspre": 1407,
      "Ġ199": 1408,
      "ĠneÅ¡to": 1409,
      "ĠRo": 1410,
      "Ġobu": 1411,
      "sam": 1412,
      "Ġmnogo": 1413,
      "Ġpotpu": 1414,
      "es": 1415,
      "ĠZagre": 1416,
      "Ġsvojim": 1417,
      "Äĳenje": 1418,
      "Äįkim": 1419,
      "ĠpovrÅ¡i": 1420,
      "ĠOva": 1421,
      "Ġmre": 1422,
      "Ġnaba": 1423,
      "Ġpokre": 1424,
      "Ġnika": 1425,
      "Äįan": 1426,
      "Ġdrugih": 1427,
      "Ġkonce": 1428,
      "tua": 1429,
      "Ġrazvoj": 1430,
      "slu": 1431,
      "vro": 1432,
      "NO": 1433,
      "âĢĵ": 1434,
      "RO": 1435,
      "Å¡enje": 1436,
      "Ġuve": 1437,
      "ĠÅ¾u": 1438,
      "Ġskladu": 1439,
      "Å¡enja": 1440,
      "sija": 1441,
      "ĠBu": 1442,
      "Ġnivo": 1443,
      "Ġizda": 1444,
      "Ġpostup": 1445,
      "ĠMeÄĳu": 1446,
      "Ġmedi": 1447,
      "gao": 1448,
      "11": 1449,
      "LA": 1450,
      "Ġdalje": 1451,
      "Ġzdrav": 1452,
      "Ġprimje": 1453,
      "ĠDu": 1454,
      "Ġdirek": 1455,
      "ĠÄįo": 1456,
      "Ġkojoj": 1457,
      "Ġupravlja": 1458,
      "ĠJu": 1459,
      "Ġmnog": 1460,
      "Äįkom": 1461,
      "ĠBeo": 1462,
      "narod": 1463,
      "Ġnavede": 1464,
      "Ġ16": 1465,
      "Ġnajbo": 1466,
      "ĠÄįak": 1467,
      "nike": 1468,
      "Ġnalazi": 1469,
      "rna": 1470,
      "Å¾da": 1471,
      "cijom": 1472,
      "Ġvrijed": 1473,
      "nuti": 1474,
      "Ġodgova": 1475,
      "Ġpostoji": 1476,
      "Ġure": 1477,
      "ĠRi": 1478,
      "Ġpono": 1479,
      "Ġrazvo": 1480,
      "nte": 1481,
      "Ġperio": 1482,
      "Ġgrad": 1483,
      "Ġosoba": 1484,
      "Ġpostoj": 1485,
      "il": 1486,
      "Ġvrijeme": 1487,
      "kim": 1488,
      "zbe": 1489,
      "ĠsluÄįaju": 1490,
      "njima": 1491,
      "loÅ¾e": 1492,
      "Ġpostoje": 1493,
      "Ġ30": 1494,
      "co": 1495,
      "sna": 1496,
      "Ġdoma": 1497,
      "Å¡tu": 1498,
      "Ġstude": 1499,
      "II": 1500,
      "Ġ17": 1501,
      "Ġpoli": 1502,
      "fo": 1503,
      "sob": 1504,
      "Ġokvi": 1505,
      "govora": 1506,
      "ĠLa": 1507,
      "eva": 1508,
      "ĠRepubli": 1509,
      "rana": 1510,
      "Ġprili": 1511,
      "Ġneka": 1512,
      "TI": 1513,
      "Ġkla": 1514,
      "Ġfil": 1515,
      "Ġonda": 1516,
      "ĠsadrÅ¾a": 1517,
      "per": 1518,
      "matra": 1519,
      "ĠsluÄįaj": 1520,
      "ĠgraÄĳa": 1521,
      "ĠÅ¾ivot": 1522,
      "ĠÂ": 1523,
      "vanjem": 1524,
      "Ġraspo": 1525,
      "Ġdefi": 1526,
      "ĠRu": 1527,
      "Ġvoj": 1528,
      "ĠTi": 1529,
      "Ġgene": 1530,
      "nke": 1531,
      "Äĳuj": 1532,
      "Ġobla": 1533,
      "Ġpokaza": 1534,
      "Ġnjih": 1535,
      "Äĳuje": 1536,
      "Ġvrlo": 1537,
      "SK": 1538,
      "tivno": 1539,
      "hod": 1540,
      "Ġodgovor": 1541,
      "stri": 1542,
      "Ġsvoju": 1543,
      "ĠVla": 1544,
      "Å¡ao": 1545,
      "ĠneÄĩe": 1546,
      "Å¡nja": 1547,
      "ĠMar": 1548,
      "Ġpodataka": 1549,
      "Ġputa": 1550,
      "Ġvodi": 1551,
      "vani": 1552,
      "Ġone": 1553,
      "Ġusta": 1554,
      "AD": 1555,
      "Ġpona": 1556,
      "Ġopre": 1557,
      "lovi": 1558,
      "Äĩih": 1559,
      "Ġzaklju": 1560,
      "pj": 1561,
      "ĠdruÅ¡tve": 1562,
      "Ġvremena": 1563,
      "Ġzahte": 1564,
      "th": 1565,
      "Ġslobo": 1566,
      "kve": 1567,
      "lih": 1568,
      "Ġprvi": 1569,
      "Ġsredi": 1570,
      "ĠÄįita": 1571,
      "vre": 1572,
      "Ġproda": 1573,
      "Ġrazu": 1574,
      "ĠSe": 1575,
      "Ġpoku": 1576,
      "Ġsvij": 1577,
      "Ġgde": 1578,
      "ĠSrbij": 1579,
      "Ġsku": 1580,
      "Ġsvije": 1581,
      "Ġpripre": 1582,
      "smo": 1583,
      "Ġge": 1584,
      "Ġtom": 1585,
      "nskih": 1586,
      "Ġtim": 1587,
      "kovi": 1588,
      "Ġposebno": 1589,
      "Ġsrp": 1590,
      "Ġsitua": 1591,
      "vra": 1592,
      "ÄĲ": 1593,
      "gaÄĳa": 1594,
      "pak": 1595,
      "bar": 1596,
      "Ġmili": 1597,
      "Ġvide": 1598,
      "Ġ/": 1599,
      "Ġukup": 1600,
      "Ġtele": 1601,
      "Ġfe": 1602,
      "Ġmeto": 1603,
      "zije": 1604,
      "Ġpoveza": 1605,
      "lnim": 1606,
      "Ġgospo": 1607,
      "ĠtrÅ¾i": 1608,
      "ĠgraÄĳe": 1609,
      "Ġosnovu": 1610,
      "ĠSrbije": 1611,
      "Ġ*": 1612,
      "vana": 1613,
      "NE": 1614,
      "Ġvlasti": 1615,
      "Ġbri": 1616,
      "ntra": 1617,
      "zija": 1618,
      "Ġneo": 1619,
      "Äįnog": 1620,
      "ĠHa": 1621,
      "ww": 1622,
      "Ġuvje": 1623,
      "Å¡lja": 1624,
      "nce": 1625,
      "Ġsek": 1626,
      "blje": 1627,
      "âĢľ,": 1628,
      "Äįenja": 1629,
      "Ġlij": 1630,
      "set": 1631,
      "sao": 1632,
      "Ġispo": 1633,
      "Ġmanje": 1634,
      "Ġoda": 1635,
      "ĠJe": 1636,
      "nos": 1637,
      "Ġvam": 1638,
      "Ġsocija": 1639,
      "Äįiti": 1640,
      "Ġobzi": 1641,
      "Ġkoris": 1642,
      "Äįenje": 1643,
      "ĠoÄįe": 1644,
      "ĠÄįesto": 1645,
      "nicu": 1646,
      "ljo": 1647,
      "pje": 1648,
      "Ġpote": 1649,
      "Äįku": 1650,
      "Ġzemlji": 1651,
      "ĠPra": 1652,
      "Ġad": 1653,
      "Ġnazi": 1654,
      "CI": 1655,
      "Ġkojem": 1656,
      "Ġnajve": 1657,
      "tjeca": 1658,
      "Ġgdje": 1659,
      "Ġsmi": 1660,
      "gled": 1661,
      "kr": 1662,
      "bre": 1663,
      "piti": 1664,
      "Ġlije": 1665,
      "TA": 1666,
      "lago": 1667,
      "Ġpotrebno": 1668,
      "zma": 1669,
      "Ġspa": 1670,
      "mom": 1671,
      "Ġvas": 1672,
      "Ġsvim": 1673,
      "Ġap": 1674,
      "Ġuvi": 1675,
      "OD": 1676,
      "koliko": 1677,
      "Ġnapra": 1678,
      "kro": 1679,
      "Ġisku": 1680,
      "Å¡ava": 1681,
      "Ġsvet": 1682,
      "oma": 1683,
      "noviÄĩ": 1684,
      "Ġobave": 1685,
      "som": 1686,
      "ĠDru": 1687,
      "13": 1688,
      "LI": 1689,
      "Ġrizi": 1690,
      "Ġnedo": 1691,
      "Ġstav": 1692,
      "Å¡Äĩu": 1693,
      "Ġmisli": 1694,
      "TE": 1695,
      "Ġ25": 1696,
      "cj": 1697,
      "20": 1698,
      "titi": 1699,
      "Ġkarak": 1700,
      "Ġljud": 1701,
      "kul": 1702,
      "nde": 1703,
      "Ġkoliko": 1704,
      "Ġdan": 1705,
      "Ġkoriste": 1706,
      "sed": 1707,
      "tnih": 1708,
      "Ġnastav": 1709,
      "15": 1710,
      "18": 1711,
      "pr": 1712,
      "niver": 1713,
      "riti": 1714,
      "emo": 1715,
      "Ġper": 1716,
      "menti": 1717,
      "tt": 1718,
      "ĠÅ¾ivota": 1719,
      "nska": 1720,
      "Ġinf": 1721,
      "Ġnove": 1722,
      "\".": 1723,
      "ĠÄįini": 1724,
      "tek": 1725,
      "Ġintere": 1726,
      "ĠpomoÄĩ": 1727,
      "Ġrodi": 1728,
      "Ġposti": 1729,
      "vred": 1730,
      "Ġuspo": 1731,
      "pred": 1732,
      "sima": 1733,
      "ĠâĢĶ": 1734,
      "Ġdeo": 1735,
      "Ġobe": 1736,
      "Ġzaposle": 1737,
      "janje": 1738,
      "Ġlu": 1739,
      "zor": 1740,
      "ĠvaÅ¾": 1741,
      "Ġtehno": 1742,
      "Ġpogo": 1743,
      "ĠproÅ¡": 1744,
      "riju": 1745,
      "Äĳenja": 1746,
      "Ġjednom": 1747,
      "ĠNA": 1748,
      "dovi": 1749,
      "Ġispu": 1750,
      "ĠEuro": 1751,
      "voji": 1752,
      "rma": 1753,
      "tivne": 1754,
      "Ġsle": 1755,
      "Å¡ke": 1756,
      "Ġposeb": 1757,
      "Ġprofe": 1758,
      "Äĩem": 1759,
      "Ġanali": 1760,
      "kazuj": 1761,
      "grani": 1762,
      "Ġfizi": 1763,
      "laz": 1764,
      "Ġgodinu": 1765,
      "Ġvra": 1766,
      "razu": 1767,
      "nad": 1768,
      "Ġobjek": 1769,
      "ĠpruÅ¾a": 1770,
      "ĠraÄįuna": 1771,
      "Ġdrugim": 1772,
      "drÅ¾a": 1773,
      "Ġpoput": 1774,
      "Ġradu": 1775,
      "jima": 1776,
      "Ġgle": 1777,
      "grafi": 1778,
      "Ġ,": 1779,
      "like": 1780,
      "Ġprisu": 1781,
      "Ġ...": 1782,
      "ĠdogaÄĳa": 1783,
      "Ġmeta": 1784,
      "Ġvidi": 1785,
      ".\"": 1786,
      "kazuje": 1787,
      "Ġizve": 1788,
      "koviÄĩ": 1789,
      "ĠmoÅ¾ete": 1790,
      "lar": 1791,
      "Ġstano": 1792,
      "Ġupotre": 1793,
      "Ġinstitu": 1794,
      "snije": 1795,
      "Äįnim": 1796,
      "ĠzaÅ¡tite": 1797,
      "Å¡tva": 1798,
      "ĠLe": 1799,
      "nio": 1800,
      "ĠZA": 1801,
      "ĊĠ": 1802,
      "Ġodnosu": 1803,
      "ĠÅ¾eli": 1804,
      "tan": 1805,
      "ĠznaÄįi": 1806,
      "Ġgovori": 1807,
      "kama": 1808,
      "Ġveza": 1809,
      "Ġbli": 1810,
      "Ġpotreb": 1811,
      "ĠoÄįi": 1812,
      "Ġunutar": 1813,
      "Ġdugo": 1814,
      "14": 1815,
      "Ġobavlja": 1816,
      "sj": 1817,
      "Ġnapo": 1818,
      "uz": 1819,
      "renja": 1820,
      "Ġdija": 1821,
      "nicama": 1822,
      "Ġporodi": 1823,
      "Å¡lje": 1824,
      "rali": 1825,
      "sre": 1826,
      "vac": 1827,
      "Ġnacional": 1828,
      "Ġha": 1829,
      "Ġca": 1830,
      "Äįio": 1831,
      "Ġzi": 1832,
      "Äĳen": 1833,
      "ĠZakona": 1834,
      "Ġputem": 1835,
      "ena": 1836,
      "Ġdece": 1837,
      "snosti": 1838,
      "renje": 1839,
      "ĠsluÅ¾be": 1840,
      "nga": 1841,
      "Ġsme": 1842,
      "Ġneza": 1843,
      "Ġokru": 1844,
      "rvi": 1845,
      "kav": 1846,
      "line": 1847,
      ".)": 1848,
      "Ġbra": 1849,
      "Ġrje": 1850,
      "sje": 1851,
      "Ġele": 1852,
      "Ġzdravstve": 1853,
      "Ġprona": 1854,
      "lnom": 1855,
      "Ġpisa": 1856,
      "ĠKu": 1857,
      "Ġpore": 1858,
      "Ġzat": 1859,
      "Ġbolesti": 1860,
      "nzi": 1861,
      "vor": 1862,
      "Äįili": 1863,
      "ĠÄįlana": 1864,
      "MA": 1865,
      "200": 1866,
      "ema": 1867,
      "Ġdruga": 1868,
      "ĠÅ¡u": 1869,
      "tovo": 1870,
      "Ġstvari": 1871,
      "Ġtj": 1872,
      "Ġprome": 1873,
      "ĠAu": 1874,
      "jan": 1875,
      "ĠpodruÄįju": 1876,
      "---": 1877,
      "Ġ\\": 1878,
      "obra": 1879,
      "ĠAli": 1880,
      "mpa": 1881,
      "Ġmjese": 1882,
      "Ġpotvr": 1883,
      "ĠtroÅ¡ko": 1884,
      "ĠBiH": 1885,
      "Ġimati": 1886,
      "Ġzada": 1887,
      "manje": 1888,
      "Ġprograma": 1889,
      "ĠkoriÅ¡Äĩe": 1890,
      "Ġstandar": 1891,
      "Ġupu": 1892,
      "Å¾enje": 1893,
      "san": 1894,
      "ĠLu": 1895,
      "ĠFi": 1896,
      "hvati": 1897,
      "pisu": 1898,
      "ĠmoÅ¾da": 1899,
      "stro": 1900,
      "Ġpara": 1901,
      "mbe": 1902,
      "Ġnovi": 1903,
      "voljno": 1904,
      "Ġprirod": 1905,
      "Ġuna": 1906,
      "Äĩeg": 1907,
      "ty": 1908,
      "love": 1909,
      "Ġprove": 1910,
      "KA": 1911,
      "tetu": 1912,
      "tio": 1913,
      "Ġvozi": 1914,
      "Ġutica": 1915,
      "Å¾an": 1916,
      "Ġizja": 1917,
      "Ġkraju": 1918,
      "Ġpitanje": 1919,
      "Ġsre": 1920,
      "Ġelektro": 1921,
      "tiri": 1922,
      "ĠKako": 1923,
      "Ġsm": 1924,
      "lnu": 1925,
      "Ġneke": 1926,
      "glo": 1927,
      "ĠistraÅ¾ivanja": 1928,
      "ĠKra": 1929,
      "ĠEU": 1930,
      "Å¾iti": 1931,
      "rao": 1932,
      "movi": 1933,
      "Ġov": 1934,
      "ĠSo": 1935,
      "Å¡taj": 1936,
      "kva": 1937,
      "Ġuda": 1938,
      "VA": 1939,
      "Ġ24": 1940,
      "Ġzado": 1941,
      "ĠPO": 1942,
      "Äįkoj": 1943,
      "âĢĻ": 1944,
      "ĠMinistar": 1945,
      "ĠnaÅ¡": 1946,
      "Ġpitanja": 1947,
      "ĠFa": 1948,
      "kna": 1949,
      "ss": 1950,
      "prav": 1951,
      "mini": 1952,
      "Ġsud": 1953,
      "lac": 1954,
      "Ġmnogi": 1955,
      "Ġveoma": 1956,
      "30": 1957,
      "Da": 1958,
      "janja": 1959,
      "ĠmeÄĳunarod": 1960,
      "nstve": 1961,
      "Å¡Äĩa": 1962,
      "Ġpodr": 1963,
      "snik": 1964,
      "Ġotkri": 1965,
      "Ġzajedni": 1966,
      "Ġnaro": 1967,
      "jekata": 1968,
      "net": 1969,
      "Ġidenti": 1970,
      "Ġhe": 1971,
      "50": 1972,
      "Ġjednog": 1973,
      "zbi": 1974,
      "Ġulo": 1975,
      "Ġug": 1976,
      "zni": 1977,
      "Ġpreda": 1978,
      "ĠPi": 1979,
      "ĠmoguÄĩe": 1980,
      "Ġstruktu": 1981,
      "Ġpoma": 1982,
      "Ġoblasti": 1983,
      "gen": 1984,
      "Ġuzro": 1985,
      "vlju": 1986,
      "ĠKi": 1987,
      "Ka": 1988,
      "Ġkru": 1989,
      "Ġuspe": 1990,
      "ĠpomoÄĩi": 1991,
      "Ġpredsjed": 1992,
      "Ġtada": 1993,
      "16": 1994,
      "ĠnaÅ¡i": 1995,
      "17": 1996,
      "Ġdefini": 1997,
      "ĠKada": 1998,
      "vnu": 1999,
      "Ġovih": 2000,
      "Ġzahtje": 2001,
      "ĠMeÄĳutim": 2002,
      "ĠHrvatske": 2003,
      "âĢĿ,": 2004,
      "Ġsistema": 2005,
      "ljopri": 2006,
      "nove": 2007,
      "Ġnjegovo": 2008,
      "ĠNakon": 2009,
      "Ġmladi": 2010,
      "ĠPred": 2011,
      "ĠVu": 2012,
      "ljem": 2013,
      "Ġpostupa": 2014,
      "Äĩim": 2015,
      "Ġklu": 2016,
      "Äįnu": 2017,
      "Ġposlje": 2018,
      "Ġopa": 2019,
      "kcije": 2020,
      "ĠTakoÄĳe": 2021,
      "Ġposla": 2022,
      "mir": 2023,
      "Ġgleda": 2024,
      "iz": 2025,
      "__": 2026,
      "Äĳena": 2027,
      "EN": 2028,
      "ly": 2029,
      "pravo": 2030,
      "Ġodgovo": 2031,
      "pske": 2032,
      "Ġumje": 2033,
      "tog": 2034,
      "Ġobo": 2035,
      "ĠOvo": 2036,
      "Ġpobo": 2037,
      "Ġuspje": 2038,
      "stoj": 2039,
      "Ġgrada": 2040,
      "nuta": 2041,
      "Ġdokumenta": 2042,
      "Ġsmanje": 2043,
      "dina": 2044,
      "tere": 2045,
      "kli": 2046,
      "bj": 2047,
      "feren": 2048,
      "kuplja": 2049,
      "cioni": 2050,
      "Ġfoto": 2051,
      "ĠEvro": 2052,
      "sova": 2053,
      "naÄįe": 2054,
      "ol": 2055,
      "njuj": 2056,
      "Ġjednostav": 2057,
      "ĠPu": 2058,
      "Ġnabav": 2059,
      "Ġ50": 2060,
      "Ġodgovaraju": 2061,
      "ĠRepublike": 2062,
      "ĠAl": 2063,
      "ĠLo": 2064,
      "ĠGa": 2065,
      "Ġkompa": 2066,
      "grada": 2067,
      "Ġsvaki": 2068,
      "Ġ100": 2069,
      "lica": 2070,
      "nto": 2071,
      "bje": 2072,
      "ĠNj": 2073,
      "Ġbor": 2074,
      "Ġista": 2075,
      "ĠÅ¾upa": 2076,
      "zaj": 2077,
      "Ġtehni": 2078,
      "od": 2079,
      "ĠAmeri": 2080,
      "Ġindu": 2081,
      "Ġpj": 2082,
      "Ġradio": 2083,
      "ĠponaÅ¡a": 2084,
      "Ġpromje": 2085,
      "bom": 2086,
      "Ġdopu": 2087,
      "Ġ[": 2088,
      "dnji": 2089,
      "Ġosobe": 2090,
      "laza": 2091,
      "Ġkarakte": 2092,
      "Ġsim": 2093,
      "Ġozna": 2094,
      "ĠOpÄĩi": 2095,
      "ĠpodruÄįja": 2096,
      "vca": 2097,
      "ĠÄįinje": 2098,
      "lnosti": 2099,
      "Ġpredvi": 2100,
      "mer": 2101,
      "Ġnadle": 2102,
      "zne": 2103,
      "Ġdopri": 2104,
      "rva": 2105,
      "Ġvezi": 2106,
      "Ġnosi": 2107,
      "Ġbolje": 2108,
      "Ġopera": 2109,
      "Ġpolo": 2110,
      "Ġpotro": 2111,
      "vila": 2112,
      "Ġtem": 2113,
      "Ġusluga": 2114,
      "Äįnom": 2115,
      "raj": 2116,
      "Ġanti": 2117,
      "ĠÅ¡kole": 2118,
      "Å¾ba": 2119,
      "mira": 2120,
      "ĠÄįetiri": 2121,
      "Ġizgrad": 2122,
      "ĠSto": 2123,
      "ĠÅ¾": 2124,
      "Ġplani": 2125,
      "Ġodra": 2126,
      "Ġstr": 2127,
      "Ġkraj": 2128,
      "Ġsvom": 2129,
      "Ġmaj": 2130,
      "Ġograni": 2131,
      "tivni": 2132,
      "jemo": 2133,
      "Ġpet": 2134,
      "Ġdozvo": 2135,
      "njuje": 2136,
      "Ġproblem": 2137,
      "Ġprogram": 2138,
      "Ġotvore": 2139,
      "202": 2140,
      "voje": 2141,
      "Ġrazvoja": 2142,
      "Ġplo": 2143,
      "mjer": 2144,
      "Ġpobolj": 2145,
      "Ġsarad": 2146,
      "Ġmedici": 2147,
      "Ġkojih": 2148,
      "Ġdjelo": 2149,
      "Ġprvo": 2150,
      "Ġkojim": 2151,
      "Ġdra": 2152,
      "ĠNaj": 2153,
      "Ġpoljopri": 2154,
      "menu": 2155,
      "Ġdolazi": 2156,
      "Ġen": 2157,
      "lik": 2158,
      "Ġspro": 2159,
      "Ġodre": 2160,
      "Ġzlo": 2161,
      "Ġokviru": 2162,
      "ĠpokuÅ¡a": 2163,
      "vÅ¡i": 2164,
      "Ġtru": 2165,
      "Ġuo": 2166,
      "Ġekonom": 2167,
      "Ġneu": 2168,
      "lacije": 2169,
      "logije": 2170,
      "Ġgenera": 2171,
      "Â«": 2172,
      "Ġzavi": 2173,
      "ĠKon": 2174,
      "Ġkate": 2175,
      "KO": 2176,
      "Ġ22": 2177,
      "rske": 2178,
      "niza": 2179,
      "Ġizvje": 2180,
      "njoj": 2181,
      "tnog": 2182,
      "staviti": 2183,
      "ĠCr": 2184,
      "ĠCi": 2185,
      "ĠTu": 2186,
      "ĠureÄĳa": 2187,
      "ĠkoliÄįi": 2188,
      "Ġpreduze": 2189,
      "âĢŀ": 2190,
      "ĠÅ¡a": 2191,
      "Ġgodini": 2192,
      "rovat": 2193,
      "Ġzemlje": 2194,
      "Ġklju": 2195,
      "Ġrazi": 2196,
      "ĠteÅ¡ko": 2197,
      "Ġnjega": 2198,
      "Ġdne": 2199,
      "ÄįiÄĩ": 2200,
      "Ġzato": 2201,
      "snost": 2202,
      "Äįima": 2203,
      "Ġstvar": 2204,
      "Ġlica": 2205,
      "//": 2206,
      "Ġstrate": 2207,
      "laÅ¾e": 2208,
      "Ġsati": 2209,
      "Ġdina": 2210,
      "Ġinformacije": 2211,
      "pij": 2212,
      "Ġobzirom": 2213,
      "Ġpuno": 2214,
      "ĠÄĩemo": 2215,
      "rava": 2216,
      "Ġsub": 2217,
      "Ġizbo": 2218,
      "Ġsposob": 2219,
      "dni": 2220,
      "ture": 2221,
      "Ġteo": 2222,
      "Ġgre": 2223,
      "ravno": 2224,
      "ĠOdlu": 2225,
      "bina": 2226,
      "Ġuvijek": 2227,
      "Ġpropisa": 2228,
      "Ġprojekta": 2229,
      "Ġvrsta": 2230,
      "VI": 2231,
      "Ġniti": 2232,
      "ĠvaÅ¡e": 2233,
      "Ko": 2234,
      "tski": 2235,
      "Ġsebe": 2236,
      "Ġpacije": 2237,
      "stoji": 2238,
      "Ġisklju": 2239,
      "Ġprodu": 2240,
      "---|": 2241,
      "ĠX": 2242,
      "rs": 2243,
      "Ġproblema": 2244,
      "Ġuvek": 2245,
      "OR": 2246,
      "Ġmese": 2247,
      "Ġmoraju": 2248,
      "Ġsistem": 2249,
      "Ne": 2250,
      "Ġsvog": 2251,
      "Ġmogao": 2252,
      "Ġsredstava": 2253,
      "Ġpotreba": 2254,
      "kcija": 2255,
      "Ġproizvoda": 2256,
      "Ġzo": 2257,
      "ttp": 2258,
      "nskom": 2259,
      "gnu": 2260,
      "Ġtradi": 2261,
      "Ra": 2262,
      "sc": 2263,
      "rba": 2264,
      "lina": 2265,
      "Ġporu": 2266,
      "ĠÄĲ": 2267,
      "://": 2268,
      "Ġfakul": 2269,
      "logija": 2270,
      "Ġslede": 2271,
      "rem": 2272,
      "Ġpsi": 2273,
      "bij": 2274,
      "Ġsmje": 2275,
      "seÄĩa": 2276,
      "Ġtog": 2277,
      "sci": 2278,
      "erce": 2279,
      "ĠMu": 2280,
      "ime": 2281,
      "Ġpotpuno": 2282,
      "Ġizno": 2283,
      "Ġodred": 2284,
      "Ġ|---|": 2285,
      "nsko": 2286,
      "Ġkomunika": 2287,
      "Ġveliki": 2288,
      "Ġredo": 2289,
      "Ġdve": 2290,
      "Ġiako": 2291,
      "Ġpredstav": 2292,
      "gne": 2293,
      "vremeno": 2294,
      "sor": 2295,
      "Pro": 2296,
      "Ġpotencija": 2297,
      "Ġiznosi": 2298,
      "Å¡tvo": 2299,
      "Ġsvr": 2300,
      "Ġusluge": 2301,
      "kvi": 2302,
      "br": 2303,
      "Ġpristup": 2304,
      "Ġsklo": 2305,
      "Ġprikaza": 2306,
      "Ġmar": 2307,
      "Ġtrans": 2308,
      "Ġzajedno": 2309,
      "Ġdvo": 2310,
      "ĠduÅ¾": 2311,
      "ljede": 2312,
      "ck": 2313,
      "rena": 2314,
      "Ġosim": 2315,
      "nca": 2316,
      "Ġnjima": 2317,
      "lanak": 2318,
      "Ġmogli": 2319,
      "Å¡tina": 2320,
      "ĠkoriÅ¡te": 2321,
      "Ġregu": 2322,
      "Ġzatim": 2323,
      "Ġprilikom": 2324,
      "Ġimao": 2325,
      "loba": 2326,
      "Ġovi": 2327,
      "vet": 2328,
      "tova": 2329,
      "cifi": 2330,
      "Ġkar": 2331,
      "Ġprizna": 2332,
      "nera": 2333,
      "Ġsasta": 2334,
      "dam": 2335,
      "Ġljuba": 2336,
      "Ġ.": 2337,
      "qu": 2338,
      "ĠKao": 2339,
      "mlje": 2340,
      "ĠÂ»": 2341,
      "Sa": 2342,
      "lti": 2343,
      "Ġpotrebe": 2344,
      "Å¡ku": 2345,
      "ĠpoÄįi": 2346,
      "Ġovu": 2347,
      "bio": 2348,
      "Ġtijekom": 2349,
      "ĠzaÅ¡titu": 2350,
      "Ġprima": 2351,
      "Ġdvije": 2352,
      "Å¾io": 2353,
      "Ġmoj": 2354,
      "hodno": 2355,
      "Ġcilj": 2356,
      "liÄĩ": 2357,
      "vlji": 2358,
      "vode": 2359,
      "Ġprostor": 2360,
      "tual": 2361,
      "Ġsvojih": 2362,
      "Ġobezbe": 2363,
      "Ġjoj": 2364,
      "gija": 2365,
      "vili": 2366,
      "ĠpoboljÅ¡a": 2367,
      "ĠGrad": 2368,
      "ĠnadleÅ¾": 2369,
      "Ġ23": 2370,
      "gradu": 2371,
      "ĠuÄįenika": 2372,
      "Ġodnosi": 2373,
      "Ġhra": 2374,
      "Ġtempera": 2375,
      "ĠHrvatskoj": 2376,
      "pt": 2377,
      "ry": 2378,
      "Ġvrijednosti": 2379,
      "ĠdrÅ¾ave": 2380,
      "ĠÅ¡kola": 2381,
      "ĠmoguÄĩnosti": 2382,
      "Ġjavne": 2383,
      "niverzi": 2384,
      "Ġvrednosti": 2385,
      "ĠmoÅ¾emo": 2386,
      "Ġkonku": 2387,
      "Ġlje": 2388,
      "ĠVo": 2389,
      "lost": 2390,
      "Ġzahva": 2391,
      "Ġkva": 2392,
      "tkom": 2393,
      "ĠpaÅ¾": 2394,
      "ĠdruÅ¡tva": 2395,
      "Ġodma": 2396,
      "Ġit": 2397,
      "Ġvrati": 2398,
      "Ġnase": 2399,
      "Äįnosti": 2400,
      "Ġsvega": 2401,
      "ĠdoÅ¡": 2402,
      "Ġjav": 2403,
      "Ġispita": 2404,
      "ĠCa": 2405,
      "Ġovoj": 2406,
      "tivnih": 2407,
      "ĠniÅ¡ta": 2408,
      "kuj": 2409,
      "ĠdrÅ¾ava": 2410,
      "Ġovim": 2411,
      "dÅ¾e": 2412,
      "Ġtrebalo": 2413,
      "Ġefika": 2414,
      "Ġindust": 2415,
      "Ġdovoljno": 2416,
      "Ġprote": 2417,
      "Ġ21": 2418,
      "Ġzakon": 2419,
      "Ġenergije": 2420,
      "ĠPla": 2421,
      "ks": 2422,
      "ĠmiÅ¡lje": 2423,
      "Ġplanira": 2424,
      "ĠDra": 2425,
      "tske": 2426,
      "Ġsko": 2427,
      "blja": 2428,
      "Ġpreporu": 2429,
      "ĠTre": 2430,
      "ĠÅ¾ele": 2431,
      "kuje": 2432,
      "luÅ¾be": 2433,
      "Do": 2434,
      "Ġdemo": 2435,
      "Ġdjelat": 2436,
      "Å¡no": 2437,
      "Ġdone": 2438,
      "Ġkoristiti": 2439,
      "den": 2440,
      "ĠGrada": 2441,
      "miÅ¡lja": 2442,
      "Ġnedosta": 2443,
      "Ġgubi": 2444,
      "ĠplaÄĩa": 2445,
      "Ġposj": 2446,
      "Ġposje": 2447,
      "Ġutjeca": 2448,
      "kaz": 2449,
      "nuo": 2450,
      "Ġdostup": 2451,
      "Ġbile": 2452,
      "Ġkolo": 2453,
      "ĠÅ¾ivoti": 2454,
      "govi": 2455,
      "Ġvij": 2456,
      "Ġameri": 2457,
      "Ġudru": 2458,
      "rina": 2459,
      "gom": 2460,
      "UP": 2461,
      "Äįar": 2462,
      "ĠÅ¾ena": 2463,
      "fek": 2464,
      "ED": 2465,
      "Ġgrupe": 2466,
      "Ġgotovo": 2467,
      "tiva": 2468,
      "Ġvrste": 2469,
      "Ġdizaj": 2470,
      "Ġsami": 2471,
      "Ġpart": 2472,
      "Ġnovo": 2473,
      "lice": 2474,
      "OVI": 2475,
      "stima": 2476,
      "Ġnagla": 2477,
      "Ġpoduze": 2478,
      "Ġkatego": 2479,
      "ndida": 2480,
      "takmi": 2481,
      "Ġupravo": 2482,
      "dite": 2483,
      "Ġgospodar": 2484,
      "ĠukljuÄįujuÄĩi": 2485,
      "Ġope": 2486,
      "hvata": 2487,
      "Ġsredstva": 2488,
      "ĠÅ¾a": 2489,
      "Ġpora": 2490,
      "cje": 2491,
      "Äĳeno": 2492,
      "Ġvlada": 2493,
      "dima": 2494,
      "Ġrazliku": 2495,
      "Ġsvjet": 2496,
      "Ġnarod": 2497,
      "zova": 2498,
      "lini": 2499,
      "Ġbroja": 2500,
      "sim": 2501,
      "Ġgrupa": 2502,
      "22": 2503,
      "Ġglu": 2504,
      "Ġindi": 2505,
      "Ma": 2506,
      "ĠRaz": 2507,
      "ĠistraÅ¾iva": 2508,
      "ĠFe": 2509,
      "Ġdeta": 2510,
      "Ġveliko": 2511,
      "Äįaja": 2512,
      "Ġprimer": 2513,
      "vajuÄĩi": 2514,
      "Ġzra": 2515,
      "Ġinvesti": 2516,
      "Ġume": 2517,
      "tex": 2518,
      "Ġopo": 2519,
      "ĠOn": 2520,
      "Å¡iÄĩ": 2521,
      "Ġlice": 2522,
      "mima": 2523,
      "Ġskupi": 2524,
      "Ġpodi": 2525,
      "Ġ40": 2526,
      "Ġugovora": 2527,
      "Ġdono": 2528,
      "Ġisko": 2529,
      "Ġdaj": 2530,
      "Ġkuna": 2531,
      "zem": 2532,
      "ĠHo": 2533,
      "Ġizgleda": 2534,
      "vara": 2535,
      "Ġ=": 2536,
      "rancu": 2537,
      "kade": 2538,
      "Ġkasnije": 2539,
      "mor": 2540,
      "Ġjednu": 2541,
      "tura": 2542,
      "Ġsurad": 2543,
      "Å£": 2544,
      "ĠIako": 2545,
      "bili": 2546,
      "Pre": 2547,
      "ĠBeograd": 2548,
      "âĢľ.": 2549,
      "ĠrazliÄįitih": 2550,
      "Ã©": 2551,
      "Ġter": 2552,
      "Ġsvaka": 2553,
      "Ġdonosi": 2554,
      "grade": 2555,
      "ĠPrema": 2556,
      "bru": 2557,
      "rac": 2558,
      "Ġ**": 2559,
      "nskim": 2560,
      "SA": 2561,
      "Äĳeni": 2562,
      "Ġarhi": 2563,
      "sak": 2564,
      "Ġslika": 2565,
      "Ġtoliko": 2566,
      "Ġutakmi": 2567,
      "Ġkarakteristi": 2568,
      "pto": 2569,
      "vrÅ¡": 2570,
      "zom": 2571,
      "Ġfak": 2572,
      "Ġimali": 2573,
      "Ġdela": 2574,
      "Ġnakna": 2575,
      "Ġsvje": 2576,
      "Äĳuju": 2577,
      "Ġpostavlja": 2578,
      "Ġcentra": 2579,
      "spi": 2580,
      "der": 2581,
      "spek": 2582,
      "Äī": 2583,
      "losti": 2584,
      "ĠraÄįu": 2585,
      "Ġ27": 2586,
      "Ġipak": 2587,
      "Ġbrzi": 2588,
      "Ġ26": 2589,
      "Ġmanji": 2590,
      "snih": 2591,
      "prave": 2592,
      "ista": 2593,
      "menata": 2594,
      "Ġsigurno": 2595,
      "rala": 2596,
      "lovima": 2597,
      "Ġemi": 2598,
      "ciona": 2599,
      "tivi": 2600,
      "rica": 2601,
      "ĠobiÄįno": 2602,
      "Ġvoda": 2603,
      "Ġsljede": 2604,
      "Ġovla": 2605,
      "Ġjedne": 2606,
      "Ġkonta": 2607,
      "ÄĮlan": 2608,
      "Ġinformacija": 2609,
      "Ġprethod": 2610,
      "Ġ198": 2611,
      "Ġprostora": 2612,
      "Ġtih": 2613,
      "Ġizbor": 2614,
      "Ġrazdo": 2615,
      "Ġnamje": 2616,
      "dili": 2617,
      "Ġkojeg": 2618,
      "veza": 2619,
      "nite": 2620,
      "zora": 2621,
      "dnje": 2622,
      "dera": 2623,
      "VO": 2624,
      "ili": 2625,
      "kazuju": 2626,
      "Ġsj": 2627,
      "Ġ28": 2628,
      "Ġnovih": 2629,
      "tnu": 2630,
      "ĠmoguÄĩnost": 2631,
      "Ġprepozna": 2632,
      "Ġbih": 2633,
      "ĠizvrÅ¡e": 2634,
      "tnim": 2635,
      "Pri": 2636,
      "TO": 2637,
      "Ġproces": 2638,
      "Ġvije": 2639,
      "Å¾enja": 2640,
      "Ġeks": 2641,
      "ak": 2642,
      "Ġsezo": 2643,
      "Ġpone": 2644,
      "rent": 2645,
      "Ġvisi": 2646,
      "njom": 2647,
      "ĠÄįemu": 2648,
      "Ġsup": 2649,
      "Ġpriro": 2650,
      "Ġboga": 2651,
      "Ġsigur": 2652,
      "Ġradova": 2653,
      "Ġnisam": 2654,
      "Ġrata": 2655,
      "ntar": 2656,
      "Ġmjesto": 2657,
      "Ġpriti": 2658,
      "Ġkandida": 2659,
      "Ġura": 2660,
      "Ġbiste": 2661,
      "tij": 2662,
      "risa": 2663,
      "zenta": 2664,
      "Ġple": 2665,
      "Ġiste": 2666,
      "ĠSrbiji": 2667,
      "mija": 2668,
      "riÄĩ": 2669,
      "ĠAr": 2670,
      "ÄĮlanak": 2671,
      "ĠCo": 2672,
      "Ġgro": 2673,
      "is": 2674,
      "enja": 2675,
      "Ġgod": 2676,
      "ĠSva": 2677,
      "Ġname": 2678,
      "âĢĶ": 2679,
      "Ġdaje": 2680,
      "Ġnasi": 2681,
      "Ġrazume": 2682,
      "Ġsudje": 2683,
      "Äĳivanje": 2684,
      "kata": 2685,
      "Ġsvojoj": 2686,
      "Ġzara": 2687,
      "ĠpriÄįa": 2688,
      "40": 2689,
      "Ġkomi": 2690,
      "Ġstudija": 2691,
      "Ġposve": 2692,
      "ĠHerce": 2693,
      "son": 2694,
      "ĠÄįove": 2695,
      "graf": 2696,
      "um": 2697,
      "ĠtakoÄĳer": 2698,
      "Ġjasno": 2699,
      "Ġzakona": 2700,
      "Ġcilje": 2701,
      "vica": 2702,
      "ali": 2703,
      "kad": 2704,
      "ĠÄįovje": 2705,
      "ĠÅ¡kol": 2706,
      "lici": 2707,
      "Ġnjegov": 2708,
      "Ġdoba": 2709,
      "ĠIma": 2710,
      "Ġsport": 2711,
      "struktu": 2712,
      "ĠsadrÅ¾i": 2713,
      "lnik": 2714,
      "ĠOvaj": 2715,
      "Ġsebi": 2716,
      "bija": 2717,
      "Ġnjihove": 2718,
      "Ġkaza": 2719,
      "Äįava": 2720,
      "Ġsje": 2721,
      "Ġnorma": 2722,
      "tive": 2723,
      "Ġpojedina": 2724,
      "Ġzemlja": 2725,
      "Ġformi": 2726,
      "snika": 2727,
      "ĠbaÅ¡": 2728,
      "DA": 2729,
      "ĠnajviÅ¡e": 2730,
      "Ġspecifi": 2731,
      "rovatno": 2732,
      "ĠY": 2733,
      "loÅ¡ki": 2734,
      "ĠZagreb": 2735,
      "Ġkole": 2736,
      "ĠÄįlanka": 2737,
      "ĠomoguÄĩa": 2738,
      "Ġmaterijala": 2739,
      "ĠSAD": 2740,
      "im": 2741,
      "nal": 2742,
      "Ġam": 2743,
      "Ġnega": 2744,
      "Äįak": 2745,
      "tivna": 2746,
      "sur": 2747,
      "Ġvisoko": 2748,
      "Ġizuze": 2749,
      "Ġprivat": 2750,
      "tete": 2751,
      "Ġodu": 2752,
      "Ġunutra": 2753,
      "Ġkrivi": 2754,
      "ĠCe": 2755,
      "Ġmjesta": 2756,
      "Äĳene": 2757,
      "Ġsmislu": 2758,
      "Ġkriti": 2759,
      "Ġpored": 2760,
      "Ġugla": 2761,
      "Ġrazloga": 2762,
      ".-": 2763,
      "Ġkona": 2764,
      "25": 2765,
      "Ġn": 2766,
      "Ġsustava": 2767,
      "Ġtera": 2768,
      "plje": 2769,
      "Ġodmah": 2770,
      "ĠureÄĳe": 2771,
      "Ġskup": 2772,
      "ll": 2773,
      "Ġfinansij": 2774,
      "Ġdola": 2775,
      "Ġklasi": 2776,
      "us": 2777,
      "mana": 2778,
      "ranju": 2779,
      "ĠpoÅ¡to": 2780,
      "Ġkompo": 2781,
      "Ġspecija": 2782,
      "Ġrekla": 2783,
      "Ġispod": 2784,
      "dove": 2785,
      "Ġpredsed": 2786,
      "hvat": 2787,
      "dna": 2788,
      "kazi": 2789,
      "pisi": 2790,
      "rano": 2791,
      "Ġkome": 2792,
      "ĠThe": 2793,
      "ĠoÄįeki": 2794,
      "ĠDrÅ¾a": 2795,
      "Ġstanje": 2796,
      "Ġlako": 2797,
      "et": 2798,
      "Ġnjegova": 2799,
      "Ġozbi": 2800,
      "ber": 2801,
      "Ġkomp": 2802,
      "Ġtere": 2803,
      "lin": 2804,
      "ft": 2805,
      "Ġpolu": 2806,
      "pusti": 2807,
      "Äįuj": 2808,
      "Mi": 2809,
      "Ġrazvija": 2810,
      "delje": 2811,
      "tisti": 2812,
      "Ġzapravo": 2813,
      "Ġdosta": 2814,
      "ĠuÅ¾i": 2815,
      "uma": 2816,
      "kar": 2817,
      "Äįeno": 2818,
      "lov": 2819,
      "Ġodnose": 2820,
      "Ġvan": 2821,
      "formi": 2822,
      "Ġhttp": 2823,
      "ster": 2824,
      "Ġjako": 2825,
      "Ġbrzo": 2826,
      "Ġjezika": 2827,
      "Ġnajmanje": 2828,
      "Ġneop": 2829,
      "Ġpotra": 2830,
      "Ġdelu": 2831,
      "gh": 2832,
      "CA": 2833,
      "Ġodluke": 2834,
      "nijih": 2835,
      "Äįuje": 2836,
      "lnika": 2837,
      "Äĩenja": 2838,
      "Äĩenje": 2839,
      "cijske": 2840,
      "Ġpriho": 2841,
      "Ġ29": 2842,
      "Ġpola": 2843,
      "Ġroku": 2844,
      "jedno": 2845,
      "Re": 2846,
      "Ġoce": 2847,
      "ĠzavrÅ¡e": 2848,
      "Ġobjavlje": 2849,
      "zuj": 2850,
      "LO": 2851,
      "ziju": 2852,
      "ĠnaÄįe": 2853,
      "Ġuni": 2854,
      "VE": 2855,
      "Ġznanja": 2856,
      "23": 2857,
      "Iz": 2858,
      "ĠknjiÅ¾e": 2859,
      "zam": 2860,
      "Ġonih": 2861,
      "ÄĳaÄįa": 2862,
      "SI": 2863,
      "Ġostvari": 2864,
      "ĠoÅ¡te": 2865,
      "tnom": 2866,
      "Ġke": 2867,
      "ĠoseÄĩa": 2868,
      "ME": 2869,
      "ĠrazliÄįite": 2870,
      "listi": 2871,
      "Ġcj": 2872,
      "ĠÄįetvr": 2873,
      "ĠPravi": 2874,
      "zuje": 2875,
      "Ġgeo": 2876,
      "Ġfotografi": 2877,
      "ĠÄįega": 2878,
      "Ġelektri": 2879,
      "Ġnaru": 2880,
      "am": 2881,
      "lobo": 2882,
      "Å¡ki": 2883,
      "Ġruko": 2884,
      "lizacije": 2885,
      "ĠIsto": 2886,
      "Ġizvan": 2887,
      "Ġboj": 2888,
      "por": 2889,
      "Ġuti": 2890,
      "Ġrade": 2891,
      "ris": 2892,
      "Ġtime": 2893,
      "Ġkredi": 2894,
      "Ġodo": 2895,
      "Mo": 2896,
      "lnoj": 2897,
      "Ġprva": 2898,
      "Ġcje": 2899,
      "ĠveliÄįi": 2900,
      "Ġukoliko": 2901,
      "lacija": 2902,
      "ĠpoloÅ¾a": 2903,
      "Ġrezultat": 2904,
      "ĠkuÄĩe": 2905,
      "vite": 2906,
      "Ġpovra": 2907,
      "Ġnjegove": 2908,
      "rka": 2909,
      "Ġnajbolje": 2910,
      "ĠGla": 2911,
      "dro": 2912,
      "teljima": 2913,
      "Ġkulture": 2914,
      "Ġvozila": 2915,
      "nicija": 2916,
      "SluÅ¾be": 2917,
      "Ġnavodi": 2918,
      "ĠKO": 2919,
      "Ġzajednice": 2920,
      "Ġrevi": 2921,
      "Ġsuda": 2922,
      "gita": 2923,
      "Ġstatu": 2924,
      "ĠmuÅ¡ka": 2925,
      "Ġsce": 2926,
      "Ġpodatke": 2927,
      "Ġturisti": 2928,
      "ĠvrÅ¡i": 2929,
      "Ġbilj": 2930,
      "Ġispiti": 2931,
      "Äįeni": 2932,
      "ĠPr": 2933,
      "Ġturi": 2934,
      "Ġposao": 2935,
      "Od": 2936,
      "Ġzapa": 2937,
      "Ġtamo": 2938,
      "vnika": 2939,
      "ĠdoÅ¾i": 2940,
      "Ġizne": 2941,
      "ĠreÄĩi": 2942,
      "rita": 2943,
      "Ġuzima": 2944,
      "ĠÅ¾ene": 2945,
      "Ġizo": 2946,
      ");": 2947,
      "zdu": 2948,
      "Ġnapre": 2949,
      "Ġorganizacije": 2950,
      "ksa": 2951,
      "Ġupozna": 2952,
      "ĠomoguÄĩi": 2953,
      "klu": 2954,
      "dica": 2955,
      "05": 2956,
      "Ġponovo": 2957,
      "Ġstrana": 2958,
      "Ġ+": 2959,
      "vnoj": 2960,
      "Ġvelike": 2961,
      "Ġparti": 2962,
      "jedinje": 2963,
      "Ġitd": 2964,
      "ĠLju": 2965,
      "Ġ2020": 2966,
      "Ġnapisa": 2967,
      "roja": 2968,
      "RED": 2969,
      "Ġnovina": 2970,
      "Ġposlova": 2971,
      "Ġpoz": 2972,
      "rite": 2973,
      "Å¾bi": 2974,
      "volja": 2975,
      "Ġmuzi": 2976,
      "ĠzaÅ¡to": 2977,
      "Ġprakti": 2978,
      "Ġmesto": 2979,
      "Ġhrane": 2980,
      "Ġminuta": 2981,
      "Ġpovije": 2982,
      "rice": 2983,
      "Ġhla": 2984,
      "niju": 2985,
      "AR": 2986,
      "Ġ2016": 2987,
      "ĠNje": 2988,
      "tanje": 2989,
      "Ġ31": 2990,
      "Ġpredmet": 2991,
      "ĠtraÅ¾i": 2992,
      "ler": 2993,
      "ĠVr": 2994,
      "paci": 2995,
      "ut": 2996,
      "sional": 2997,
      "tivnog": 2998,
      "ĠPod": 2999,
      "cijski": 3000,
      "Ġtraj": 3001,
      "Ġprocesa": 3002,
      "Ġforma": 3003,
      "Ġzvu": 3004,
      "Ġpost": 3005,
      "niku": 3006,
      "Ġnajbolji": 3007,
      "pan": 3008,
      "leko": 3009,
      "Ġ2018": 3010,
      "Ġpostupku": 3011,
      "ĠzavrÅ¡i": 3012,
      "lazak": 3013,
      "ĠNiko": 3014,
      "snu": 3015,
      "Ġobrazovanja": 3016,
      "Ġsiro": 3017,
      "Ġbol": 3018,
      "Ġbes": 3019,
      "Å¡kog": 3020,
      "Ġblo": 3021,
      "Ġugovor": 3022,
      "Ġepi": 3023,
      "Ġat": 3024,
      "ĠÄĩu": 3025,
      "bije": 3026,
      "Ġkraja": 3027,
      "Ġnalaze": 3028,
      "Ġsmanji": 3029,
      "Ġokoli": 3030,
      "âĢ¢": 3031,
      "Ġizgu": 3032,
      "ĠÄįine": 3033,
      "Å¡avanje": 3034,
      "LE": 3035,
      "Ġpitanju": 3036,
      "60": 3037,
      "ÂŃ": 3038,
      "Ġco": 3039,
      "ĠÄĩete": 3040,
      "dila": 3041,
      "Ġobliku": 3042,
      "dine": 3043,
      "Ġmesta": 3044,
      "ĠpodrÅ¾a": 3045,
      "Ġmogla": 3046,
      "Ġum": 3047,
      "Ġmeha": 3048,
      "ura": 3049,
      "raje": 3050,
      "Ġzau": 3051,
      "kove": 3052,
      "mobi": 3053,
      "Ġozbilj": 3054,
      "Ġodli": 3055,
      "24": 3056,
      "ĠNema": 3057,
      "Ġ2017": 3058,
      "Ġ:": 3059,
      "Ġnov": 3060,
      "Ġteri": 3061,
      "ĠmoÄĩi": 3062,
      "it": 3063,
      "Ġkorisnika": 3064,
      "Ġperiodu": 3065,
      "Ġuglavnom": 3066,
      "PO": 3067,
      "ĠteÅ¾i": 3068,
      "Ġbezbe": 3069,
      "vale": 3070,
      "ok": 3071,
      "Ġ60": 3072,
      "ĠSte": 3073,
      "njen": 3074,
      "rnog": 3075,
      "rastruktu": 3076,
      "Ġ197": 3077,
      "Ġknjiga": 3078,
      "Ġposlove": 3079,
      "ĠopÅ¡tine": 3080,
      "stan": 3081,
      "Ġnaja": 3082,
      "tina": 3083,
      "Ġresur": 3084,
      "ĠII": 3085,
      "stvom": 3086,
      "Ġprijed": 3087,
      "Ġ2015": 3088,
      "Å¡njeg": 3089,
      "Ġtijela": 3090,
      "Ġzahteva": 3091,
      "ĠSt": 3092,
      "loÅ¡ke": 3093,
      "prije": 3094,
      "Ġ2014": 3095,
      "Ġnjezi": 3096,
      "Ġstepe": 3097,
      "ĠgraÄĳevi": 3098,
      "Ġvarija": 3099,
      "evima": 3100,
      "Ġsusre": 3101,
      "Ġ%": 3102,
      "Ġstre": 3103,
      "bla": 3104,
      "lio": 3105,
      "ĠPar": 3106,
      "text": 3107,
      "Ġodj": 3108,
      "Ġpsiho": 3109,
      "hr": 3110,
      "Ġnared": 3111,
      "ld": 3112,
      "Ġver": 3113,
      "veta": 3114,
      "njo": 3115,
      "misli": 3116,
      "Ġkapita": 3117,
      "Ġnekim": 3118,
      "Ġured": 3119,
      "Ġkata": 3120,
      "21": 3121,
      "tin": 3122,
      "Ġrela": 3123,
      "Ġmiliju": 3124,
      "ĠSla": 3125,
      "Ġstanovni": 3126,
      "dbe": 3127,
      "IN": 3128,
      "ruj": 3129,
      "rnih": 3130,
      "Äĩeni": 3131,
      "\\(": 3132,
      "vaja": 3133,
      "ela": 3134,
      "Äįena": 3135,
      "Å¾ni": 3136,
      "âĢĿ.": 3137,
      "Ġmikro": 3138,
      "Ġministar": 3139,
      "ĠÄįiji": 3140,
      "Ġmani": 3141,
      "terna": 3142,
      "Ġfon": 3143,
      "Ġosobi": 3144,
      "Ġponude": 3145,
      "Ġsazna": 3146,
      "Äĩuj": 3147,
      "Ġputo": 3148,
      "Ġsum": 3149,
      "ĠUz": 3150,
      "sio": 3151,
      "Äĩina": 3152,
      "Ġmini": 3153,
      "ton": 3154,
      "Äĩuje": 3155,
      "hra": 3156,
      "Ġbismo": 3157,
      "ĠpovrÅ¡ine": 3158,
      "ĠÄįlanova": 3159,
      "lnost": 3160,
      "Ġplan": 3161,
      "lak": 3162,
      "):": 3163,
      "ĠizvrÅ¡i": 3164,
      "Ġispra": 3165,
      "Ġsvakodne": 3166,
      "Ġvodo": 3167,
      "rama": 3168,
      "Äįen": 3169,
      "din": 3170,
      "03": 3171,
      "BA": 3172,
      "snog": 3173,
      "Ġsamou": 3174,
      "gri": 3175,
      "ljiva": 3176,
      "ĠbuduÄĩ": 3177,
      "gram": 3178,
      "Ġdjece": 3179,
      "Ġranije": 3180,
      "Ġwe": 3181,
      "Å¾ava": 3182,
      "wa": 3183,
      "ÄįeÅ¡Äĩe": 3184,
      "Ġuop": 3185,
      "ĠRS": 3186,
      "Ġuze": 3187,
      "Ġaplika": 3188,
      "Ġpoljoprivred": 3189,
      "Ġinfrastruktu": 3190,
      "ĠJed": 3191,
      "Ġgr": 3192,
      "Ġzema": 3193,
      "njena": 3194,
      "ĠÄĮe": 3195,
      "Ġ2019": 3196,
      "Ġoti": 3197,
      "\\)": 3198,
      "Ġulogu": 3199,
      "Ġposlu": 3200,
      "viÄĩa": 3201,
      "jih": 3202,
      "Ġdis": 3203,
      "Ġtrenutku": 3204,
      "Ġkvalitet": 3205,
      "Ġ194": 3206,
      "Ġdrugom": 3207,
      "ĠÅ¾ive": 3208,
      "Ġsvake": 3209,
      "Ġsjed": 3210,
      "gledu": 3211,
      "Ġvideo": 3212,
      "09": 3213,
      "Ġnikada": 3214,
      "\\(^": 3215,
      "Ġtekstu": 3216,
      "www": 3217,
      "sh": 3218,
      "Ġdrugog": 3219,
      "Ġprati": 3220,
      "fici": 3221,
      "ĠreÄįi": 3222,
      "Ġuvo": 3223,
      "Ġsustav": 3224,
      "Ġkomuna": 3225,
      "Ġpripada": 3226,
      "obraÄĩa": 3227,
      "Ġvid": 3228,
      "ĠosjeÄĩa": 3229,
      "stre": 3230,
      "njuju": 3231,
      "Ġnivou": 3232,
      "Ġpostupak": 3233,
      "Ġstanja": 3234,
      "Ġprav": 3235,
      "Ġenerge": 3236,
      "Ġnastavi": 3237,
      "Ġreci": 3238,
      "ct": 3239,
      "ĠUniverzi": 3240,
      "ĠvaÅ¾no": 3241,
      "Ġakade": 3242,
      "Ġkapaci": 3243,
      "Å¾ne": 3244,
      "Ġpodaci": 3245,
      "Ġodluka": 3246,
      "Ġodnosa": 3247,
      "Ġorganizacija": 3248,
      "Ġode": 3249,
      "Ġimala": 3250,
      "terija": 3251,
      "Ġinstru": 3252,
      "ĠUpra": 3253,
      "nac": 3254,
      "sred": 3255,
      "ĠSkup": 3256,
      "ĠÄįesti": 3257,
      "ban": 3258,
      "Ta": 3259,
      "rin": 3260,
      "Ġovde": 3261,
      "Ġan": 3262,
      "Ġpis": 3263,
      "Ġ2013": 3264,
      "Ġprofi": 3265,
      "Ġplana": 3266,
      "ĠÅ¡est": 3267,
      "ĠÅ¾elje": 3268,
      "uÄįili": 3269,
      "Ġkonti": 3270,
      "Ġznam": 3271,
      "Ġkana": 3272,
      "Å¾uj": 3273,
      "rova": 3274,
      "ĠPRO": 3275,
      "Ġfilm": 3276,
      "Ġpristupa": 3277,
      "Ġljudima": 3278,
      "min": 3279,
      "Ġkoma": 3280,
      "Ġsvakog": 3281,
      "SP": 3282,
      "Bi": 3283,
      "kt": 3284,
      "kraji": 3285,
      "Ġzabra": 3286,
      "Ġdelo": 3287,
      "Ġpredmeta": 3288,
      "Ġvazdu": 3289,
      "Ġsprem": 3290,
      "vrede": 3291,
      "ruje": 3292,
      "Ġnjemu": 3293,
      "ksima": 3294,
      "Ġponuda": 3295,
      "RU": 3296,
      "nisti": 3297,
      "JU": 3298,
      "MI": 3299,
      "Ġmobi": 3300,
      "ĠrazmiÅ¡lja": 3301,
      "Ġpostupka": 3302,
      "Ġkise": 3303,
      "pio": 3304,
      "Äįnost": 3305,
      "Ġprven": 3306,
      "Ġprilago": 3307,
      "ĠHe": 3308,
      "govine": 3309,
      "dak": 3310,
      "ĠAn": 3311,
      "Ġosu": 3312,
      "Ġpretpo": 3313,
      "Ġ35": 3314,
      "Ġizmje": 3315,
      "Å¡li": 3316,
      "Ġsvakom": 3317,
      "Ġrazvoju": 3318,
      "bama": 3319,
      "Ġmene": 3320,
      "Ġmiliona": 3321,
      "Ġautomobi": 3322,
      "ĠiskljuÄįi": 3323,
      "Ġsveta": 3324,
      "Ġcivi": 3325,
      "raz": 3326,
      "prija": 3327,
      "sen": 3328,
      "ĠgraÄĳana": 3329,
      "Ġljude": 3330,
      "ĠOpÄĩine": 3331,
      "jedna": 3332,
      "vama": 3333,
      "ZA": 3334,
      "fu": 3335,
      "sanje": 3336,
      "Ġvidje": 3337,
      "Ġzele": 3338,
      "Ġiznosu": 3339,
      "tnosti": 3340,
      "Ġsupro": 3341,
      "stom": 3342,
      "Ġ2012": 3343,
      "Ġtema": 3344,
      "Ġblago": 3345,
      "Ġispla": 3346,
      "Ġizd": 3347,
      "Ġumet": 3348,
      "volu": 3349,
      "Ġjednostavno": 3350,
      "cama": 3351,
      "Ġreze": 3352,
      "snim": 3353,
      "ĠbudÅ¾e": 3354,
      "ĠKomi": 3355,
      "To": 3356,
      "Ġfu": 3357,
      "stali": 3358,
      "ĠsaobraÄĩa": 3359,
      "ten": 3360,
      "pom": 3361,
      "vane": 3362,
      "Ġgloba": 3363,
      "Äįita": 3364,
      "Ġugovo": 3365,
      "Ġjezik": 3366,
      "blika": 3367,
      "nin": 3368,
      "Ġsnage": 3369,
      "ĠKri": 3370,
      "voda": 3371,
      "ĠNij": 3372,
      "ĠOD": 3373,
      "ĠÅ¡iro": 3374,
      "kida": 3375,
      "ara": 3376,
      "ĠZagrebu": 3377,
      "Ġobjekata": 3378,
      "Ġosni": 3379,
      "04": 3380,
      "Ġkn": 3381,
      "Ġknjige": 3382,
      "Ġprora": 3383,
      "ĠproÅ¡i": 3384,
      "ĠodrÅ¾i": 3385,
      "Ġizlo": 3386,
      "Ġstatisti": 3387,
      "pije": 3388,
      "Ġpostavlje": 3389,
      "dnja": 3390,
      "Ġ2011": 3391,
      "Ġkak": 3392,
      "duka": 3393,
      "Ġjavlja": 3394,
      "Ġdati": 3395,
      "Ġtemelju": 3396,
      "dovima": 3397,
      "Ġjavnih": 3398,
      "Ġpovje": 3399,
      "Ġimamo": 3400,
      "Ġ&": 3401,
      "telje": 3402,
      "ĠzadrÅ¾a": 3403,
      "tki": 3404,
      "stoje": 3405,
      "Äįara": 3406,
      "Å¾ila": 3407,
      "ĠStu": 3408,
      "ĠâĢĺ": 3409,
      "Ġprofesional": 3410,
      "Ġopet": 3411,
      "Ġpromet": 3412,
      "laganja": 3413,
      "kta": 3414,
      "ĠHrvatska": 3415,
      "dnosti": 3416,
      "Ġuprave": 3417,
      "Ġkvaliteta": 3418,
      "rski": 3419,
      "Äĩen": 3420,
      "Å¡taja": 3421,
      "Ġpogleda": 3422,
      "jim": 3423,
      "Ġefek": 3424,
      "Ġnova": 3425,
      "Ġvlasni": 3426,
      "ljive": 3427,
      "ĠzaÅ¡titi": 3428,
      "cep": 3429,
      "Ġvelika": 3430,
      "meni": 3431,
      "Ġjavnog": 3432,
      "gina": 3433,
      "nas": 3434,
      "ljivi": 3435,
      "Äĩena": 3436,
      "ĠZbog": 3437,
      "Ġizgra": 3438,
      "Ġstanju": 3439,
      "ĠStra": 3440,
      "ĠoÄįu": 3441,
      "ĠmreÅ¾e": 3442,
      "JI": 3443,
      "vora": 3444,
      "Ġnjihova": 3445,
      "reni": 3446,
      "CE": 3447,
      "Ako": 3448,
      "Ġmali": 3449,
      "ĠrazliÄįitim": 3450,
      "ĠÄįeka": 3451,
      "len": 3452,
      "pija": 3453,
      "ina": 3454,
      "Ġdobiti": 3455,
      "Ġâ": 3456,
      "Ġzdravlje": 3457,
      "ĠÅ¾ivotu": 3458,
      "ĠreÄį": 3459,
      "ĠstruÄįnja": 3460,
      "gosla": 3461,
      "pisuj": 3462,
      "ĠbiÄĩe": 3463,
      "Ġnapa": 3464,
      "boj": 3465,
      "Ġizaz": 3466,
      "ĠpiÅ¡e": 3467,
      "Ġodbora": 3468,
      "pisuje": 3469,
      "Å¾en": 3470,
      "ĠNije": 3471,
      "Ġtesti": 3472,
      "STI": 3473,
      "Ġotpada": 3474,
      "rga": 3475,
      "ĠFo": 3476,
      "Ġsamosta": 3477,
      "Ġjavno": 3478,
      "Me": 3479,
      "kse": 3480,
      "Ġpokazuje": 3481,
      "Ġ$": 3482,
      "ĠÅłi": 3483,
      "pora": 3484,
      "klanja": 3485,
      "Ġprimi": 3486,
      "26": 3487,
      "Ġoku": 3488,
      "Ġzaista": 3489,
      "baci": 3490,
      "Ġmjere": 3491,
      "ĠOsim": 3492,
      "ad": 3493,
      "Ġiznad": 3494,
      "Ġmoglo": 3495,
      "Ġmij": 3496,
      "Ġevi": 3497,
      "ĠAna": 3498,
      "cijskih": 3499,
      "___": 3500,
      "ns": 3501,
      "Ġprinci": 3502,
      "Ġlokalne": 3503,
      "06": 3504,
      "Ġraspra": 3505,
      "28": 3506,
      "Ġinicija": 3507,
      "Ġverovatno": 3508,
      "che": 3509,
      "ĠdruÅ¡tvo": 3510,
      "27": 3511,
      "Ġadre": 3512,
      "Ġzanim": 3513,
      "Ġunapre": 3514,
      "35": 3515,
      "Ġeuro": 3516,
      "vaj": 3517,
      "Ġbora": 3518,
      "Ġobzira": 3519,
      "Ġravno": 3520,
      "Ġ2010": 3521,
      "ĠNovi": 3522,
      "ĠDO": 3523,
      "Ġsaj": 3524,
      "ĠSpli": 3525,
      "29": 3526,
      "ĠveÄĩe": 3527,
      "var": 3528,
      "Ġdigita": 3529,
      "Ġredu": 3530,
      "Ġekspe": 3531,
      "Ġkojom": 3532,
      "ĠdomaÄĩi": 3533,
      "ĠÅ½i": 3534,
      "Ġzemalja": 3535,
      "ljiv": 3536,
      "Ġemo": 3537,
      "evi": 3538,
      "as": 3539,
      "Ġmodel": 3540,
      "Ġinteresa": 3541,
      "gro": 3542,
      "Ġdogodi": 3543,
      "Ġekono": 3544,
      "Ġuzor": 3545,
      "ĠveÄĩina": 3546,
      "ĠSaraje": 3547,
      "SS": 3548,
      "Ġpresta": 3549,
      "Ġanga": 3550,
      "ĠukljuÄįi": 3551,
      "Ġrepre": 3552,
      "Å¡avanja": 3553,
      "Ġpredme": 3554,
      "ĠBeogradu": 3555,
      "Ġcu": 3556,
      "ĠÅ¾upanije": 3557,
      "gna": 3558,
      "ministra": 3559,
      "Ġpode": 3560,
      "38": 3561,
      "hvaÄĩa": 3562,
      "08": 3563,
      "straÅ¾i": 3564,
      "veni": 3565,
      "Ġglavni": 3566,
      "Ġnjihov": 3567,
      "07": 3568,
      "tel": 3569,
      "Äįito": 3570,
      "Ġpapi": 3571,
      "Ġispi": 3572,
      "ĠveÄĩa": 3573,
      "Ġpodne": 3574,
      "tine": 3575,
      "stvima": 3576,
      "Å¾nje": 3577,
      "Ġmetoda": 3578,
      "Ġznanstve": 3579,
      "Ġistak": 3580,
      "Ġmnoge": 3581,
      "Ġsed": 3582,
      "Ġpostaj": 3583,
      "ĠukljuÄįuj": 3584,
      "Ġdinara": 3585,
      "gno": 3586,
      "ĠukljuÄįuje": 3587,
      "Ġmladih": 3588,
      "Ġmilijuna": 3589,
      "Ġpravila": 3590,
      "tiÄĩ": 3591,
      "tum": 3592,
      "ĠGe": 3593,
      "ĠAlek": 3594,
      "eÄį": 3595,
      "Ġproizvodnje": 3596,
      "DI": 3597,
      "Ġpostaje": 3598,
      "Ġstaro": 3599,
      "Å¾ena": 3600,
      "Ġdeset": 3601,
      "tije": 3602,
      "Ġcent": 3603,
      "ĠznaÄįajno": 3604,
      "ĠKar": 3605,
      "LU": 3606,
      "Ġnaroda": 3607,
      "Ġpolitike": 3608,
      "ima": 3609,
      "Ġobrazovanje": 3610,
      "ĠdrugaÄįi": 3611,
      "ljena": 3612,
      "Ġzu": 3613,
      "Ġnesta": 3614,
      "Ġpodrazu": 3615,
      "Ġodnos": 3616,
      "Ġveka": 3617,
      "Ġneda": 3618,
      "lozo": 3619,
      "jekat": 3620,
      "Ġposmatra": 3621,
      "Ġjeste": 3622,
      "kov": 3623,
      "Ġproto": 3624,
      "Ġzastup": 3625,
      "deset": 3626,
      "ĠkuÄĩa": 3627,
      "ĠIZ": 3628,
      "Ġovoga": 3629,
      "Ġkrite": 3630,
      "ĠSamo": 3631,
      "Ġoptu": 3632,
      "Ġniz": 3633,
      "reda": 3634,
      "giju": 3635,
      "stribu": 3636,
      "Ġfunkcioni": 3637,
      "TU": 3638,
      "Ġpodu": 3639,
      "Ġdobij": 3640,
      "Äįnoj": 3641,
      "Ġimo": 3642,
      "tanja": 3643,
      "Ġglasnik": 3644,
      "ntima": 3645,
      "ĠSpo": 3646,
      "Ġfoku": 3647,
      "Ġeki": 3648,
      "Ġosob": 3649,
      "isto": 3650,
      "ĠmreÅ¾a": 3651,
      "ĠrijeÄį": 3652,
      "Ġkonstru": 3653,
      "Ġkola": 3654,
      "ĠsadrÅ¾aj": 3655,
      "Ġpromene": 3656,
      "Ġmr": 3657,
      "ljenja": 3658,
      "Ġpoj": 3659,
      "Ġsubjek": 3660,
      "rene": 3661,
      "Ġupravljanje": 3662,
      "mera": 3663,
      "Ġsporazu": 3664,
      "Ġvrata": 3665,
      "Ġugro": 3666,
      "Ġprvom": 3667,
      "Ġsvetu": 3668,
      "kladno": 3669,
      "Ġsnagu": 3670,
      "para": 3671,
      "tivnim": 3672,
      "ĠduÅ¾i": 3673,
      "jeÄį": 3674,
      "ĠpodrÅ¡ku": 3675,
      "ĠÄįaso": 3676,
      "sve": 3677,
      "Vi": 3678,
      "slav": 3679,
      "Ġodredi": 3680,
      "nov": 3681,
      "Ġopisa": 3682,
      "ĠodluÄįi": 3683,
      "ĠVoj": 3684,
      "ĠSA": 3685,
      "Ġjo": 3686,
      "ruÅ¾": 3687,
      "Ġupravljanja": 3688,
      "dnih": 3689,
      "vaÅ¾": 3690,
      "ĠÅ¾ivi": 3691,
      "dnjih": 3692,
      "ljeni": 3693,
      "33": 3694,
      "Ġkontek": 3695,
      "Ġkolek": 3696,
      "jna": 3697,
      "Ġnama": 3698,
      "Ġkli": 3699,
      "mbra": 3700,
      "*,": 3701,
      "Ġlak": 3702,
      "Ġboje": 3703,
      "tskih": 3704,
      "ĠtrÅ¾iÅ¡tu": 3705,
      "IV": 3706,
      "scri": 3707,
      "Ġuskla": 3708,
      "Ġzaba": 3709,
      "mora": 3710,
      "Ġodgo": 3711,
      "Ġpokri": 3712,
      "Ġukupno": 3713,
      "est": 3714,
      "Å¡tvu": 3715,
      "Å¾o": 3716,
      "ĠSvi": 3717,
      "Ġprve": 3718,
      "Ġprvog": 3719,
      "ĠistraÅ¾ivanje": 3720,
      "ĠkuÄĩi": 3721,
      "Ġzdravlja": 3722,
      "Ġtradicional": 3723,
      "Ġrazmatra": 3724,
      "ted": 3725,
      "nose": 3726,
      "ĠveÄįe": 3727,
      "Ġosigura": 3728,
      "Ġ2021": 3729,
      "ĠZna": 3730,
      "Ġpogla": 3731,
      "Ġogla": 3732,
      "Ġreda": 3733,
      "Ġ(âĢŀ": 3734,
      "vice": 3735,
      "tr": 3736,
      "ĠâĢ¢": 3737,
      "ĠAnd": 3738,
      "Ġporeme": 3739,
      "ĠOni": 3740,
      "Ġradnika": 3741,
      "lisa": 3742,
      "Ġdjelatnosti": 3743,
      "Ġpropi": 3744,
      "ĠÅ¾rt": 3745,
      "No": 3746,
      "puÅ¡ta": 3747,
      "ĠIpak": 3748,
      "rska": 3749,
      "blio": 3750,
      "dnog": 3751,
      "Ġengle": 3752,
      "ĠvaÅ¡": 3753,
      "Ġdete": 3754,
      "ĠopÄĩi": 3755,
      "rtu": 3756,
      "ĠzapoÄįe": 3757,
      "vidu": 3758,
      "Ġvrijednost": 3759,
      "Ġmodela": 3760,
      "biti": 3761,
      "ER": 3762,
      "Ġcrkve": 3763,
      "vaÄį": 3764,
      "Ġsuko": 3765,
      "Ġpredsjednik": 3766,
      "Ġvrednost": 3767,
      "Ġintenzi": 3768,
      "ĠPored": 3769,
      "Ġobitelji": 3770,
      "Ġlisto": 3771,
      "Ġostalih": 3772,
      "Ã¡": 3773,
      ".âĢľ": 3774,
      "Ġizbe": 3775,
      "nui": 3776,
      "ĠEn": 3777,
      "Ġpada": 3778,
      "ĠomoguÄĩava": 3779,
      "Ġdosa": 3780,
      "lit": 3781,
      "Äĩima": 3782,
      "ĠIs": 3783,
      "Ġevro": 3784,
      "Ġjedinstve": 3785,
      "Ġkoncentra": 3786,
      "Ġrezultata": 3787,
      "nila": 3788,
      "Ġpresu": 3789,
      "Ġdolara": 3790,
      "logiju": 3791,
      "45": 3792,
      "Ġstabi": 3793,
      "ĠpodruÄįj": 3794,
      "Ġsedam": 3795,
      "ĠpodruÄįje": 3796,
      "Ġiskustva": 3797,
      "Ġkonkre": 3798,
      "Ġmjestu": 3799,
      "Ġkazne": 3800,
      "Ġdobra": 3801,
      "Ġneposred": 3802,
      "Ġnovog": 3803,
      "Ġpotom": 3804,
      "biÄįaj": 3805,
      "Ġtoj": 3806,
      "zda": 3807,
      "Ġtelef": 3808,
      "ĠnaÄįina": 3809,
      "36": 3810,
      "Ġdobio": 3811,
      "Ġtoku": 3812,
      "99": 3813,
      "Ġreali": 3814,
      "zno": 3815,
      "Ġzamje": 3816,
      "Ġdokaza": 3817,
      "Ġklima": 3818,
      "mene": 3819,
      "Äįavanje": 3820,
      "les": 3821,
      "siju": 3822,
      "Ġnekih": 3823,
      "Ġnabavke": 3824,
      "Ġmeni": 3825,
      "lozi": 3826,
      "Ġskoro": 3827,
      "Äįene": 3828,
      "donaÄįe": 3829,
      "nosa": 3830,
      "Ġautor": 3831,
      "toru": 3832,
      "ĠpoÄįetka": 3833,
      "Ġ2009": 3834,
      "Ġslike": 3835,
      "Ġstrani": 3836,
      "Ġpogre": 3837,
      "broj": 3838,
      "SluÅ¾beni": 3839,
      "Ġpostoja": 3840,
      "Å¾eni": 3841,
      "Ġsimpto": 3842,
      "intere": 3843,
      "Ġsudjelo": 3844,
      "Ġoto": 3845,
      "Ġnemaju": 3846,
      "ĠuÄįenici": 3847,
      "ĠÅłto": 3848,
      "Ve": 3849,
      "ljen": 3850,
      "ĠopÅ¡ti": 3851,
      "BI": 3852,
      "Ġsvijetu": 3853,
      "Ġobilje": 3854,
      "vencije": 3855,
      "Ġduho": 3856,
      "Ġizvora": 3857,
      "Ġgradu": 3858,
      "Ġdaleko": 3859,
      "we": 3860,
      "ĠNaime": 3861,
      "STA": 3862,
      "Ġoblik": 3863,
      "Ġizabra": 3864,
      "niÄĩ": 3865,
      "Ġdobar": 3866,
      "voÄĳenje": 3867,
      "Ġobzir": 3868,
      "lama": 3869,
      "ĠGu": 3870,
      "Ġkomenta": 3871,
      "osta": 3872,
      "ÑĮ": 3873,
      "ĠÄĮi": 3874,
      "Å¡ne": 3875,
      "Ġkupo": 3876,
      "Ġsredine": 3877,
      "Ġsposobnosti": 3878,
      "Ġpopula": 3879,
      "Ġsata": 3880,
      "Ġkrea": 3881,
      "ĠpoÄįinje": 3882,
      "Ġkup": 3883,
      "Ġperiod": 3884,
      "Ġstudije": 3885,
      "mova": 3886,
      "Ni": 3887,
      "lata": 3888,
      "Ġmislim": 3889,
      "kat": 3890,
      "tuj": 3891,
      "veo": 3892,
      "ĠMinistarstva": 3893,
      "Ġdiplo": 3894,
      "Ġosam": 3895,
      "Ġnapada": 3896,
      "Ġpodnosi": 3897,
      "ĠMoÅ¾e": 3898,
      "rea": 3899,
      "Ġas": 3900,
      "ĠsadrÅ¾aja": 3901,
      "Ġmarke": 3902,
      "Pred": 3903,
      "Ġrizika": 3904,
      "Â»": 3905,
      "Ġnada": 3906,
      "dese": 3907,
      "Ġnezavi": 3908,
      "Ġprovodi": 3909,
      "Ġ2008": 3910,
      "Ġmale": 3911,
      "kiÄĩ": 3912,
      "Ġurba": 3913,
      "Ġpotpisa": 3914,
      "Ġkupa": 3915,
      "ÄĳaÄį": 3916,
      "Ġproiz": 3917,
      "ĠTra": 3918,
      "rovi": 3919,
      "Ġsmrti": 3920,
      "zori": 3921,
      "Ġprodaj": 3922,
      "Ġdetalj": 3923,
      "nula": 3924,
      "Ġdobija": 3925,
      "Ġsuo": 3926,
      "Ġnado": 3927,
      "Ġ45": 3928,
      "Ġmere": 3929,
      "Ġosj": 3930,
      "Ġizazo": 3931,
      "ĠreÅ¾i": 3932,
      "Ġ196": 3933,
      "Ġ36": 3934,
      "ĠpoÄįetku": 3935,
      "ĠNacional": 3936,
      "Ġzadovolj": 3937,
      ".).": 3938,
      "ĠDok": 3939,
      "Ġrezultate": 3940,
      "Ġviru": 3941,
      "Ġobaveza": 3942,
      "Ġpogledu": 3943,
      "ĠnajÄįeÅ¡Äĩe": 3944,
      "Ġtret": 3945,
      ".âĢĿ": 3946,
      "Ġmom": 3947,
      "leva": 3948,
      "ĠÃ": 3949,
      "Å¡njih": 3950,
      "Ġuslovima": 3951,
      "DP": 3952,
      "ĠZo": 3953,
      "Ġveze": 3954,
      "ĠÅłta": 3955,
      "mente": 3956,
      "Ñı": 3957,
      "ranih": 3958,
      "ard": 3959,
      "Ġseku": 3960,
      "tuje": 3961,
      "ĠpoÅ¾a": 3962,
      "Ġtraja": 3963,
      "sual": 3964,
      "Ġpristu": 3965,
      "hat": 3966,
      "Ġraditi": 3967,
      "Ġsnaga": 3968,
      "Ġpredstavljaju": 3969,
      "fer": 3970,
      "Ġupisa": 3971,
      "Ġpriprema": 3972,
      "nsku": 3973,
      "gor": 3974,
      "chi": 3975,
      "pti": 3976,
      "ĠtroÅ¡kova": 3977,
      "ĠodreÄĳene": 3978,
      "Ġplu": 3979,
      "Ġnjihovih": 3980,
      "Ġpripad": 3981,
      "Ġorgana": 3982,
      "ĠrijeÄįi": 3983,
      "vorio": 3984,
      "dana": 3985,
      "ĠdoÄĩi": 3986,
      "Ġdjela": 3987,
      "stina": 3988,
      "Ġtrenutno": 3989,
      "Ġostale": 3990,
      "Ġrazvije": 3991,
      "ĠGospo": 3992,
      "vena": 3993,
      "Ġniko": 3994,
      "ir": 3995,
      "Ġprikuplja": 3996,
      "ljenje": 3997,
      "Äĳenih": 3998,
      "loÅ¡kih": 3999,
      "ĠKad": 4000,
      "Ġnajpo": 4001,
      "voz": 4002,
      "vljuj": 4003,
      "ĠIvan": 4004,
      "Ġbroju": 4005,
      "nili": 4006,
      "Ġgori": 4007,
      "Ġreal": 4008,
      "ĠBroj": 4009,
      "vljuje": 4010,
      "Ġnatjeca": 4011,
      "Ġodabra": 4012,
      "Ġpobe": 4013,
      "ĠzapoÅ¡lja": 4014,
      "Ġservi": 4015,
      "Ġkor": 4016,
      "Ġinvali": 4017,
      "ĠiskljuÄįivo": 4018,
      "Ġstava": 4019,
      "Ġcilju": 4020,
      "lizacija": 4021,
      "Ġnovine": 4022,
      "Ġugo": 4023,
      "Ġizvor": 4024,
      "Äĳenju": 4025,
      "ces": 4026,
      "Ġrazlika": 4027,
      "Ġboja": 4028,
      "ĠÄįvr": 4029,
      "blju": 4030,
      "\\(^{": 4031,
      "Ġpreci": 4032,
      "ĠnaÅ¡ih": 4033,
      "Ġjavnosti": 4034,
      "rajuÄĩi": 4035,
      "siti": 4036,
      "ĠSrbija": 4037,
      "Ġjedinica": 4038,
      "Ġprocedu": 4039,
      "vka": 4040,
      "Ġkompone": 4041,
      "siji": 4042,
      "Ġprostoru": 4043,
      "rijski": 4044,
      "ĠÅłko": 4045,
      "Ġprirode": 4046,
      "Ġdijelu": 4047,
      "ĠpovrÅ¡ina": 4048,
      "Ġcon": 4049,
      "Ġminima": 4050,
      "Ġsja": 4051,
      "',": 4052,
      "Ġgodinama": 4053,
      "Ġbit": 4054,
      "Äįica": 4055,
      "Ġrast": 4056,
      "ziva": 4057,
      "ĠpotroÅ¡a": 4058,
      "stiti": 4059,
      "Ġkombina": 4060,
      "ĠUdru": 4061,
      "ĠÄįime": 4062,
      "ziv": 4063,
      "Ġtela": 4064,
      "Ġadministra": 4065,
      "ĠFrancu": 4066,
      "Ġpromena": 4067,
      "Ġpje": 4068,
      "Ġuticaj": 4069,
      "Ġzbi": 4070,
      "ĠreÄįe": 4071,
      "rili": 4072,
      "Ġmuze": 4073,
      "ĠÅ¾ivotinja": 4074,
      "ĠzemljiÅ¡ta": 4075,
      "laganje": 4076,
      "Ġreprezenta": 4077,
      "37": 4078,
      "Ġ80": 4079,
      "script": 4080,
      "Ġizvr": 4081,
      "Ġtakmi": 4082,
      "njih": 4083,
      "Ġmaksima": 4084,
      "cem": 4085,
      "tosti": 4086,
      "ĠMedi": 4087,
      "Å¾na": 4088,
      "stoja": 4089,
      "Ġneprija": 4090,
      "Å¾iÄĩ": 4091,
      "Ġodgovara": 4092,
      "ĠBog": 4093,
      "Ġzabora": 4094,
      "Å¾ili": 4095,
      "tite": 4096,
      "ĠÅ½e": 4097,
      "Ġstoga": 4098,
      "ĠÄįlanovi": 4099,
      "PI": 4100,
      "Ġcentar": 4101,
      "Ġdirektor": 4102,
      "ĠmeÄĳutim": 4103,
      "Ġizbora": 4104,
      "Ġsmrt": 4105,
      "ĠOna": 4106,
      "loge": 4107,
      "ĠizloÅ¾e": 4108,
      "rodne": 4109,
      "ĠOsno": 4110,
      "gencije": 4111,
      "lijar": 4112,
      "dba": 4113,
      "Ġprojekata": 4114,
      "34": 4115,
      "ul": 4116,
      "ĠÄĮa": 4117,
      "tili": 4118,
      "Ġregula": 4119,
      "Ġokre": 4120,
      "super": 4121,
      "ĠvraÄĩa": 4122,
      "mar": 4123,
      "Ġsastav": 4124,
      "logu": 4125,
      "Ġradnog": 4126,
      "luj": 4127,
      "tnika": 4128,
      "Ġgor": 4129,
      "KU": 4130,
      "lizaciju": 4131,
      "ĠBar": 4132,
      "njeg": 4133,
      "dri": 4134,
      "dice": 4135,
      "tivan": 4136,
      "ĠpreduzeÄĩa": 4137,
      "Ġstupa": 4138,
      "Ġdistribu": 4139,
      "In": 4140,
      "ĠÅ½u": 4141,
      "Å¾nja": 4142,
      "ljujuÄĩi": 4143,
      "ĠPRI": 4144,
      "ĠodrÅ¾avanje": 4145,
      "Ġinfek": 4146,
      "Ġkora": 4147,
      "Ġmenja": 4148,
      "Ġopreme": 4149,
      "ĠdoÅ¡lo": 4150,
      "Ġnede": 4151,
      "Ġkonsta": 4152,
      "ĠPD": 4153,
      "Ġsimbo": 4154,
      "ĠHR": 4155,
      "Ġsnima": 4156,
      "Ġkrei": 4157,
      "Äĳivanja": 4158,
      "ĠporemeÄĩa": 4159,
      "Ġprihvati": 4160,
      "ramo": 4161,
      "ĠZe": 4162,
      "Ġglasa": 4163,
      "ĠÅ¡koli": 4164,
      "Ġstari": 4165,
      "Ġnaravno": 4166,
      "ĠvijeÄĩa": 4167,
      "ĠZakon": 4168,
      "Ġostali": 4169,
      "Ġ01": 4170,
      "Ġnaziva": 4171,
      "Ġrezultati": 4172,
      "Ġkorisni": 4173,
      "Ġiznos": 4174,
      "Ġpubli": 4175,
      "ĠtraÅ¾e": 4176,
      "Ġshvati": 4177,
      "Ġfar": 4178,
      "denti": 4179,
      "tija": 4180,
      "gru": 4181,
      "Ġsl": 4182,
      "ĠCen": 4183,
      "ĠnajveÄĩi": 4184,
      "Ġtko": 4185,
      "ljeno": 4186,
      "Å¡la": 4187,
      "Ġpjes": 4188,
      "tacije": 4189,
      "dek": 4190,
      "Ġ70": 4191,
      "Ġosnovne": 4192,
      "GRA": 4193,
      "Pa": 4194,
      "Ġet": 4195,
      "Ġkrvi": 4196,
      "Ġinternet": 4197,
      "vid": 4198,
      "ĠKr": 4199,
      "Ġrazgova": 4200,
      "Ġpotrebna": 4201,
      "voza": 4202,
      "Ġoblika": 4203,
      "Ġnaselja": 4204,
      "MO": 4205,
      "scipli": 4206,
      "Äĩeno": 4207,
      "ljak": 4208,
      "ĠIsu": 4209,
      "Ġbar": 4210,
      "gencija": 4211,
      "Ġimate": 4212,
      "Ġodbra": 4213,
      "ĠRE": 4214,
      "rona": 4215,
      "Ġzemljama": 4216,
      "Ġispunja": 4217,
      "Ġsvijeta": 4218,
      "ĠBra": 4219,
      "Ġjeziku": 4220,
      "Ġindividu": 4221,
      "mos": 4222,
      "Ġnjihovo": 4223,
      "ou": 4224,
      "Ġtekst": 4225,
      "Ġstudi": 4226,
      "pravda": 4227,
      "Ġpregled": 4228,
      "Ġbrani": 4229,
      "lite": 4230,
      "tila": 4231,
      "Ëĩ": 4232,
      "Ġeduka": 4233,
      "jne": 4234,
      "ĠsluÄįajevima": 4235,
      "Ġrazno": 4236,
      "Ġtipa": 4237,
      "Ġpreu": 4238,
      "Ġautori": 4239,
      "Ġrizik": 4240,
      "Ġstolje": 4241,
      "mio": 4242,
      "Ġsavje": 4243,
      "ĠVI": 4244,
      "ts": 4245,
      "Ġpreuze": 4246,
      "Ġiznena": 4247,
      "Ġobjasni": 4248,
      "mske": 4249,
      "ĠJugosla": 4250,
      "Ġstavlja": 4251,
      "superscript": 4252,
      "textsuperscript": 4253,
      "Ġkoor": 4254,
      "Å¡tava": 4255,
      "Ġmilijar": 4256,
      "Ġstopa": 4257,
      "}\\)": 4258,
      "ĠHi": 4259,
      "Ð¹": 4260,
      "ĠKM": 4261,
      "Ġmanife": 4262,
      "ĠMinistarstvo": 4263,
      "Ġprovede": 4264,
      "Ġispred": 4265,
      "Ġnatje": 4266,
      "Ġanaliza": 4267,
      "SKO": 4268,
      "Ġkonferen": 4269,
      "nijeti": 4270,
      "Ġkilo": 4271,
      "mpi": 4272,
      "Ġanalize": 4273,
      "Ġpromo": 4274,
      "ĠRA": 4275,
      "ĠukljuÄįuju": 4276,
      "Ġideja": 4277,
      "Ġbira": 4278,
      "Ġzanima": 4279,
      "Ġmestu": 4280,
      "put": 4281,
      "Ġsvaku": 4282,
      "ĠNE": 4283,
      "Ġstambe": 4284,
      "ih": 4285,
      "Ġori": 4286,
      "Ġpromjene": 4287,
      "rve": 4288,
      "svim": 4289,
      "rila": 4290,
      "ĠpomoÄĩu": 4291,
      "Ġproizvode": 4292,
      "Ġovdje": 4293,
      "Ġzaintere": 4294,
      "ĠuÄįenja": 4295,
      "ting": 4296,
      "ĠHD": 4297,
      "Ġusa": 4298,
      "rnu": 4299,
      "zio": 4300,
      "Ġvanj": 4301,
      "Ġog": 4302,
      "kada": 4303,
      "Ġosvoji": 4304,
      "Ġproizvodi": 4305,
      "Ġzaposlenih": 4306,
      "ĠtiÄįe": 4307,
      "Ġdese": 4308,
      "Ġnaz": 4309,
      "Ġzakonom": 4310,
      "Ġpokazuju": 4311,
      "PA": 4312,
      "Ġubr": 4313,
      "ĠSE": 4314,
      "ĠIzra": 4315,
      "ĠBosne": 4316,
      "Ġnastave": 4317,
      "ĠsluÅ¡a": 4318,
      "Ġnjegovu": 4319,
      "uzda": 4320,
      "Ġpobje": 4321,
      "Ġpriliku": 4322,
      "Ġigre": 4323,
      "vnik": 4324,
      "Ġregional": 4325,
      "Ġdobije": 4326,
      "Ġ90": 4327,
      "sigu": 4328,
      "Ġotpad": 4329,
      "rine": 4330,
      "Ġprou": 4331,
      "Ġruke": 4332,
      "Ġx": 4333,
      "zanje": 4334,
      "Ġpli": 4335,
      "Ġlogi": 4336,
      "Ġnastavlja": 4337,
      "Ġsastoji": 4338,
      "ĠdoÄĳe": 4339,
      "39": 4340,
      "ĠGr": 4341,
      "De": 4342,
      "ĠStoga": 4343,
      "Ġvrh": 4344,
      "ĠZato": 4345,
      "ĠgodiÅ¡nje": 4346,
      "ĠnaÅ¡eg": 4347,
      "ĠOdluke": 4348,
      "loviÄĩ": 4349,
      "Ġdubo": 4350,
      "led": 4351,
      "vano": 4352,
      "Ġprovje": 4353,
      "ĠnajvaÅ¾": 4354,
      "Ġ2007": 4355,
      "rijske": 4356,
      "hni": 4357,
      "tali": 4358,
      "ana": 4359,
      "Ġuku": 4360,
      "Ġodobre": 4361,
      "ziji": 4362,
      "ĠBio": 4363,
      "Ġprobleme": 4364,
      "Ġrazlike": 4365,
      "Ġonaj": 4366,
      "ĠzloÄįi": 4367,
      "njeni": 4368,
      "tions": 4369,
      "Ġbolji": 4370,
      "Ġpostavi": 4371,
      "rd": 4372,
      "Ġmetode": 4373,
      "bliote": 4374,
      "Å¡iti": 4375,
      "ssi": 4376,
      ".),": 4377,
      "Ġsvima": 4378,
      "cijskog": 4379,
      "Ġnovac": 4380,
      "Ġpotpunosti": 4381,
      "Ġjedini": 4382,
      "Ġzatvore": 4383,
      "diÅ¡te": 4384,
      "duj": 4385,
      "tru": 4386,
      "vaÄįa": 4387,
      "Ġeura": 4388,
      "reno": 4389,
      "Ġprocesu": 4390,
      "Ġnekog": 4391,
      "Ġpostao": 4392,
      "Ġglazbe": 4393,
      "Ġkomplek": 4394,
      "Ġnesre": 4395,
      "Ġjedinice": 4396,
      "kciju": 4397,
      "ĠZagreba": 4398,
      "80": 4399,
      "ĠZem": 4400,
      "novima": 4401,
      "ĠInter": 4402,
      "valo": 4403,
      "ĠDakle": 4404,
      "GA": 4405,
      "Ġobitelj": 4406,
      "metara": 4407,
      "Äĩoj": 4408,
      "Go": 4409,
      "ĠureÄĳaja": 4410,
      "fri": 4411,
      "ĠVladi": 4412,
      "Ġstvori": 4413,
      "nat": 4414,
      "Ġmjera": 4415,
      "org": 4416,
      "Ġidej": 4417,
      "Ġlitera": 4418,
      "ĠBer": 4419,
      "Ġfir": 4420,
      "Ġmedija": 4421,
      "Ġustanova": 4422,
      "Ġobjekta": 4423,
      "ĠÅ¡irom": 4424,
      "levant": 4425,
      "Ġroditelja": 4426,
      "ljene": 4427,
      "ĠUkoliko": 4428,
      "Ġfinansi": 4429,
      "199": 4430,
      "ĠVlade": 4431,
      "Äįenju": 4432,
      "ĠStatu": 4433,
      "ĠpaÅ¾nju": 4434,
      "Ġreli": 4435,
      "Ġtranspo": 4436,
      "Ġkompanije": 4437,
      "lla": 4438,
      "Ġtehnologije": 4439,
      "blji": 4440,
      "Ġlist": 4441,
      "laska": 4442,
      "Ġzagre": 4443,
      "id": 4444,
      "Å¡njem": 4445,
      "Ġkarije": 4446,
      "ĠMla": 4447,
      "nku": 4448,
      "ĠOb": 4449,
      "jam": 4450,
      "Ġdostavlja": 4451,
      "Ġ37": 4452,
      "luje": 4453,
      "ĠKe": 4454,
      "Ġpodacima": 4455,
      "teri": 4456,
      "ktiv": 4457,
      "Ġprose": 4458,
      "Ġnjegovog": 4459,
      "Ġsan": 4460,
      "Ġkratko": 4461,
      "ĠponaÅ¡anja": 4462,
      "tost": 4463,
      "kako": 4464,
      "Ġotva": 4465,
      "Ġsavreme": 4466,
      "Ġfinanci": 4467,
      "Ġdijete": 4468,
      "mla": 4469,
      "ine": 4470,
      "Ġiskustvo": 4471,
      "Ġnovim": 4472,
      "ĠloÅ¡e": 4473,
      "Ġnavi": 4474,
      "DE": 4475,
      "zuju": 4476,
      "Ġrado": 4477,
      "pska": 4478,
      "zmu": 4479,
      "zacije": 4480,
      "cha": 4481,
      "Äĩom": 4482,
      "ĠnovÄįa": 4483,
      "Ġpoti": 4484,
      "Ġska": 4485,
      "ĠMilo": 4486,
      "ĠÅ¾ivotne": 4487,
      "gan": 4488,
      "Ġvremenu": 4489,
      "Ġprivred": 4490,
      "Ġteku": 4491,
      "ĠnaÅ¡im": 4492,
      "ĠkoriÅ¡Äĩenje": 4493,
      "Ġneku": 4494,
      "Ġposlovanja": 4495,
      "ĠBr": 4496,
      "Ġisporu": 4497,
      "Ġoslobo": 4498,
      "Ġokolnosti": 4499,
      "bele": 4500,
      "Ġmoje": 4501,
      "Ġmlade": 4502,
      "pski": 4503,
      "Ġzasno": 4504,
      "Ġformu": 4505,
      "Ġtakve": 4506,
      "KE": 4507,
      "Ġcm": 4508,
      "Äįaka": 4509,
      "Ġtisu": 4510,
      "ĠBan": 4511,
      "tike": 4512,
      "Ġdimen": 4513,
      "Ġmenad": 4514,
      "Ġnudi": 4515,
      "koho": 4516,
      "Kako": 4517,
      "vari": 4518,
      "Ġodluku": 4519,
      "Ġkontinui": 4520,
      "SKI": 4521,
      "ĠTur": 4522,
      "Ġfunkcije": 4523,
      "Ġdalj": 4524,
      "Ġski": 4525,
      "torija": 4526,
      "Ġstranke": 4527,
      "Ġnovca": 4528,
      "Ġvoza": 4529,
      "vene": 4530,
      "Ġjest": 4531,
      "ĠJosi": 4532,
      "Ġsmatraju": 4533,
      "Ġsama": 4534,
      "ĠpoveÄĩanje": 4535,
      "Ġidu": 4536,
      "Ġ2022": 4537,
      "Ġporodice": 4538,
      "ĠpreviÅ¡e": 4539,
      "ĠistiÄįe": 4540,
      "ning": 4541,
      "stavu": 4542,
      "ĠpomaÅ¾e": 4543,
      "ĠInstitu": 4544,
      "ger": 4545,
      "Ġdrugu": 4546,
      "Ġnepri": 4547,
      "31": 4548,
      "kuju": 4549,
      "Ġpoklo": 4550,
      "Ġinova": 4551,
      "Ġtelevi": 4552,
      "Ġtakav": 4553,
      "Ġzajednica": 4554,
      "Ġpregleda": 4555,
      "Ġobavez": 4556,
      "Ġparla": 4557,
      "pote": 4558,
      "Ġjednoj": 4559,
      "Äįari": 4560,
      "Ġsop": 4561,
      "snici": 4562,
      "ĠpriÄįe": 4563,
      "Å¾ene": 4564,
      "kula": 4565,
      "PU": 4566,
      "Ġmijenja": 4567,
      "Ġnovu": 4568,
      "tika": 4569,
      "Ġupa": 4570,
      "Ġhilja": 4571,
      "Å¡im": 4572,
      "Ġstudenata": 4573,
      "Ġdakle": 4574,
      "Ġobvez": 4575,
      "Ġkm": 4576,
      "Ġsave": 4577,
      "veli": 4578,
      "Ġnogo": 4579,
      "ĠrjeÅ¡enja": 4580,
      "Ġeksperi": 4581,
      "posle": 4582,
      "Ġputu": 4583,
      "Ġproizvodnju": 4584,
      "rov": 4585,
      "Di": 4586,
      "ĠmaÅ¡i": 4587,
      "ĠÄįij": 4588,
      "Ġsmanjenje": 4589,
      "Ġwi": 4590,
      "Ġvita": 4591,
      "cal": 4592,
      "ĠTr": 4593,
      "Ġaktivnost": 4594,
      "Ġweb": 4595,
      "Ġupla": 4596,
      "Ġ34": 4597,
      "hom": 4598,
      "Ġimovi": 4599,
      "ptem": 4600,
      "Ġsasvim": 4601,
      "SE": 4602,
      "bela": 4603,
      "Ġpoziva": 4604,
      "Ġmehani": 4605,
      "njak": 4606,
      "kovima": 4607,
      "Ġkoga": 4608,
      "Ġizbje": 4609,
      "Ġtehnologija": 4610,
      "cka": 4611,
      "Ġimena": 4612,
      "nijim": 4613,
      "Ġjavnim": 4614,
      "Ġpriklju": 4615,
      "ĠnaÅ¡em": 4616,
      "Ġdobili": 4617,
      "Ġgradi": 4618,
      "Ġodje": 4619,
      "Ja": 4620,
      "Te": 4621,
      "ori": 4622,
      "zvor": 4623,
      "Ġizuzetno": 4624,
      "Ġgore": 4625,
      "mail": 4626,
      "jno": 4627,
      "Ġkontrolu": 4628,
      "njeno": 4629,
      "Å¡ni": 4630,
      "Ġtuma": 4631,
      "Ġkame": 4632,
      "Ġvodu": 4633,
      "Ġ(\"": 4634,
      "Ġspome": 4635,
      "Ġrazini": 4636,
      "Ġponekad": 4637,
      "ruju": 4638,
      "Ġvelikim": 4639,
      "tional": 4640,
      "ĠdruÅ¡tvu": 4641,
      "Ġdirektno": 4642,
      "ĠSada": 4643,
      "Ġsvakako": 4644,
      "Ġrasta": 4645,
      "duje": 4646,
      "Ġprenosi": 4647,
      "Ġmatemati": 4648,
      "tara": 4649,
      "ĠKod": 4650,
      "ĠÅ¾elite": 4651,
      "Ġtip": 4652,
      "Ġkontrole": 4653,
      "ljivost": 4654,
      "moÄĩ": 4655,
      "pova": 4656,
      "dnim": 4657,
      "Ġimple": 4658,
      "Ġdeca": 4659,
      "Ġsopstve": 4660,
      "ĠTakoÄĳer": 4661,
      "ĠuobiÄįaj": 4662,
      "Ġolak": 4663,
      "Ġprave": 4664,
      "Ġzgrade": 4665,
      "Ġnjihovim": 4666,
      "Ġtemelj": 4667,
      "ĠstanovniÅ¡tva": 4668,
      "tska": 4669,
      "Ġbanke": 4670,
      "drav": 4671,
      "Ġpribli": 4672,
      "ĠSlika": 4673,
      "jo": 4674,
      "Ġimovine": 4675,
      "nkovi": 4676,
      "Ġzvani": 4677,
      "ĠnaÅ¡a": 4678,
      "cione": 4679,
      "lon": 4680,
      "Ġmjeseci": 4681,
      "55": 4682,
      "III": 4683,
      "snom": 4684,
      "Ġinstitucija": 4685,
      "kog": 4686,
      "Ġsituacija": 4687,
      "njene": 4688,
      "Ġzadu": 4689,
      "Ġ2006": 4690,
      "ĠOve": 4691,
      "Ġeksplo": 4692,
      "land": 4693,
      "ĠoÄįekuje": 4694,
      "neta": 4695,
      "Ġgovore": 4696,
      "Ġex": 4697,
      "limo": 4698,
      "Ġoptere": 4699,
      "Ġkompanija": 4700,
      "Ġdecu": 4701,
      "ĠnaroÄįito": 4702,
      "konstru": 4703,
      "NU": 4704,
      "Ġtvrdi": 4705,
      "Ġ38": 4706,
      "ljev": 4707,
      "veÄĩa": 4708,
      "Ġrelevant": 4709,
      "nuli": 4710,
      "ĠmoÄĩ": 4711,
      "Ġsezone": 4712,
      "ZI": 4713,
      "turi": 4714,
      "Ġotvori": 4715,
      "Ġdovodi": 4716,
      "Ġobno": 4717,
      "Ġpodsti": 4718,
      "ĠÎ": 4719,
      "Ġpak": 4720,
      "Ġbanka": 4721,
      "Ġ2000": 4722,
      "ĠÄįinjenica": 4723,
      "eve": 4724,
      "Ġmetara": 4725,
      "Ġoz": 4726,
      "grama": 4727,
      "Ġjuna": 4728,
      "ĠproÅ¡le": 4729,
      "Ġodvija": 4730,
      "kte": 4731,
      "dnost": 4732,
      "gov": 4733,
      "Ġprogla": 4734,
      "Ġpredu": 4735,
      "Ġtrebao": 4736,
      "Äįila": 4737,
      "Ġvidu": 4738,
      "Ġsvrhu": 4739,
      "ĠHercegovine": 4740,
      "ĠbuduÄĩi": 4741,
      "Ġprihoda": 4742,
      "Ġsukladno": 4743,
      "nskoj": 4744,
      "Ġkontroli": 4745,
      "val": 4746,
      "ntno": 4747,
      "Ġispitanika": 4748,
      "Ġnjihovu": 4749,
      "Ġpotpo": 4750,
      "Ġpokreta": 4751,
      "SO": 4752,
      "ĠBrita": 4753,
      "ĠuÄįiniti": 4754,
      "Ġsmije": 4755,
      "ĠÅła": 4756,
      "ĠFran": 4757,
      "Ġprimjer": 4758,
      "hodi": 4759,
      "Ġpomi": 4760,
      "Ġsvijet": 4761,
      "ram": 4762,
      "Ġdodatno": 4763,
      "Ġuslova": 4764,
      "Ġkazao": 4765,
      "rnim": 4766,
      "Äįer": 4767,
      "Ġiskoristi": 4768,
      "Ġbespla": 4769,
      "Ġnivoa": 4770,
      "ĠPose": 4771,
      "ÄįeviÄĩ": 4772,
      "Ġveliku": 4773,
      "tskog": 4774,
      "Ġostaj": 4775,
      "Ġkampa": 4776,
      "Ġljubi": 4777,
      "Ġdijela": 4778,
      "Ġkarti": 4779,
      "ĠIN": 4780,
      "Bo": 4781,
      "at": 4782,
      "Ġusmje": 4783,
      "ĠdogaÄĳaja": 4784,
      "ĠBal": 4785,
      "Ġostaje": 4786,
      "ĠSad": 4787,
      "stave": 4788,
      "ĠreÅ¡enja": 4789,
      "ĠObra": 4790,
      "Ġobuhvata": 4791,
      "ĠOP": 4792,
      "Ġnadzor": 4793,
      "Ġopse": 4794,
      "Ġupi": 4795,
      "ĠÄįija": 4796,
      "miju": 4797,
      "Ġnismo": 4798,
      "rum": 4799,
      "Ġkoncep": 4800,
      "rup": 4801,
      "noga": 4802,
      "tovi": 4803,
      "Ġmeri": 4804,
      "noda": 4805,
      "ĠopÅ¡te": 4806,
      "Ġzadovolja": 4807,
      "Ġvelikih": 4808,
      "Ġleka": 4809,
      "Ġfesti": 4810,
      "44": 4811,
      "ĠJedan": 4812,
      "Ġstoji": 4813,
      "Ġmulti": 4814,
      "Ġfakultet": 4815,
      "ĠCentra": 4816,
      "Ġnapla": 4817,
      "Ġprethodno": 4818,
      "Äĩene": 4819,
      "ĠnaÄĩi": 4820,
      "Ġdao": 4821,
      "ĠGor": 4822,
      "Ġobve": 4823,
      "Ġbarem": 4824,
      "Ġnikad": 4825,
      "ĠUred": 4826,
      "Ġistovremeno": 4827,
      "ĠDrugi": 4828,
      "jeva": 4829,
      ",\"": 4830,
      "Ġzahtjeva": 4831,
      "godiÅ¡nji": 4832,
      "Ġodbor": 4833,
      "mentu": 4834,
      "Ġkrimina": 4835,
      "Ġimu": 4836,
      "Ġ32": 4837,
      "32": 4838,
      "Ġgrafi": 4839,
      "Ġciklu": 4840,
      "Ġsvjedo": 4841,
      "pen": 4842,
      "75": 4843,
      "Ġaspek": 4844,
      "ruÅ¾a": 4845,
      "raca": 4846,
      "Ġdip": 4847,
      "fikacije": 4848,
      "Ġmm": 4849,
      "Ġinterak": 4850,
      "ĠMila": 4851,
      "Ġbij": 4852,
      "OP": 4853,
      "OVA": 4854,
      "str": 4855,
      "Ġnaziv": 4856,
      "kana": 4857,
      "Ġpacijenata": 4858,
      "Ġtrebali": 4859,
      "Ġfilozo": 4860,
      "Å¡ten": 4861,
      "Ġstvara": 4862,
      "NIK": 4863,
      "jE": 4864,
      "Ġorganizo": 4865,
      "ĠtrÅ¾iÅ¡ta": 4866,
      "spekti": 4867,
      "Ġposlije": 4868,
      "ĠbuduÄĩnosti": 4869,
      "ron": 4870,
      "vlada": 4871,
      "tnost": 4872,
      "vljen": 4873,
      "tore": 4874,
      "Å¡tini": 4875,
      "Ġponudi": 4876,
      "ĠobjaÅ¡nja": 4877,
      "ser": 4878,
      "Ġtla": 4879,
      "ĠpoÄįetkom": 4880,
      "Ġintegra": 4881,
      "Ġtemu": 4882,
      "ljivosti": 4883,
      "Ġatmos": 4884,
      "ĠmuÅ¡kar": 4885,
      "skoga": 4886,
      "gama": 4887,
      "Å¡an": 4888,
      "Ġbla": 4889,
      "mentima": 4890,
      "Ġvjeroja": 4891,
      "Ġzaslu": 4892,
      "Ġmenta": 4893,
      "tes": 4894,
      "Ġovak": 4895,
      "Ġdaju": 4896,
      "Ġprof": 4897,
      "Su": 4898,
      "Äįnici": 4899,
      "zv": 4900,
      "ĠgradonaÄįe": 4901,
      "Ġsituacije": 4902,
      "ĠsluÄįajeva": 4903,
      "kretni": 4904,
      "gar": 4905,
      "solu": 4906,
      "Ġjednako": 4907,
      "Ġopravda": 4908,
      "Ġuklo": 4909,
      "Ġsvojom": 4910,
      "Ġ39": 4911,
      "rÅ¾e": 4912,
      "vljena": 4913,
      "Ġkore": 4914,
      "Ġimam": 4915,
      "Ġalkoho": 4916,
      "vencija": 4917,
      "Å¡Äĩenje": 4918,
      "Ġsoft": 4919,
      "ĠQ": 4920,
      "Ġbiv": 4921,
      "Å¡kol": 4922,
      "Ġpotrebne": 4923,
      "ĠÅ¡te": 4924,
      "Ġposu": 4925,
      "ĠmiÅ¡ljenje": 4926,
      "ĠSrpske": 4927,
      "Å¡na": 4928,
      "Ġsoli": 4929,
      "Ġnekom": 4930,
      "Ġota": 4931,
      "stveno": 4932,
      "Ġstalno": 4933,
      "Ġkorak": 4934,
      "Ġ___": 4935,
      "Ġdobri": 4936,
      "siste": 4937,
      "ĠduÅ¾an": 4938,
      "Ġjedino": 4939,
      "Äįun": 4940,
      "ĠinÅ¾enje": 4941,
      "ĠtroÅ¡kove": 4942,
      "vodom": 4943,
      "Ġdolaze": 4944,
      "Ġdrugoj": 4945,
      "Ġukra": 4946,
      "48": 4947,
      "ĠMA": 4948,
      "Ġnjoj": 4949,
      "edan": 4950,
      "tice": 4951,
      "Ġblizi": 4952,
      "pravi": 4953,
      "Ġaku": 4954,
      "Ġfra": 4955,
      "Ġznaju": 4956,
      "Ġpodno": 4957,
      "Ġpolitika": 4958,
      "gni": 4959,
      "ĠRadi": 4960,
      "Slika": 4961,
      "Ġstavka": 4962,
      "valu": 4963,
      "ĠMeÄĳunarod": 4964,
      "laca": 4965,
      "BE": 4966,
      "Ġsiroma": 4967,
      "ot": 4968,
      "Äįice": 4969,
      "Ġvjer": 4970,
      "ĠOt": 4971,
      "Ġnepre": 4972,
      "Ġostalim": 4973,
      "Ġmaterijal": 4974,
      "Ġsocijalne": 4975,
      "Ġuklanja": 4976,
      "fikacija": 4977,
      "Ġinsta": 4978,
      "Ġsklopu": 4979,
      "ĠkoristeÄĩi": 4980,
      "Ġbavi": 4981,
      "Ġ2005": 4982,
      "Ġfrancu": 4983,
      "Ġdefinisa": 4984,
      "Ġruku": 4985,
      "Ġprojekt": 4986,
      "Ġrazlog": 4987,
      "ĠSer": 4988,
      "Ġpripremi": 4989,
      "likom": 4990,
      "Ġparce": 4991,
      "ĠPDV": 4992,
      "han": 4993,
      "Ġokto": 4994,
      "ĠsavrÅ¡e": 4995,
      "Ġljubav": 4996,
      "ĠUS": 4997,
      "ĠIII": 4998,
      "ĠHu": 4999,
      "2018": 5000,
      "Ġmedij": 5001,
      "dama": 5002,
      "Ġdisku": 5003,
      "ĠknjiÅ¾ev": 5004,
      "rojek": 5005,
      "Ġperioda": 5006,
      "Ġstavo": 5007,
      "Ġpropisima": 5008,
      "Ġstariji": 5009,
      "liÅ¡ta": 5010,
      "har": 5011,
      "ĠDA": 5012,
      "ĠoruÅ¾": 5013,
      "ĠpriliÄįno": 5014,
      "Ġuslove": 5015,
      "Ġznanje": 5016,
      "tira": 5017,
      "ĠJedi": 5018,
      "ĠzavrÅ¡": 5019,
      "Ġraste": 5020,
      "Ġistom": 5021,
      "ĠznaÄįaja": 5022,
      "Ġdosti": 5023,
      "ĠNew": 5024,
      "Ġfakulteta": 5025,
      "Å¾avanje": 5026,
      "Å¾bu": 5027,
      "dekvat": 5028,
      "Ġpovr": 5029,
      "ĠÄĨ": 5030,
      "loÅ¡ka": 5031,
      "ĠuÄįenje": 5032,
      "Ġsposobnost": 5033,
      "ĠdrÅ¾avne": 5034,
      "Ġpreuzima": 5035,
      "Ġstvarno": 5036,
      "ĠproÄįita": 5037,
      "ĠGru": 5038,
      "Ġkomple": 5039,
      "Ġhuma": 5040,
      "78": 5041,
      "Ġbaze": 5042,
      "Ġy": 5043,
      "au": 5044,
      "ĠodrÅ¾avanja": 5045,
      "ĠkaÅ¾u": 5046,
      "Ġrat": 5047,
      "skr": 5048,
      "ĠLon": 5049,
      "Ġapri": 5050,
      "Ġsin": 5051,
      "Ġprate": 5052,
      "Ġlan": 5053,
      "stavljanje": 5054,
      "velo": 5055,
      "Ġagre": 5056,
      "Ġciljem": 5057,
      "pskog": 5058,
      "ĠFedera": 5059,
      "Ġseptem": 5060,
      "ction": 5061,
      "ĠPetro": 5062,
      "Ġkonzu": 5063,
      "Ġpartner": 5064,
      "ĠTri": 5065,
      "Ġizrazi": 5066,
      "nar": 5067,
      "Ġsv": 5068,
      "Ġosiguranja": 5069,
      "cijska": 5070,
      "ljenih": 5071,
      "Ġ48": 5072,
      "koj": 5073,
      "Ġdokumentacije": 5074,
      "Ġradnih": 5075,
      "Ġopti": 5076,
      "Ġpravu": 5077,
      "torima": 5078,
      "Ġrece": 5079,
      "Ġponovno": 5080,
      "Ġonoga": 5081,
      "tona": 5082,
      "Ġospo": 5083,
      "Ġorganizira": 5084,
      "ĠPrije": 5085,
      "Å¡o": 5086,
      "Ġuvjetima": 5087,
      "CIJA": 5088,
      "Ġdjecu": 5089,
      "gnosti": 5090,
      "zme": 5091,
      "Ġindividual": 5092,
      "Ġsen": 5093,
      "Ġbolest": 5094,
      "Ġnekada": 5095,
      "Ġsagla": 5096,
      "snoj": 5097,
      "Ġsigurnosti": 5098,
      "Ġodi": 5099,
      "Ġvizu": 5100,
      "Å¾uje": 5101,
      "pove": 5102,
      "loÅ¾i": 5103,
      "Ġprosi": 5104,
      "70": 5105,
      "Ġsuge": 5106,
      "Ġizgradnju": 5107,
      "Ġumesto": 5108,
      "Ġnemogu": 5109,
      "Ġfunkcional": 5110,
      "Ġslij": 5111,
      "loÅ¡kog": 5112,
      "ĠMI": 5113,
      "ĠnaÅ¡oj": 5114,
      "dago": 5115,
      "Ġcom": 5116,
      "Ġznatno": 5117,
      "Ġslije": 5118,
      "ĠÄįije": 5119,
      "ĠSveuÄįili": 5120,
      "ĠSjedinje": 5121,
      "ĠEurope": 5122,
      "ĠÅ¡kolu": 5123,
      "Ġautora": 5124,
      "riÅ¡e": 5125,
      "Ġzdravstvene": 5126,
      "Ġparki": 5127,
      "ĠÅ¡eÄĩe": 5128,
      "ĠTokom": 5129,
      "tela": 5130,
      "ĠVlada": 5131,
      "KI": 5132,
      "ĠKori": 5133,
      "ĠmiÅ¡ljenja": 5134,
      "ljaka": 5135,
      "loj": 5136,
      "Ġstudij": 5137,
      "ĠSre": 5138,
      "ĠsliÄįno": 5139,
      "Ġposloda": 5140,
      "Ġvidjeti": 5141,
      "Ġ500": 5142,
      "wi": 5143,
      "Ġdemokra": 5144,
      "Ġtki": 5145,
      "Ġzaga": 5146,
      "Ġdogovo": 5147,
      "ĠponaÅ¡anje": 5148,
      "Å¡ak": 5149,
      "Ġsigna": 5150,
      "Ġnapraviti": 5151,
      "Kada": 5152,
      "tivnu": 5153,
      "ex": 5154,
      "Å¡en": 5155,
      "Ġodgovornosti": 5156,
      "Ġupotrebu": 5157,
      "ĠSarajevo": 5158,
      "vera": 5159,
      "Ġefe": 5160,
      "Ġocje": 5161,
      "Ġvlast": 5162,
      "ork": 5163,
      "ĠdoÅ¡ao": 5164,
      "Äĩemo": 5165,
      "Ġorganizaciji": 5166,
      "Ġfunkcija": 5167,
      "Ġ33": 5168,
      "Ġodgovornost": 5169,
      "Ġneiz": 5170,
      "Ġnepro": 5171,
      "zan": 5172,
      "era": 5173,
      "feri": 5174,
      "Ġbibliote": 5175,
      "pnja": 5176,
      "Ġzgrada": 5177,
      "49": 5178,
      "Ġprodaje": 5179,
      "Ġpostroj": 5180,
      "Ġdovesti": 5181,
      "Ġpros": 5182,
      "Ġteritori": 5183,
      "Ġljubavi": 5184,
      "Ġprisustvo": 5185,
      "ĠPrvi": 5186,
      "njim": 5187,
      "daj": 5188,
      "ĠpronaÄĩi": 5189,
      "Ġprijatelj": 5190,
      "Ġhttps": 5191,
      "ker": 5192,
      "Ġizradu": 5193,
      "Ġzavr": 5194,
      "Ġpredsjednika": 5195,
      "65": 5196,
      "Ġnjihovog": 5197,
      "zirati": 5198,
      "Å¡nju": 5199,
      "rijama": 5200,
      "Ġinformi": 5201,
      "Ġsun": 5202,
      "Ġjugo": 5203,
      "ĠOvi": 5204,
      "ĠdruÅ¡tvene": 5205,
      "ĠNova": 5206,
      "Ġkontra": 5207,
      "Ġnog": 5208,
      "ĠDanas": 5209,
      "Äįavaju": 5210,
      "Ġze": 5211,
      "Ġmoz": 5212,
      "Ġborbe": 5213,
      "Ġtijelo": 5214,
      "ĠpreÅ¾i": 5215,
      "ĠpolitiÄįke": 5216,
      "Ġstro": 5217,
      "ĠST": 5218,
      "nstva": 5219,
      "miÄįno": 5220,
      "2019": 5221,
      "Ġvelikog": 5222,
      "ĠDubro": 5223,
      "Ġtopli": 5224,
      "Ġlabora": 5225,
      "Ġtrebaju": 5226,
      "Ġotpor": 5227,
      "Ñĭ": 5228,
      "Ġobaveze": 5229,
      "kola": 5230,
      "Ġseksual": 5231,
      "Å¡kom": 5232,
      "Ġzemlju": 5233,
      "ĠUniverziteta": 5234,
      "Ġdoka": 5235,
      "Ġdjeca": 5236,
      "Ġodabi": 5237,
      "Ġzahtjev": 5238,
      "ĠCon": 5239,
      "Å¡avaju": 5240,
      "ĠponuÄĳaÄįa": 5241,
      "par": 5242,
      "Ġpes": 5243,
      "lega": 5244,
      "Ġpute": 5245,
      "ficije": 5246,
      "Ġpredstavi": 5247,
      "Ġizrade": 5248,
      "nut": 5249,
      "ĠureÄĳaj": 5250,
      "Ġvlade": 5251,
      "ĠraÄįun": 5252,
      "Ġprihvat": 5253,
      "Ġnjegovim": 5254,
      "SKA": 5255,
      "Ġvu": 5256,
      "ĠinaÄįe": 5257,
      "Ġprese": 5258,
      "Ġtrgovi": 5259,
      "nema": 5260,
      "Sve": 5261,
      "ĠFakul": 5262,
      "Ġdodje": 5263,
      "Ġosnovnih": 5264,
      "RAN": 5265,
      "toj": 5266,
      "ĠPor": 5267,
      "Ġsuper": 5268,
      "Å¾eno": 5269,
      "Ġmanifesta": 5270,
      "Ġaktivi": 5271,
      "Ġcijena": 5272,
      "Ġrazdoblju": 5273,
      "kos": 5274,
      "Ġupozo": 5275,
      "vljeno": 5276,
      "Ġpraksi": 5277,
      "Ġmala": 5278,
      "Ġsubo": 5279,
      "zama": 5280,
      "ĠkoÅ¾e": 5281,
      "ĠkoriÅ¡tenje": 5282,
      "Ġgranice": 5283,
      "ĠÄĩelija": 5284,
      "ĠKom": 5285,
      "liki": 5286,
      "lle": 5287,
      "ĠÅ¡uma": 5288,
      "ĠOno": 5289,
      "Ġfokusi": 5290,
      "Ġsrednje": 5291,
      "Ġmor": 5292,
      "ĠjaÄįa": 5293,
      "Ġtraje": 5294,
      "Ġpotica": 5295,
      "Ġpredsednik": 5296,
      "PS": 5297,
      "nina": 5298,
      "ĠRepublici": 5299,
      "izvo": 5300,
      "ĠokoliÅ¡a": 5301,
      "Ġustanove": 5302,
      "Ġnpr": 5303,
      "Ġprocje": 5304,
      "piju": 5305,
      "Ġsc": 5306,
      "Ġzapad": 5307,
      "ĠdoÅ¾ivlja": 5308,
      "Ġbriga": 5309,
      "ĠpoloÅ¾aj": 5310,
      "Ġnekretni": 5311,
      "Å¡ih": 5312,
      "Ġstudent": 5313,
      "raÅ¾": 5314,
      "Ġpreva": 5315,
      "Ġtoplo": 5316,
      "Ġpreki": 5317,
      "Ġtrgova": 5318,
      "dnom": 5319,
      "Ġusme": 5320,
      "ntona": 5321,
      "ĠTaj": 5322,
      "Ġnaknade": 5323,
      "Ġalterna": 5324,
      "Ġtemperature": 5325,
      "naj": 5326,
      "2020": 5327,
      "Ġpromije": 5328,
      "tnik": 5329,
      "ĠRij": 5330,
      "Ġsavez": 5331,
      "Å¡kih": 5332,
      "ĠKoso": 5333,
      "Ġpodrazume": 5334,
      "Ġl": 5335,
      "Ġwith": 5336,
      "Ġpake": 5337,
      "Ġtelo": 5338,
      "ĠFor": 5339,
      "Ġ75": 5340,
      "ĠOrga": 5341,
      "ĠCom": 5342,
      "Ġpredi": 5343,
      "Å¡enju": 5344,
      "Ġposebnim": 5345,
      "ĠlakÅ¡e": 5346,
      "ĠDirek": 5347,
      "Ġplasti": 5348,
      "fikova": 5349,
      "ĠNeki": 5350,
      "Ġdelat": 5351,
      "Ġnjegovom": 5352,
      "zacija": 5353,
      "Ġprera": 5354,
      "ĠÄįovek": 5355,
      "Ġgi": 5356,
      "Ġprosje": 5357,
      "bnja": 5358,
      "Be": 5359,
      "ĠÄįovjek": 5360,
      "Ġmnogim": 5361,
      "Ġfina": 5362,
      "name": 5363,
      "Ġsaop": 5364,
      "''": 5365,
      "Ġzakonoda": 5366,
      "Ġizvori": 5367,
      "Ġzame": 5368,
      "npr": 5369,
      "blica": 5370,
      "Ġonima": 5371,
      "Ġdinami": 5372,
      "ĠuÄįestvo": 5373,
      "ĠIstraÅ¾i": 5374,
      "vljeni": 5375,
      "Ġponavlja": 5376,
      "Ġkontekstu": 5377,
      "ĠJer": 5378,
      "Ġnedavno": 5379,
      "Ġdeli": 5380,
      "Ġradni": 5381,
      "Ġpojedinih": 5382,
      "Ġnes": 5383,
      "Ġkvalite": 5384,
      "mica": 5385,
      "tit": 5386,
      "Ġmeseci": 5387,
      "ANJE": 5388,
      "dÅ¾be": 5389,
      "Å¾ite": 5390,
      "Å¡tena": 5391,
      "ĠÅ¾al": 5392,
      "Ġsamog": 5393,
      "46": 5394,
      "Ġkvalitete": 5395,
      "Ġnjegovih": 5396,
      "ĠduÅ¾e": 5397,
      "Ġobavije": 5398,
      "eg": 5399,
      "Ġmanda": 5400,
      "bilje": 5401,
      "Ġmjeseca": 5402,
      "Ġsupru": 5403,
      "kci": 5404,
      "sama": 5405,
      "Ġorigina": 5406,
      "hodne": 5407,
      "ĠRije": 5408,
      "Ġkandidata": 5409,
      "Ġprakse": 5410,
      "jana": 5411,
      "Ġsudio": 5412,
      "Å¾enju": 5413,
      "Ġtrav": 5414,
      "Ġprednosti": 5415,
      "Ġsvoja": 5416,
      "Ġpokazala": 5417,
      "Ġnaf": 5418,
      "Ġdepo": 5419,
      "2017": 5420,
      "vosti": 5421,
      "Ġunije": 5422,
      "Ġusko": 5423,
      "Ġplat": 5424,
      "ĠGore": 5425,
      "Ġstanovnika": 5426,
      "cs": 5427,
      "Ġstrukture": 5428,
      "Ġstranici": 5429,
      "Ġutje": 5430,
      "mno": 5431,
      "Ġravna": 5432,
      "teo": 5433,
      "Ġhrvatske": 5434,
      "Ġsvu": 5435,
      "Ġjanu": 5436,
      "Ġnastu": 5437,
      "socija": 5438,
      "res": 5439,
      "Ġprvih": 5440,
      "ĠSlove": 5441,
      "ĠSU": 5442,
      "ĠtaÄįka": 5443,
      "Ġ195": 5444,
      "Ġdro": 5445,
      "ya": 5446,
      "Ġulja": 5447,
      "ktor": 5448,
      "Ġeli": 5449,
      "Ġobrati": 5450,
      "Ġ300": 5451,
      "Ġnastava": 5452,
      "mp": 5453,
      "dbu": 5454,
      "vela": 5455,
      "Ġ2004": 5456,
      "Ġobele": 5457,
      "Ġblizu": 5458,
      "Ġr": 5459,
      "ĠnaÅ¡u": 5460,
      "ksu": 5461,
      "slim": 5462,
      "ĠSR": 5463,
      "sobno": 5464,
      "bine": 5465,
      "ĠMarija": 5466,
      "Å¡nih": 5467,
      "ĠÅ¡an": 5468,
      "Ġneuro": 5469,
      "Ġnasilja": 5470,
      "nitar": 5471,
      "ĠnaÄįinu": 5472,
      "Ġprofesor": 5473,
      "Ġrastu": 5474,
      "bila": 5475,
      "ĠTreba": 5476,
      "ĠBoga": 5477,
      "ĠÅłe": 5478,
      "Ġkriteriju": 5479,
      "Ġskri": 5480,
      "ĠdogaÄĳaj": 5481,
      "ĠpoÄįetak": 5482,
      "Ġbazi": 5483,
      "tivnom": 5484,
      "Ġseg": 5485,
      "Ġpostignu": 5486,
      "Ġkama": 5487,
      "diÄĩ": 5488,
      "Ġlista": 5489,
      "OS": 5490,
      "konom": 5491,
      "Ġdobre": 5492,
      "ÄįiÄĩa": 5493,
      "teljica": 5494,
      "Ġstruktura": 5495,
      "Ġovako": 5496,
      "2015": 5497,
      "ĠNaravno": 5498,
      "ĠSkupÅ¡tine": 5499,
      "Ġsvemu": 5500,
      "troga": 5501,
      "Ġkarakteristike": 5502,
      "Ġulaz": 5503,
      "Ġcena": 5504,
      "Ġideje": 5505,
      "ĠsledeÄĩe": 5506,
      "ĠHDZ": 5507,
      "ĠÅ¡tampa": 5508,
      "Ġkoordina": 5509,
      "Ġstatus": 5510,
      "deo": 5511,
      "deÄĩi": 5512,
      "Ġonline": 5513,
      "ĠAd": 5514,
      "vek": 5515,
      "Ġpreven": 5516,
      "Ġnju": 5517,
      "Ġobveza": 5518,
      "Äĩuju": 5519,
      "Ġrezu": 5520,
      "Ġtzv": 5521,
      "100": 5522,
      "Ġpat": 5523,
      "Ġmjeri": 5524,
      "Ġotpa": 5525,
      "ĠÄįasova": 5526,
      "Ġprijave": 5527,
      "Ġfazi": 5528,
      "Ġzavisnosti": 5529,
      "Ġautoma": 5530,
      "vci": 5531,
      "ĠÄįl": 5532,
      "Ġhidro": 5533,
      "Äįajan": 5534,
      "ĠpoÄįeo": 5535,
      "Ġutjecaj": 5536,
      "ĠOba": 5537,
      "ĠkoliÄįine": 5538,
      "Ġinstitucije": 5539,
      "oni": 5540,
      "Sta": 5541,
      "zin": 5542,
      "Ġtrebala": 5543,
      "jer": 5544,
      "Ġhrvatski": 5545,
      "Ġhranu": 5546,
      "Å¾nog": 5547,
      "ĠZakonom": 5548,
      "Ġtest": 5549,
      "Å¡teni": 5550,
      "ĠuÄįenicima": 5551,
      "2016": 5552,
      "ĠTE": 5553,
      "ntu": 5554,
      "Ġudalje": 5555,
      "Äįem": 5556,
      "Ġrok": 5557,
      "Ġpostati": 5558,
      "ĠtrÅ¾iÅ¡te": 5559,
      "Ġorije": 5560,
      "Ġosje": 5561,
      "Ġsamouprave": 5562,
      "ĠodreÄĳeni": 5563,
      "Ġrekonstru": 5564,
      "47": 5565,
      "Ġogrom": 5566,
      "Ġprojekat": 5567,
      "Ġsrca": 5568,
      "ĠdrÅ¾i": 5569,
      "!!": 5570,
      "Å¡taju": 5571,
      "Å¾avaju": 5572,
      "Ġutakmice": 5573,
      "Ġrazreda": 5574,
      "Ġzla": 5575,
      "ĠCar": 5576,
      "Ġprilika": 5577,
      "ĠobeÄĩa": 5578,
      "ĠpoveÄĩava": 5579,
      "Ġrelativno": 5580,
      "ĠÂ«": 5581,
      "Ġumi": 5582,
      "Ġmoze": 5583,
      "Å¡iÄĩa": 5584,
      "Ġelemenata": 5585,
      "NIH": 5586,
      "Ġnapred": 5587,
      "ĠJoÅ¡": 5588,
      "Ġistog": 5589,
      "Ġnjen": 5590,
      "Ġturizma": 5591,
      "Ġsistemu": 5592,
      "Ġakcije": 5593,
      "ĠKla": 5594,
      "ls": 5595,
      "Ġciljeva": 5596,
      "ĠMnog": 5597,
      "mula": 5598,
      "Ġmera": 5599,
      "Ġsnim": 5600,
      "Ġrazne": 5601,
      "Ġnasle": 5602,
      "ĠveÄĩu": 5603,
      "ĠTV": 5604,
      "Ġukazuje": 5605,
      "Ġaktivnostima": 5606,
      "ljivih": 5607,
      "Ġdrugima": 5608,
      "Ġred": 5609,
      "Li": 5610,
      "Ġroditelji": 5611,
      "ĠpraÄĩenje": 5612,
      "Ġzatra": 5613,
      "ĠAleksa": 5614,
      "produ": 5615,
      "Ġsat": 5616,
      "Ġprofeso": 5617,
      "dalje": 5618,
      "ĠCrne": 5619,
      "fera": 5620,
      "Ġstani": 5621,
      "ĠBro": 5622,
      "Ġpovla": 5623,
      "Ġdnevno": 5624,
      "95": 5625,
      "cjene": 5626,
      "90": 5627,
      "pskih": 5628,
      "gijom": 5629,
      "Ġuslovi": 5630,
      "Ġmigra": 5631,
      "ĠMoÅ¾da": 5632,
      "Ġizvede": 5633,
      "sjednik": 5634,
      "mercija": 5635,
      "Å¾nih": 5636,
      "Ġpretra": 5637,
      "Ġzadatak": 5638,
      "ph": 5639,
      "Ġljudskih": 5640,
      "Ġdokaz": 5641,
      "Ġklini": 5642,
      "Å¡teno": 5643,
      "gdje": 5644,
      "Ġpropa": 5645,
      "Ġul": 5646,
      "ĠRH": 5647,
      "Ġfeno": 5648,
      "ĠÅ¡ire": 5649,
      "let": 5650,
      "Ġdiscipli": 5651,
      "Ġpoziv": 5652,
      "Ġpostala": 5653,
      "rijskih": 5654,
      "Nakon": 5655,
      "ĠzahvaljujuÄĩi": 5656,
      "ĠstoljeÄĩa": 5657,
      "Ġspecijali": 5658,
      "Äįnika": 5659,
      "Äįin": 5660,
      "vljuju": 5661,
      "roni": 5662,
      "66": 5663,
      "ĠovlaÅ¡Äĩe": 5664,
      "Ġtelefon": 5665,
      "Ġosla": 5666,
      "sis": 5667,
      "Ġplanu": 5668,
      "Ġkluba": 5669,
      "stepe": 5670,
      "NK": 5671,
      "Ġodigra": 5672,
      "ĠViÅ¡e": 5673,
      "Ġbodova": 5674,
      "Å¾avanja": 5675,
      "vjeti": 5676,
      "Ġ2003": 5677,
      "nk": 5678,
      "Ġeven": 5679,
      "Ġteksta": 5680,
      "ĠPer": 5681,
      "ĠigraÄįa": 5682,
      "ĠveliÄįine": 5683,
      "Ġporta": 5684,
      "Ġkompe": 5685,
      "Ġ65": 5686,
      "potre": 5687,
      "Ġresursa": 5688,
      "Ġ55": 5689,
      "tacija": 5690,
      "%)": 5691,
      "Ġprekr": 5692,
      "Ġtemperatura": 5693,
      "ĠdonoÅ¡enja": 5694,
      "Ġbrojne": 5695,
      "Ġprosla": 5696,
      "ĠtreÄĩi": 5697,
      "Â°": 5698,
      "Ġkomisije": 5699,
      "Ġscena": 5700,
      "ODI": 5701,
      "Ġizjavio": 5702,
      "Ġblizini": 5703,
      "Ġvole": 5704,
      "Ġobavljanje": 5705,
      "nasti": 5706,
      "ĠuÄįinkovi": 5707,
      "Å¾alost": 5708,
      "ĠÄįet": 5709,
      "Ġinfrastrukture": 5710,
      "Å¾ivanja": 5711,
      "mis": 5712,
      "roviÄĩ": 5713,
      "Ġmoramo": 5714,
      "Å¾ja": 5715,
      "Ġsliku": 5716,
      "Ġdobila": 5717,
      "Ġproba": 5718,
      "ncela": 5719,
      "ĠBeograda": 5720,
      "Ġradne": 5721,
      "Ġobjavlji": 5722,
      "ĠUÄįe": 5723,
      "nese": 5724,
      "Ġnetko": 5725,
      "Ġstaja": 5726,
      "Ġnastavnika": 5727,
      "riÅ¡Äĩa": 5728,
      "ĠRezulta": 5729,
      "finan": 5730,
      "Ġodredbama": 5731,
      "gori": 5732,
      "Ġradom": 5733,
      "Ġizgradnje": 5734,
      "Ġkombi": 5735,
      "NOG": 5736,
      "Ġgrupi": 5737,
      "Ġprijedlog": 5738,
      "tur": 5739,
      "Ġdoj": 5740,
      "bran": 5741,
      "ĠtroÅ¡kovi": 5742,
      "Ova": 5743,
      "publika": 5744,
      "Ġprivla": 5745,
      "Ġneophodno": 5746,
      "dbi": 5747,
      "Ġanalizu": 5748,
      "ĠNjema": 5749,
      "Ġodredbe": 5750,
      "nogra": 5751,
      "pila": 5752,
      "Ġspek": 5753,
      "ght": 5754,
      "Ġimeno": 5755,
      "Äįavanja": 5756,
      "Ġsmanjuje": 5757,
      "jum": 5758,
      "roma": 5759,
      "ĠIV": 5760,
      "znih": 5761,
      "bur": 5762,
      "ĠRado": 5763,
      "98": 5764,
      "ĠÄįlanku": 5765,
      "lum": 5766,
      "Ġvisoke": 5767,
      "tama": 5768,
      "Ġdugoro": 5769,
      "Ġcilja": 5770,
      "Ġfilma": 5771,
      "Ã¼": 5772,
      "ĠÅ½upa": 5773,
      "znu": 5774,
      "Ġprista": 5775,
      "Ġkapaciteta": 5776,
      "Ġpridru": 5777,
      "Å¡tima": 5778,
      "Ġpredstavlje": 5779,
      "dor": 5780,
      "Ġmoja": 5781,
      "Ġsame": 5782,
      "ĠpodrÅ¡ke": 5783,
      "Ġdirektora": 5784,
      "Ġtesto": 5785,
      "ample": 5786,
      "Ġspi": 5787,
      "Ġpotrebama": 5788,
      "lokup": 5789,
      "Ġponudu": 5790,
      "Ġsjedi": 5791,
      "ĠuÄįenike": 5792,
      "spira": 5793,
      "%.": 5794,
      "ĠGRA": 5795,
      "Ġapsolu": 5796,
      "ĠdruÅ¡tvenih": 5797,
      "mpe": 5798,
      "dr": 5799,
      "Ġprikazuje": 5800,
      "ĠLuka": 5801,
      "vju": 5802,
      "Ġodrasli": 5803,
      "Ġzavisi": 5804,
      "Ġdode": 5805,
      "ĠMogu": 5806,
      "lizam": 5807,
      "Ġubi": 5808,
      "ĠpriÄįu": 5809,
      "Ġosiguranje": 5810,
      "Ġulica": 5811,
      "Ġnor": 5812,
      "Ġvalja": 5813,
      "Ġbitno": 5814,
      "Ġinspek": 5815,
      "ved": 5816,
      "Ġbrojem": 5817,
      "Ġmati": 5818,
      "ĠsloÅ¾e": 5819,
      "Ġuticaja": 5820,
      "Ġprimije": 5821,
      "kvu": 5822,
      "Ġobliko": 5823,
      "ĠKA": 5824,
      "Ġsigurnost": 5825,
      ".:": 5826,
      "Ġznamo": 5827,
      "Ġnazivom": 5828,
      "naca": 5829,
      "NS": 5830,
      "GI": 5831,
      "zac": 5832,
      "ĠBilo": 5833,
      "Ġkomunikacije": 5834,
      "Ġav": 5835,
      "Ġmole": 5836,
      "Ġklije": 5837,
      "96": 5838,
      "vaÄįi": 5839,
      "nstvo": 5840,
      "kru": 5841,
      "sanja": 5842,
      "ĠobjaÅ¡nje": 5843,
      "ĠkoriÅ¡tenja": 5844,
      "Å¾nim": 5845,
      "ĠHr": 5846,
      "Ġsur": 5847,
      "krati": 5848,
      "Ġteksto": 5849,
      "Ġvre": 5850,
      "Ġotvara": 5851,
      "ĠreÅ¡enje": 5852,
      "ĠnoÄĩi": 5853,
      "Ġnapu": 5854,
      "Ġvise": 5855,
      "Ġtakva": 5856,
      "Ġkine": 5857,
      "miÅ¡lje": 5858,
      "Ġvrti": 5859,
      "Ġobraz": 5860,
      "Ġcentru": 5861,
      "plici": 5862,
      "Ġnepozna": 5863,
      "mbar": 5864,
      "Ġgovor": 5865,
      "ĠrjeÅ¡enje": 5866,
      "ĠMiha": 5867,
      "zanja": 5868,
      "Ġprolazi": 5869,
      "Ġprogramu": 5870,
      "Ġstudenti": 5871,
      "Ġrazred": 5872,
      "Ġnavedenih": 5873,
      "Å¾em": 5874,
      "dnu": 5875,
      "Naj": 5876,
      "vajanje": 5877,
      "Ġklub": 5878,
      "Ġperforma": 5879,
      "ĠpoduzeÄĩa": 5880,
      "%,": 5881,
      "Ġbici": 5882,
      "Ġpotrebi": 5883,
      "Ġdijagnosti": 5884,
      "Ġ47": 5885,
      "ĠvaÅ¡eg": 5886,
      "##": 5887,
      "ĠgraÄĳevina": 5888,
      "Ġzahtev": 5889,
      "ĠuopÅ¡te": 5890,
      "roa": 5891,
      "oca": 5892,
      "Ġskr": 5893,
      "Ba": 5894,
      "Ġhor": 5895,
      "mijer": 5896,
      "Äįite": 5897,
      "krimina": 5898,
      "ĠizveÅ¡taj": 5899,
      "ĠdrÅ¾avi": 5900,
      "Ġumetnosti": 5901,
      "Ġ46": 5902,
      "Ġuto": 5903,
      "Ġsela": 5904,
      "Ġjeze": 5905,
      "Ġrezulti": 5906,
      "ĠpoÅ¾ara": 5907,
      "Ġadekvat": 5908,
      "Ġthat": 5909,
      "Ġulaganja": 5910,
      "Ġilu": 5911,
      "ĠDr": 5912,
      "talija": 5913,
      "rstva": 5914,
      "Ġsekre": 5915,
      "ziti": 5916,
      "Ġjednim": 5917,
      "ĠuÄįestvu": 5918,
      "Ġuloga": 5919,
      "ĠkoliÄįina": 5920,
      "Ġdostavi": 5921,
      "zad": 5922,
      "ĠPrvo": 5923,
      "ÅłTI": 5924,
      "ria": 5925,
      "ĠIvana": 5926,
      "tove": 5927,
      "ord": 5928,
      "raka": 5929,
      "Ġuma": 5930,
      "Ġstare": 5931,
      "ĠnoÄĩ": 5932,
      "ĠhoÄĩe": 5933,
      "Ġala": 5934,
      "ĠTomi": 5935,
      "Ġ150": 5936,
      "Ġvrstu": 5937,
      "Ġnastupa": 5938,
      "Ġumetni": 5939,
      "Ġmotor": 5940,
      "Å¡ena": 5941,
      "ĠWe": 5942,
      "Ġby": 5943,
      "Ġkonkuren": 5944,
      "Ġnauka": 5945,
      "AV": 5946,
      "Ġregistra": 5947,
      "ĠpredviÄĳa": 5948,
      "rate": 5949,
      "zak": 5950,
      "ĠuÄįeÅ¡Äĩe": 5951,
      "nes": 5952,
      "nizam": 5953,
      "prkos": 5954,
      "naka": 5955,
      "tla": 5956,
      "taciju": 5957,
      "povi": 5958,
      "Ġzvez": 5959,
      "ĠelektriÄįne": 5960,
      "Sl": 5961,
      "mes": 5962,
      "logiji": 5963,
      "Ġvjerojatno": 5964,
      "ĠPravilnika": 5965,
      "SL": 5966,
      "Ġcijene": 5967,
      "Ġnjim": 5968,
      "Ġznanosti": 5969,
      "ljno": 5970,
      "Ġputovanja": 5971,
      "dent": 5972,
      "ĠduÅ¾nosti": 5973,
      "Ġmeseca": 5974,
      "eni": 5975,
      "Ġpromjena": 5976,
      "ĠdrugaÄįij": 5977,
      "Ġrazdoblje": 5978,
      "500": 5979,
      "Ġmodu": 5980,
      "nijeg": 5981,
      "Äįani": 5982,
      "Ġpolovi": 5983,
      "Ġish": 5984,
      "vanih": 5985,
      "ĠSP": 5986,
      "Ġposlovne": 5987,
      "Ġsporta": 5988,
      "ĠnaÄįine": 5989,
      "ĠpodruÄįjima": 5990,
      "Ġprezenta": 5991,
      "Äįuju": 5992,
      "nete": 5993,
      "Ġrevolu": 5994,
      "Ġpolja": 5995,
      "Ġnavode": 5996,
      "ĠzaÅ¡tita": 5997,
      "Ġslici": 5998,
      "Ġznati": 5999,
      "ĠMaj": 6000,
      "Ġkosti": 6001,
      "FI": 6002,
      "vreda": 6003,
      "Ġskupine": 6004,
      "ĠÌ": 6005,
      "Ġgranica": 6006,
      "ĠÅ¡iri": 6007,
      "Ġneophod": 6008,
      "Ġstranica": 6009,
      "tskim": 6010,
      "Ġosnovi": 6011,
      "88": 6012,
      "Ġ2002": 6013,
      "gradi": 6014,
      "Ġnjihovom": 6015,
      "Ġfaktora": 6016,
      "Ġdalji": 6017,
      "Ġrazumije": 6018,
      "ete": 6019,
      "ĠdeÅ¡ava": 6020,
      "Ġstranice": 6021,
      "loÅ¡ko": 6022,
      "Ġeventual": 6023,
      "ĠDrugo": 6024,
      "Ġuzra": 6025,
      "Ġgaran": 6026,
      "Ġpovu": 6027,
      "Ġjavni": 6028,
      "Ġpoto": 6029,
      "ĠkonaÄįno": 6030,
      "2013": 6031,
      "Ġperspekti": 6032,
      "ĠDoda": 6033,
      "Ġarhite": 6034,
      "ĠvaÅ¾e": 6035,
      "ĠuopÄĩe": 6036,
      "Ġeg": 6037,
      "Ġostala": 6038,
      "ĠsljedeÄĩe": 6039,
      "eno": 6040,
      "rove": 6041,
      "ĠUkup": 6042,
      "Ġ42": 6043,
      "Ġvodom": 6044,
      "Ġglasi": 6045,
      "ĠIli": 6046,
      "Ġkategorije": 6047,
      "cebo": 6048,
      "Ġcrve": 6049,
      "Ġpogled": 6050,
      "rnom": 6051,
      "ĠsadrÅ¾e": 6052,
      "Ġautomobila": 6053,
      "cke": 6054,
      "Ġnovom": 6055,
      "Ġraznih": 6056,
      "Ġprovo": 6057,
      "ĠsaobraÄĩaj": 6058,
      "ĠtaÄįke": 6059,
      "toli": 6060,
      "Ġradno": 6061,
      "ĠvijeÄĩe": 6062,
      "Ġdjevoj": 6063,
      "Ġfotografij": 6064,
      "ljka": 6065,
      "Å¡nog": 6066,
      "ĠgraÄĳani": 6067,
      "Ġsektora": 6068,
      "Ġnara": 6069,
      "ps": 6070,
      "Ġosigurati": 6071,
      "ÄĨA": 6072,
      "ntri": 6073,
      "Ġvakci": 6074,
      "ĠkoriÅ¡Äĩenja": 6075,
      "kol": 6076,
      "ĠProgram": 6077,
      "rizo": 6078,
      "port": 6079,
      "ĠplaÄĩanja": 6080,
      "Ġpoka": 6081,
      "zivanje": 6082,
      "Si": 6083,
      "ĠangaÅ¾o": 6084,
      "Ġsvedo": 6085,
      "ĠodreÄĳuje": 6086,
      "ĠSpe": 6087,
      "mit": 6088,
      "ĠMO": 6089,
      "Ġkorist": 6090,
      "ĠznaÄįajan": 6091,
      "slje": 6092,
      "Ġmnogih": 6093,
      "Äįenih": 6094,
      "Ġpedago": 6095,
      "ĠRAD": 6096,
      "Ġgrani": 6097,
      "Ġbezbednosti": 6098,
      "Å¡tenje": 6099,
      "example": 6100,
      "caj": 6101,
      "Ġnapisao": 6102,
      "Ġvideti": 6103,
      "sona": 6104,
      "Ġkuhi": 6105,
      "Ġprezi": 6106,
      ":**": 6107,
      "ĠpoÄįela": 6108,
      "ĠGene": 6109,
      "Ġsloj": 6110,
      "ĠodgovarajuÄĩe": 6111,
      "Ġznak": 6112,
      "pili": 6113,
      "ĠCilj": 6114,
      "Ġobli": 6115,
      "Ġpamet": 6116,
      "loÅ¡kim": 6117,
      "Ġnavedene": 6118,
      "Ġizre": 6119,
      "2014": 6120,
      "rej": 6121,
      "Ġsamom": 6122,
      "bova": 6123,
      "stname": 6124,
      "gde": 6125,
      "lizaciji": 6126,
      "Ġtrudno": 6127,
      "Ġhrvatskih": 6128,
      "mino": 6129,
      "Ġtakvih": 6130,
      "Ġwww": 6131,
      "Ġslobodno": 6132,
      "rke": 6133,
      "Ġanke": 6134,
      "ĠTro": 6135,
      "vero": 6136,
      "Ġostati": 6137,
      "Ġistu": 6138,
      "Ġ2001": 6139,
      "shi": 6140,
      "Ġterenu": 6141,
      "Ġtero": 6142,
      "ÄĮE": 6143,
      "prilike": 6144,
      "stem": 6145,
      "ĠPosle": 6146,
      "ĠOdluka": 6147,
      "Ġmore": 6148,
      "lli": 6149,
      "ljom": 6150,
      "Ġzadovo": 6151,
      "Ġpodije": 6152,
      "Ġnauke": 6153,
      "ĠvaÅ¾an": 6154,
      "Ġkrajem": 6155,
      "ĠDE": 6156,
      "Ġpoe": 6157,
      "Ġnapusti": 6158,
      "forme": 6159,
      "move": 6160,
      "Ġnjema": 6161,
      "ĠJedna": 6162,
      "Ġprivreme": 6163,
      "Ġpolicije": 6164,
      "ĠsaÄįu": 6165,
      "Ġsjednici": 6166,
      "Ġopasnosti": 6167,
      "Ġ2023": 6168,
      "bne": 6169,
      "Ġvjero": 6170,
      "Ġspomenu": 6171,
      "tnoj": 6172,
      "Ġposljedica": 6173,
      "Ġnao": 6174,
      "Ġuniverzi": 6175,
      "Ġote": 6176,
      "ĠOB": 6177,
      "Ġdoktor": 6178,
      "ĠtisuÄĩa": 6179,
      "ĠBri": 6180,
      "Ġnjene": 6181,
      "Ġakadem": 6182,
      "Ġlinije": 6183,
      "Ġposledica": 6184,
      "ĠPoslo": 6185,
      "cy": 6186,
      "Ġvrhun": 6187,
      "Ġstvaranje": 6188,
      "Ġnjihovi": 6189,
      "Ġnastavku": 6190,
      "Ġpravne": 6191,
      "Ġpartne": 6192,
      "Ġradovi": 6193,
      "ring": 6194,
      "ĠEngle": 6195,
      "Ġduga": 6196,
      "Ġvredno": 6197,
      "Ġ44": 6198,
      "Ġupora": 6199,
      "ĠUN": 6200,
      "ĠBI": 6201,
      "ĠpolitiÄįkih": 6202,
      "ÄĮA": 6203,
      "duÄĩi": 6204,
      "77": 6205,
      "Ġkakav": 6206,
      "elo": 6207,
      "Ġmemo": 6208,
      "Ġporeza": 6209,
      "Ġostavlja": 6210,
      "Ġsindi": 6211,
      "ĠkuÄĩ": 6212,
      "tovanje": 6213,
      "Ġupotrebe": 6214,
      "Å¡njim": 6215,
      "Ġnabave": 6216,
      "Ġformira": 6217,
      "ĠVE": 6218,
      "Å¡enjem": 6219,
      "Ġpojave": 6220,
      "ĠBosni": 6221,
      "rstvo": 6222,
      "Ġpublika": 6223,
      "ÑĬ": 6224,
      "ĠodrÅ¾ava": 6225,
      "ĠizraÄįuna": 6226,
      "Ġpouzda": 6227,
      "cijskim": 6228,
      "cionih": 6229,
      "Ġbele": 6230,
      "Ġpoznat": 6231,
      "krea": 6232,
      "Ġlinija": 6233,
      "ĠFon": 6234,
      "Ġispitivanja": 6235,
      "Ġproblemi": 6236,
      "isti": 6237,
      "Ġdodatne": 6238,
      "Ġdonese": 6239,
      "Ġumjetni": 6240,
      "Ġpretpostav": 6241,
      "panj": 6242,
      "85": 6243,
      "ĠVojvodi": 6244,
      "Ġsituaciju": 6245,
      "Ġosobama": 6246,
      "noviÄĩa": 6247,
      "Ġujedno": 6248,
      "Ġvatroga": 6249,
      "Ġfebru": 6250,
      "ĠHar": 6251,
      "Ġnavija": 6252,
      "daci": 6253,
      "ĠBez": 6254,
      "ĠSlobo": 6255,
      "gledno": 6256,
      "njaka": 6257,
      "Ġprodaju": 6258,
      "Ġese": 6259,
      "ĠHaj": 6260,
      "Ġdodaj": 6261,
      "ranu": 6262,
      "siÄĩ": 6263,
      "Ġlistu": 6264,
      "Ġbiljke": 6265,
      "Ġprogrami": 6266,
      "Ġspoj": 6267,
      "vski": 6268,
      "Ġobrazovanju": 6269,
      "Ġprete": 6270,
      "guj": 6271,
      "enje": 6272,
      "Ġpopulacije": 6273,
      "Ġzali": 6274,
      "sr": 6275,
      "linu": 6276,
      "Ġvelikom": 6277,
      "voren": 6278,
      "Ġuzeti": 6279,
      "Ġdosada": 6280,
      "ĠdoÅ¡li": 6281,
      "stara": 6282,
      "Ġbru": 6283,
      "ĠÄįlanica": 6284,
      "govara": 6285,
      "Ġrazgovo": 6286,
      "Va": 6287,
      "Ġaktivno": 6288,
      "Ġpitanjima": 6289,
      "Ġfunkciju": 6290,
      "Gra": 6291,
      "ĠNor": 6292,
      "Ġpovodom": 6293,
      "Ġinde": 6294,
      "esto": 6295,
      "hoda": 6296,
      "Ġtvrtke": 6297,
      "ĠSred": 6298,
      "ĠutiÄįe": 6299,
      "leta": 6300,
      "ĠNarod": 6301,
      "Ġzajednici": 6302,
      "vost": 6303,
      "rku": 6304,
      "rujem": 6305,
      "mila": 6306,
      "Ġpritisak": 6307,
      "ĠsluÅ¾i": 6308,
      "ĠRegi": 6309,
      "Ġostalo": 6310,
      "pozna": 6311,
      "ĠporeÄĳe": 6312,
      "Ġkultura": 6313,
      "ĠEuropske": 6314,
      "Ġtam": 6315,
      "Ġakcija": 6316,
      "ĠVj": 6317,
      "canje": 6318,
      "Ġudo": 6319,
      "ĠpolitiÄįki": 6320,
      "Ġpoznato": 6321,
      "Å¡kim": 6322,
      "Ã¶": 6323,
      "Äĳivanju": 6324,
      "Ġ02": 6325,
      "Ġpreo": 6326,
      "Ġenergiju": 6327,
      "ĠÅ¾ivotinje": 6328,
      "Lj": 6329,
      "Ġstrategije": 6330,
      "ĠÄįoveka": 6331,
      "Ġdug": 6332,
      "ret": 6333,
      "ĠoÅ¾uj": 6334,
      "Ġimplementa": 6335,
      "ĠNikola": 6336,
      "ĠmomÄįa": 6337,
      "Äĳenim": 6338,
      "Ġnacionalne": 6339,
      "Ġlop": 6340,
      "Ġargu": 6341,
      "ĠLondo": 6342,
      "Ġintelek": 6343,
      "pne": 6344,
      "ding": 6345,
      "Ġobjavio": 6346,
      "ĠtaÄįno": 6347,
      "ĠNji": 6348,
      "ĠureÄĳenja": 6349,
      "govina": 6350,
      "ĠÄįlanak": 6351,
      "Ġborbi": 6352,
      "Ġminu": 6353,
      "Ġsni": 6354,
      "jiÄĩ": 6355,
      "Ġkomercija": 6356,
      "Ġzabri": 6357,
      "ĠJE": 6358,
      "vodno": 6359,
      "Ġuza": 6360,
      "Ġsituaciji": 6361,
      "Ġpotrebu": 6362,
      "Ġdodi": 6363,
      "vcu": 6364,
      "Ġqu": 6365,
      "ĠbivÅ¡i": 6366,
      "ĠUkraji": 6367,
      "Ci": 6368,
      "Ġpriori": 6369,
      "turu": 6370,
      "Ġusled": 6371,
      "Ġavgu": 6372,
      "niÄįki": 6373,
      "76": 6374,
      "Ġposebne": 6375,
      "Ġkorona": 6376,
      "ĠBoÅ¾": 6377,
      "sk": 6378,
      "prema": 6379,
      "ing": 6380,
      "Prema": 6381,
      "Ġpredsednika": 6382,
      "Äĩenih": 6383,
      "Ġresto": 6384,
      "Pe": 6385,
      "ĠreÄįima": 6386,
      "Ġokuplja": 6387,
      "Ġreguli": 6388,
      "djela": 6389,
      "heo": 6390,
      "ĠPoÅ¡to": 6391,
      "Ġpopra": 6392,
      "Ġtrajanja": 6393,
      "cki": 6394,
      "cionog": 6395,
      "rur": 6396,
      "Ġselek": 6397,
      "Ġbilje": 6398,
      "Ġprocenata": 6399,
      "86": 6400,
      "Ġprikaz": 6401,
      "41": 6402,
      "Ġodgovora": 6403,
      "Ġpoznati": 6404,
      "Ġfotografije": 6405,
      "Pra": 6406,
      "Ġprosinca": 6407,
      "vile": 6408,
      "ĠistraÅ¾ivanju": 6409,
      "ras": 6410,
      "Ġnedelje": 6411,
      "Ġzagreba": 6412,
      "novod": 6413,
      "Ġprihva": 6414,
      "Ġpome": 6415,
      "Ġprvoj": 6416,
      "ĠobjaÅ¡njava": 6417,
      "Ġvidim": 6418,
      "rskog": 6419,
      "Ġbogat": 6420,
      "ĠÄįinjenice": 6421,
      "RS": 6422,
      "roz": 6423,
      "Ġkapitala": 6424,
      "nilo": 6425,
      "42": 6426,
      "tivu": 6427,
      "Ġsrpske": 6428,
      "nko": 6429,
      "ĠodreÄĳenih": 6430,
      "ĠÅ¡tete": 6431,
      "ĠSplit": 6432,
      "Ġslobode": 6433,
      "Ġtala": 6434,
      "ĠBoÅ¾i": 6435,
      "ĠdrugaÄįije": 6436,
      "43": 6437,
      "Ġintervju": 6438,
      "Ġref": 6439,
      "ĠHri": 6440,
      "Ġtemelji": 6441,
      "vaca": 6442,
      "Ġjesu": 6443,
      "Ġlepo": 6444,
      "Ġslabo": 6445,
      "CO": 6446,
      "Ovaj": 6447,
      "Ġpov": 6448,
      "vanoviÄĩ": 6449,
      "ĠUs": 6450,
      "ĠliÄįnosti": 6451,
      "Ġpovijesti": 6452,
      "OVIÄĨ": 6453,
      "nder": 6454,
      "The": 6455,
      "Ġdonije": 6456,
      "Ġdevoj": 6457,
      "ĠsluÅ¾bi": 6458,
      "ĠNovom": 6459,
      "Ġvrhu": 6460,
      "ranim": 6461,
      "ĠDoma": 6462,
      "Ġpromatra": 6463,
      "mr": 6464,
      "LJE": 6465,
      "Ġnedje": 6466,
      "Ġbre": 6467,
      "Ġponi": 6468,
      "Ġpoza": 6469,
      "Ti": 6470,
      "Ġeviden": 6471,
      "Ġnamije": 6472,
      "luju": 6473,
      "Ġuzbu": 6474,
      "Ġjos": 6475,
      "vljanje": 6476,
      "Ġdvori": 6477,
      "ĠÄįovjeka": 6478,
      "Ġslijedi": 6479,
      "Ġteritoriji": 6480,
      "gura": 6481,
      "Ġlokalnih": 6482,
      "Ġstandarda": 6483,
      "mak": 6484,
      "ĠpredloÅ¾e": 6485,
      "mani": 6486,
      "Ġfotografija": 6487,
      "Ġinvalidite": 6488,
      "Ġsobom": 6489,
      "Broj": 6490,
      "Ġuvjete": 6491,
      "Ġzove": 6492,
      "Fi": 6493,
      "more": 6494,
      "Ġdomina": 6495,
      "Ġprimene": 6496,
      "orga": 6497,
      "Ġpostane": 6498,
      "Ġreferen": 6499,
      "Ġneod": 6500,
      "ĠMj": 6501,
      "nikom": 6502,
      "ĠBran": 6503,
      "stio": 6504,
      "Ġmen": 6505,
      "pskoj": 6506,
      "sjeÄĩa": 6507,
      "Ġraznim": 6508,
      "lili": 6509,
      "Ġdodaje": 6510,
      "ĠpokuÅ¡ava": 6511,
      "hij": 6512,
      "Ġpredlo": 6513,
      "njenja": 6514,
      "Ġdoprinos": 6515,
      "Ġpokazali": 6516,
      "Dru": 6517,
      "Narodne": 6518,
      "ĠopÄĩine": 6519,
      "Ġdodao": 6520,
      "Ġsvakoj": 6521,
      "guje": 6522,
      "eficije": 6523,
      "ral": 6524,
      "Ġanalizira": 6525,
      "cjena": 6526,
      "Ġosnova": 6527,
      "Ġdob": 6528,
      "BO": 6529,
      "tpu": 6530,
      "cho": 6531,
      "Ġintegri": 6532,
      "Ġzone": 6533,
      "slava": 6534,
      "kan": 6535,
      "Ġpolitiku": 6536,
      "TS": 6537,
      "Ġmed": 6538,
      "sion": 6539,
      "Ġmase": 6540,
      "Ġae": 6541,
      "Ġhrani": 6542,
      "crta": 6543,
      "ĠsijeÄį": 6544,
      "Ġjavnost": 6545,
      "Ġulazi": 6546,
      "Ġinformacijama": 6547,
      "Ġsredstvima": 6548,
      "Ġprvenstveno": 6549,
      "ĠdruÅ¡tvenim": 6550,
      "godiÅ¡nja": 6551,
      "ĠomoguÄĩiti": 6552,
      "LJ": 6553,
      "Ġredovi": 6554,
      "kedo": 6555,
      "Ġvaspita": 6556,
      "Ġprednost": 6557,
      "Ġpolju": 6558,
      "Ġbave": 6559,
      "Ġtima": 6560,
      "eng": 6561,
      "Ġnavedeno": 6562,
      "ranog": 6563,
      "MS": 6564,
      "zaciju": 6565,
      "Ġiznim": 6566,
      "gara": 6567,
      "ĠDj": 6568,
      "Ġparlamenta": 6569,
      "ferent": 6570,
      "Ġepide": 6571,
      "Ġ''": 6572,
      "Ġdona": 6573,
      "ĠFu": 6574,
      "ĠPan": 6575,
      "Ġpogi": 6576,
      "vremenu": 6577,
      "rijska": 6578,
      "manti": 6579,
      "97": 6580,
      "Ġprvu": 6581,
      "ntne": 6582,
      "Ġkretanja": 6583,
      "ĠograniÄįenja": 6584,
      "njenje": 6585,
      "ĠpoboljÅ¡anje": 6586,
      "Ġizradi": 6587,
      "Â«,": 6588,
      "ĠKralje": 6589,
      "ĠÅ¡tet": 6590,
      "ĠbuduÄĩnost": 6591,
      "Ġpripreme": 6592,
      "Ġprograme": 6593,
      "ĠAp": 6594,
      "Ġnajvi": 6595,
      "oje": 6596,
      "Ġinvaliditetom": 6597,
      "ntan": 6598,
      "Ġdepre": 6599,
      "Ġstranu": 6600,
      "ĠStatuta": 6601,
      "Ġprirodnih": 6602,
      "Ġnaju": 6603,
      "Ġjavnom": 6604,
      "ĠOsta": 6605,
      "Ġmrt": 6606,
      "rsa": 6607,
      "Ġprojektu": 6608,
      "Ġalbu": 6609,
      "rvo": 6610,
      "ĠSpa": 6611,
      "renih": 6612,
      "Ġnukle": 6613,
      "Ġroka": 6614,
      "Ġske": 6615,
      "hla": 6616,
      "Ġpodrazumeva": 6617,
      "Ġposlovnih": 6618,
      "Ġkvadra": 6619,
      "http": 6620,
      "Ġumjesto": 6621,
      "Å¡io": 6622,
      "ĠpruÅ¾aju": 6623,
      "mika": 6624,
      "bni": 6625,
      "Ġmalih": 6626,
      "ws": 6627,
      "neti": 6628,
      "hija": 6629,
      "Kao": 6630,
      "MeÄĳu": 6631,
      "ĠPav": 6632,
      "Ġiskaza": 6633,
      "Ġora": 6634,
      "Ġgoriva": 6635,
      "Ġizvodi": 6636,
      "Ġpredstavnika": 6637,
      "ET": 6638,
      "CIJE": 6639,
      "Ġpremije": 6640,
      "ĠPRE": 6641,
      "vinu": 6642,
      "Ġnai": 6643,
      "Ġhrvatskog": 6644,
      "Ġotac": 6645,
      "Ġkontakt": 6646,
      "Ovo": 6647,
      "ĠSek": 6648,
      "2021": 6649,
      "ĠpojaÄįa": 6650,
      "ff": 6651,
      "Ġdesi": 6652,
      "Ġpredstavnici": 6653,
      "Ġmaso": 6654,
      "Ã¨": 6655,
      "ĠVij": 6656,
      "Ġzabilje": 6657,
      "Ġtravnja": 6658,
      "Ġdom": 6659,
      "Ġugra": 6660,
      "Ġgubitak": 6661,
      "ĠpoÅ¾e": 6662,
      "nijom": 6663,
      "lektro": 6664,
      "Ġkulturu": 6665,
      "traj": 6666,
      "ljan": 6667,
      "Ġpravima": 6668,
      "Äįina": 6669,
      "Ġpomenu": 6670,
      "Ġino": 6671,
      "Ġzona": 6672,
      "Ġnezaposle": 6673,
      "ĠSlu": 6674,
      "ĠEvrope": 6675,
      "Ġkorisnicima": 6676,
      "Ġpande": 6677,
      "Å¡avanju": 6678,
      "Ġneposredno": 6679,
      "poviÄĩ": 6680,
      "Ġcrno": 6681,
      "Ġlisti": 6682,
      "ĠproizvoÄĳaÄįa": 6683,
      "ĠÅ¡o": 6684,
      "sati": 6685,
      "ljuj": 6686,
      "ĠUniver": 6687,
      "ĠoÅ¡teÄĩenja": 6688,
      "Ġpostaju": 6689,
      "ĠNaru": 6690,
      "Ġpam": 6691,
      "RAV": 6692,
      "Ġdeteta": 6693,
      "ĠFili": 6694,
      "ĠÄĮu": 6695,
      "Pi": 6696,
      "Op": 6697,
      "Ġmaja": 6698,
      "Ġamba": 6699,
      "ĠCO": 6700,
      "Ġmedijima": 6701,
      "Ġperforman": 6702,
      "ĠUstav": 6703,
      "ĠNI": 6704,
      "ĠStrate": 6705,
      "Ġanalizi": 6706,
      "Ġpopla": 6707,
      "Ġmilijardi": 6708,
      "Ġmorate": 6709,
      "ĠLI": 6710,
      "ĠgraÄĳevine": 6711,
      "ĠVeliko": 6712,
      "Ġevra": 6713,
      "Ġ400": 6714,
      "ĠKnji": 6715,
      "fiko": 6716,
      "cr": 6717,
      "Ġspomi": 6718,
      "Å¡eviÄĩ": 6719,
      "ĠPOD": 6720,
      "Ġporodica": 6721,
      "Å¡njoj": 6722,
      "Ġsutra": 6723,
      "Ġfaze": 6724,
      "ĠMarko": 6725,
      "Ġinost": 6726,
      "vljenje": 6727,
      "Ġhar": 6728,
      "Ġinterpre": 6729,
      "ncije": 6730,
      "ĠOv": 6731,
      "ĠvlasniÅ¡tvu": 6732,
      "Ġvazduha": 6733,
      "Ġpozori": 6734,
      "ĠbivÅ¡e": 6735,
      "ĠSvaki": 6736,
      "ĠRad": 6737,
      "ĠproÅ¡losti": 6738,
      "ĠKre": 6739,
      "ljivim": 6740,
      "Ġusavr": 6741,
      "ĠÅ¡kolama": 6742,
      "bjed": 6743,
      "Ġglasova": 6744,
      "godine": 6745,
      "ĠHercegovi": 6746,
      "Ġlipnja": 6747,
      "Ġstarije": 6748,
      "manu": 6749,
      "ĠMeto": 6750,
      "Ġstvore": 6751,
      "Bu": 6752,
      "Äĳenog": 6753,
      "ÄĮI": 6754,
      "Ġvidimo": 6755,
      "bna": 6756,
      "Ġodsto": 6757,
      "ĠWi": 6758,
      "gove": 6759,
      "ĠGi": 6760,
      "lt": 6761,
      "ĠvaÅ¾nosti": 6762,
      "Ġiskre": 6763,
      "Ġdiskrimina": 6764,
      "Ġtabli": 6765,
      "gore": 6766,
      "ĠSan": 6767,
      "Ġmogle": 6768,
      "Ġekonomske": 6769,
      "Ġknjizi": 6770,
      "Ġgradova": 6771,
      "Ġmolit": 6772,
      "niÄįke": 6773,
      "ntna": 6774,
      "ĠHrvatsku": 6775,
      "ĠdoÄįe": 6776,
      "cro": 6777,
      "_{": 6778,
      "ĠnadleÅ¾nosti": 6779,
      "ĠproraÄįuna": 6780,
      "boru": 6781,
      "Ġzabele": 6782,
      "ravak": 6783,
      "Ġinteli": 6784,
      "Ġpokazao": 6785,
      "ĠEx": 6786,
      "Å¾im": 6787,
      "Ġsamim": 6788,
      "Ġinterne": 6789,
      "dim": 6790,
      "Ġkorup": 6791,
      "Å¾enih": 6792,
      "ĠÄĮak": 6793,
      "ĠSin": 6794,
      "Ġgosti": 6795,
      "Ġhu": 6796,
      "GO": 6797,
      "Ġotprilike": 6798,
      "Ġostalog": 6799,
      "ĠÄĩelije": 6800,
      "Ġratu": 6801,
      "Åłta": 6802,
      "Ġcene": 6803,
      "Ġmotiva": 6804,
      "ĠTek": 6805,
      "ĠzemljiÅ¡te": 6806,
      "ĠDal": 6807,
      "ny": 6808,
      "obi": 6809,
      "Ġredovno": 6810,
      "ĠNjiho": 6811,
      "ĠsveÄįa": 6812,
      "his": 6813,
      "Ġdefinira": 6814,
      "ĠpomaÅ¾u": 6815,
      "ĠSun": 6816,
      "ence": 6817,
      "poru": 6818,
      "Ġnapad": 6819,
      "ĠJugoslavije": 6820,
      "ĠdrÅ¾avlja": 6821,
      "ida": 6822,
      "Ġnjegovi": 6823,
      "Ġuniver": 6824,
      "Ġare": 6825,
      "ANJA": 6826,
      "ĠmreÅ¾u": 6827,
      "Å¡tenja": 6828,
      "Ġstranka": 6829,
      "ĠDI": 6830,
      "ĠtreÄĩe": 6831,
      "del": 6832,
      "Ġotk": 6833,
      "ĠutvrÄĳuje": 6834,
      "67": 6835,
      "Ġstruj": 6836,
      "ljuje": 6837,
      "ĠFI": 6838,
      "Ġsmanjiti": 6839,
      "hno": 6840,
      "ĠDÅ¾": 6841,
      "Ġuskoro": 6842,
      "Ġknjigu": 6843,
      "Ġobrade": 6844,
      "ĠmeÄĳusobno": 6845,
      "voru": 6846,
      "Ġzasni": 6847,
      "bit": 6848,
      "kultu": 6849,
      "UR": 6850,
      "ĠPoli": 6851,
      "Äįnik": 6852,
      "rijskog": 6853,
      "ĠodreÄĳenim": 6854,
      "Au": 6855,
      "dy": 6856,
      "Ġtransforma": 6857,
      "Ġ43": 6858,
      "Tako": 6859,
      "Ġglas": 6860,
      "Å¾nom": 6861,
      "redu": 6862,
      "Ġdre": 6863,
      "lila": 6864,
      "2012": 6865,
      "Ġfilozofi": 6866,
      "Ġkomisija": 6867,
      "Å¡Äĩi": 6868,
      "ĠPostoji": 6869,
      "Ġnaslo": 6870,
      "fti": 6871,
      "Ġutjecaja": 6872,
      "Ġnastaviti": 6873,
      "Ġfrek": 6874,
      "klapa": 6875,
      "Ġkakve": 6876,
      "Ġrobe": 6877,
      "Ġautobu": 6878,
      "Ġnitko": 6879,
      "bice": 6880,
      "Ġdise": 6881,
      "Ġusvoji": 6882,
      "Ġzakoni": 6883,
      "Ġtehnika": 6884,
      "Ġprovi": 6885,
      "Ġpoznata": 6886,
      "Ġdjelovanja": 6887,
      "Ġnjegovoj": 6888,
      "Ġispa": 6889,
      "Ġrura": 6890,
      "Ġuvid": 6891,
      "kor": 6892,
      "ĠTada": 6893,
      "Ġmajka": 6894,
      "Ġkonkurent": 6895,
      "ĠtehniÄįke": 6896,
      "Ġprometa": 6897,
      "Ġtjele": 6898,
      "ĠKomisije": 6899,
      "Ġvisine": 6900,
      "Ġarhitektu": 6901,
      "ziste": 6902,
      "Ġdjeteta": 6903,
      "ĠVukova": 6904,
      "ograd": 6905,
      "Ġsrce": 6906,
      "ĠdjeÄį": 6907,
      "Ġlaga": 6908,
      "ĠkoÅ¡a": 6909,
      "bert": 6910,
      "Ã¦": 6911,
      "Ġideal": 6912,
      "ĠokruÅ¾enju": 6913,
      "ĠroÄĳen": 6914,
      "Ġpisme": 6915,
      "Ġmusli": 6916,
      "Ġkg": 6917,
      "viru": 6918,
      "Ġgri": 6919,
      "Ġturni": 6920,
      "Ġdelatnosti": 6921,
      "Ġoblast": 6922,
      "ĠZla": 6923,
      "ĠMislim": 6924,
      "Ġnedostatak": 6925,
      "Ġminera": 6926,
      "Ġ#": 6927,
      "Ġcijeli": 6928,
      "eli": 6929,
      "Ġute": 6930,
      "Ġpravilno": 6931,
      "toÄį": 6932,
      "noma": 6933,
      "Ġodsu": 6934,
      "vamo": 6935,
      "Ġsaradnji": 6936,
      "rko": 6937,
      "dilo": 6938,
      "Ġindustrije": 6939,
      "Ġ49": 6940,
      "Ġtehnike": 6941,
      "Ġfaktor": 6942,
      "mac": 6943,
      "68": 6944,
      "novo": 6945,
      "Raz": 6946,
      "ĠvaÅ¾na": 6947,
      "Ġ41": 6948,
      "ĠPotre": 6949,
      "Ġspolj": 6950,
      "Ġsor": 6951,
      "Ġsvibnja": 6952,
      "ĠVeÄĩina": 6953,
      "ĠDruÅ¡tva": 6954,
      "Ġprelazi": 6955,
      "znog": 6956,
      "Ġvolje": 6957,
      "Ġokvir": 6958,
      "Vo": 6959,
      "voja": 6960,
      "ĠveÅ¾ba": 6961,
      "ĠKomisija": 6962,
      "ÄĨE": 6963,
      "Ġrazum": 6964,
      "vot": 6965,
      "sad": 6966,
      "Ġskupina": 6967,
      "Ġekstra": 6968,
      "Ġventi": 6969,
      "ntni": 6970,
      "ĠViso": 6971,
      "lizira": 6972,
      "Ġgospoda": 6973,
      "Ġkarakteristika": 6974,
      "ranjem": 6975,
      "sse": 6976,
      "Ġkatastro": 6977,
      "ekom": 6978,
      "Ġukupne": 6979,
      "miti": 6980,
      "Ġigru": 6981,
      "Ġroditelj": 6982,
      "vljene": 6983,
      "Ġmarta": 6984,
      "Ġspada": 6985,
      "Ġrazmje": 6986,
      "wn": 6987,
      "Ġideo": 6988,
      "Å¡eni": 6989,
      "Ġdose": 6990,
      "Å¾uju": 6991,
      "ĠVje": 6992,
      "ĠSlavo": 6993,
      "Ġsmanjenja": 6994,
      "Ġdipl": 6995,
      "ĠBru": 6996,
      "Ġsrpskog": 6997,
      "Ġekonomski": 6998,
      "Ġustav": 6999,
      "Ġbiljaka": 7000,
      "leksi": 7001,
      "Ġvelja": 7002,
      "ĠodreÄĳeno": 7003,
      "Ġugosti": 7004,
      "laÅ¾u": 7005,
      "Ġvezu": 7006,
      "ĠmeÅ¡a": 7007,
      "Ġrezultatima": 7008,
      "Ġdoprinosi": 7009,
      "Ġeti": 7010,
      "vredu": 7011,
      "Ġmle": 7012,
      "Ġstanica": 7013,
      "ĠoÅ¡t": 7014,
      "Izvor": 7015,
      "KUP": 7016,
      "ĠAfri": 7017,
      "ĠbudÅ¾eta": 7018,
      "imna": 7019,
      "Ġprotu": 7020,
      "Ġnemo": 7021,
      "ĠskladiÅ¡te": 7022,
      "Ġglave": 7023,
      "Ġoptimi": 7024,
      "Ġpozor": 7025,
      "Ġmediji": 7026,
      "Ġpodzem": 7027,
      "ĠhriÅ¡Äĩa": 7028,
      "miji": 7029,
      "Ġpato": 7030,
      "liÄįno": 7031,
      "ĠstruÄįne": 7032,
      "part": 7033,
      "Ġmono": 7034,
      "jekom": 7035,
      "Ġuzrok": 7036,
      "Ġobro": 7037,
      "Ġosloba": 7038,
      "ĠgodiÅ¡nji": 7039,
      "Ġnagrade": 7040,
      "ĠZaÅ¡to": 7041,
      "Ġubrza": 7042,
      "vske": 7043,
      "teli": 7044,
      "Ġvina": 7045,
      "Ġstanice": 7046,
      "ĠKru": 7047,
      "Ġistorije": 7048,
      "Ġvod": 7049,
      "Ġvratiti": 7050,
      "gr": 7051,
      "Ġagencija": 7052,
      "ĠGodine": 7053,
      "Ġtur": 7054,
      "the": 7055,
      "KT": 7056,
      "ĠVin": 7057,
      "hn": 7058,
      "ĠBanja": 7059,
      "Ġzraka": 7060,
      "Ġpolicija": 7061,
      "Ġzapis": 7062,
      "ĠÄįlanom": 7063,
      "Äįnije": 7064,
      "Ġkoristite": 7065,
      "Ġ000": 7066,
      "NOSTI": 7067,
      "Ġvelikoj": 7068,
      "Ġkupu": 7069,
      "ĠmuÅ¡karaca": 7070,
      "Ġprirodi": 7071,
      "miÄĩ": 7072,
      "Ġpromovi": 7073,
      "Iako": 7074,
      "ĠMilan": 7075,
      "Ġdevet": 7076,
      "liÅ¡te": 7077,
      "Ġkojemu": 7078,
      "Ġrujna": 7079,
      "dimo": 7080,
      "Ġsvakodnevno": 7081,
      "ĠkoÅ¡ta": 7082,
      "nuj": 7083,
      "Ġac": 7084,
      "Ġoprema": 7085,
      "spa": 7086,
      "Ġose": 7087,
      "Ġdatum": 7088,
      "ĠProjek": 7089,
      "Ġostao": 7090,
      "Ġindika": 7091,
      "ĠDÅ¾e": 7092,
      "ĠzajedniÄįki": 7093,
      "Ġradove": 7094,
      "dia": 7095,
      "Ġ1999": 7096,
      "metni": 7097,
      "koviÄĩa": 7098,
      "Ġsprovede": 7099,
      "Ġaprila": 7100,
      "Å¡aj": 7101,
      "Å¡eno": 7102,
      "tivnost": 7103,
      "ĠÄĮo": 7104,
      "Ġkape": 7105,
      "ĠveÄĩinu": 7106,
      "ĠknjiÅ¾evnosti": 7107,
      "ncima": 7108,
      "biÄĩ": 7109,
      "SKE": 7110,
      "ĠÅ¡tetu": 7111,
      "Ġdovolj": 7112,
      "Ġraka": 7113,
      "Ġprojekte": 7114,
      "Ġdatu": 7115,
      "Ġstil": 7116,
      "Ġsuradnji": 7117,
      "La": 7118,
      "Ġvremenom": 7119,
      "Ġkonze": 7120,
      "komu": 7121,
      "Ġsvrhe": 7122,
      "Ġsuvreme": 7123,
      "Ġmasa": 7124,
      "Ġprilike": 7125,
      "ÄĬ": 7126,
      "lori": 7127,
      "Äİ": 7128,
      "Ġreakcije": 7129,
      "fal": 7130,
      "ĠznaÄįajne": 7131,
      "Ġrekli": 7132,
      "ĠvaÅ¾nost": 7133,
      "Ġdali": 7134,
      "Ġukupnog": 7135,
      "Ġvero": 7136,
      "Ġpravosu": 7137,
      "Ġulje": 7138,
      "Ġnazna": 7139,
      "ĠÅ¾rtve": 7140,
      "Ġobras": 7141,
      "Ġsprije": 7142,
      "Ġvoli": 7143,
      "laganju": 7144,
      "ĠZatim": 7145,
      "Ġdvostru": 7146,
      "Ġpreosta": 7147,
      "tehni": 7148,
      "Ġprojekti": 7149,
      "92": 7150,
      "Ġliste": 7151,
      "Ġekipa": 7152,
      "pisuju": 7153,
      "plji": 7154,
      "ĠEvo": 7155,
      "Ġinteres": 7156,
      "ĠCh": 7157,
      "Ġonim": 7158,
      "Ġfaza": 7159,
      "Ġaplikacije": 7160,
      "ĠizvrÅ¡": 7161,
      "sloven": 7162,
      "Ġrecep": 7163,
      "Ġglaso": 7164,
      "ĠpoveÄĩanja": 7165,
      "Ġdokumenata": 7166,
      "ĠpredlaÅ¾e": 7167,
      "ĠbrÅ¾e": 7168,
      "ĠdrÅ¾avnih": 7169,
      "Ġukaza": 7170,
      "Ġpotreban": 7171,
      "Ġnacionalnih": 7172,
      "ĠVaraÅ¾": 7173,
      "Ġseptembra": 7174,
      "ĠsluÅ¾ba": 7175,
      "bde": 7176,
      "rijom": 7177,
      "Ġefekat": 7178,
      "Ġpogotovo": 7179,
      "Ġbolesnika": 7180,
      "Ġoktobra": 7181,
      "Ġljudska": 7182,
      "Ġsituacijama": 7183,
      "KS": 7184,
      "Ġdato": 7185,
      "ĠÅ¡kolske": 7186,
      "Ġdeci": 7187,
      "Ro": 7188,
      "roda": 7189,
      "Ġuvjeta": 7190,
      "Ġdomo": 7191,
      "Ġpremijer": 7192,
      "rami": 7193,
      "ĠpoÅ¡tu": 7194,
      "Å¡nim": 7195,
      "Ġdrago": 7196,
      "Ġumjetnosti": 7197,
      "Ġstara": 7198,
      "Ġvec": 7199,
      "Ġprepre": 7200,
      "ĠOS": 7201,
      "Ġsocio": 7202,
      "ĠBoÅ¡": 7203,
      "Å¾nice": 7204,
      "Ġosobito": 7205,
      "Ġzad": 7206,
      "sity": 7207,
      "slov": 7208,
      "ĠÅ¾elimo": 7209,
      "Ġmozga": 7210,
      "ĠdonoÅ¡enje": 7211,
      "ĠpostojeÄĩih": 7212,
      "Ġtren": 7213,
      "ĠizveÅ¡ta": 7214,
      "Å¡tene": 7215,
      "sila": 7216,
      "ĠrijeÄįima": 7217,
      "Ġzastupa": 7218,
      "].": 7219,
      "ĠBor": 7220,
      "Ġfrom": 7221,
      "Ġpetak": 7222,
      "ĠMnogi": 7223,
      "Ġhemij": 7224,
      "Ġflu": 7225,
      "ĠodrÅ¾ati": 7226,
      "Ġulici": 7227,
      "ĠpoÄįeli": 7228,
      "BiH": 7229,
      "Ġsektoru": 7230,
      "ĠSI": 7231,
      "nts": 7232,
      "sednik": 7233,
      "ĠGre": 7234,
      "2011": 7235,
      "ĠRezultati": 7236,
      "Ġpoh": 7237,
      "ĠIzvje": 7238,
      "Ġprekida": 7239,
      "ĠoÅ¾ujka": 7240,
      "Ġsupsta": 7241,
      "Äĳenjem": 7242,
      "Ġdizajn": 7243,
      "Ġproblemati": 7244,
      "ĠWil": 7245,
      "Ġsmr": 7246,
      "Ġposeban": 7247,
      "vate": 7248,
      "ĠAustra": 7249,
      "ĠPlana": 7250,
      "Ġkorisnici": 7251,
      "Ġhiljada": 7252,
      "Ġodgovori": 7253,
      "grafija": 7254,
      "Ġdecembra": 7255,
      "Ġmir": 7256,
      "Ġradnje": 7257,
      "Ġizazvati": 7258,
      "licu": 7259,
      "Ġnei": 7260,
      "ĠOs": 7261,
      "Ġsever": 7262,
      "kala": 7263,
      "Ġintelektual": 7264,
      "Ġvisini": 7265,
      "Ġmjesec": 7266,
      "Ġopis": 7267,
      "muli": 7268,
      "ĠAutor": 7269,
      "Ġkorisnik": 7270,
      "Ġlicu": 7271,
      "ĠSrba": 7272,
      "fikaciju": 7273,
      "Ġnajma": 7274,
      "Ġopremlje": 7275,
      "ljima": 7276,
      "ĠVije": 7277,
      "ĠNad": 7278,
      "ĠKor": 7279,
      "Ġvezane": 7280,
      "pskom": 7281,
      "Ġpopular": 7282,
      "Ġanaliti": 7283,
      "Ġstrategija": 7284,
      "Ã±": 7285,
      "ĠDobro": 7286,
      "Ġoslanja": 7287,
      "ĠvaÅ¡em": 7288,
      "prijed": 7289,
      "ĠMaÄĳa": 7290,
      "Ġmalim": 7291,
      "Ġsinte": 7292,
      "Ġpol": 7293,
      "Ġproblemima": 7294,
      "ĠKoliko": 7295,
      "tero": 7296,
      "ĠOrganiza": 7297,
      "ĠCI": 7298,
      "Ġnjenog": 7299,
      "ĠBre": 7300,
      "Ġstope": 7301,
      "ĠVijeÄĩa": 7302,
      "stavljen": 7303,
      "jA": 7304,
      "ĠSti": 7305,
      "Ġrezo": 7306,
      "Ġgeneracije": 7307,
      "pskim": 7308,
      "Ġadresu": 7309,
      "mine": 7310,
      "52": 7311,
      "nuje": 7312,
      "Ġoperacije": 7313,
      "vjed": 7314,
      "Ġglavne": 7315,
      "Ġsvoga": 7316,
      "tam": 7317,
      "Ġnagrada": 7318,
      "ĠEvropi": 7319,
      "Ġvama": 7320,
      "87": 7321,
      "ova": 7322,
      "Ġlistopada": 7323,
      "ĠÄįvrsto": 7324,
      "ĠDana": 7325,
      "znaÄįaj": 7326,
      "Ġtable": 7327,
      "Ġuslo": 7328,
      "ĠvaÅ¡a": 7329,
      "ĠnuÅ¾no": 7330,
      "ĠpovrÅ¡ini": 7331,
      "Ġ120": 7332,
      "Ġprihvata": 7333,
      "Ġvalu": 7334,
      "Ġizborima": 7335,
      "Ġborbu": 7336,
      "ĠstruÄįni": 7337,
      "Ġulice": 7338,
      "rira": 7339,
      "ĠAust": 7340,
      "Ġgol": 7341,
      "Ġpripadaju": 7342,
      "Ġfonda": 7343,
      "Ġteren": 7344,
      "Ġomi": 7345,
      "Ġpovezane": 7346,
      "tenti": 7347,
      "Ġkrize": 7348,
      "Ġizlazi": 7349,
      "Ġkancela": 7350,
      "Ġvike": 7351,
      "plom": 7352,
      "Ġnose": 7353,
      "ĠkoliÄįinu": 7354,
      "Ġsugla": 7355,
      "Ġkvalitetu": 7356,
      "Ġ)": 7357,
      "Ġder": 7358,
      "Ġkoeficije": 7359,
      "Ġtrgovine": 7360,
      "ĠPoÄįe": 7361,
      "Ġsrpski": 7362,
      "ĠproraÄįu": 7363,
      "Ġodusta": 7364,
      "Ġsina": 7365,
      "Ġradnom": 7366,
      "Ġzase": 7367,
      "ĠSvjet": 7368,
      "Ġusli": 7369,
      "ĠutvrÄĳeno": 7370,
      "DO": 7371,
      "Ġopcija": 7372,
      "Ġiskori": 7373,
      "89": 7374,
      "Ġdelova": 7375,
      "java": 7376,
      "ĠPA": 7377,
      "Ġama": 7378,
      "ĠMate": 7379,
      "Ġprotek": 7380,
      "ĠodluÄįio": 7381,
      "ĠFacebo": 7382,
      "Ġdestina": 7383,
      "Ġtransport": 7384,
      "ĠveÄĩini": 7385,
      "Ġdokazi": 7386,
      "site": 7387,
      "Ġplaniranje": 7388,
      "IZ": 7389,
      "Ġlokacije": 7390,
      "ROJ": 7391,
      "Ġjavnu": 7392,
      "Ġosnovni": 7393,
      "ĠÄįlanovima": 7394,
      "Ġreprodu": 7395,
      "leti": 7396,
      "Ġemocional": 7397,
      "Ġsamostalno": 7398,
      "Ġudar": 7399,
      "Ġspolja": 7400,
      "Ġpojava": 7401,
      "Du": 7402,
      "torom": 7403,
      "Ġmorao": 7404,
      "Ġznate": 7405,
      "ĠZajed": 7406,
      "ĠraÄįunovod": 7407,
      "Ġobuhva": 7408,
      "Ġpokret": 7409,
      "ĠkreÄĩe": 7410,
      "Ġuprava": 7411,
      "ĠVas": 7412,
      "Ġsprovodi": 7413,
      "zmi": 7414,
      "ĠCentar": 7415,
      "Ġpotencijal": 7416,
      "mon": 7417,
      "Ġkontrola": 7418,
      "cno": 7419,
      "64": 7420,
      "ĠpostojeÄĩe": 7421,
      "ĠznaÄįenje": 7422,
      "ĠUpravo": 7423,
      "Ġsredstvo": 7424,
      "ĠoslobaÄĳa": 7425,
      "Ġspor": 7426,
      "Ġciljeve": 7427,
      "Ġmorati": 7428,
      "Ġposlovanje": 7429,
      "ov": 7430,
      "Ġtakvim": 7431,
      "ĠÅ¾elim": 7432,
      "ĠmeÄĳusob": 7433,
      "wer": 7434,
      "lis": 7435,
      "Ġprijatelja": 7436,
      "Ġneobi": 7437,
      "Ġznao": 7438,
      "Ġ95": 7439,
      "Ġizgled": 7440,
      "Ġboji": 7441,
      "Ġtkiva": 7442,
      "Ġrobo": 7443,
      "Ġï": 7444,
      "Ġjavnoj": 7445,
      "Ġ1991": 7446,
      "kinja": 7447,
      "Ġkompozi": 7448,
      "gt": 7449,
      "Ġjula": 7450,
      "Ġposlednje": 7451,
      "ĠsijeÄįnja": 7452,
      "mski": 7453,
      "Ġsmjer": 7454,
      "Ġgrupu": 7455,
      "ĠleÄįenje": 7456,
      "stavljena": 7457,
      "Ġravnote": 7458,
      "Ġstrada": 7459,
      "Ġneto": 7460,
      "Ġsastavu": 7461,
      "ĠÄįisto": 7462,
      "mato": 7463,
      "Ġevo": 7464,
      "Ġsporazuma": 7465,
      "tal": 7466,
      "laciju": 7467,
      "bera": 7468,
      "logy": 7469,
      "Ġmag": 7470,
      "ĠAuto": 7471,
      "Ġsudu": 7472,
      "ĠGori": 7473,
      "Ġobveze": 7474,
      "nis": 7475,
      "Ġaplikacija": 7476,
      "JED": 7477,
      "ĠOr": 7478,
      "Å¡lo": 7479,
      "ĠpotroÅ¡aÄįa": 7480,
      "con": 7481,
      "Ġmiro": 7482,
      "Ġpovrede": 7483,
      "vilo": 7484,
      "king": 7485,
      "Ġskupa": 7486,
      "ĠdomaÄĩin": 7487,
      "Ġdogodilo": 7488,
      "ĠstruÄįnjaka": 7489,
      "one": 7490,
      "Ġopisuje": 7491,
      "Ġonog": 7492,
      "Ġbrzine": 7493,
      "Ġdijabe": 7494,
      "Ġeta": 7495,
      "Å¡njo": 7496,
      "Ġavi": 7497,
      "kati": 7498,
      "ĠSever": 7499,
      "noÅ¡Äĩu": 7500,
      "ĠkuÄĩu": 7501,
      "Ġpodrazumije": 7502,
      "Ġzauze": 7503,
      "Ġarti": 7504,
      "Ġgovora": 7505,
      "Ġmodi": 7506,
      "Ġpravom": 7507,
      "Ġdobru": 7508,
      "Ġzahvata": 7509,
      "ĠuÄįio": 7510,
      "ĠPlan": 7511,
      "ĠizvjeÅ¡taj": 7512,
      "Ġkal": 7513,
      "Ġsrpnja": 7514,
      "rata": 7515,
      "ĠHrva": 7516,
      "Ġnavedeni": 7517,
      "Ġaktu": 7518,
      "Ġobavezno": 7519,
      "Äįij": 7520,
      "Ġistim": 7521,
      "ĠKana": 7522,
      "Ġsustavu": 7523,
      "Ġliko": 7524,
      "Ġkulturne": 7525,
      "ĠEvropske": 7526,
      "Ġsredini": 7527,
      "timo": 7528,
      "Ġvanred": 7529,
      "ĠDan": 7530,
      "ĠutiÄįu": 7531,
      "lizma": 7532,
      "ÃŃ": 7533,
      "viju": 7534,
      "Ġmlado": 7535,
      "fere": 7536,
      "Ġglavnih": 7537,
      "Ġkredita": 7538,
      "Ġuzrokova": 7539,
      "ĠNATO": 7540,
      "LAN": 7541,
      "ĠteÅ¾e": 7542,
      "ĠInterna": 7543,
      "ĠTuz": 7544,
      "ĠstruÄįnog": 7545,
      "Ġprido": 7546,
      "Ġglavnog": 7547,
      "ĠPI": 7548,
      "her": 7549,
      "Ġfudba": 7550,
      "ĠObi": 7551,
      "grafij": 7552,
      "ĠureÄĳenje": 7553,
      "ĠmenadÅ¾e": 7554,
      "Ġpraksa": 7555,
      "ĠobuhvaÄĩa": 7556,
      "priÄįa": 7557,
      "ZO": 7558,
      "Ġvlasnik": 7559,
      "ĠsluÄįaja": 7560,
      "Ġobj": 7561,
      "Ġport": 7562,
      "gradnja": 7563,
      "Tu": 7564,
      "Ġemisije": 7565,
      "reta": 7566,
      "Ġproizvodnja": 7567,
      "Ġtor": 7568,
      "Ġvojske": 7569,
      "Ġagencije": 7570,
      "Ġuput": 7571,
      "metri": 7572,
      "Å¡ati": 7573,
      "Ġpojam": 7574,
      "Ġpusti": 7575,
      "Ġstakle": 7576,
      "Ġmodeli": 7577,
      "ĠAm": 7578,
      "Ġrazine": 7579,
      "ĠNju": 7580,
      "tskom": 7581,
      "ĠTele": 7582,
      "ĠsveuÄįili": 7583,
      "Ġdrve": 7584,
      "up": 7585,
      "voljan": 7586,
      "tus": 7587,
      "Ġsubotu": 7588,
      "Ġpismo": 7589,
      "ĠreÄįeno": 7590,
      "Ġrukama": 7591,
      "Ġzadataka": 7592,
      "Ġ1990": 7593,
      "Ġnikako": 7594,
      "Ġslobodu": 7595,
      "tici": 7596,
      "ĠAnto": 7597,
      "Ġrazgovor": 7598,
      "Ġane": 7599,
      "Ġtelefona": 7600,
      "DS": 7601,
      "Ġsp": 7602,
      "dinu": 7603,
      "Ġprethodne": 7604,
      "ĠsuÅ¡ti": 7605,
      "tivnosti": 7606,
      "ĠNovog": 7607,
      "godiÅ¡nje": 7608,
      "Ġstepen": 7609,
      "Ġopora": 7610,
      "Ġnamir": 7611,
      "Ġglavu": 7612,
      "Ġporuka": 7613,
      "ĠPostoje": 7614,
      "tovima": 7615,
      "Ġ51": 7616,
      "Ġnajboljih": 7617,
      "ĠosjeÄĩaj": 7618,
      "ĠWa": 7619,
      "Ġtjedna": 7620,
      "Å£i": 7621,
      "Ġdiploma": 7622,
      "cation": 7623,
      "politi": 7624,
      "ĠSveuÄįiliÅ¡ta": 7625,
      "57": 7626,
      "2022": 7627,
      "ĠNu": 7628,
      "nisa": 7629,
      "sjeda": 7630,
      "ĠveÄĩim": 7631,
      "Ġ56": 7632,
      "loÅ¾enje": 7633,
      "Ġnuklear": 7634,
      "Ġposjeti": 7635,
      "des": 7636,
      "stero": 7637,
      "Ġobjekti": 7638,
      "Ġglago": 7639,
      "valua": 7640,
      "Ġmasti": 7641,
      "Ġupotreba": 7642,
      "Ġmetodo": 7643,
      "riÅ¡u": 7644,
      "ĠomoguÄĩuje": 7645,
      "Ġbrita": 7646,
      "mm": 7647,
      "ĠVeÄĩ": 7648,
      "Sva": 7649,
      "ĠveÅ¡tine": 7650,
      "tinu": 7651,
      "ĠmeÄĳunarodne": 7652,
      "Ġspra": 7653,
      "ĠIndi": 7654,
      "ĠsledeÄĩi": 7655,
      "ĠuÄįini": 7656,
      "ĠMuze": 7657,
      "Ġmuzej": 7658,
      "rskoj": 7659,
      "obu": 7660,
      "Ġtende": 7661,
      "mili": 7662,
      "Ġtelefo": 7663,
      "Ġjavljaju": 7664,
      "Ġdej": 7665,
      "dovolj": 7666,
      "Ġmg": 7667,
      "ĠgraÄĳanima": 7668,
      "ĠuspjeÅ¡no": 7669,
      "ogle": 7670,
      "Ġhoda": 7671,
      "sada": 7672,
      "jete": 7673,
      "Ġ\\(": 7674,
      "Ġklase": 7675,
      "Le": 7676,
      "Ġtretman": 7677,
      "Ġpritiska": 7678,
      "Ġpoljoprivrede": 7679,
      "Ġsile": 7680,
      "Ġcesta": 7681,
      "gio": 7682,
      "2010": 7683,
      "goj": 7684,
      "Ġuvjeti": 7685,
      "Ġpratiti": 7686,
      "Ġapara": 7687,
      "Ġpomogne": 7688,
      "Ġnavedenog": 7689,
      ".;": 7690,
      "Ġ57": 7691,
      "ĠdrÅ¾avni": 7692,
      "ĠodreÄĳena": 7693,
      "sek": 7694,
      "Ġogleda": 7695,
      "Ġrealizacije": 7696,
      "Ġodrediti": 7697,
      "ĠKine": 7698,
      "lena": 7699,
      "Ġkoncept": 7700,
      "Ġimi": 7701,
      "Äįine": 7702,
      "Ġada": 7703,
      "Ġdozvole": 7704,
      "ĠÄįlanu": 7705,
      "lera": 7706,
      "Ġukazuju": 7707,
      "ĠAleksandar": 7708,
      "Ġostvariti": 7709,
      "Ġzauzima": 7710,
      "Ġutakmica": 7711,
      "njavanje": 7712,
      "Ġpovezana": 7713,
      "ĠVer": 7714,
      "Ġoptima": 7715,
      "Ġpredavanja": 7716,
      "Äįilac": 7717,
      "Ġpobu": 7718,
      "Ġpraz": 7719,
      "56": 7720,
      "ĠÄįlanice": 7721,
      "Ġpartij": 7722,
      "ĠKata": 7723,
      "dela": 7724,
      "Ġ52": 7725,
      "Ġtranzi": 7726,
      "Ġrazumevanje": 7727,
      "Ġnapi": 7728,
      "njivanje": 7729,
      "Ġglavna": 7730,
      "Äįeki": 7731,
      "ĠstruÄįnih": 7732,
      "Ġosobu": 7733,
      "ĠseÄĩa": 7734,
      "ĠkaÅ¾em": 7735,
      "Ġpostojanje": 7736,
      "ĠSluÅ¾be": 7737,
      "Ġevolu": 7738,
      "ĠmoÅ¾eÅ¡": 7739,
      "zde": 7740,
      "duju": 7741,
      "Ġljudske": 7742,
      "ĠoÄįekivati": 7743,
      "Ġpredlog": 7744,
      "Ġudruge": 7745,
      "Ġporuke": 7746,
      "tovanja": 7747,
      "ĠGro": 7748,
      "Ġposred": 7749,
      "ĠJako": 7750,
      "Ġosnovna": 7751,
      "Ġnez": 7752,
      "ĠodrÅ¾ana": 7753,
      "Ġzanema": 7754,
      "Ġosvr": 7755,
      "Ġpartnera": 7756,
      "ÄĨI": 7757,
      "ĠBj": 7758,
      "Ġsedi": 7759,
      "ĠpoÄįne": 7760,
      "Ġnijed": 7761,
      "cijskom": 7762,
      "tnje": 7763,
      "Ġpovezani": 7764,
      "Ġsvojstva": 7765,
      "Ġizboru": 7766,
      "beli": 7767,
      "ĠInforma": 7768,
      "Ġniste": 7769,
      "ĠPore": 7770,
      "ĠJele": 7771,
      "Ġ68": 7772,
      "ĠdrÅ¾avnog": 7773,
      "ĠtoÄįke": 7774,
      "lus": 7775,
      "Ġeksperimenta": 7776,
      "ljko": 7777,
      "Ġosposob": 7778,
      "rskih": 7779,
      "DU": 7780,
      "uka": 7781,
      "ĠpodrÅ¡ka": 7782,
      "stavljanja": 7783,
      "Ġpad": 7784,
      "Ġtvrde": 7785,
      "ĠpostiÄĩi": 7786,
      "Ġradnici": 7787,
      "Ġdokumentaciju": 7788,
      "tao": 7789,
      "'.": 7790,
      "Ġemisija": 7791,
      "ĠpredÅ¡kol": 7792,
      "Ġhipote": 7793,
      "lnikom": 7794,
      "ĠMiro": 7795,
      "Ġpostav": 7796,
      "ĠudÅ¾be": 7797,
      "*.": 7798,
      "Ġsho": 7799,
      "Ġsaradnju": 7800,
      "Ġreke": 7801,
      "ĠÅ¾elja": 7802,
      "ĠpÄįe": 7803,
      "ĠEl": 7804,
      "ĠJedno": 7805,
      "Ġstana": 7806,
      "ĠBE": 7807,
      "ĠaÅ¾u": 7808,
      "Äįioca": 7809,
      "Ġzdravstvenih": 7810,
      "Ġprijem": 7811,
      "Ġodnosima": 7812,
      "ĠznaÄįajna": 7813,
      "ĠVam": 7814,
      "Ġsastavni": 7815,
      "ĠDina": 7816,
      "Ġdivi": 7817,
      "skup": 7818,
      "ĠÄįeÅ¡Äĩe": 7819,
      "Ġdokument": 7820,
      "58": 7821,
      "rajte": 7822,
      "Ġnadzora": 7823,
      "ĠzakljuÄįiti": 7824,
      "Ġvoditi": 7825,
      "tsku": 7826,
      "ĠBel": 7827,
      "Ġvisokog": 7828,
      "ĠdomaÄĩe": 7829,
      "ĠmenadÅ¾": 7830,
      "Å¡anje": 7831,
      "ĠizvrÅ¡iti": 7832,
      "ĠBuduÄĩi": 7833,
      "Ġjanuara": 7834,
      "Ġnepravi": 7835,
      "Ġkorek": 7836,
      "pozi": 7837,
      "Ġdonose": 7838,
      "Ġroditeljima": 7839,
      "Ġtrenutak": 7840,
      "Ġ1995": 7841,
      "Ġlegi": 7842,
      "Ġistina": 7843,
      "Äįana": 7844,
      "spje": 7845,
      "vit": 7846,
      "zina": 7847,
      "Ġtvari": 7848,
      "Ġbubre": 7849,
      "lski": 7850,
      "rit": 7851,
      "dÅ¾a": 7852,
      "Ġmagi": 7853,
      "ĠodgovarajuÄĩi": 7854,
      "Ġnavodno": 7855,
      "ĠÄįlanove": 7856,
      "BC": 7857,
      "Ġsredinu": 7858,
      "Ġnjihovoj": 7859,
      "Ġ64": 7860,
      "Ġkoali": 7861,
      "vici": 7862,
      "Ġradili": 7863,
      "ĠduÅ¡e": 7864,
      "ksida": 7865,
      "Ġostvaruje": 7866,
      "Ġteritorija": 7867,
      "Ġdijelom": 7868,
      "ĠveÄĩinom": 7869,
      "Ġaler": 7870,
      "ĠsliÄįne": 7871,
      "ljana": 7872,
      "ĠME": 7873,
      "Ġkanala": 7874,
      "ĠzapoÅ¡ljavanje": 7875,
      "ĠPari": 7876,
      "Ġduboko": 7877,
      "Ġsukoba": 7878,
      "Ġprimjene": 7879,
      "vodu": 7880,
      "Ġpozdra": 7881,
      "ĠSave": 7882,
      "tati": 7883,
      "Ali": 7884,
      "Ġnagra": 7885,
      "Ġnapredak": 7886,
      "Ġstvaranja": 7887,
      "Ġmajke": 7888,
      "talj": 7889,
      "Ġfarma": 7890,
      "kasnije": 7891,
      "Ġministra": 7892,
      "ĠTran": 7893,
      "ĠDar": 7894,
      "Ġimalo": 7895,
      "ĠpovrÅ¡inu": 7896,
      "Ġsila": 7897,
      "ĠHercegovini": 7898,
      "Ġoca": 7899,
      "Ġopasnost": 7900,
      "Ġpolje": 7901,
      "Ġsavet": 7902,
      "Se": 7903,
      "Å¾om": 7904,
      "Ġpropu": 7905,
      "Ġotpadom": 7906,
      "ĠZaklju": 7907,
      "Ġubla": 7908,
      "Ġshvata": 7909,
      "use": 7910,
      "Ġizvu": 7911,
      "ĠMari": 7912,
      "Ġpravosla": 7913,
      "93": 7914,
      "Ġpravcu": 7915,
      "ĠizloÅ¾be": 7916,
      "Ġizgradnja": 7917,
      "Ġinci": 7918,
      "reo": 7919,
      "Ġutvrditi": 7920,
      "ĠpoveÄĩati": 7921,
      "stor": 7922,
      "SU": 7923,
      "gena": 7924,
      "Ġuloge": 7925,
      "Ġperi": 7926,
      "Ġuse": 7927,
      "Ġ1998": 7928,
      "Ġsemina": 7929,
      "Ġproizvede": 7930,
      "Ġtreti": 7931,
      "Ġspremni": 7932,
      "ĠPU": 7933,
      "hen": 7934,
      "Ġkomunalne": 7935,
      "Ġkilometara": 7936,
      "Ġdobit": 7937,
      "minira": 7938,
      "ĠproizvoÄĳa": 7939,
      "Ġkale": 7940,
      "njenih": 7941,
      "koji": 7942,
      "Ġpovolj": 7943,
      "ĠUpravnog": 7944,
      "Ġprovedbe": 7945,
      "Ġ54": 7946,
      "Ġorgan": 7947,
      "Ġinozem": 7948,
      "Ġozbiljno": 7949,
      "ĠOne": 7950,
      "Ġrealizaciju": 7951,
      "Ġzglo": 7952,
      "Ġproizvodnji": 7953,
      "Ġkonsu": 7954,
      "Ġpala": 7955,
      "ther": 7956,
      "Ġvisokim": 7957,
      "ĠudruÅ¾enja": 7958,
      "cial": 7959,
      "sniku": 7960,
      "Ġkoncentracije": 7961,
      "ĠBogu": 7962,
      "Ġregistro": 7963,
      "Ġbolni": 7964,
      "blo": 7965,
      "Ġeste": 7966,
      "Pod": 7967,
      "OVO": 7968,
      "ĠHrvatskog": 7969,
      "Ġprocije": 7970,
      "ms": 7971,
      "ĠVelika": 7972,
      "Ġposlednjih": 7973,
      "tinj": 7974,
      "Ġcre": 7975,
      "2009": 7976,
      "Ġprirodne": 7977,
      "Ġsiguran": 7978,
      "TV": 7979,
      "Ġpoduzetni": 7980,
      "Ġproteina": 7981,
      "Ġpozicije": 7982,
      "Ġosigurava": 7983,
      "torije": 7984,
      "Ġizu": 7985,
      "Ġtoksi": 7986,
      "Ġatra": 7987,
      "ffe": 7988,
      "Ġidentiteta": 7989,
      "NN": 7990,
      "ĠÅłu": 7991,
      "Ġtrener": 7992,
      "niÄįkih": 7993,
      "peri": 7994,
      "stim": 7995,
      "Ġobavljaju": 7996,
      "renu": 7997,
      "sijek": 7998,
      "ĠOpÅ¡ti": 7999,
      "Ġuju": 8000,
      "Åłto": 8001,
      "Ġ<": 8002,
      "Ġparale": 8003,
      "Ġizgradnji": 8004,
      "Ġsprovo": 8005,
      "Ġgovorio": 8006,
      "Ġnovembra": 8007,
      "Ġizvanred": 8008,
      "Ġodraslih": 8009,
      "ĠporeÄĳenju": 8010,
      "TIV": 8011,
      "Ġsjaj": 8012,
      "Ġdijagno": 8013,
      "Ġvru": 8014,
      "Å¡aka": 8015,
      "Ġekra": 8016,
      "ljava": 8017,
      "ĠNapo": 8018,
      "que": 8019,
      "Ġstup": 8020,
      "ĠuÅ¡te": 8021,
      "Ġdetek": 8022,
      "Ġposlovni": 8023,
      "Ġnat": 8024,
      "ley": 8025,
      "Ġhidra": 8026,
      "juÄĩe": 8027,
      "Ġuzora": 8028,
      "rci": 8029,
      "63": 8030,
      "Äĩete": 8031,
      "Gla": 8032,
      "telju": 8033,
      "Ġostane": 8034,
      "Ġmedicine": 8035,
      "ĠSDP": 8036,
      "Ġjedni": 8037,
      "ĠteÅ¾ine": 8038,
      "kne": 8039,
      "Ġsaradnje": 8040,
      "ĠprihvaÄĩa": 8041,
      "Ġpokazalo": 8042,
      "Ġbrojnim": 8043,
      "Ġdostaviti": 8044,
      "Ġprigo": 8045,
      "vajanja": 8046,
      "njama": 8047,
      "vnici": 8048,
      "91": 8049,
      "Ġnjena": 8050,
      "strem": 8051,
      "Ġfabri": 8052,
      "zovane": 8053,
      "Ġgubitka": 8054,
      "Ġposljednje": 8055,
      "Ġnesto": 8056,
      "pati": 8057,
      "Ġrazmo": 8058,
      "ncu": 8059,
      "mpu": 8060,
      "Ġrazlikuju": 8061,
      "Ġskre": 8062,
      "Ġnagradu": 8063,
      "ĠsjeÄĩa": 8064,
      "Ġprehra": 8065,
      "meti": 8066,
      "Ġarheo": 8067,
      "Ġradna": 8068,
      "eviÄĩ": 8069,
      "ĠJan": 8070,
      "Ġ~": 8071,
      "Ġteorije": 8072,
      "ĠprilagoÄĳa": 8073,
      "ĠstatistiÄįki": 8074,
      "vec": 8075,
      "nulo": 8076,
      "Ġdobara": 8077,
      "Ġnoge": 8078,
      "94": 8079,
      "pima": 8080,
      "Ġ\",": 8081,
      "Ġkakva": 8082,
      "Ġzlou": 8083,
      "ĠUjedinje": 8084,
      "ĠSarajevu": 8085,
      "ĠizvjeÅ¡ta": 8086,
      "Ġ1992": 8087,
      "ĠleÅ¾i": 8088,
      "ĠoznaÄįava": 8089,
      "Ġfri": 8090,
      "Ġvirusa": 8091,
      "Ġmotivi": 8092,
      "Ġmisle": 8093,
      "ĠplaÄĩe": 8094,
      "ham": 8095,
      "Ġbakte": 8096,
      "Ġfakultetu": 8097,
      "Ġarhitek": 8098,
      "Ġjedina": 8099,
      "ĠuÄįesta": 8100,
      "mane": 8101,
      "rediti": 8102,
      "tala": 8103,
      "Ġnastavak": 8104,
      "ĠÄįinjenicu": 8105,
      "Ġkategorija": 8106,
      "nicom": 8107,
      "ĠUsta": 8108,
      "Ġevidenti": 8109,
      "ĠPrva": 8110,
      "renju": 8111,
      "ĠPRED": 8112,
      "Äĩama": 8113,
      "ĠMakedo": 8114,
      "maj": 8115,
      "Ġkoman": 8116,
      "Ġpredo": 8117,
      "Ġtona": 8118,
      "Ġoset": 8119,
      "nomi": 8120,
      "Jo": 8121,
      "Ġtemi": 8122,
      "Ã³": 8123,
      "vajte": 8124,
      "ĠoduÅ¡e": 8125,
      "Ġpreze": 8126,
      "Ġinfekcije": 8127,
      "ĠFra": 8128,
      "Ġpomaga": 8129,
      "Ġkomunikacija": 8130,
      "Ġelementi": 8131,
      "Ġvese": 8132,
      "Ġopada": 8133,
      "Ġdes": 8134,
      "ĠProce": 8135,
      "RÅ½": 8136,
      "Ġmanja": 8137,
      "Ġnapravio": 8138,
      "ĠokoliÅ¡": 8139,
      "Ġposljednjih": 8140,
      "Ġstj": 8141,
      "ĠmreÅ¾i": 8142,
      "ĠiÄĩi": 8143,
      "kin": 8144,
      "Ġdimenzija": 8145,
      "Ġopi": 8146,
      "Ġodbrane": 8147,
      "Ġgovoriti": 8148,
      "Ġjede": 8149,
      "MU": 8150,
      "ĠSrbiju": 8151,
      "Ġtebe": 8152,
      "tsko": 8153,
      "zar": 8154,
      "godiÅ¡njeg": 8155,
      "ĠzavrÅ¡io": 8156,
      "mskog": 8157,
      "Ġnaknadu": 8158,
      "Ġuzo": 8159,
      "Ġela": 8160,
      "ĠSv": 8161,
      "Ġnogomet": 8162,
      "Ġveb": 8163,
      "bacu": 8164,
      "Ġmanasti": 8165,
      "Ġprijatelji": 8166,
      "Ġpjeva": 8167,
      "ĠnajveÄĩa": 8168,
      "Ġistoriji": 8169,
      "ĠdrÅ¾avama": 8170,
      "Ġkomunici": 8171,
      "Ġonako": 8172,
      "ĠmeÄĳunarodnim": 8173,
      "Ġstri": 8174,
      "GE": 8175,
      "mskih": 8176,
      "arch": 8177,
      "ĠmreÅ¾ama": 8178,
      "ĠistiÄįu": 8179,
      "Ġkulturno": 8180,
      "dora": 8181,
      "liÄĩa": 8182,
      "Ġpovezanost": 8183,
      "Ġdiserta": 8184,
      "Ġsamopo": 8185,
      "Ima": 8186,
      "kciji": 8187,
      "wit": 8188,
      "znost": 8189,
      "Å¾ak": 8190,
      "Ġmotora": 8191,
      "Ġudruga": 8192,
      "gaja": 8193,
      "Ġnaslov": 8194,
      "Ġzvije": 8195,
      "slij": 8196,
      "Ġpravnih": 8197,
      "ĠpotiÄįe": 8198,
      "ĠMon": 8199,
      "Ġnespo": 8200,
      "Ġiko": 8201,
      "Ġlogo": 8202,
      "Ġpolaz": 8203,
      "MP": 8204,
      "ÄįiÅ¡Äĩe": 8205,
      "igra": 8206,
      "ĠfiziÄįke": 8207,
      "Ġradionice": 8208,
      "Ġpostaviti": 8209,
      "ĠpoteÅ¡ko": 8210,
      "Ġumu": 8211,
      "MEN": 8212,
      "Ġenergija": 8213,
      "vnice": 8214,
      "ĠMoÅ¾ete": 8215,
      "ĠPonu": 8216,
      "Ġmorali": 8217,
      "ĠCu": 8218,
      "Ġprikup": 8219,
      "Ġdvoji": 8220,
      "Ġrasprave": 8221,
      "ĠnajveÄĩe": 8222,
      "51": 8223,
      "Ġcrkva": 8224,
      "Ġstruje": 8225,
      "Ġobje": 8226,
      "ON": 8227,
      "loÅ¡ku": 8228,
      "Ġobjekat": 8229,
      "Å¾nu": 8230,
      "Ġhomo": 8231,
      "Ġrazdoblja": 8232,
      "Ġodvoje": 8233,
      "dÅ¾i": 8234,
      "Ġnaci": 8235,
      "rijskim": 8236,
      "Ġrazd": 8237,
      "ĠobraÄįuna": 8238,
      "EU": 8239,
      "Ġ72": 8240,
      "VAT": 8241,
      "Ġposlovima": 8242,
      "vanu": 8243,
      "EC": 8244,
      "lka": 8245,
      "ĠpoloÅ¾aja": 8246,
      "Ġnormalno": 8247,
      "Ġopremu": 8248,
      "veno": 8249,
      "pela": 8250,
      "Ġ110": 8251,
      "ĠMoj": 8252,
      "vam": 8253,
      "Ġispit": 8254,
      "ĠokruÅ¾enja": 8255,
      "Ġistih": 8256,
      "ĠodrÅ¾anoj": 8257,
      "Ġsektor": 8258,
      "samo": 8259,
      "ĠopÄĩe": 8260,
      "Ġpokazati": 8261,
      "slije": 8262,
      "ĠHrvatski": 8263,
      "Ġjez": 8264,
      "Ġpojedinca": 8265,
      "Ġalata": 8266,
      "vimo": 8267,
      "Ob": 8268,
      "xi": 8269,
      "Ġuzme": 8270,
      "dran": 8271,
      "Ġran": 8272,
      "fon": 8273,
      "Ġhormo": 8274,
      "aj": 8275,
      "ĠnajveÄĩih": 8276,
      "Ġrecimo": 8277,
      "Ġstudentima": 8278,
      "Ġhorizo": 8279,
      "ĠizveÅ¡taja": 8280,
      "ĠdruÅ¡tveno": 8281,
      "Ġnekako": 8282,
      "ĠKali": 8283,
      "Obra": 8284,
      "Ġjaja": 8285,
      "textit": 8286,
      "Å¡ite": 8287,
      "Ġcrta": 8288,
      "./": 8289,
      "vjeren": 8290,
      "Ġdeluj": 8291,
      "Ġspozna": 8292,
      "Ġprila": 8293,
      "ĠpoÄįeti": 8294,
      "Ã«": 8295,
      "Ġstandardima": 8296,
      "Ġsumnje": 8297,
      "Ġraspravlja": 8298,
      "Ġodmor": 8299,
      "loÅ¡kom": 8300,
      "bilnost": 8301,
      "Ku": 8302,
      "nista": 8303,
      "ÏĢ": 8304,
      "Ġoksi": 8305,
      "teti": 8306,
      "ĠIza": 8307,
      "Ġapo": 8308,
      "Ġelemente": 8309,
      "Ġpremi": 8310,
      "Ġdeluje": 8311,
      "Ġregio": 8312,
      "Ġinstali": 8313,
      "Ġpostupaka": 8314,
      "Ġserija": 8315,
      "ĠkrÅ¡Äĩa": 8316,
      "Ġpostali": 8317,
      "ĠpruÅ¾anje": 8318,
      "ĠVeliki": 8319,
      "Ġfunkciji": 8320,
      "nela": 8321,
      "Ġlokacija": 8322,
      "Zna": 8323,
      "PP": 8324,
      "Ġdvoje": 8325,
      "Ġpobi": 8326,
      "elek": 8327,
      "orÄĳe": 8328,
      "Ġhrana": 8329,
      "ĠSvaka": 8330,
      "Ġbije": 8331,
      "ĠsaÄįi": 8332,
      "Ġpostavljanje": 8333,
      "panjol": 8334,
      "ĠunapreÄĳenje": 8335,
      "Ġoblastima": 8336,
      "Ġtermina": 8337,
      "Ġprisi": 8338,
      "ĠturistiÄįke": 8339,
      "Ġokvira": 8340,
      "ĠpotvrÄĳuje": 8341,
      "ĠoÄįuvanje": 8342,
      "Ġugostitelj": 8343,
      "Ġzainteresi": 8344,
      "ĠÄįiÅ¡Äĩenje": 8345,
      "Ġterena": 8346,
      "liju": 8347,
      "Ġnude": 8348,
      "Ġapsor": 8349,
      "Ġ53": 8350,
      "Ġinstitucijama": 8351,
      "Ġsmatrati": 8352,
      "Ġigrati": 8353,
      "ĠopÅ¡tina": 8354,
      "Ġpojedine": 8355,
      "HA": 8356,
      "Ġdjelatnost": 8357,
      "Ġistoj": 8358,
      "61": 8359,
      "ĠKova": 8360,
      "terina": 8361,
      "nia": 8362,
      "Ġslijede": 8363,
      "ĠMer": 8364,
      "fra": 8365,
      "Ġlege": 8366,
      "Ġpoha": 8367,
      "redo": 8368,
      "Ġjam": 8369,
      "ĠHer": 8370,
      "Ġnikakve": 8371,
      "Ġnabavku": 8372,
      "Ġobjave": 8373,
      "53": 8374,
      "ĠponuÄĳaÄį": 8375,
      "Ġtranspa": 8376,
      "ĠpotroÅ¡nje": 8377,
      "grafije": 8378,
      "Ġstrukturi": 8379,
      "Ġtop": 8380,
      "niranje": 8381,
      "bara": 8382,
      "Ġprole": 8383,
      "gene": 8384,
      "Ġpoziciju": 8385,
      "Ġsumnja": 8386,
      "Ġlokalnim": 8387,
      "Ġradika": 8388,
      "Ġovisi": 8389,
      "Ġpojavljuje": 8390,
      "Ġ58": 8391,
      "ĠdomaÄĩih": 8392,
      "Ġflo": 8393,
      "Ġmestima": 8394,
      "tov": 8395,
      "Ġpravni": 8396,
      "can": 8397,
      "Ġmoram": 8398,
      "Ġceste": 8399,
      "vljenja": 8400,
      "Ġrastvo": 8401,
      "Ġpostu": 8402,
      "ĠRadio": 8403,
      "Äįeva": 8404,
      "giji": 8405,
      "Ġzakonodav": 8406,
      "Ġdaljem": 8407,
      "ĠPret": 8408,
      "Ġika": 8409,
      "Ġposledice": 8410,
      ",âĢĿ": 8411,
      "ĠproÅ¡lo": 8412,
      "ove": 8413,
      "Ġmoderni": 8414,
      "Ġotpo": 8415,
      "Ġkolovoza": 8416,
      "Ġpacijenta": 8417,
      "gy": 8418,
      "ĠHrvati": 8419,
      "ĠskupÅ¡tine": 8420,
      "Ġsoftver": 8421,
      "tnici": 8422,
      "Ġuzoraka": 8423,
      "ĠoÄįito": 8424,
      "Ġizlaz": 8425,
      "nita": 8426,
      "Ġneovi": 8427,
      "njske": 8428,
      "Ġuva": 8429,
      "porta": 8430,
      "Ġkomponente": 8431,
      "ĠFinan": 8432,
      "ĠNaziv": 8433,
      "Ġsavjet": 8434,
      "Ġvlasnika": 8435,
      "veÄĩi": 8436,
      "Ġagen": 8437,
      "ĠCrkve": 8438,
      "Ġzakonu": 8439,
      "ĠKosova": 8440,
      "Ġstandardi": 8441,
      "ĠIzvo": 8442,
      "Ġigraju": 8443,
      "Ġmedicinske": 8444,
      "ĠdoÅ¡la": 8445,
      "ĠÅ¾enama": 8446,
      "Ġstrah": 8447,
      "lazu": 8448,
      "mice": 8449,
      "Ġprijavu": 8450,
      "Ġstje": 8451,
      "Ġdodije": 8452,
      "Ġvladi": 8453,
      "ĠPravo": 8454,
      "Ġiznosa": 8455,
      "Ġvisok": 8456,
      "Ġizaziva": 8457,
      "Ġstranih": 8458,
      "Ġprimjerice": 8459,
      "ĠgreÅ¡ke": 8460,
      "Ġ250": 8461,
      "trije": 8462,
      "Ġobjavljen": 8463,
      "Ġselu": 8464,
      "Ġporo": 8465,
      "ĠtraÅ¾iti": 8466,
      "znosti": 8467,
      "Ġdanom": 8468,
      "Ġkaraktera": 8469,
      "ĠAlba": 8470,
      "Ġpravilima": 8471,
      "Ġprovedbu": 8472,
      "ĠoÄįigledno": 8473,
      "Ġneprijatelj": 8474,
      "ĠkoÅ¾u": 8475,
      "Ġprezime": 8476,
      "Ġnaveo": 8477,
      "sing": 8478,
      "Ġmra": 8479,
      "Ġrazliko": 8480,
      "PRED": 8481,
      "Ġskladi": 8482,
      "Ġetni": 8483,
      "Ġverzija": 8484,
      "Jed": 8485,
      "mnji": 8486,
      "Pla": 8487,
      "Ġpoznate": 8488,
      "Ġleta": 8489,
      "Ġrazo": 8490,
      "Ñĸ": 8491,
      "ĠstruÄįnjaci": 8492,
      "jama": 8493,
      "slika": 8494,
      "stojan": 8495,
      "Ġorijenta": 8496,
      "Å¾noj": 8497,
      "zer": 8498,
      "ĠkÄĩe": 8499,
      "ĠIzve": 8500,
      "Ġasiste": 8501,
      "ĠruÄį": 8502,
      "Ġuspored": 8503,
      "62": 8504,
      "Ġkoristili": 8505,
      "vijek": 8506,
      "Ġrazlikuj": 8507,
      "Ġisla": 8508,
      "Ġikada": 8509,
      "Ġprimenu": 8510,
      "FA": 8511,
      "Ġnajkasnije": 8512,
      "ĠGlavni": 8513,
      "nerge": 8514,
      "ĠMedici": 8515,
      "jaÄįa": 8516,
      "habili": 8517,
      "Ġdjeluje": 8518,
      "Ġprojektima": 8519,
      "Ġobna": 8520,
      "Ġmetabo": 8521,
      "ĠniÅ¾e": 8522,
      "LJA": 8523,
      "Ġise": 8524,
      "Ġrazlikuje": 8525,
      "Ġautomobil": 8526,
      "Ġideju": 8527,
      "Ġekonomije": 8528,
      "ĠtoÄįno": 8529,
      "canja": 8530,
      "Ġnezna": 8531,
      "Ġtipi": 8532,
      "Ġvele": 8533,
      "Ġstvarala": 8534,
      "ĠAnti": 8535,
      "Ġptica": 8536,
      "Ġmeda": 8537,
      "Ĥ¬": 8538,
      "Ġsastoja": 8539,
      "ljke": 8540,
      "Ġdugi": 8541,
      "deli": 8542,
      "Ġwhi": 8543,
      "Ġelementa": 8544,
      "stao": 8545,
      "ĠRusije": 8546,
      "jn": 8547,
      "Ġzatvora": 8548,
      "vidi": 8549,
      "Ġpozitivno": 8550,
      "vanog": 8551,
      "Ġalat": 8552,
      "Ġprijava": 8553,
      "ĠvijeÄĩ": 8554,
      "Ġnazo": 8555,
      "Ġtalija": 8556,
      "ĠpruÅ¾iti": 8557,
      "Ġizdaj": 8558,
      "ĠdÅ¾e": 8559,
      "ĠÅ¡ume": 8560,
      "NJE": 8561,
      "ĠizvrÅ¡enje": 8562,
      "ĠPR": 8563,
      "metra": 8564,
      "Ġsusret": 8565,
      "Ġfanta": 8566,
      "Ġmal": 8567,
      "Ġpostrojenja": 8568,
      "ys": 8569,
      "'s": 8570,
      "Ġopu": 8571,
      "?\"": 8572,
      "nel": 8573,
      "Ġpogor": 8574,
      "Ġprirodno": 8575,
      "Å£e": 8576,
      "cijsku": 8577,
      "ĠRepublika": 8578,
      "Ġprivu": 8579,
      "Ġgara": 8580,
      "roje": 8581,
      "vodio": 8582,
      "ĠobraÄĩa": 8583,
      "ĠpridrÅ¾a": 8584,
      "Ġpojedinim": 8585,
      "Ġdostupni": 8586,
      "Ġserije": 8587,
      "Ġceo": 8588,
      "ĠKU": 8589,
      "Ġutvrdi": 8590,
      "ĠzapoÄįi": 8591,
      "ĠTer": 8592,
      "Ġistoriju": 8593,
      "bolje": 8594,
      "ĠnatjeÄįaj": 8595,
      "ew": 8596,
      "Ġimuno": 8597,
      "Ġ85": 8598,
      "Ġhisto": 8599,
      "Ġorganizaciju": 8600,
      "ĠFederacije": 8601,
      "metar": 8602,
      "Ġtakvo": 8603,
      "Ġprste": 8604,
      "Ġgospodarstva": 8605,
      "ĠvaÅ¡u": 8606,
      "ĠveljaÄįe": 8607,
      "Ġlega": 8608,
      "Ġomla": 8609,
      "cionira": 8610,
      "Ġkantona": 8611,
      "ĠÅłibe": 8612,
      "Ġpriba": 8613,
      "ĠoseÄĩaj": 8614,
      "Ġzadovoljstvo": 8615,
      "Äĩeva": 8616,
      "Ġraznovr": 8617,
      "Ġ1997": 8618,
      "df": 8619,
      "ĠAnte": 8620,
      "znom": 8621,
      "ralo": 8622,
      "ĠZapad": 8623,
      "Ġustano": 8624,
      "Ġsekundi": 8625,
      "Ġpolako": 8626,
      "Ġzadovolji": 8627,
      "ĠuÄįesnika": 8628,
      "Ġbak": 8629,
      "ĠMje": 8630,
      "Ġfer": 8631,
      "Ġ61": 8632,
      "Ġtrajanju": 8633,
      "Ġnastaj": 8634,
      "Ġokon": 8635,
      "zila": 8636,
      "Äįavanju": 8637,
      "Ġoka": 8638,
      "Ġnaknada": 8639,
      "ĠQu": 8640,
      "rtika": 8641,
      "Ġporodici": 8642,
      "Ġnastaje": 8643,
      "Ġosjet": 8644,
      "lep": 8645,
      "Ġpou": 8646,
      "ĠDrÅ¾ava": 8647,
      "Ġsana": 8648,
      "ĠCha": 8649,
      "stanak": 8650,
      "OVID": 8651,
      "ĠsprovoÄĳenje": 8652,
      "Ġjefti": 8653,
      "ĠEr": 8654,
      "72": 8655,
      "Ġpripremlje": 8656,
      "Ġslova": 8657,
      "sniji": 8658,
      "ĠLjudi": 8659,
      "Ġprocedure": 8660,
      "zmom": 8661,
      "Ġkontakti": 8662,
      "Ġpovijest": 8663,
      "Ġplovi": 8664,
      "Ġstrukturu": 8665,
      "ĠmeÄĳunarodnih": 8666,
      "ĠveliÄįina": 8667,
      "Å¾nica": 8668,
      "Ġplanova": 8669,
      "Ġuru": 8670,
      "tuju": 8671,
      "NOM": 8672,
      "ĠPravilnik": 8673,
      "ĠMitro": 8674,
      "Ġrekrea": 8675,
      "niÄįkog": 8676,
      "ĠBij": 8677,
      "fina": 8678,
      "ĠteÅ¡ke": 8679,
      "Ġruka": 8680,
      "Ġimale": 8681,
      "Ġotvorena": 8682,
      "Ġbrzina": 8683,
      "urnal": 8684,
      "Ġprilagodi": 8685,
      "Ġobradu": 8686,
      "ges": 8687,
      "Ġnamjene": 8688,
      "ĠÅ¡eÄĩera": 8689,
      "Ġefikasnosti": 8690,
      "zivanja": 8691,
      "Ġrazgovora": 8692,
      "ĠtuÅ¾i": 8693,
      "Ġprikazi": 8694,
      "Ġkarakter": 8695,
      "jednako": 8696,
      "Ġupravi": 8697,
      "Ġpercep": 8698,
      "gona": 8699,
      "ĠÄįimbe": 8700,
      "Ġinostran": 8701,
      "ĠSj": 8702,
      "Ġsporazum": 8703,
      "Ġprijedloga": 8704,
      "proda": 8705,
      "Ġpostojanja": 8706,
      "Äĳivati": 8707,
      "ĠnemoguÄĩe": 8708,
      "ĠporemeÄĩaja": 8709,
      "Ġciljevi": 8710,
      "Ġindustrija": 8711,
      "ĠJosip": 8712,
      "Ġkonver": 8713,
      "Kon": 8714,
      "Ġstan": 8715,
      "Ġkandidat": 8716,
      "Ġizbega": 8717,
      "ĠRijeka": 8718,
      "ĠPetra": 8719,
      "Ġmanipu": 8720,
      "Ġfol": 8721,
      "Äįenim": 8722,
      "Ġorganizacijama": 8723,
      "Ġuvede": 8724,
      "lia": 8725,
      "Ġpravilu": 8726,
      "Ġmesa": 8727,
      "ĠMan": 8728,
      "Ġreflek": 8729,
      "Ġtelu": 8730,
      "cita": 8731,
      "rtifika": 8732,
      "TP": 8733,
      "Ġgeograf": 8734,
      "Ġplaniranja": 8735,
      "Ġenti": 8736,
      "ĠTeo": 8737,
      "Ġtemeljem": 8738,
      "Ġpretpostavlja": 8739,
      "Ġeksploa": 8740,
      "Ġbrod": 8741,
      "ĠÄįast": 8742,
      "ĠUniversity": 8743,
      "ĠIde": 8744,
      "ĠSveti": 8745,
      "ĠodreÄĳenog": 8746,
      "Ġodlazi": 8747,
      "ĠfiziÄįki": 8748,
      "Ġodstupa": 8749,
      "Ġwas": 8750,
      "ĠAmerici": 8751,
      "ling": 8752,
      "ĠmiÅ¡ljenju": 8753,
      "ĠZoran": 8754,
      "Hrvat": 8755,
      "71": 8756,
      "??": 8757,
      "Ġhumanitar": 8758,
      "Ġosnovnim": 8759,
      "ĠÅ¡iroko": 8760,
      "lovanje": 8761,
      "stici": 8762,
      "Ġprvobi": 8763,
      "Ġposa": 8764,
      "Ġposlovnog": 8765,
      "ĠpodrÅ¾ava": 8766,
      "prava": 8767,
      "Ġupotreblja": 8768,
      "Å¡le": 8769,
      "siona": 8770,
      "tic": 8771,
      "ĠSci": 8772,
      "ĠZahva": 8773,
      "Ġhrvatskom": 8774,
      "GU": 8775,
      "Ġnatjecanja": 8776,
      "govori": 8777,
      "ĠOsijek": 8778,
      "menuti": 8779,
      "Ġpas": 8780,
      "Ġkulturnih": 8781,
      "ĠUP": 8782,
      "mjena": 8783,
      "Ġdjeci": 8784,
      "sov": 8785,
      "jeg": 8786,
      "Ġlokaciji": 8787,
      "Å¡nu": 8788,
      "NIKA": 8789,
      "Ġzaro": 8790,
      "Ġdokaze": 8791,
      "Ġdvadeset": 8792,
      "Ġtrenutka": 8793,
      "Ġznali": 8794,
      "Ġelement": 8795,
      "Ġkraljev": 8796,
      "Äĳenom": 8797,
      "Ġciklusa": 8798,
      "NJA": 8799,
      "Ġdatote": 8800,
      "Ġterapije": 8801,
      "Ġkretanje": 8802,
      "Ġizvesti": 8803,
      "Ġdemon": 8804,
      "Ġ1996": 8805,
      "Ġreakcija": 8806,
      "gana": 8807,
      "ĠSO": 8808,
      "sili": 8809,
      "gledajte": 8810,
      "ĠMc": 8811,
      "Ġnepokre": 8812,
      "Ġtale": 8813,
      "Ġprijevoz": 8814,
      "Ġizjave": 8815,
      "int": 8816,
      "ree": 8817,
      "Ġnacionalnog": 8818,
      "ĠAmerika": 8819,
      "ĠÄįestice": 8820,
      "ĠpeÄįa": 8821,
      "Ġkur": 8822,
      "Ġsimptoma": 8823,
      "Ġkategoriji": 8824,
      "Ġstranicama": 8825,
      "vrsta": 8826,
      "Ġnaime": 8827,
      "ĠodrÅ¾an": 8828,
      "Ġdjelovanje": 8829,
      "Ġgimna": 8830,
      "ĠÄįestica": 8831,
      "ranom": 8832,
      "Ġsino": 8833,
      "ĠDje": 8834,
      "Ġlikvi": 8835,
      "ĠChi": 8836,
      "ĠWin": 8837,
      "Ġtje": 8838,
      "diju": 8839,
      "Ġbate": 8840,
      "Ġupis": 8841,
      "Ġstaviti": 8842,
      "54": 8843,
      "Ġkulturi": 8844,
      "ĠÅ¡teta": 8845,
      "Ġvelik": 8846,
      "ĠPoliti": 8847,
      "ĠzajedniÄįke": 8848,
      "Ġfedera": 8849,
      "Ġistakao": 8850,
      "Ġotvaranja": 8851,
      "Ġzamije": 8852,
      "Ġsind": 8853,
      "ĠTijekom": 8854,
      "Ġsveti": 8855,
      "Ġizraz": 8856,
      "Ġ63": 8857,
      "Ġpovezan": 8858,
      "Ġnasilje": 8859,
      "Ġutakmicu": 8860,
[...]
