{
  "version": "1.0",
  "truncation": null,
  "padding": null,
  "added_tokens": [
    {
      "id": 0,
      "content": "[PAD]",
      "single_word": false,
      "lstrip": false,
      "rstrip": false,
      "normalized": false,
      "special": true
    },
    {
      "id": 1,
      "content": "[UNK]",
      "single_word": false,
      "lstrip": false,
      "rstrip": false,
      "normalized": false,
      "special": true
    },
    {
      "id": 2,
      "content": "[CLS]",
      "single_word": false,
      "lstrip": false,
      "rstrip": false,
      "normalized": false,
      "special": true
    },
    {
      "id": 3,
      "content": "[SEP]",
      "single_word": false,
      "lstrip": false,
      "rstrip": false,
      "normalized": false,
      "special": true
    },
    {
      "id": 4,
      "content": "[MASK]",
      "single_word": false,
      "lstrip": false,
      "rstrip": false,
      "normalized": false,
      "special": true
    }
  ],
  "normalizer": null,
  "pre_tokenizer": {
    "type": "Sequence",
    "pretokenizers": [
      {
        "type": "Whitespace"
      },
      {
        "type": "ByteLevel",
        "add_prefix_space": false,
        "trim_offsets": true,
        "use_regex": true
      }
    ]
  },
  "post_processor": null,
  "decoder": null,
  "model": {
    "type": "BPE",
    "dropout": null,
    "unk_token": null,
    "continuing_subword_prefix": null,
    "end_of_word_suffix": "Ġ",
    "fuse_unk": false,
    "byte_fallback": false,
    "ignore_merges": true,
    "vocab": {
      "[PAD]": 0,
      "[UNK]": 1,
      "[CLS]": 2,
      "[SEP]": 3,
      "[MASK]": 4,
      "!": 5,
      "\"": 6,
      "#": 7,
      "$": 8,
      "%": 9,
      "&": 10,
      "'": 11,
      "(": 12,
      ")": 13,
      "*": 14,
      "+": 15,
      ",": 16,
      "-": 17,
      ".": 18,
      "/": 19,
      "0": 20,
      "1": 21,
      "2": 22,
      "3": 23,
      "4": 24,
      "5": 25,
      "6": 26,
      "7": 27,
      "8": 28,
      "9": 29,
      ":": 30,
      ";": 31,
      "<": 32,
      "=": 33,
      ">": 34,
      "?": 35,
      "@": 36,
      "A": 37,
      "B": 38,
      "C": 39,
      "D": 40,
      "E": 41,
      "F": 42,
      "G": 43,
      "H": 44,
      "I": 45,
      "J": 46,
      "K": 47,
      "L": 48,
      "M": 49,
      "N": 50,
      "O": 51,
      "P": 52,
      "Q": 53,
      "R": 54,
      "S": 55,
      "T": 56,
      "U": 57,
      "V": 58,
      "W": 59,
      "X": 60,
      "Y": 61,
      "Z": 62,
      "[": 63,
      "\\": 64,
      "]": 65,
      "^": 66,
      "_": 67,
      "`": 68,
      "a": 69,
      "b": 70,
      "c": 71,
      "d": 72,
      "e": 73,
      "f": 74,
      "g": 75,
      "h": 76,
      "i": 77,
      "j": 78,
      "k": 79,
      "l": 80,
      "m": 81,
      "n": 82,
      "o": 83,
      "p": 84,
      "q": 85,
      "r": 86,
      "s": 87,
      "t": 88,
      "u": 89,
      "v": 90,
      "w": 91,
      "x": 92,
      "y": 93,
      "z": 94,
      "{": 95,
      "|": 96,
      "}": 97,
      "~": 98,
      "¡": 99,
      "¢": 100,
      "£": 101,
      "¤": 102,
      "¥": 103,
      "¦": 104,
      "§": 105,
      "¨": 106,
      "©": 107,
      "ª": 108,
      "«": 109,
      "¬": 110,
      "®": 111,
      "¯": 112,
      "°": 113,
      "±": 114,
      "²": 115,
      "³": 116,
      "´": 117,
      "µ": 118,
      "¶": 119,
      "·": 120,
      "¸": 121,
      "¹": 122,
      "º": 123,
      "»": 124,
      "¼": 125,
      "½": 126,
      "¾": 127,
      "¿": 128,
      "À": 129,
      "Á": 130,
      "Â": 131,
      "Ã": 132,
      "Ä": 133,
      "Å": 134,
      "Æ": 135,
      "Ç": 136,
      "È": 137,
      "É": 138,
      "Ê": 139,
      "Ë": 140,
      "Ì": 141,
      "Í": 142,
      "Î": 143,
      "Ï": 144,
      "Ð": 145,
      "Ñ": 146,
      "Ò": 147,
      "Ó": 148,
      "Ô": 149,
      "Õ": 150,
      "Ö": 151,
      "×": 152,
      "Ø": 153,
      "Ù": 154,
      "Ú": 155,
      "Û": 156,
      "Ü": 157,
      "Ý": 158,
      "Þ": 159,
      "ß": 160,
      "à": 161,
      "á": 162,
      "â": 163,
      "ã": 164,
      "ä": 165,
      "å": 166,
      "æ": 167,
      "ç": 168,
      "è": 169,
      "é": 170,
      "ê": 171,
      "ë": 172,
      "ì": 173,
      "í": 174,
      "î": 175,
      "ï": 176,
      "ð": 177,
      "ñ": 178,
      "ò": 179,
      "ó": 180,
      "ô": 181,
      "õ": 182,
      "ö": 183,
      "÷": 184,
      "ø": 185,
      "ù": 186,
      "ú": 187,
      "û": 188,
      "ü": 189,
      "ý": 190,
      "þ": 191,
      "ÿ": 192,
      "Ā": 193,
      "ā": 194,
      "Ă": 195,
      "ă": 196,
      "Ą": 197,
      "ą": 198,
      "Ć": 199,
      "ć": 200,
      "Ĉ": 201,
      "ĉ": 202,
      "Ċ": 203,
      "ċ": 204,
      "Č": 205,
      "č": 206,
      "Ď": 207,
      "ď": 208,
      "Đ": 209,
      "đ": 210,
      "Ē": 211,
      "ē": 212,
      "Ĕ": 213,
      "ĕ": 214,
      "Ė": 215,
      "ė": 216,
      "Ę": 217,
      "ę": 218,
      "Ě": 219,
      "ě": 220,
      "Ĝ": 221,
      "ĝ": 222,
      "Ğ": 223,
      "ğ": 224,
      "Ġ": 225,
      "ġ": 226,
      "Ģ": 227,
      "ģ": 228,
      "Ĥ": 229,
      "ĥ": 230,
      "Ħ": 231,
      "ħ": 232,
      "Ĩ": 233,
      "ĩ": 234,
      "Ī": 235,
      "ī": 236,
      "Ĭ": 237,
      "ĭ": 238,
      "Į": 239,
      "į": 240,
      "İ": 241,
      "ı": 242,
      "Ĳ": 243,
      "ĳ": 244,
      "Ĵ": 245,
      "ĵ": 246,
      "Ķ": 247,
      "ķ": 248,
      "ĸ": 249,
      "Ĺ": 250,
      "ĺ": 251,
      "Ļ": 252,
      "ļ": 253,
      "Ľ": 254,
      "ľ": 255,
      "Ŀ": 256,
      "ŀ": 257,
      "Ł": 258,
      "ł": 259,
      "Ń": 260,
      "mĠ": 261,
      "µĠ": 262,
      "OĠ": 263,
      "nĠ": 264,
      "¾Ġ": 265,
      "ºĠ": 266,
      "yĠ": 267,
      "¼Ġ": 268,
      "ģĠ": 269,
      "gĠ": 270,
      "ĥĠ": 271,
      "oĠ": 272,
      "tĠ": 273,
      "iĠ": 274,
      "ĤĠ": 275,
      "eĠ": 276,
      "aĠ": 277,
      "´Ġ": 278,
      "°Ġ": 279,
      "fĠ": 280,
      "hĠ": 281,
      "ħĠ": 282,
      "¸Ġ": 283,
      "ŃĠ": 284,
      "uĠ": 285,
      "sĠ": 286,
      "bĠ": 287,
      "ĮĠ": 288,
      "ĪĠ": 289,
      "¹Ġ": 290,
      "SĠ": 291,
      "rĠ": 292,
      "ķĠ": 293,
      "½Ġ": 294,
      "lĠ": 295,
      "jĠ": 296,
      "UĠ": 297,
      "ĢĠ": 298,
      "LĠ": 299,
      "TĠ": 300,
      "ĴĠ": 301,
      "ļĠ": 302,
      "pĠ": 303,
      "wĠ": 304,
      "HĠ": 305,
      "zĠ": 306,
      "GĠ": 307,
      "»Ġ": 308,
      "AĠ": 309,
      "ĩĠ": 310,
      "1Ġ": 311,
      "MĠ": 312,
      "İĠ": 313,
      "2Ġ": 314,
      "KĠ": 315,
      "¡Ġ": 316,
      "vĠ": 317,
      "ĬĠ": 318,
      "³Ġ": 319,
      "cĠ": 320,
      "IĠ": 321,
      "ĦĠ": 322,
      "0Ġ": 323,
      "ĨĠ": 324,
      "ĶĠ": 325,
      "'Ġ": 326,
      "¢Ġ": 327,
      "CĠ": 328,
      "dĠ": 329,
      "QĠ": 330,
      "8Ġ": 331,
      "«Ġ": 332,
      "ĽĠ": 333,
      "¿Ġ": 334,
      "ĺĠ": 335,
      "¥Ġ": 336,
      "¨Ġ": 337,
      "¯Ġ": 338,
      "ĵĠ": 339,
      "VĠ": 340,
      "¬Ġ": 341,
      "§Ġ": 342,
      "EĠ": 343,
      "®Ġ": 344,
      "²Ġ": 345,
      "qĠ": 346,
      "ĲĠ": 347,
      "ıĠ": 348,
      "ĿĠ": 349,
      "ĻĠ": 350,
      "ľĠ": 351,
      "łĠ": 352,
      "·Ġ": 353,
      "NĠ": 354,
      "XĠ": 355,
      "ĹĠ": 356,
      "ĳĠ": 357,
      "kĠ": 358,
      "BĠ": 359,
      "5Ġ": 360,
      "JĠ": 361,
      "3Ġ": 362,
      "ŀĠ": 363,
      "©Ġ": 364,
      "ĭĠ": 365,
      "xĠ": 366,
      "DĠ": 367,
      "7Ġ": 368,
      "RĠ": 369,
      "¦Ġ": 370,
      "āĠ": 371,
      "±Ġ": 372,
      "ZĠ": 373,
      "*Ġ": 374,
      "6Ġ": 375,
      "PĠ": 376,
      "4Ġ": 377,
      "ĸĠ": 378,
      "ŁĠ": 379,
      "(Ġ": 380,
      "įĠ": 381,
      "£Ġ": 382,
      ")Ġ": 383,
      "¶Ġ": 384,
      ",Ġ": 385,
      "-Ġ": 386,
      "/Ġ": 387,
      ".Ġ": 388,
      "!Ġ": 389,
      "FĠ": 390,
      "=Ġ": 391,
      "YĠ": 392,
      "ªĠ": 393,
      "īĠ": 394,
      "WĠ": 395,
      "+Ġ": 396,
      "¤Ġ": 397,
      "9Ġ": 398,
      "\"Ġ": 399,
      ";Ġ": 400,
      "[Ġ": 401,
      "\\Ġ": 402,
      "ĈĠ": 403,
      ":Ġ": 404,
      "_Ġ": 405,
      "$Ġ": 406,
      "#Ġ": 407,
      "]Ġ": 408,
      "&Ġ": 409,
      "?Ġ": 410,
      "~Ġ": 411,
      ">Ġ": 412,
      "ĖĠ": 413,
      "}Ġ": 414,
      "ăĠ": 415,
      "%Ġ": 416,
      "ĐĠ": 417,
      "ĎĠ": 418,
      "đĠ": 419,
      "ĔĠ": 420,
      "ĂĠ": 421,
      "`Ġ": 422,
      "ĆĠ": 423,
      "{Ġ": 424,
      "@Ġ": 425,
      "<Ġ": 426,
      "ęĠ": 427,
      "^Ġ": 428,
      "ġĠ": 429,
      "ĚĠ": 430,
      "ąĠ": 431,
      "ĄĠ": 432,
      "ěĠ": 433,
      "ćĠ": 434,
      "ĕĠ": 435,
      "|Ġ": 436,
      "ėĠ": 437,
      "ēĠ": 438,
      "ĒĠ": 439,
      "ďĠ": 440,
      "ĘĠ": 441,
      "ĀĠ": 442,
      "Ð¾": 443,
      "Ð°": 444,
      "Ð¸": 445,
      "Ð½": 446,
      "Ðµ": 447,
      "ÑĢ": 448,
      "Ñģ": 449,
      "ÑĤ": 450,
      "Ð¾Ð": 451,
      "Ð°Ġ": 452,
      "Ð°Ð": 453,
      "ÐµĠ": 454,
      "Ðº": 455,
      "Ñĺ": 456,
      "Ð¸Ġ": 457,
      "Ð¿": 458,
      "Ð¸Ð": 459,
      "Ñĥ": 460,
      "jeĠ": 461,
      "st": 462,
      "ra": 463,
      "ÐµÐ": 464,
      "ÑĥĠ": 465,
      "en": 466,
      "an": 467,
      "ko": 468,
      "re": 469,
      "po": 470,
      "Ð¸Ñ": 471,
      "Ð²": 472,
      "Äį": 473,
      "Ð°Ñ": 474,
      "Ð´": 475,
      "ÑģÑĤ": 476,
      "in": 477,
      "Å¡": 478,
      "Ð»": 479,
      "Ð¾Ġ": 480,
      "ov": 481,
      "ri": 482,
      "ni": 483,
      "ro": 484,
      "na": 485,
      "jaĠ": 486,
      "daĠ": 487,
      "ÑĺÐµĠ": 488,
      "no": 489,
      "Ð¼": 490,
      "li": 491,
      "Ð¿ÑĢ": 492,
      "ÐµÑ": 493,
      "ci": 494,
      "Ð¾Ð²": 495,
      "naĠ": 496,
      "ti": 497,
      "ÐµÐ½": 498,
      "Å¾": 499,
      "ka": 500,
      "od": 501,
      "av": 502,
      "Äĩ": 503,
      "Ð°Ð½": 504,
      "maĠ": 505,
      "te": 506,
      "Ð·": 507,
      "al": 508,
      "Ð±": 509,
      "je": 510,
      "Ð¾Ñ": 511,
      "âĢ": 512,
      "Ð¸Ð½": 513,
      "Ð¾Ð´": 514,
      "Ð°Ð²": 515,
      "Ð¸Ñĺ": 516,
      "seĠ": 517,
      "juĠ": 518,
      "Ð³": 519,
      "la": 520,
      "Ð¾ÑĢ": 521,
      "ve": 522,
      "Ð°Ð»": 523,
      "ÑģÐº": 524,
      "sk": 525,
      "neĠ": 526,
      "or": 527,
      "il": 528,
      "ÐµÐ´": 529,
      "ta": 530,
      "Ð°ÑĤ": 531,
      "za": 532,
      "me": 533,
      "lj": 534,
      "ob": 535,
      "pre": 536,
      "va": 537,
      "ne": 538,
      "le": 539,
      "noĠ": 540,
      "vi": 541,
      "Ð°ÑĢ": 542,
      "zaĠ": 543,
      "pro": 544,
      "Ð¸Ð¼": 545,
      "ÐµÑĢ": 546,
      "Ð¾Ñģ": 547,
      "Ð½Ð°Ġ": 548,
      "ma": 549,
      "vo": 550,
      "ru": 551,
      "mo": 552,
      "Ð¸ÑĤ": 553,
      "Ð¾Ð¼Ġ": 554,
      "Ð°Ñļ": 555,
      "sa": 556,
      "kaĠ": 557,
      "de": 558,
      "suĠ": 559,
      "Ð°Ðº": 560,
      "Ð¾Ñĺ": 561,
      "Ð¸Ð²": 562,
      "di": 563,
      "jiĠ": 564,
      "ÑĥÑ": 565,
      "tiĠ": 566,
      "iz": 567,
      "ÑĢÐ°Ð": 568,
      "Ð¸ÑħĠ": 569,
      "Ð¸Ðº": 570,
      "koĠ": 571,
      "taĠ": 572,
      "Ð¸Ð·": 573,
      "ÐµÑĤ": 574,
      "Ð¾Ð½": 575,
      "to": 576,
      "Ð°Ñĺ": 577,
      "saĠ": 578,
      "Ð¸Ð»": 579,
      "Ð¾Ð³Ġ": 580,
      "Äĳ": 581,
      "pri": 582,
      "si": 583,
      "ihĠ": 584,
      "lo": 585,
      "se": 586,
      "ÑģÐµĠ": 587,
      "Ð¾ÑģÑĤ": 588,
      "do": 589,
      "ÐµÐº": 590,
      "men": 591,
      "Ð¸Ñĩ": 592,
      "ÐµÐ»": 593,
      "ÐµÐ¼": 594,
      "niĠ": 595,
      "Ð´Ð°Ġ": 596,
      "Ð¾Ð±": 597,
      "toĠ": 598,
      "ÑĨ": 599,
      "bi": 600,
      "Ð¾Ð»": 601,
      "odĠ": 602,
      "mi": 603,
      "zi": 604,
      "pa": 605,
      "stiĠ": 606,
      "teĠ": 607,
      "Ð¸ÑĺÐµĠ": 608,
      "Ð¾Ð³": 609,
      "Ð¸Ð¼Ġ": 610,
      "da": 611,
      "Ð¸ÑĨ": 612,
      "20": 613,
      "ÑĻ": 614,
      "ja": 615,
      "pi": 616,
      "raĠ": 617,
      "Ð¡": 618,
      "sl": 619,
      "Ð¾Ð¼": 620,
      "Ð¸Ñģ": 621,
      "pe": 622,
      "anjeĠ": 623,
      "ĪÑĤ": 624,
      "omĠ": 625,
      "Ð°Ð´": 626,
      "Ð½ÐµĠ": 627,
      "Ð¸ÑģÑĤ": 628,
      "keĠ": 629,
      "Ñļ": 630,
      "Ð°Ð¼": 631,
      "anjaĠ": 632,
      "Ð°ÑĨ": 633,
      "Ð½Ð¾Ġ": 634,
      "gra": 635,
      "vaĠ": 636,
      "Ð¶": 637,
      "imĠ": 638,
      "Ð¾ÑĤ": 639,
      "moĠ": 640,
      "raz": 641,
      "tu": 642,
      "ku": 643,
      "Ð¾Ðº": 644,
      "stĠ": 645,
      "sti": 646,
      "ÐŁ": 647,
      "nihĠ": 648,
      "ÑģÑĥĠ": 649,
      "Ð¸Ð¼Ð°Ġ": 650,
      "Ð¾Ð´Ġ": 651,
      "Ð°Ñĩ": 652,
      "Ð¾Ð¿": 653,
      "Ð¸ÑĢ": 654,
      "laĠ": 655,
      "ÐºÐ¾Ñĺ": 656,
      "ÑĦ": 657,
      "19": 658,
      "Ð°Ð¾Ġ": 659,
      "pu": 660,
      "su": 661,
      "pra": 662,
      "bo": 663,
      "sta": 664,
      "ÑģÐ²": 665,
      "cijeĠ": 666,
      "iliĠ": 667,
      "ÐµÐ²": 668,
      "Äįi": 669,
      "nogĠ": 670,
      "Ð¸ÑĺÐ°Ġ": 671,
      "Ñĩ": 672,
      "red": 673,
      "kojiĠ": 674,
      "ineĠ": 675,
      "pr": 676,
      "ÄĩeĠ": 677,
      "ÑĢÑĥ": 678,
      "Ð·Ð°Ġ": 679,
      "âĢŀĠ": 680,
      "Ð°Ð·": 681,
      "kaoĠ": 682,
      "ÐµÑļ": 683,
      "stav": 684,
      "sko": 685,
      "be": 686,
      "jed": 687,
      "Ð°Ñģ": 688,
      "caĠ": 689,
      "ÐµÐ·": 690,
      "nj": 691,
      ").Ġ": 692,
      "ÄĩĠ": 693,
      "Äįe": 694,
      "Ðļ": 695,
      "Ð¾ÑĺĠ": 696,
      "du": 697,
      "veĠ": 698,
      "ÑģÐ°Ġ": 699,
      "imaĠ": 700,
      "ÑĥÑĤ": 701,
      "gaĠ": 702,
      "gov": 703,
      "Ð°ÑļÐ°Ġ": 704,
      "nostiĠ": 705,
      "ciĠ": 706,
      "ÑĤĠ": 707,
      "tra": 708,
      "Ð°ÑļÐµĠ": 709,
      "liĠ": 710,
      "''Ġ": 711,
      "vr": 712,
      "nov": 713,
      "meĠ": 714,
      "Å¾i": 715,
      "ar": 716,
      "tiv": 717,
      "deĠ": 718,
      "Ð²ÑĢ": 719,
      "ÑĤÑĢ": 720,
      "Ðľ": 721,
      "ÐĿ": 722,
      "is": 723,
      "cijaĠ": 724,
      "kuĠ": 725,
      "..": 726,
      "inaĠ": 727,
      "ju": 728,
      "ÐµÐ³": 729,
      "ce": 730,
      "sto": 731,
      "os": 732,
      "aliĠ": 733,
      "dru": 734,
      "Äįa": 735,
      "Ð½Ð¸Ġ": 736,
      "zna": 737,
      "stra": 738,
      "âĢĵĠ": 739,
      "ÑĥÑĩ": 740,
      "gu": 741,
      "ÑĢÐ°Ð·": 742,
      "god": 743,
      "Å¡toĠ": 744,
      "ceĠ": 745,
      "kon": 746,
      "ren": 747,
      "ÑģÐ»": 748,
      "voĠ": 749,
      "Ðĳ": 750,
      "Ð°Ð½Ġ": 751,
      "ÑĥÑĢ": 752,
      "Ð½Ð¾Ñģ": 753,
      "Ð¸ÑĩÐº": 754,
      "Ð¸Ð½ÐµĠ": 755,
      "jen": 756,
      "tre": 757,
      "nomĠ": 758,
      "ÐµÑĽ": 759,
      "ÑĥÐ»": 760,
      "ak": 761,
      "ani": 762,
      "ÑĪ": 763,
      "ÐµÑģ": 764,
      "Ñħ": 765,
      "Ð¾ÑģÑĤÐ¸Ġ": 766,
      "),Ġ": 767,
      "anaĠ": 768,
      "lu": 769,
      "Ð¢": 770,
      "ÑĥÐ¿": 771,
      "Ðŀ": 772,
      "ÐºÑĢ": 773,
      "Å¾eĠ": 774,
      "nimĠ": 775,
      "Å¡t": 776,
      "ÐµÑĴ": 777,
      "ÑĢÐ°Ð´": 778,
      "nuĠ": 779,
      "fi": 780,
      "201": 781,
      "ÐĶ": 782,
      "er": 783,
      "ÑģÑĤÐ²": 784,
      "gi": 785,
      "ÄĩiĠ": 786,
      "nijeĠ": 787,
      "lju": 788,
      "Ð½Ð¾Ð³Ġ": 789,
      "Ð½Ð¸ÑħĠ": 790,
      "ga": 791,
      "Ð°Ð¿": 792,
      "ogĠ": 793,
      "Ð¸ÑĪ": 794,
      "izĠ": 795,
      "ÐĲ": 796,
      "skeĠ": 797,
      "pred": 798,
      "biĠ": 799,
      "cen": 800,
      "dr": 801,
      "nostĠ": 802,
      "kiĠ": 803,
      "Ð¸ÐºÐ°Ġ": 804,
      "Ðł": 805,
      "ÑĥÐ½": 806,
      "ÐºÐ°Ð¾Ġ": 807,
      "Ð°ÑģÑĤ": 808,
      "Ð°ÑĺÑĥĠ": 809,
      "bil": 810,
      "Ð¾Ð·": 811,
      "âĢľĠ": 812,
      "Ð¸Ð»Ð¸Ġ": 813,
      "ÑĢÐ°Ð½": 814,
      "go": 815,
      "ÑĥÐ´": 816,
      "Ð¸Ð´": 817,
      "Å¡eĠ": 818,
      "ze": 819,
      "so": 820,
      "ÑĪÑĤ": 821,
      "komĠ": 822,
      "200": 823,
      "Äĳen": 824,
      "vod": 825,
      "jemĠ": 826,
      "naj": 827,
      "ran": 828,
      "ÐºÐ¾ÑĺÐ¸Ġ": 829,
      "ÐµÐ½Ð°Ġ": 830,
      "kojeĠ": 831,
      "Ðĺ": 832,
      "doĠ": 833,
      "Ð¸Ð¾Ġ": 834,
      "ÐµÐ¼Ġ": 835,
      "riĠ": 836,
      "diĠ": 837,
      "oraĠ": 838,
      "ste": 839,
      "skiĠ": 840,
      "ÑĥÐ¼": 841,
      "treb": 842,
      "stu": 843,
      "duĠ": 844,
      "ÐµÑģÑĤ": 845,
      "jav": 846,
      "ÐµÐ±": 847,
      "ini": 848,
      "ÑĥÐº": 849,
      "tuĠ": 850,
      "Ð½Ð¾ÑģÑĤÐ¸Ġ": 851,
      "ÐĴ": 852,
      "bu": 853,
      "Ð¿Ð¾Ñģ": 854,
      "svo": 855,
      "ÑĥÑĽ": 856,
      "Ð°Ð²ÑĻ": 857,
      "ÐµÐ½ÑĤ": 858,
      "mu": 859,
      "ven": 860,
      "Ð¾Ð¶": 861,
      "ana": 862,
      "ljen": 863,
      "ovaĠ": 864,
      "alaĠ": 865,
      "viĠ": 866,
      "Ð³Ð¾Ð´": 867,
      "zu": 868,
      "Sr": 869,
      "ÑĺÐµÐ´": 870,
      "Ð°Ð³": 871,
      "leĠ": 872,
      "Ð¿Ð¾ÑģÑĤ": 873,
      "Ð°Ð¼Ð°Ġ": 874,
      "reĠ": 875,
      "Po": 876,
      "ÑĢÐµÐ´": 877,
      "for": 878,
      "Ð¸ÑĺÐ¸Ġ": 879,
      "ba": 880,
      "Ð¿ÑĢÐµÐ´": 881,
      "cio": 882,
      "spo": 883,
      "ÑģÐºÐµĠ": 884,
      "ÂŃĠ": 885,
      "Å¾e": 886,
      "odno": 887,
      "Ð¿ÑĢÐ°Ð²": 888,
      "dob": 889,
      "Ð½Ð¾Ð²": 890,
      "tro": 891,
      "Ð½Ð°Ñĩ": 892,
      "op": 893,
      "ÑģÐ¿": 894,
      "Ð¸Ð³": 895,
      "Ð´ÑĢ": 896,
      "Ð¸ÑĽĠ": 897,
      "Ð°ÐºÐ¾Ġ": 898,
      "ÐµÐ¿": 899,
      "fe": 900,
      "Ð¾ÑĺÐµĠ": 901,
      "Ð¸Ð½Ð°Ġ": 902,
      "sve": 903,
      "Ð¾Ñĩ": 904,
      "paĠ": 905,
      "Ð¸ÑĤÐ¸Ġ": 906,
      "Ð°ÑĪ": 907,
      "ÑĽ": 908,
      "Ð¾ÑĪ": 909,
      "on": 910,
      "spe": 911,
      "ÐºÐ¾Ð½": 912,
      "ÑģÐºÐ¸Ġ": 913,
      "00Ġ": 914,
      "ÑĥÐ·": 915,
      "ljaĠ": 916,
      "ojĠ": 917,
      "Ð±ÑĢ": 918,
      "Ð°Ð»Ð¸Ġ": 919,
      "Äįen": 920,
      "ca": 921,
      "Ð¾ÑĨ": 922,
      "Äĩe": 923,
      "drug": 924,
      "stan": 925,
      "ina": 926,
      "muĠ": 927,
      "slu": 928,
      "Å¾en": 929,
      "staĠ": 930,
      "Na": 931,
      "kori": 932,
      "ÐµÐ½ÐµĠ": 933,
      "kojaĠ": 934,
      "Ð¿Ð¾Ð´": 935,
      "ova": 936,
      "ÑĤÐµÑĢ": 937,
      "ÄĩaĠ": 938,
      "vred": 939,
      "hi": 940,
      "Ð°Ð½Ð°Ġ": 941,
      "drÅ¾": 942,
      "poĠ": 943,
      "Srbi": 944,
      "Ð½Ð¾Ð¼Ġ": 945,
      "teri": 946,
      "Ð¾Ð²Ð°Ġ": 947,
      "skaĠ": 948,
      "ÑĥÐ³": 949,
      "man": 950,
      "ÐµÐ½Ġ": 951,
      "Ð£Ġ": 952,
      "Ð¸Ð·Ġ": 953,
      "oveĠ": 954,
      "Ð°Ð±": 955,
      "guĠ": 956,
      "Å¡Ġ": 957,
      "tiÄį": 958,
      "inte": 959,
      "ÑĢÑĥÐ³": 960,
      "Ð¸ÑĺÑĥĠ": 961,
      "cijuĠ": 962,
      "skogĠ": 963,
      "Ðĵ": 964,
      "zeĠ": 965,
      "steĠ": 966,
      "Ð½Ð¸Ð¼Ġ": 967,
      "ÐĹ": 968,
      "posl": 969,
      "Ð¸Ð»Ð°Ġ": 970,
      "Ð¸Ð¾Ð½": 971,
      "prav": 972,
      ".,Ġ": 973,
      "ÐŁÑĢ": 974,
      "kra": 975,
      "ÐµÑļÐ°Ġ": 976,
      "onĠ": 977,
      "avaĠ": 978,
      "ziĠ": 979,
      "anjuĠ": 980,
      "Äįu": 981,
      "den": 982,
      "Ð¸Ð¿": 983,
      "ÑģÐ¼": 984,
      "Ð°ÑĤÐ¸Ġ": 985,
      "sni": 986,
      "vre": 987,
      "stru": 988,
      "ilaĠ": 989,
      "bro": 990,
      "iniĠ": 991,
      "kri": 992,
      "ÑĢÐ°Ñ": 993,
      "nu": 994,
      "kakoĠ": 995,
      "Ð£": 996,
      "Ð°ÐºĠ": 997,
      "ÐºÐ°Ġ": 998,
      "ÐĪ": 999,
      "nje": 1000,
      "Ð³Ð¾Ð´Ð¸Ð½ÐµĠ": 1001,
      "godineĠ": 1002,
      "ÑĥÐ±": 1003,
      "stoĠ": 1004,
      "skihĠ": 1005,
      "lji": 1006,
      "ÐµÑĪ": 1007,
      "akoĠ": 1008,
      "nji": 1009,
      "loĠ": 1010,
      "Äĩen": 1011,
      "miĠ": 1012,
      "Ð½Ð¾ÑģÑĤĠ": 1013,
      "cij": 1014,
      "mal": 1015,
      "Ð°ÑĨÐ¸ÑĺÐµĠ": 1016,
      "rad": 1017,
      "ÑĥÑĺÐµĠ": 1018,
      "Ðķ": 1019,
      "Ð°Ð²Ð°Ġ": 1020,
      "kom": 1021,
      "ok": 1022,
      "ut": 1023,
      "Ð¿Ð¾ÑĤ": 1024,
      "sle": 1025,
      "ÑģÐºÐ¾Ð³Ġ": 1026,
      "ÑĥÐ¶": 1027,
      "Ð°Ð»Ð°Ġ": 1028,
      "gle": 1029,
      "Ð¾ÑĻ": 1030,
      "gen": 1031,
      "Ð¾ÑĢÐ°Ġ": 1032,
      "meÄĳ": 1033,
      "ÑĪÑĤÐ¾Ġ": 1034,
      "Ð°Ð´Ð°Ġ": 1035,
      "ot": 1036,
      "Ð°ÑĤÐ°Ġ": 1037,
      "moÅ¾eĠ": 1038,
      "ruĠ": 1039,
      "samĠ": 1040,
      "koli": 1041,
      "ÐµÐºÑĤ": 1042,
      "ÐµÐ¼Ð°Ġ": 1043,
      "koj": 1044,
      "Ð¾Ð½Ġ": 1045,
      "ovi": 1046,
      "razli": 1047,
      "met": 1048,
      "lek": 1049,
      "ÐµÑĩ": 1050,
      "Ð°ÑĺĠ": 1051,
      "ek": 1052,
      "pit": 1053,
      "Ð¸ÑĨÐ°Ġ": 1054,
      "ÐºÐ¾ÑĺÐµĠ": 1055,
      "Å¡e": 1056,
      "ima": 1057,
      "siĠ": 1058,
      "ÐµÑļÐµĠ": 1059,
      "sveĠ": 1060,
      "ÑĥÑĺ": 1061,
      "ho": 1062,
      "ÐµÐ½Ð¸Ġ": 1063,
      "Ð´ÑĢÑĥÐ³": 1064,
      "Ð¿Ð»": 1065,
      "Åł": 1066,
      "Ð½Ð¸ÑĺÐµĠ": 1067,
      "ÑĥÐ": 1068,
      "Ð¿Ð¾Ð»": 1069,
      "Å¡en": 1070,
      "Ð³Ð»": 1071,
      "Ð½ÑĥĠ": 1072,
      "Å¡i": 1073,
      "ÐµÑĻ": 1074,
      "pla": 1075,
      "ajuĠ": 1076,
      "Ð°Ð¶": 1077,
      "Ð½Ð°Ñĺ": 1078,
      "samoĠ": 1079,
      "nojĠ": 1080,
      "viÅ¡eĠ": 1081,
      "ÑģÐºÐ°Ġ": 1082,
      "ÐºÐ¾Ð¼": 1083,
      "kre": 1084,
      "timĠ": 1085,
      "Re": 1086,
      "10Ġ": 1087,
      "âĢľ": 1088,
      "he": 1089,
      "Ð¿Ð¾ÑĢ": 1090,
      "kadaĠ": 1091,
      "ver": 1092,
      "kogĠ": 1093,
      "dov": 1094,
      "ÐµÐ»Ð°Ġ": 1095,
      "poli": 1096,
      "ÐµÑĢĠ": 1097,
      "ÐºÐ¾ÑĢ": 1098,
      "Ð¸ÐºĠ": 1099,
      "potreb": 1100,
      "Ð¼ÐµÑĴ": 1101,
      "ÐµÐ½Ð¾Ġ": 1102,
      "ki": 1103,
      "ÐĽ": 1104,
      "lan": 1105,
      "199": 1106,
      "mogu": 1107,
      "Ð¾ÑĢÐ¼": 1108,
      "nal": 1109,
      "ÑĥÐ»ÑĤ": 1110,
      "vanjaĠ": 1111,
      "ori": 1112,
      "goĠ": 1113,
      "uz": 1114,
      "Ð¸Ñħ": 1115,
      "ÐµÑĦ": 1116,
      "Ð´Ð¾Ġ": 1117,
      "pot": 1118,
      "kodĠ": 1119,
      "sli": 1120,
      "tnoĠ": 1121,
      "van": 1122,
      "ogra": 1123,
      "ÐµÐ¶": 1124,
      "Ð¾Ð´Ð½Ð¾Ñģ": 1125,
      "Äī": 1126,
      "stva": 1127,
      "Ð²Ð°Ġ": 1128,
      "sred": 1129,
      "sva": 1130,
      "Ð±Ð¸Ġ": 1131,
      "veli": 1132,
      "njeĠ": 1133,
      "nikaĠ": 1134,
      "stiÄį": 1135,
      "Ð°ÑļÑĥĠ": 1136,
      "zav": 1137,
      "Ð¸Ð·Ð²": 1138,
      "É¨": 1139,
      "20Ġ": 1140,
      "un": 1141,
      "Ð¸ÑĽ": 1142,
      "ÑģÐ°Ð¼": 1143,
      "ljeĠ": 1144,
      "anĠ": 1145,
      "rav": 1146,
      "Ð°ÑĢĠ": 1147,
      "Ð¼Ð¾Ð³": 1148,
      "Ð¿Ð¾Ð²": 1149,
      "Ð³Ð¾Ð²": 1150,
      "Ð¸ÐºÐµĠ": 1151,
      "Ð¸ÑĨÐµĠ": 1152,
      "pod": 1153,
      "osnov": 1154,
      "bitiĠ": 1155,
      "ge": 1156,
      "tal": 1157,
      "snoĠ": 1158,
      "Be": 1159,
      "Ð°ÑĨÐ¸ÑĺÐ°Ġ": 1160,
      "ÑģÐºÐ¸ÑħĠ": 1161,
      "vanjeĠ": 1162,
      "Ð¸ÑĨÐ¸Ġ": 1163,
      "Ð¾ÑĴ": 1164,
      "É¢": 1165,
      "ÐºÐµĠ": 1166,
      "Ð°ÐºÑĤ": 1167,
      "tomĠ": 1168,
      "org": 1169,
      "cuĠ": 1170,
      "Ka": 1171,
      "bli": 1172,
      "ÐµÑĤÐ°Ġ": 1173,
      "inuĠ": 1174,
      "pove": 1175,
      "Ð¾ÑĢĠ": 1176,
      "Å¡taĠ": 1177,
      "Ð¿ÑĢÐ¸Ð¼": 1178,
      "cijiĠ": 1179,
      "danĠ": 1180,
      "vla": 1181,
      "ÐºÐ¾ÑĺÐ°Ġ": 1182,
      "18": 1183,
      "th": 1184,
      "Ð¾Ð²ÐµĠ": 1185,
      "kihĠ": 1186,
      "mod": 1187,
      "ÑĢÐ°Ð·Ð»": 1188,
      "ave": 1189,
      "tr": 1190,
      "Ð¸ÑĪÑĤ": 1191,
      "Ne": 1192,
      "gl": 1193,
      "....": 1194,
      "fa": 1195,
      "san": 1196,
      "Za": 1197,
      "gru": 1198,
      "Ð¾Ð±Ð»": 1199,
      "Éļ": 1200,
      "ÄĩuĠ": 1201,
      "Ð¥": 1202,
      "bra": 1203,
      "âĢĿĠ": 1204,
      "Ð½Ðµ": 1205,
      "É¨É": 1206,
      "proiz": 1207,
      "jerĠ": 1208,
      "Ð·Ð½Ð°Ñĩ": 1209,
      "kolikoĠ": 1210,
      "ÐµÑĤĠ": 1211,
      "geĠ": 1212,
      "ÐµÑĨ": 1213,
      "Ð¾ÑģÐ»": 1214,
      "ÑĢÐ°Ð¶": 1215,
      "konĠ": 1216,
      "rek": 1217,
      "Ð¤": 1218,
      "siste": 1219,
      "posto": 1220,
      "Ð°Ð½ÑĤ": 1221,
      "predstav": 1222,
      "Ð¼Ð¾Ð¶": 1223,
      "ovan": 1224,
      "odgov": 1225,
      "gla": 1226,
      "min": 1227,
      "luĠ": 1228,
      "Ð°Ð»Ð¸Ð·": 1229,
      "Me": 1230,
      "tor": 1231,
      "skomĠ": 1232,
      "Ð¿Ð¾ÑģÐ»": 1233,
      "smoĠ": 1234,
      "Å¾ivo": 1235,
      "Ð¾Ð´ÑĢ": 1236,
      "Ð¸Ð½Ġ": 1237,
      "Ð°ÑĻ": 1238,
      "Ð°ÑĤÐ¸Ð²": 1239,
      "tri": 1240,
      "ÑĥÑģÑĤ": 1241,
      "Ð°ÑĢÐ°Ġ": 1242,
      "jo": 1243,
      "Ta": 1244,
      "niÄį": 1245,
      "oviĠ": 1246,
      "Ð¡ÑĢ": 1247,
      "rod": 1248,
      "ÄĮ": 1249,
      "Ð¾Ð³Ð°Ġ": 1250,
      "meÄĳuĠ": 1251,
      "znaÄįa": 1252,
      "Ð¿Ð¸ÑĤ": 1253,
      "klju": 1254,
      "cimaĠ": 1255,
      "moguĠ": 1256,
      "menaĠ": 1257,
      "nikĠ": 1258,
      "bogĠ": 1259,
      "ÄĨĠ": 1260,
      "vuĠ": 1261,
      "ÐºÐ¾Ð»": 1262,
      "Ð¸ÑĪÐµĠ": 1263,
      "É¢É": 1264,
      "ÐµÑĺ": 1265,
      "kup": 1266,
      "stvaĠ": 1267,
      "fo": 1268,
      "jamaĠ": 1269,
      "Ra": 1270,
      "zo": 1271,
      "Ð¿Ð¾Ġ": 1272,
      "biloĠ": 1273,
      "ÄįiĠ": 1274,
      "Ð¸Ð½Ð¸Ġ": 1275,
      "ÉļÉ": 1276,
      "bioĠ": 1277,
      "lta": 1278,
      "ÑĤÐ¾Ġ": 1279,
      "takoĠ": 1280,
      "im": 1281,
      "ÄįnoĠ": 1282,
      "Ð¸Ð»Ð¾Ġ": 1283,
      "svi": 1284,
      "ÑĥÐ²": 1285,
      "Ð¸Ñļ": 1286,
      "Ð²Ð¾Ñĺ": 1287,
      "Ð¿Ð¾Ðº": 1288,
      "ÐµÐ½ÑĨ": 1289,
      "stvoĠ": 1290,
      "Sa": 1291,
      "Ð°ÐºÐ°Ġ": 1292,
      "ÑĦÐ¾ÑĢÐ¼": 1293,
      "ter": 1294,
      "ÑģÑĢ": 1295,
      "rt": 1296,
      "Å£": 1297,
      "proce": 1298,
      "dobi": 1299,
      "zem": 1300,
      "rak": 1301,
      "__": 1302,
      "Ð¿ÐµÑĢ": 1303,
      "Ð¾Ð½Ð°Ġ": 1304,
      "Ð½ÐµÐº": 1305,
      "Ð¾Ð²Ð¸ÑĽĠ": 1306,
      "loÅ¡": 1307,
      "ÄĳeĠ": 1308,
      "sku": 1309,
      "Å¡a": 1310,
      "ÑģÐºÐ¾Ð¼Ġ": 1311,
      "ÑģĠ": 1312,
      "Ko": 1313,
      "odre": 1314,
      "Ð¶Ð¸Ð²": 1315,
      "ove": 1316,
      "ÑĥÑĪ": 1317,
      "skimĠ": 1318,
      "romĠ": 1319,
      "hva": 1320,
      "zan": 1321,
      "Ð´ÐµÐ»": 1322,
      "Ð¼Ð¾Ð¶ÐµĠ": 1323,
      "Ð°Ð¼Ġ": 1324,
      "Ð²ÐµÑĽ": 1325,
      "kro": 1326,
      "Ð½Ð¸ÐºÐ°Ġ": 1327,
      "Ð´Ð¾Ð±": 1328,
      "...Ġ": 1329,
      "dal": 1330,
      "Ð¸ÑĦ": 1331,
      "istra": 1332,
      "pose": 1333,
      "zulta": 1334,
      "ÑļÐµÐ³": 1335,
      "Äĳu": 1336,
      "ÉŁ": 1337,
      "premaĠ": 1338,
      "ÐµÐ½Ð¸ÑħĠ": 1339,
      "12Ġ": 1340,
      "kul": 1341,
      "Ð¿Ð¾Ð·": 1342,
      "beĠ": 1343,
      "ovogĠ": 1344,
      "oda": 1345,
      "NaĠ": 1346,
      "au": 1347,
      "kva": 1348,
      "Ð¿Ð¾Ñĺ": 1349,
      "ÑĥÑĽÐ¸Ġ": 1350,
      "ÑĢÐµÐ±": 1351,
      "Å¡ti": 1352,
      "Å¡ko": 1353,
      "Ð¸ÑģÐº": 1354,
      "peĠ": 1355,
      "tek": 1356,
      "Ma": 1357,
      "Ð»Ð°Ð´": 1358,
      "njen": 1359,
      "anali": 1360,
      "ÑĥÑĺÑĥĠ": 1361,
      "tak": 1362,
      "Ð´ÑĢÐ¶": 1363,
      "dokĠ": 1364,
      "juÄĩiĠ": 1365,
      "Pro": 1366,
      "ÐµÐ´Ġ": 1367,
      "njih": 1368,
      "Ð¾ÑģÐ½Ð¾Ð²": 1369,
      "ha": 1370,
      "stup": 1371,
      "Ð½Ð¾ÑĺĠ": 1372,
      "Ð¼ÐµÑĴÑĥĠ": 1373,
      "Ð¿ÑĢÐ²": 1374,
      "Ð¾Ð²Ð¸Ġ": 1375,
      "''": 1376,
      "In": 1377,
      "pozi": 1378,
      "Ð¸ÑĺÐ°Ð»": 1379,
      "pore": 1380,
      "Ð°ÑĺÐ°Ġ": 1381,
      "Ð¿Ð°ÑĢ": 1382,
      "Ð°Ð½Ð¸Ġ": 1383,
      "tetaĠ": 1384,
      "jek": 1385,
      "ÑĥÑĪÑĤ": 1386,
      "stal": 1387,
      "cional": 1388,
      "SrbijeĠ": 1389,
      "poka": 1390,
      "15Ġ": 1391,
      "zbogĠ": 1392,
      "kimĠ": 1393,
      "11Ġ": 1394,
      "menta": 1395,
      "ÑģÑĤÑĢÐ°Ð½": 1396,
      "Ð¼Ð°ÑĤ": 1397,
      "veÄĩĠ": 1398,
      "rij": 1399,
      "svoj": 1400,
      "poda": 1401,
      "Ð¾ÐºĠ": 1402,
      "br": 1403,
      "aktiv": 1404,
      "ble": 1405,
      "Ð¸Ð¾Ð½Ð°Ð»": 1406,
      "Ð½Ð°ÑģÑĤ": 1407,
      "Ð¿ÑĢÐµÐ´ÑģÑĤ": 1408,
      "uti": 1409,
      "ÑĽÐµĠ": 1410,
      "lja": 1411,
      "ÐµÐ¾Ġ": 1412,
      "glav": 1413,
      "cijal": 1414,
      "ÉŁÉ": 1415,
      "tneĠ": 1416,
      "ÑĢĠ": 1417,
      "fin": 1418,
      "viÄĩĠ": 1419,
      "mno": 1420,
      "forma": 1421,
      "tin": 1422,
      "Ð¸ÑĻ": 1423,
      "ÑģÐ²Ð¾Ñĺ": 1424,
      "Ð¸Ð±": 1425,
      "ÑĻÑĥÑĩ": 1426,
      "logi": 1427,
      "sluÄįa": 1428,
      "ji": 1429,
      "trebaĠ": 1430,
      "onaĠ": 1431,
      "ÄįaĠ": 1432,
      "50Ġ": 1433,
      "izmeÄĳuĠ": 1434,
      "oviÄĩĠ": 1435,
      "sr": 1436,
      "el": 1437,
      "Ð¸ÐºÑĥĠ": 1438,
      "ÑĥÑģ": 1439,
      "baĠ": 1440,
      "Ð°ÑĤĠ": 1441,
      "gre": 1442,
      "ovoĠ": 1443,
      "fun": 1444,
      "ÑĢÑĥÐº": 1445,
      "30Ġ": 1446,
      "ava": 1447,
      "danaĠ": 1448,
      "roĠ": 1449,
      "ke": 1450,
      "moguÄĩ": 1451,
      "Ð°Ð½ÐµĠ": 1452,
      "inĠ": 1453,
      "njegov": 1454,
      "ÑĤÐ°Ðº": 1455,
      "niciĠ": 1456,
      "Pri": 1457,
      "Ð¿ÑĢÐ¾ÑĨ": 1458,
      "Ð½Ð°ÑĢ": 1459,
      "godinaĠ": 1460,
      "Ð·Ð°Ñ": 1461,
      "preĠ": 1462,
      "Pre": 1463,
      "struk": 1464,
      "000Ġ": 1465,
      "Mi": 1466,
      "Ð¡ÑĤ": 1467,
      "meneĠ": 1468,
      "naÅ¡": 1469,
      "ï¿": 1470,
      "Ð·Ð°Ðº": 1471,
      "21Ġ": 1472,
      "val": 1473,
      "lje": 1474,
      "vor": 1475,
      "ÄįĠ": 1476,
      "Ð²Ð°ÑĢ": 1477,
      "Ð¾ÑĦ": 1478,
      "Ð¾ÑĢÐ³": 1479,
      "Ni": 1480,
      "druÅ¡t": 1481,
      "âĢĿ": 1482,
      "rezulta": 1483,
      "bezĠ": 1484,
      "ovomĠ": 1485,
      "ÐºÐ°ÑĢ": 1486,
      "Ð±Ð¸Ð¾Ġ": 1487,
      "avanjeĠ": 1488,
      "ranjeĠ": 1489,
      "198": 1490,
      "jedin": 1491,
      "torĠ": 1492,
      "ataĠ": 1493,
      "mat": 1494,
      "zd": 1495,
      "odnosnoĠ": 1496,
      "razliÄįi": 1497,
      "vro": 1498,
      "razvo": 1499,
      "skuĠ": 1500,
      "para": 1501,
      "ÐºÑĥĠ": 1502,
      "âĢľ,Ġ": 1503,
      "Ð¸Ð²Ð°ÑļÐ°Ġ": 1504,
      "ofĠ": 1505,
      "Ð¡ÑĢÐ±": 1506,
      "ÑģÐ¸ÑģÑĤ": 1507,
      "obra": 1508,
      "vrednostiĠ": 1509,
      "peri": 1510,
      "togaĠ": 1511,
      "alĠ": 1512,
      "andĠ": 1513,
      "Ð¼ÐµÑĤ": 1514,
      "ten": 1515,
      "vrÅ¡": 1516,
      "ovimaĠ": 1517,
      "ÅłĠ": 1518,
      "komp": 1519,
      "uÄį": 1520,
      "Ð°ÑĴ": 1521,
      "Ð¾Ð´Ð°Ġ": 1522,
      "istraÅ¾i": 1523,
      "ÑĥÑģÐ»": 1524,
      "timaĠ": 1525,
      "Beogra": 1526,
      "ÐµÐ³Ġ": 1527,
      "Ð²ÐµÐ»": 1528,
      "ÐºÐ²": 1529,
      "brojĠ": 1530,
      "De": 1531,
      "ÑĢÑĥÐ¿": 1532,
      "Ð´ÐµĠ": 1533,
      "cu": 1534,
      "pozna": 1535,
      "aniza": 1536,
      "znaÄįaj": 1537,
      "bilaĠ": 1538,
      "Ð¸ÑĩÐºÐ¸Ġ": 1539,
      "Mo": 1540,
      "tran": 1541,
      "toraĠ": 1542,
      "Ð²ÑĢÐµÐ¼": 1543,
      "ÑļÐµĠ": 1544,
      "nastav": 1545,
      "Ð°Ð»Ð¾Ġ": 1546,
      "ÑģÐ°Ð¼Ð¾Ġ": 1547,
      "ÑĢÑĪ": 1548,
      "gdeĠ": 1549,
      "poÄįe": 1550,
      "sed": 1551,
      "Ð½Ð¸ÐºĠ": 1552,
      "Ð°ÑĽ": 1553,
      "Ð¨": 1554,
      "ÐµÐ½ÑĥĠ": 1555,
      "pera": 1556,
      "ÑģÐºÐ¸Ð¼Ġ": 1557,
      "Ð»Ð¸Ġ": 1558,
      "razu": 1559,
      "ÑĴ": 1560,
      "Ð¸Ð¶": 1561,
      "skojĠ": 1562,
      "proble": 1563,
      "Ð¿Ð¾Ð½": 1564,
      "ÑĤÑĥÑĢ": 1565,
      "ÄįinĠ": 1566,
      "ele": 1567,
      "funk": 1568,
      "fika": 1569,
      "Ð°ÑĨĠ": 1570,
      "laziĠ": 1571,
      "avi": 1572,
      "Ð¼ÐµÑĢ": 1573,
      "usl": 1574,
      "nisuĠ": 1575,
      "ÑĺÐµÐ·": 1576,
      "ÐºÐ»": 1577,
      "inter": 1578,
      "Å¡ta": 1579,
      "Ð½Ð°Ð¿": 1580,
      "rajuĠ": 1581,
      "medi": 1582,
      "22Ġ": 1583,
      "Ð¾Ð²Ġ": 1584,
      "zuĠ": 1585,
      "uve": 1586,
      "teh": 1587,
      "stuĠ": 1588,
      "obi": 1589,
      "ÐµÐºÑģ": 1590,
      "Ð¿Ð¾Ð¼": 1591,
      "Ð¿ÑĢÐµÑĤ": 1592,
      "ÑģÑĤÑĢ": 1593,
      "14Ġ": 1594,
      "Ve": 1595,
      "joÅ¡Ġ": 1596,
      "Ð·Ð°Ð¿": 1597,
      "Ð¦": 1598,
      "ur": 1599,
      "ÑĢÐ¶": 1600,
      "rodi": 1601,
      "Ð¾Ð¿ÑĢ": 1602,
      "enaĠ": 1603,
      "tihĠ": 1604,
      "ÐµÑħ": 1605,
      "Ð°Ð½Ð¸Ð·": 1606,
      "ÐºÐ¾Ð´Ġ": 1607,
      "deoĠ": 1608,
      "ad": 1609,
      "Ð½Ð°Ð²": 1610,
      "Ð°Ð´Ġ": 1611,
      "ÑģÑĢÐµÐ´": 1612,
      "pl": 1613,
      "liza": 1614,
      "13Ġ": 1615,
      "ÉļĠ": 1616,
      "zah": 1617,
      "Ð¾ÑģÑĤĠ": 1618,
      "Ð¸Ð½ÑĤÐµÑĢ": 1619,
      "ÑģÑĤÐ°Ð½": 1620,
      "ÐµÐ½Ð¾Ð³Ġ": 1621,
      "pravoĠ": 1622,
      "Ð°Ð²ÑĻÐ°Ġ": 1623,
      "stven": 1624,
      "Ð¿ÑĢÐ¾": 1625,
      "jedanĠ": 1626,
      "ÐµÑĪÑĤ": 1627,
      "tren": 1628,
      "Ð¿ÑĢÐ¾ÑĤ": 1629,
      "izra": 1630,
      "Ð¸Ð·Ð¼ÐµÑĴÑĥĠ": 1631,
      "ï¿½Ġ": 1632,
      "Ð·ÐµÐ¼": 1633,
      "pomo": 1634,
      "takĠ": 1635,
      "skoĠ": 1636,
      "ingĠ": 1637,
      "likaĠ": 1638,
      "nakonĠ": 1639,
      "mode": 1640,
      "ljuĠ": 1641,
      "ÐºÐ¾Ġ": 1642,
      "drÅ¾av": 1643,
      "ÑĢÐµ": 1644,
      "ÄįeĠ": 1645,
      "postav": 1646,
      "kar": 1647,
      "par": 1648,
      "ÑģÑĤÐ²Ð¾Ġ": 1649,
      "sme": 1650,
      "isto": 1651,
      "16Ġ": 1652,
      "Ð²ÑĢÐµÐ´": 1653,
      "ÄįneĠ": 1654,
      "radi": 1655,
      "straneĠ": 1656,
      "ranjaĠ": 1657,
      "Ð´Ð²": 1658,
      "Ð½Ð¸Ð²": 1659,
      "10": 1660,
      "per": 1661,
      "aloĠ": 1662,
      "eko": 1663,
      "Ð²Ð¸ÑĪÐµĠ": 1664,
      "njaĠ": 1665,
      "ch": 1666,
      "25Ġ": 1667,
      "18Ġ": 1668,
      "Ð´Ġ": 1669,
      "Å¡Äĩen": 1670,
      "ovanjaĠ": 1671,
      "ÑģÑĤÐ²Ð°Ġ": 1672,
      "Ð¾Ð´ÑĢÐµÑĴ": 1673,
      "vomĠ": 1674,
      "naÄįinĠ": 1675,
      "Å¾iĠ": 1676,
      "19Ġ": 1677,
      "odlu": 1678,
      "Ð²ÐµÐ·": 1679,
      "tetĠ": 1680,
      "Ð¸ÑĩÐºÐµĠ": 1681,
      "olj": 1682,
      "mini": 1683,
      "sadrÅ¾": 1684,
      "okoĠ": 1685,
      "prin": 1686,
      "Ð¸Ð½ÑĥĠ": 1687,
      "vra": 1688,
      "imajuĠ": 1689,
      "Ð²Ð°ÑĤ": 1690,
      "materi": 1691,
      "ostiĠ": 1692,
      "ÑļÐ¸Ñħ": 1693,
      "Ð¸ÐºÐ¾Ġ": 1694,
      "osob": 1695,
      "Ð¼Ð¾Ð´": 1696,
      "sob": 1697,
      "etĠ": 1698,
      "Ð¾Ð²Ð¾Ð³Ġ": 1699,
      "Äĳe": 1700,
      "govor": 1701,
      "ÑĢÐ°Ġ": 1702,
      "Ð¾Ð»Ð¾ÑĪ": 1703,
      "njihĠ": 1704,
      "vremeĠ": 1705,
      "ÑģÑĢÐ¿": 1706,
      "Ð¿ÑĢÐµÐ¼Ð°Ġ": 1707,
      "kr": 1708,
      "njuĠ": 1709,
      "Ð¸ÑĢÐ°Ġ": 1710,
      "Ð°Ð·Ð¸Ġ": 1711,
      "zbe": 1712,
      "iloĠ": 1713,
      "ÐµÐ²Ð°Ġ": 1714,
      "Äĩa": 1715,
      "kal": 1716,
      "Ð½Ð°": 1717,
      "«É": 1718,
      "publi": 1719,
      "tureĠ": 1720,
      "Ð°Ð²ÐµĠ": 1721,
      "RA": 1722,
      "posle": 1723,
      "Ð½Ð°Ðº": 1724,
      "Ð·Ð±": 1725,
      "ostĠ": 1726,
      "ÐµÐ¾Ð³": 1727,
      "una": 1728,
      "zajed": 1729,
      "dar": 1730,
      "avanjaĠ": 1731,
      "Ð¿Ð¾Ñĩ": 1732,
      "njiĠ": 1733,
      "Ð°ÑļÐµÐ¼Ġ": 1734,
      "Ð¸ÑģÑĤÑĢÐ°Ð¶": 1735,
      "Ð³Ð¾Ð²Ð¾ÑĢ": 1736,
      "proizvod": 1737,
      "ÑĢÐ°Ð¼": 1738,
      "ispi": 1739,
      "Ð³ÑĢÐ°Ð´": 1740,
      "ÐµÐ½Ð¾Ð¼Ġ": 1741,
      "Ð²ÐµÑĢ": 1742,
      "cr": 1743,
      "zaÅ¡ti": 1744,
      "koÄĳeĠ": 1745,
      "Ð³ÑĢÑĥÐ¿": 1746,
      "triĠ": 1747,
      "Ð¿Ð¾Ð»Ð¸ÑĤ": 1748,
      "jan": 1749,
      "odnosuĠ": 1750,
      "podĠ": 1751,
      "osnovuĠ": 1752,
      "mb": 1753,
      "17Ġ": 1754,
      "ÑģÐºÐ¾ÑĺĠ": 1755,
      "dana": 1756,
      "Äįin": 1757,
      "tera": 1758,
      "slo": 1759,
      "mar": 1760,
      "prime": 1761,
      "Je": 1762,
      "Ð¾Ð²Ð¾Ġ": 1763,
      "Éª": 1764,
      "Ð²Ð¸Ð´": 1765,
      "voj": 1766,
      "ÑĢÐ°ÑĦ": 1767,
      "iza": 1768,
      "uzĠ": 1769,
      "Å½": 1770,
      "zavis": 1771,
      "tokomĠ": 1772,
      "Ð¾Ð±Ñĺ": 1773,
      "ljudiĠ": 1774,
      "ÑĢÐµÐ·": 1775,
      "kan": 1776,
      "obave": 1777,
      "vimaĠ": 1778,
      "ÄįkeĠ": 1779,
      "karak": 1780,
      "fil": 1781,
      "negoĠ": 1782,
      "ist": 1783,
      "ÐºÐ°ÐºÐ¾Ġ": 1784,
      "jimaĠ": 1785,
      "dvaĠ": 1786,
      "ÐµÐºÐ°Ġ": 1787,
      "Ð°Ð»ÐµĠ": 1788,
      "Äĳa": 1789,
      "primen": 1790,
      "Ð¿ÑĢÐ¾Ð¼": 1791,
      "kla": 1792,
      "Ð¿Ð¾ÑģÑĤÐ¾Ñĺ": 1793,
      "Ð·Ð°Ð²": 1794,
      "ÑĢÐ°ÑĴ": 1795,
      "hra": 1796,
      "tionĠ": 1797,
      "manjeĠ": 1798,
      "cijen": 1799,
      "Va": 1800,
      "Ð¾Ð´Ð»": 1801,
      "Ð¾ÑĽ": 1802,
      "197": 1803,
      "kojimaĠ": 1804,
      "Ð¸Ð²Ġ": 1805,
      "niceĠ": 1806,
      "hod": 1807,
      "bor": 1808,
      "co": 1809,
      "rimaĠ": 1810,
      "dovolj": 1811,
      "popu": 1812,
      "IIĠ": 1813,
      "Ð½Ð°Ñģ": 1814,
      "samo": 1815,
      "Ð»ÐµÐ´": 1816,
      "priĠ": 1817,
      "organiza": 1818,
      "Ð°ÑĩÐº": 1819,
      "24Ġ": 1820,
      "Ð¾Ð²Ð¾Ð¼Ġ": 1821,
      "ÑĢÐ°Ñģ": 1822,
      "ÑģÐºÐ¾Ġ": 1823,
      "kontro": 1824,
      "ÐĿÐ°Ġ": 1825,
      "ljiĠ": 1826,
      "Ð´ÑĢÑĥÑĪÑĤ": 1827,
      "kvali": 1828,
      "omaĠ": 1829,
      "ara": 1830,
      "tan": 1831,
      "sigu": 1832,
      "nicaĠ": 1833,
      "Ru": 1834,
      "Ð¾Ð²Ð¸Ð¼Ð°Ġ": 1835,
      "matra": 1836,
      "ÑĢÐ°Ð´Ġ": 1837,
      "vrop": 1838,
      "âĢĻĠ": 1839,
      "elek": 1840,
      "kadĠ": 1841,
      "Å¡te": 1842,
      "ÑĤÐµĠ": 1843,
      "sla": 1844,
      "vanĠ": 1845,
      "ioĠ": 1846,
      "prika": 1847,
      "meta": 1848,
      "ÐºÐ°Ð´Ð°Ġ": 1849,
      "tur": 1850,
      "Ð¼Ð°Ġ": 1851,
      "mp": 1852,
      "Äĳi": 1853,
      "ÑģÐ»ÑĥÑĩ": 1854,
      "informa": 1855,
      "ZaĠ": 1856,
      "Ð°Ð½Ð¾Ġ": 1857,
      "pad": 1858,
      "Ð·Ð½Ð°ÑĩÐ°Ñĺ": 1859,
      "Ð°ÑĨÐ¸ÑĺÑĥĠ": 1860,
      "utica": 1861,
      "doda": 1862,
      "ide": 1863,
      "Ð²Ð¾Ð´": 1864,
      "ovanjeĠ": 1865,
      "Bo": 1866,
      "poru": 1867,
      "regi": 1868,
      "srp": 1869,
      "grad": 1870,
      "kojuĠ": 1871,
      "eni": 1872,
      "uspe": 1873,
      "uÄįe": 1874,
      "sna": 1875,
      "uze": 1876,
      "tomeĠ": 1877,
      "Ð´Ð¾ÐºĠ": 1878,
      "rijeĠ": 1879,
      "centra": 1880,
      "ÑĥÑħ": 1881,
      "osta": 1882,
      "organ": 1883,
      "ÐµÐºĠ": 1884,
      "ÑģÐ²ÐµĠ": 1885,
      "radiĠ": 1886,
      "ÐµÑĽĠ": 1887,
      "jezi": 1888,
      "Ð°ÑĥÑĤ": 1889,
      "drugeĠ": 1890,
      "skla": 1891,
      "it": 1892,
      "ÐĲĠ": 1893,
      "odreÄĳen": 1894,
      "predu": 1895,
      "svojeĠ": 1896,
      "Å¡teĠ": 1897,
      "Ð¸ÑĽÐ°Ġ": 1898,
      "Ð°Ð²Ġ": 1899,
      "ÑĥÑĨ": 1900,
      "Ð¸Ð²Ð°ÑļÐµĠ": 1901,
      "lar": 1902,
      "Ð§": 1903,
      "ÑĩÐ»": 1904,
      "\",Ġ": 1905,
      "Ð¾ÑĢÐ³Ð°Ð½Ð¸Ð·": 1906,
      "Ð±Ð¸Ð»Ð¾Ġ": 1907,
      "ksi": 1908,
      "bav": 1909,
      "vaÅ¾": 1910,
      "ÑĨÑĢ": 1911,
      "gene": 1912,
      "Ð¿Ð¾Ð³": 1913,
      "Ð½Ð°Ð»": 1914,
      "ÑħÐ¾Ð´": 1915,
      "........": 1916,
      "spre": 1917,
      "krozĠ": 1918,
      "ÐºÑļ": 1919,
      "ÐºÑĨ": 1920,
      "ral": 1921,
      "Ð¾Ð¿Ð¸Ñģ": 1922,
      "slob": 1923,
      "meri": 1924,
      "âĢĶĠ": 1925,
      "ÐµÐ·Ġ": 1926,
      "oniĠ": 1927,
      "ÐµÑģÑĤÐ¾Ġ": 1928,
      "Ð¾ÑĴÐµĠ": 1929,
      "avajuĠ": 1930,
      "ST": 1931,
      "progra": 1932,
      "ÑĢÐ°Ð·Ð»Ð¸Ñĩ": 1933,
      "plo": 1934,
      "procen": 1935,
      "zahte": 1936,
      "rÅ¾": 1937,
      "Ð·ÐµÐ¼ÑĻ": 1938,
      "sman": 1939,
      "40Ġ": 1940,
      "vu": 1941,
      "Ð¡Ð»": 1942,
      "Ð°ÑĨÐ¸Ñĺ": 1943,
      "poseb": 1944,
      "orĠ": 1945,
      "ToĠ": 1946,
      "Ð»Ð°Ġ": 1947,
      "logĠ": 1948,
      "ÑĢÐ°ÑĤ": 1949,
      "ÑĻÐ¸Ð²": 1950,
      "23Ġ": 1951,
      "Ð±Ð¸Ð»Ð°Ġ": 1952,
      "obraz": 1953,
      "cijamaĠ": 1954,
      "zujeĠ": 1955,
      "Ð¡Ġ": 1956,
      "DaĠ": 1957,
      "Ð²ÐµÑĽĠ": 1958,
      "nivo": 1959,
      "takaĠ": 1960,
      "ÑĤÐ¾Ðº": 1961,
      "Ð¸ÑĩÐ½Ð¾Ġ": 1962,
      "ansi": 1963,
      "ÑģÐºÑĥĠ": 1964,
      "raÄįu": 1965,
      "viso": 1966,
      "AN": 1967,
      "SrbijiĠ": 1968,
      "Ð¡Ð²": 1969,
      "bole": 1970,
      "Ð°Ð²Ð°ÑļÐµĠ": 1971,
      "ÐµÑĢÐ°Ġ": 1972,
      "ÑĨÐ¸Ġ": 1973,
      "Ð°ÐºÑĤÐ¸Ð²": 1974,
      "zdrav": 1975,
      "Ð¸Ð¼ÐµĠ": 1976,
      "dan": 1977,
      "ÑĢÐµÐ¼": 1978,
      "Ð²ÑĢÑĪ": 1979,
      "obla": 1980,
      "ban": 1981,
      "Ð¿ÑĢÐ¾ÑģÑĤ": 1982,
      "vodiĠ": 1983,
      "Ð°ÑĪÑļ": 1984,
      "tniĠ": 1985,
      "liÄį": 1986,
      "Pe": 1987,
      "radaĠ": 1988,
      "poveÄĩ": 1989,
      "Ð²Ð¾Ġ": 1990,
      "sadaĠ": 1991,
      "ÐµÐ½Ð¸Ð¼Ġ": 1992,
      "pen": 1993,
      "tivĠ": 1994,
      "Ð¶Ð¸Ð²Ð¾ÑĤ": 1995,
      "Te": 1996,
      "Ð²Ð»": 1997,
      "Ð½Ð°Ð³": 1998,
      "stimaĠ": 1999,
      "kojĠ": 2000,
      "Ð¸Ð½ÑĤ": 2001,
      "rea": 2002,
      "Ð°ÑĺÐµĠ": 2003,
      "Å¡aĠ": 2004,
      "ÐµÑļÑĥĠ": 2005,
      "haĠ": 2006,
      "Ð±ÑĥÐ´": 2007,
      "pakĠ": 2008,
      "Ð±Ð¸ÑĤÐ¸Ġ": 2009,
      "budeĠ": 2010,
      "tnaĠ": 2011,
      "izi": 2012,
      "âĢľ.Ġ": 2013,
      "ÑģÐ²ÐµÑĤ": 2014,
      "ÐµÐ´Ð½": 2015,
      "17": 2016,
      "direk": 2017,
      "ÑĻÑĥÐ´": 2018,
      "Ð½ÐµÐ³": 2019,
      "uÄįen": 2020,
      "Ð¼Ð¾Ð³ÑĥĠ": 2021,
      "zako": 2022,
      "13": 2023,
      "ekono": 2024,
      "Ð¾Ð´Ð½Ð¾ÑģÐ½Ð¾Ġ": 2025,
      "ÑĢÐµÐ³": 2026,
      "danasĠ": 2027,
      "nemaĠ": 2028,
      "obe": 2029,
      "ener": 2030,
      "Å¡iĠ": 2031,
      "fak": 2032,
      "stitu": 2033,
      "ÑĤÐ°ÐºÐ¾Ġ": 2034,
      "lin": 2035,
      "Ð°Ð´ÑĢÐ¶": 2036,
      "Ð½Ð¾Ð³": 2037,
      "tnihĠ": 2038,
      "itiĠ": 2039,
      "Ð¾Ð»Ð¾Ð³": 2040,
      "cijomĠ": 2041,
      "Ð¿Ð¸Ñģ": 2042,
      "Od": 2043,
      "ÐĳÐµÐ¾Ð³": 2044,
      "janjeĠ": 2045,
      "izve": 2046,
      "Ð³Ð°Ġ": 2047,
      "Ð³Ġ": 2048,
      "nad": 2049,
      "ÑĢÐ°Ð·Ð»Ð¸ÑĩÐ¸ÑĤ": 2050,
      "ranĠ": 2051,
      "60Ġ": 2052,
      "cija": 2053,
      "Ð°ÑģĠ": 2054,
      "okvi": 2055,
      "Ð¿ÑĢÐ¾Ð¸Ð·Ð²": 2056,
      "ÑĢÐµÑĩ": 2057,
      "ÑĤÐµÐ¼": 2058,
      "sre": 2059,
      "ÑĺÐµÑĢĠ": 2060,
      "biliĠ": 2061,
      "prili": 2062,
      "ÐµÑĽÐ¸Ġ": 2063,
      "spek": 2064,
      "É§": 2065,
      "Å¾a": 2066,
      "ÑģÑĤÑĢÑĥÐº": 2067,
      ".-Ġ": 2068,
      "Ð¾Ð¿ÑĪÑĤ": 2069,
      "jal": 2070,
      "ÑģÑĤÐ²Ð°ÑĢ": 2071,
      "Ð°Ð½Ð°Ð»Ð¸Ð·": 2072,
      "studi": 2073,
      "Äĩeli": 2074,
      "vremen": 2075,
      "ÉŁĠ": 2076,
      "Ã¨": 2077,
      "sistemaĠ": 2078,
      "ÑĥÐ»ÑĤÑĥÑĢ": 2079,
      "objav": 2080,
      "Ð½Ð°Ð´": 2081,
      "RE": 2082,
      "ÑĨÐµÐ½": 2083,
      "ÑĢÐ°Ð·Ð²": 2084,
      "Ð¿ÑĢÐ¸Ðº": 2085,
      "liz": 2086,
      "tvr": 2087,
      "lanĠ": 2088,
      "rijaĠ": 2089,
      "obu": 2090,
      "pravaĠ": 2091,
      "stavaĠ": 2092,
      "postojiĠ": 2093,
      "ÑĥÐ½ÐºÑĨ": 2094,
      "ÑĤÑĢÐµÐ±": 2095,
      "domĠ": 2096,
      "bri": 2097,
      "194": 2098,
      "Ð¾ÑĢÐ¸Ñĺ": 2099,
      "Ð¸Ð»ÐµĠ": 2100,
      "ovihĠ": 2101,
      "Ð¸ÑģÐ¿Ð¸ÑĤ": 2102,
      "zn": 2103,
      "moraĠ": 2104,
      "ÑģÑĤÑĢÐ°Ð½ÐµĠ": 2105,
      "Ð²Ð¾ÑĢ": 2106,
      "____": 2107,
      "ÄįkiĠ": 2108,
      "karakteri": 2109,
      "auto": 2110,
      "ÑĢÐµÑĪ": 2111,
      "proizvo": 2112,
      "Ð°Ð½Ð´": 2113,
      "nasĠ": 2114,
      "14": 2115,
      "ose": 2116,
      "pru": 2117,
      "finansi": 2118,
      "utvr": 2119,
      "Ð¼Ð¾Ð³ÑĥÑĽ": 2120,
      "saoĠ": 2121,
      "ÐºÐ¾ÑĢÐ¸ÑģÑĤ": 2122,
      "prekoĠ": 2123,
      "Ð¸Ð½Ð´": 2124,
      "ljĠ": 2125,
      "ap": 2126,
      "ser": 2127,
      "cep": 2128,
      "muni": 2129,
      "ode": 2130,
      "politi": 2131,
      "Ð¸Ð²Ð°Ġ": 2132,
      "manĠ": 2133,
      "theĠ": 2134,
      "Ð¸ÑĤÐµÑĤÐ°Ġ": 2135,
      "Ð°Ð½Ñģ": 2136,
      "Ð±ÑĢÐ¾Ñĺ": 2137,
      "Ð¿ÑĥÑĤ": 2138,
      "Ð°Ð²Ð°ÑļÐ°Ġ": 2139,
      "ÐµÐ½ÐµÑĢ": 2140,
      "Ð¿ÑĢÐ¸Ð»": 2141,
      "'',Ġ": 2142,
      "mla": 2143,
      "Ð¼Ð¸Ð½": 2144,
      "Ð¿Ð¾ÑĤÑĢÐµÐ±": 2145,
      "Do": 2146,
      "Ð»Ð¾Ġ": 2147,
      "namĠ": 2148,
      "Ð¿Ð¾Ð´Ġ": 2149,
      "mese": 2150,
      "rela": 2151,
      "ÑĺÐ°Ð²": 2152,
      "Ð¾ÑĪĠ": 2153,
      "prisu": 2154,
      "ÐµÑĤÐ¸Ġ": 2155,
      "veÄĩ": 2156,
      "Di": 2157,
      "Ð¸ÑĦÐ¸Ðº": 2158,
      "Ð°Ð»Ð½ÐµĠ": 2159,
      "mili": 2160,
      "sen": 2161,
      "tarĠ": 2162,
      "togĠ": 2163,
      "ÑĥÑĤĠ": 2164,
      "Ð·Ð°Ñĺ": 2165,
      "Vi": 2166,
      "dveĠ": 2167,
      "Mil": 2168,
      "prov": 2169,
      "Êģ": 2170,
      "ÑģÐ²Ð°Ðº": 2171,
      "tua": 2172,
      "Ð±Ð¾ÑĢ": 2173,
      "koriÅ¡Äĩen": 2174,
      "uklju": 2175,
      "formi": 2176,
      "ÄįakĠ": 2177,
      "sek": 2178,
      "mentĠ": 2179,
      "ÐµÐ½Ð·": 2180,
      "razume": 2181,
      "sijeĠ": 2182,
      "Ð¾ÑĪÑĤ": 2183,
      "tajĠ": 2184,
      "jomĠ": 2185,
      "Ð¿ÑĢÐµÐº": 2186,
      "ÐµÐ»Ð¸Ġ": 2187,
      "naro": 2188,
      "ovajĠ": 2189,
      "licaĠ": 2190,
      "nave": 2191,
      "lomĠ": 2192,
      "ÑĦÑĥÐ½ÐºÑĨ": 2193,
      "Ð°ÑģÑĤÐ¸Ġ": 2194,
      "Ð¸ÑģÐ»": 2195,
      "vodeĠ": 2196,
      "ÑĢÐµÐ·ÑĥÐ»ÑĤ": 2197,
      "Ð´Ð¾Ð¼": 2198,
      "ljajuĠ": 2199,
      "rsĠ": 2200,
      "uka": 2201,
      "Ð·Ð½": 2202,
      "Ð¾ÑģĠ": 2203,
      "aniĠ": 2204,
      "lini": 2205,
      "Ð¸ÑĩÐºÐ¸ÑħĠ": 2206,
      "Iz": 2207,
      "ÑĤÐ°Ġ": 2208,
      "delaĠ": 2209,
      "mor": 2210,
      "ug": 2211,
      "Le": 2212,
      "misl": 2213,
      "tivnoĠ": 2214,
      "obzi": 2215,
      "posleĠ": 2216,
      "privred": 2217,
      "28Ġ": 2218,
      "rekaoĠ": 2219,
      "É¢Ġ": 2220,
      "Ð°ÐºÑĤÐµÑĢ": 2221,
      "Ð¾Ð²Ð°ÑļÐ°Ġ": 2222,
      "Ð¼ÑĥĠ": 2223,
      "ÄįkaĠ": 2224,
      "predstavljaĠ": 2225,
      "ÐµÐºÑģÑĤ": 2226,
      "ovuĠ": 2227,
      "Ð²ÑĢÑģÑĤ": 2228,
      "smatra": 2229,
      "15": 2230,
      "ÐºÑĥÐ»ÑĤÑĥÑĢ": 2231,
      "intere": 2232,
      "odeĠ": 2233,
      "upotreb": 2234,
      "uzi": 2235,
      "Ð¸ÑĪÑĽ": 2236,
      "fek": 2237,
      "26Ġ": 2238,
      "ÑĥÑĤÐ¸ÑĨ": 2239,
      "porodi": 2240,
      "iÅ¡": 2241,
      "Ba": 2242,
      "Ð¿ÐµÑĢÐ¸": 2243,
      "ÑģÐ°Ð²": 2244,
      "Å¾uĠ": 2245,
      "kraj": 2246,
      "dina": 2247,
      "Ð¾Ð´Ð¸Ġ": 2248,
      "tem": 2249,
      "IJ": 2250,
      "Ð¾ÐºÐ¾Ġ": 2251,
      "predsed": 2252,
      "kataĠ": 2253,
      "eniĠ": 2254,
      "ÑģÑĥ": 2255,
      "radĠ": 2256,
      "preduze": 2257,
      "moÅ¾e": 2258,
      "ÄĳenjeĠ": 2259,
      "Ð´Ð¾Ðº": 2260,
      "ostva": 2261,
      "Ð·Ð°ÑĤ": 2262,
      "Ð±Ð»": 2263,
      "pis": 2264,
      "svet": 2265,
      "ÑĥÐ±Ð»": 2266,
      "protivĠ": 2267,
      "Ð½Ð¸Ñģ": 2268,
      "del": 2269,
      "pojav": 2270,
      "Ð·Ð±Ð¾Ð³Ġ": 2271,
      "Pa": 2272,
      "âĢĿ,Ġ": 2273,
      "27Ġ": 2274,
      "svihĠ": 2275,
      "ÐµÐ¼ÑĥĠ": 2276,
      "Ð¾Ð»Ð¸ÐºÐ¾Ġ": 2277,
      "AkoĠ": 2278,
      "plan": 2279,
      "komenta": 2280,
      "Ð¿Ð°Ġ": 2281,
      "Ð¸ÑĩÐºÐ¾Ð³Ġ": 2282,
      "Ð¾Ð´ÐµĠ": 2283,
      "Ð¾Ð²Ð°Ð½": 2284,
      "brz": 2285,
      "Ð½Ð°ÑĩÐ¸Ð½Ġ": 2286,
      "ispitiv": 2287,
      "Ð°ÑĺÑĥÑĽÐ¸Ġ": 2288,
      "por": 2289,
      "Mar": 2290,
      "potpu": 2291,
      "vihĠ": 2292,
      "Ð¿Ð¾ÑģÐµÐ±": 2293,
      "OV": 2294,
      "ÑģÐ¿ÑĢ": 2295,
      "Vu": 2296,
      "Ð¿ÑĢÐ°Ð²Ð°Ġ": 2297,
      "miÅ¡": 2298,
      "veomaĠ": 2299,
      "sor": 2300,
      "knji": 2301,
      "sadrÅ¾a": 2302,
      "Å¾aĠ": 2303,
      "Ð¼Ġ": 2304,
      "Ð¾Ð½Ð¾Ð¼": 2305,
      "sil": 2306,
      "tkaĠ": 2307,
      "Vo": 2308,
      "Ð¾Ð»Ð¾ÑĪÐº": 2309,
      "ÄĲ": 2310,
      "anjemĠ": 2311,
      "Ð¸ÐºÐ¾Ð¼Ġ": 2312,
      "Ð¼Ð¾ÑĢ": 2313,
      "Se": 2314,
      "Ð¿Ð¾ÐºÐ°Ð·": 2315,
      "196": 2316,
      "uvekĠ": 2317,
      "100Ġ": 2318,
      "ondaĠ": 2319,
      "ÄįineĠ": 2320,
      "Republi": 2321,
      "svimĠ": 2322,
      "Ð°ÐºÑĨ": 2323,
      "ÐºÑĢÐ¸Ð²": 2324,
      "nja": 2325,
      "mog": 2326,
      "ÑĢÐ°Ð´Ð°Ġ": 2327,
      "politiÄį": 2328,
      "Ju": 2329,
      "logaĠ": 2330,
      "Ð·Ð°ÑĪÑĤ": 2331,
      "Ð¿ÑĢÐ¸Ð²": 2332,
      "aneĠ": 2333,
      "tanĠ": 2334,
      "Ð¿ÑĢÐµĠ": 2335,
      "usĠ": 2336,
      "projek": 2337,
      "vat": 2338,
      "ÑĢÐ°Ð´ÑĥĠ": 2339,
      "prak": 2340,
      "tivneĠ": 2341,
      "Ð»Ġ": 2342,
      "thod": 2343,
      "stri": 2344,
      "ljanjeĠ": 2345,
      "29Ġ": 2346,
      "Ð°ÑĨÐ¸ÑĺÐ¸Ġ": 2347,
      "pren": 2348,
      "grupeĠ": 2349,
      "limĠ": 2350,
      "dajuĠ": 2351,
      "Ã¥": 2352,
      "ÐļĠ": 2353,
      "izno": 2354,
      "Ð°ÑĨÐ°Ġ": 2355,
      "Ð½Ð°Ð·": 2356,
      "janjaĠ": 2357,
      "Ð´Ð¾Ð²": 2358,
      "Ð°ÑĢÐ¾Ð´": 2359,
      "ig": 2360,
      "sluÄįajuĠ": 2361,
      "An": 2362,
      "Su": 2363,
      "16": 2364,
      "vogĠ": 2365,
      "Ð»ÐµĠ": 2366,
      "ona": 2367,
      "obli": 2368,
      "situa": 2369,
      "bio": 2370,
      "NA": 2371,
      "Ð²Ð¸Ñģ": 2372,
      "ÑģÑĤÐ°ÑĢ": 2373,
      "sarad": 2374,
      "ÑĨÐ°Ġ": 2375,
      "uprav": 2376,
      "Ð¾Ð·Ġ": 2377,
      "ÐµÑĽÐµĠ": 2378,
      "Ð´ÐµÑĨ": 2379,
      "dra": 2380,
      "dvo": 2381,
      "ÐµÑĤÑĢ": 2382,
      "mnogoĠ": 2383,
      "ÑģÐ°Ð´ÑĢÐ¶": 2384,
      "aut": 2385,
      "Å¡uĠ": 2386,
      "Ð¾Ñħ": 2387,
      "Ð¾Ð¼ÐµĠ": 2388,
      "sav": 2389,
      "promen": 2390,
      "2011Ġ": 2391,
      "povrÅ¡": 2392,
      "cin": 2393,
      "druÅ¡tven": 2394,
      "raspo": 2395,
      "Ð³Ð¾Ð´Ð¸Ð½Ð°Ġ": 2396,
      "pacijen": 2397,
      "Ð¿ÑĢÐ¸ÑĢ": 2398,
      "Ð±ÑĢÐ¾ÑĺĠ": 2399,
      "Ð³ÑĢ": 2400,
      "oÄįe": 2401,
      "Ð¿Ð¾ÑģÑĤÑĥÐ¿": 2402,
      "Ð·Ð°Ð´": 2403,
      "nala": 2404,
      "fizi": 2405,
      "izvo": 2406,
      "nen": 2407,
      "Ð·Ð°Ñħ": 2408,
      "tele": 2409,
      "Ð½Ð¸ÑĨÐ¸Ġ": 2410,
      "ÄįnihĠ": 2411,
      "Ð³ÑĢÐ°ÑĴ": 2412,
      "É©": 2413,
      "sneĠ": 2414,
      "sarĠ": 2415,
      "Ð´ÐµÑĦ": 2416,
      "Ð¸ÑĢĠ": 2417,
      "mestoĠ": 2418,
      "heĠ": 2419,
      "nekolikoĠ": 2420,
      "aktivnostiĠ": 2421,
      "Å¡enjaĠ": 2422,
      "koviÄĩĠ": 2423,
      "La": 2424,
      "ÑģÑĤÐ°ÑĤ": 2425,
      "kak": 2426,
      "terĠ": 2427,
      "igra": 2428,
      "podatakaĠ": 2429,
      "vanjuĠ": 2430,
      "ukup": 2431,
      "graÄĳ": 2432,
      "star": 2433,
      "Ð½Ġ": 2434,
      "ÑĤÐµÐºÑģÑĤ": 2435,
      "mer": 2436,
      "predĠ": 2437,
      "Ð¿ÑĢÐ¸Ð¿": 2438,
      "ÐºÐ¾ÑĺÐ¸Ð¼Ð°Ġ": 2439,
      "Bi": 2440,
      "turaĠ": 2441,
      "2012Ġ": 2442,
      "vatiĠ": 2443,
      "imeĠ": 2444,
      "piĠ": 2445,
      "Ð¾ÑĤÑĢÐµÐ±": 2446,
      "ure": 2447,
      "pret": 2448,
      "Ð°ÑĨÐ¸Ð¾Ð½Ð°Ð»": 2449,
      "slede": 2450,
      "nijiĠ": 2451,
      "anti": 2452,
      "Ð´ÐµÐ»Ð°Ġ": 2453,
      "kamaĠ": 2454,
      "ÑĢÐ°Ð³": 2455,
      "EN": 2456,
      "daljeĠ": 2457,
      "ÑĦÐ¸Ð»": 2458,
      "ÑĥÑģÐ¿": 2459,
      ".\"Ġ": 2460,
      "ula": 2461,
      "SlikaĠ": 2462,
      ");Ġ": 2463,
      "putĠ": 2464,
      "mre": 2465,
      "Ð¸ÑĪÑĤÐ°Ġ": 2466,
      "zujuĠ": 2467,
      "neÅ¡toĠ": 2468,
      "ÐŀÐ²": 2469,
      "ÄĳenjaĠ": 2470,
      "Pr": 2471,
      "ispit": 2472,
      "ÑĢÑĤ": 2473,
      "Ð½Ð°ÐºÐ¾Ð½Ġ": 2474,
      "denti": 2475,
      "Ð½Ð¸ÑģÑĥĠ": 2476,
      "2010Ġ": 2477,
      "Ð°ÑĢÑħ": 2478,
      "unu": 2479,
      "prethod": 2480,
      "oneĠ": 2481,
      "maloĠ": 2482,
      "kli": 2483,
      "padaĠ": 2484,
      "ÑĤÐ¾Ð³Ð°Ġ": 2485,
      "kojojĠ": 2486,
      "zavr": 2487,
      "ol": 2488,
      "tnogĠ": 2489,
      "momĠ": 2490,
      "zaklju": 2491,
      "ÑģÑĤÑĥÐ´": 2492,
      "Ð¾ÑģÐ½Ð¾Ð²ÑĥĠ": 2493,
      "dav": 2494,
      "Ð±Ð¾Ð»": 2495,
      "dese": 2496,
      "dro": 2497,
      "lihĠ": 2498,
      "Ð¿Ð¾ÑĺÐµÐ´": 2499,
      "feren": 2500,
      "duÅ¾": 2501,
      "Ð¾ÑĢÐ¸Ġ": 2502,
      "Ð²Ġ": 2503,
      "ÐľÐ¸Ð»": 2504,
      "Å¡enjeĠ": 2505,
      "oduĠ": 2506,
      "Ð°ÑĨÐ¸Ð¾Ð½": 2507,
      "Ð±ÐµÐ·Ġ": 2508,
      "sin": 2509,
      "ÐĲÐ½": 2510,
      "MeÄĳu": 2511,
      "Ð°Ñħ": 2512,
      "Ð°Ð»Ġ": 2513,
      "verzi": 2514,
      "Ð´Ð²Ð°Ġ": 2515,
      "Vla": 2516,
      "ÑĺÐµÐ´Ð¸Ð½": 2517,
      "Ð¾Ð²Ð°ÑļÐµĠ": 2518,
      "2013Ġ": 2519,
      "veÄĩiĠ": 2520,
      "amaĠ": 2521,
      "razvi": 2522,
      "ÐľÐ°ÑĢ": 2523,
      "dija": 2524,
      "rizi": 2525,
      "camaĠ": 2526,
      "ÐĺĠ": 2527,
      "Ð¿ÑĢÐ¸ÑģÑĤ": 2528,
      "Ð²Ð°Ð¶": 2529,
      "kaÅ¾eĠ": 2530,
      "Ð´Ð°Ð½": 2531,
      "Ð¾Ð²Ð¸ÑħĠ": 2532,
      "Ð¾Ð´Ð½Ð¾ÑģÑĥĠ": 2533,
      "eneĠ": 2534,
      "nev": 2535,
      "Ð¾Ð½Ð¸Ġ": 2536,
      "Evrop": 2537,
      "Ð²ÐµÐ»Ð¸Ðº": 2538,
      "remen": 2539,
      "ÑĪÐºÐ¾Ð»": 2540,
      "odrÅ¾": 2541,
      "Ð²ÑĢÐµÐ´Ð½Ð¾ÑģÑĤÐ¸Ġ": 2542,
      "jalaĠ": 2543,
      "É«É": 2544,
      "ÐµÐ»Ġ": 2545,
      "takoÄĳeĠ": 2546,
      "Ð³Ð´ÐµĠ": 2547,
      "Ð¸Ð¼Ð°ÑĺÑĥĠ": 2548,
      "zvo": 2549,
      "saj": 2550,
      "2014Ġ": 2551,
      "snikaĠ": 2552,
      "ÐµÐ³Ð°Ġ": 2553,
      "ÑĺÐµÐ´Ð°Ð½Ġ": 2554,
      "prote": 2555,
      "vrednostĠ": 2556,
      "Ð°Ð²Ð¸Ġ": 2557,
      "Ð¾ÐºÐ²": 2558,
      "sviĠ": 2559,
      "ÑģÐ¸Ð¼": 2560,
      "ÑĢÐ°Ñĩ": 2561,
      "ÐµÐ½ÑĥÑĤ": 2562,
      "odgovor": 2563,
      "ÃŃ": 2564,
      "ÐµÑĤÐµĠ": 2565,
      "koncentra": 2566,
      "comĠ": 2567,
      "ðĿ": 2568,
      "ÐľÐµÑĴ": 2569,
      "Ð°Ð²Ð°ÑĺÑĥĠ": 2570,
      "Ð´ÑĢÑĥÑĪÑĤÐ²": 2571,
      "Ð¸Ð½ÑģÑĤ": 2572,
      "meren": 2573,
      "istraÅ¾ivanjaĠ": 2574,
      "Ð¼ÐµÐ´": 2575,
      "Ð²ÑĢÑĴ": 2576,
      "skladuĠ": 2577,
      "IN": 2578,
      "katĠ": 2579,
      "Ð¾Ð´ÑĥĠ": 2580,
      "Ð°Ð»Ð½Ð¾Ġ": 2581,
      "putaĠ": 2582,
      "Å¡ÄĩeĠ": 2583,
      "ÐµÑĢÐ¸Ñĺ": 2584,
      "Ð°ÑĤÑĢ": 2585,
      "stati": 2586,
      "jedna": 2587,
      "Pred": 2588,
      "znaĠ": 2589,
      "prove": 2590,
      "ÐµÐ·Ð±": 2591,
      "stvuĠ": 2592,
      "Ð¾Ð¼Ð°Ġ": 2593,
      "Ð¸ÑĩÐºÐ°Ġ": 2594,
      "KakoĠ": 2595,
      "ÄįenjaĠ": 2596,
      "teÅ¡": 2597,
      "uslu": 2598,
      "ÑĥÐ¿Ð¾ÑĤÑĢÐµÐ±": 2599,
      "ÑļÐ°Ġ": 2600,
      "gor": 2601,
      "zaposl": 2602,
      "ÑĢÐ°Ð·ÑĥÐ¼": 2603,
      "Li": 2604,
      "mora": 2605,
      "kret": 2606,
      "kin": 2607,
      "redĠ": 2608,
      "neu": 2609,
      "ÐºÐ¾Ð¼Ġ": 2610,
      "ÄįniĠ": 2611,
      "To": 2612,
      "puĠ": 2613,
      "ÄįnaĠ": 2614,
      "Ð¿ÑĢÐ¾Ð±Ð»": 2615,
      "ekonom": 2616,
      "Ð¿Ð¾ÑģÐ»ÐµÐ´": 2617,
      "Ã®": 2618,
      "Cr": 2619,
      "ÑĨÐµÐ½ÑĤÑĢ": 2620,
      "koristiĠ": 2621,
      "spi": 2622,
      "ÐĲÐ»": 2623,
      "Äįlan": 2624,
      "ÑĤÐ¾ÐºÐ¾Ð¼Ġ": 2625,
      "PO": 2626,
      "jenĠ": 2627,
      "Ð¿ÑĢÐµÐ²": 2628,
      "31Ġ": 2629,
      "2009Ġ": 2630,
      "ÐºÐ°ÑĢÐ°ÐºÑĤÐµÑĢ": 2631,
      "Ð¿ÑĢÐ¾Ð³": 2632,
      "Ð°Ð½ÑĥĠ": 2633,
      "obezbe": 2634,
      "produ": 2635,
      "ÑĥÑĤÐ¸Ð¼Ġ": 2636,
      "ÐµÐ½Ð°ÑĤÐ°Ġ": 2637,
      "ÑĺÐ¾ÑĪĠ": 2638,
      "tru": 2639,
      "boljeĠ": 2640,
      "ÐµÐºÑĤÐ¸Ð²": 2641,
      "ljenaĠ": 2642,
      "Ð½ÐµÐ¼": 2643,
      "aleĠ": 2644,
      "pristu": 2645,
      "traĠ": 2646,
      "okviruĠ": 2647,
      "Naj": 2648,
      "prost": 2649,
      "Ð´Ð¾Ð½": 2650,
      "ÑĥÐ¿ÑĢÐ°Ð²": 2651,
      "Ð¸ÑĩÐµĠ": 2652,
      "belaĠ": 2653,
      "drugiĠ": 2654,
      "drugihĠ": 2655,
      "elektro": 2656,
      "ÉŃ": 2657,
      "ÑģÑĥÐ´": 2658,
      "ala": 2659,
      "sijaĠ": 2660,
      "trenut": 2661,
      "komuni": 2662,
      "qu": 2663,
      "35Ġ": 2664,
      "vajuĠ": 2665,
      "ljanjaĠ": 2666,
      "jedno": 2667,
      "inamaĠ": 2668,
      "ujeĠ": 2669,
      "Ð²ÑĢÐµÐ¼ÐµĠ": 2670,
      "standar": 2671,
      "Ð´ÑĢÑĥÐ³ÐµĠ": 2672,
      "Ð¿Ð¾Ð¿": 2673,
      "vamĠ": 2674,
      "oblastiĠ": 2675,
      "nema": 2676,
      "vremenaĠ": 2677,
      "ÑģÐ¿Ð¾ÑĢ": 2678,
      "SrbijaĠ": 2679,
      "ÐµÐ¼Ð¾Ġ": 2680,
      "Äįl": 2681,
      "ÑĢÑĥÐ¶": 2682,
      "2008Ġ": 2683,
      "ÑĤÐµ": 2684,
      "jteĠ": 2685,
      "ÑĪÐ¸ÑĢ": 2686,
      "sanĠ": 2687,
      "trÅ¾i": 2688,
      "Ð·Ð°ÑĺÐµÐ´Ð½": 2689,
      "uni": 2690,
      "ud": 2691,
      "Ð¸ÑĨÑĥĠ": 2692,
      "gaoĠ": 2693,
      "grafi": 2694,
      "ht": 2695,
      "ÐķÐ²ÑĢ": 2696,
      "SA": 2697,
      "Ð¿ÐµÑģ": 2698,
      "tempera": 2699,
      "Ëĩ": 2700,
      "2015Ġ": 2701,
      "ÄĬ": 2702,
      "jihĠ": 2703,
      "ÑĨÐµÐ»": 2704,
      "ovimĠ": 2705,
      "ÐºÑĢÐ¾Ð·Ġ": 2706,
      "Ãł": 2707,
      "esĠ": 2708,
      "isku": 2709,
      "jednomĠ": 2710,
      "put": 2711,
      "âĢ¦Ġ": 2712,
      "nor": 2713,
      "ÐĺÑģÑĤ": 2714,
      "doma": 2715,
      "ÌģĠ": 2716,
      "mati": 2717,
      "oz": 2718,
      "tar": 2719,
      "01Ġ": 2720,
      "giĠ": 2721,
      "Ð¸ÑģĠ": 2722,
      "vin": 2723,
      "zijeĠ": 2724,
      "Ð¾Ð´Ð³Ð¾Ð²": 2725,
      "Ð½ÐµÐ·": 2726,
      "mr": 2727,
      "ÑĥÑģÑĤÑĢ": 2728,
      "organiz": 2729,
      "ÄĩemoĠ": 2730,
      "chĠ": 2731,
      "Å¾enaĠ": 2732,
      "ulo": 2733,
      "Ova": 2734,
      "Å¾b": 2735,
      "gijeĠ": 2736,
      "rijiĠ": 2737,
      "save": 2738,
      "postup": 2739,
      "ÑĢÐµÐ»": 2740,
      "Ð¿ÑĢÐµ": 2741,
      "Ðĸ": 2742,
      "Ð°Ð·ÐµĠ": 2743,
      "Ð¼Ð½Ð¾Ð³": 2744,
      "ÄĳujeĠ": 2745,
      "ÐµÑĤÐ½": 2746,
      "janĠ": 2747,
      "prviĠ": 2748,
      "prija": 2749,
      "bilj": 2750,
      "ÐŁĠ": 2751,
      "tehno": 2752,
      "simĠ": 2753,
      "ÑĢÐ°Ð·Ð²Ð¾Ñĺ": 2754,
      "Ð¡ÑĢÐ±Ð¸ÑĺÐµĠ": 2755,
      "ÑĤÑĢÐ¸Ġ": 2756,
      "Ð¾Ð½ÐµĠ": 2757,
      "Ð¼Ð°Ð½": 2758,
      "KO": 2759,
      "onoĠ": 2760,
      "Al": 2761,
      "ÑģÐ²Ð¾ÑĺÐµĠ": 2762,
      "Ð½ÐµÐ´": 2763,
      "Ð¾Ð²ÑĥĠ": 2764,
      "ispitani": 2765,
      "ÄįinaĠ": 2766,
      "pute": 2767,
      "ÄįkogĠ": 2768,
      "Si": 2769,
      "Ð¿ÑĢÐµÐ´ÑģÑĤÐ°Ð²ÑĻÐ°Ġ": 2770,
      "kompani": 2771,
      "Ð¸ÑĢÑĥĠ": 2772,
      "opi": 2773,
      "turi": 2774,
      "ÑĩÐ»Ð°Ð½": 2775,
      "ÑĢÐµÐº": 2776,
      "KadaĠ": 2777,
      "lov": 2778,
      "Ð¿Ð¾ÑĻ": 2779,
      "oru": 2780,
      "godiÅ¡": 2781,
      "gro": 2782,
      "petĠ": 2783,
      "ÑĥÐ·Ġ": 2784,
      "obja": 2785,
      "ÐļÑĢ": 2786,
      "ÑĤÑĢÐµÐ±Ð°Ġ": 2787,
      "ileĠ": 2788,
      "Ð´ÐµÑĦÐ¸Ð½": 2789,
      "nacional": 2790,
      "Ð´ÐµÐ¾Ġ": 2791,
      "ophod": 2792,
      "Ð¿Ð¾ÐºÑĢ": 2793,
      "RO": 2794,
      "Ð°Ð½Ð¸ÑħĠ": 2795,
      "ÃłĠ": 2796,
      "Ð¿ÑĢÐ¸Ġ": 2797,
      "stig": 2798,
      "Ã°": 2799,
      "jeneĠ": 2800,
      "jeni": 2801,
      "ÑĥÐ¿ÑĢ": 2802,
      "fini": 2803,
      "ÑĦÐ¸Ð½": 2804,
      "potvr": 2805,
      "NeĠ": 2806,
      "vimĠ": 2807,
      "ljenĠ": 2808,
      "araĠ": 2809,
      "hemi": 2810,
      "Ð¾Ð³ÑĢÐ°ÑĦ": 2811,
      "posled": 2812,
      "obo": 2813,
      "ÐºÐ¾Ð½ÑĤÑĢ": 2814,
      "verova": 2815,
      "isk": 2816,
      "Ð¸ÑĤÐµÑĤĠ": 2817,
      "Ð¿Ð¾ÑĺÐµÐ´Ð¸Ð½": 2818,
      "Ð±Ð¸Ð»Ð¸Ġ": 2819,
      "âĢ¢Ġ": 2820,
      "Ð¸ÑĺÐ¾Ð¼Ġ": 2821,
      "identi": 2822,
      "jenaĠ": 2823,
      "Ð½Ð°ÑĪ": 2824,
      "195": 2825,
      "ÐķÐ²ÑĢÐ¾Ð¿": 2826,
      "Ð´ÑĢÐ¶Ð°Ð²": 2827,
      "simaĠ": 2828,
      "moguÄĩeĠ": 2829,
      "ÑļÑĥĠ": 2830,
      "vari": 2831,
      ".)Ġ": 2832,
      "ÐµÐ½ÑĤĠ": 2833,
      "ljeniĠ": 2834,
      "dobroĠ": 2835,
      "ÐŀĠ": 2836,
      "ÄĩemĠ": 2837,
      "uzor": 2838,
      "nekiĠ": 2839,
      "ÐµÐºÐ¾Ð½Ð¾Ð¼": 2840,
      "Ð¸Ð¶ÐµÐ²": 2841,
      "ÑģÑĤÐ°Ð½Ð¾Ð²": 2842,
      "ÑĥÐºÐ°Ġ": 2843,
      "ÐµÑħÐ½": 2844,
      "Ð¾ÑģÐ¾Ð±": 2845,
      "Ð»Ð¸Ð½": 2846,
      "pogle": 2847,
      "uÄįeni": 2848,
      "pitanjeĠ": 2849,
      "kise": 2850,
      "poslov": 2851,
      "bal": 2852,
      "opera": 2853,
      "Ð¸ÑĤÐ°Ġ": 2854,
      "ras": 2855,
      "polj": 2856,
      "ÑĨÐ¸ÑĻ": 2857,
      "Ð°ÑĤÐµÐ³": 2858,
      "jednaĠ": 2859,
      "ÄįnogĠ": 2860,
      "Ã±": 2861,
      "drĠ": 2862,
      "Ð¾ÑģÑĤÐ²Ð°ÑĢ": 2863,
      "poten": 2864,
      "2007Ġ": 2865,
      "Ð¿ÑĢÐ¾Ð´": 2866,
      "misli": 2867,
      "Ð·Ð°ÐºÐ¾Ð½": 2868,
      "budu": 2869,
      "Ð»Ð¾Ðº": 2870,
      "Ð¿Ð¾ÑĩÐµÑĤ": 2871,
      "ÐµÑģÑĤÐ¸Ġ": 2872,
      "nepo": 2873,
      "indu": 2874,
      "dajeĠ": 2875,
      "ÐºÐ²Ð°Ð»": 2876,
      "80Ġ": 2877,
      "ÑĥÐ³Ð¾ÑģÐ»": 2878,
      "pan": 2879,
      "spor": 2880,
      "napo": 2881,
      "ÑģÐ°ÑģÑĤ": 2882,
      "pora": 2883,
      "É¬": 2884,
      "sub": 2885,
      "Ð´Ð¾Ð»": 2886,
      "ÑĤÐ°ÐºÐ¾ÑĴÐµĠ": 2887,
      "stro": 2888,
      "lokal": 2889,
      "erĠ": 2890,
      "ÐºÑĢÐ¸ÑĤ": 2891,
      "tkeĠ": 2892,
      "nede": 2893,
      "karakteristi": 2894,
      "jemoĠ": 2895,
      "Ð¿ÑĢÐµÐ´ÑģÑĤÐ°Ð²ÑĻ": 2896,
      "trans": 2897,
      "Ð´Ð¾Ð´": 2898,
      "oko": 2899,
      "Å¾Ġ": 2900,
      "Ð°ÑĤÑĥÑĢ": 2901,
      "05Ġ": 2902,
      "Ð°ÑĤÐµĠ": 2903,
      "ÄįanĠ": 2904,
      "posebnoĠ": 2905,
      "Ð¸ÑĤÐµĠ": 2906,
      ".âĢŀĠ": 2907,
      "omoguÄĩ": 2908,
      "sistemĠ": 2909,
      "komeĠ": 2910,
      "onal": 2911,
      "</Ġ": 2912,
      "opÅ¡t": 2913,
      "Co": 2914,
      "ÐĶĠ": 2915,
      "ekspe": 2916,
      "dnev": 2917,
      "speci": 2918,
      "ÐµÑģĠ": 2919,
      "enihĠ": 2920,
      "Ð²ÐµÐºÐ°Ġ": 2921,
      "Ð½Ð¾ÑģÑĤ": 2922,
      "Ð°Ð»Ð½Ð¸Ġ": 2923,
      "tira": 2924,
      "Ð³ÑĢÐ°Ð½": 2925,
      "arĠ": 2926,
      "ÑĥÐ½Ð°ÑĢÐ¾Ð´": 2927,
      "ÐµÑģÑĤĠ": 2928,
      "ÑĢÐ°Ð²": 2929,
      "klu": 2930,
      "ÐµÐ½ÑĤÐ°Ġ": 2931,
      "ÐµÐ¿ÑĥÐ±Ð»": 2932,
      "ljenjaĠ": 2933,
      "Dru": 2934,
      "ÑĥÐ¶Ð±": 2935,
      "Ð¸ÑĩÐ½ÐµĠ": 2936,
      "Ð¿ÑĢÐµÑģ": 2937,
      "ul": 2938,
      "podr": 2939,
      "limaĠ": 2940,
      "kov": 2941,
      "glas": 2942,
      "Ð¿Ð¾Ð±": 2943,
      "2006Ġ": 2944,
      "ÑĤÐ¾Ð¼Ġ": 2945,
      "klo": 2946,
      "Kon": 2947,
      "stiÄįkiĠ": 2948,
      "Ð°ÑĦ": 2949,
      "dioĠ": 2950,
      "razvojĠ": 2951,
      "ÑģÐ¸ÑģÑĤÐµÐ¼Ð°Ġ": 2952,
      "kujeĠ": 2953,
      "prihva": 2954,
      "ÄĳaĠ": 2955,
      "stanov": 2956,
      "tivniĠ": 2957,
      "ÄĳenĠ": 2958,
      "psi": 2959,
      "doprin": 2960,
      "mentaĠ": 2961,
      "ÐºÐ¾ÑĺÑĥĠ": 2962,
      "ÐĺÐ·": 2963,
      "Ð¸ÑģÑĤÐ°Ġ": 2964,
      "ÑĥÐ¼Ġ": 2965,
      "str": 2966,
      "posledi": 2967,
      "MeÄĳutimĠ": 2968,
      "ÑģÐµÐ´": 2969,
      "Ð°ÑĩÐ°Ġ": 2970,
      "izo": 2971,
      "ÑĢÐ¾Ð¼": 2972,
      "Ð´ÐµÑĤ": 2973,
      "ponov": 2974,
      "mina": 2975,
      "gradaĠ": 2976,
      "ovojĠ": 2977,
      "jskeĠ": 2978,
      "meraĠ": 2979,
      "ocen": 2980,
      "Ð¾Ð²ÐµÐ½": 2981,
      ".âĢľĠ": 2982,
      "izvr": 2983,
      "naveden": 2984,
      "nau": 2985,
      "ÑĥÐ³Ð¾Ð²": 2986,
      "ÐºÑļÐ¸Ð¶ÐµÐ²": 2987,
      "ÐĬ": 2988,
      "ÑģÑĤÑĢÑĥÐºÑĤÑĥÑĢ": 2989,
      "Ð·Ð°ÑħÑĤ": 2990,
      "NI": 2991,
      "Ð¸Ð³ÑĥÑĢ": 2992,
      "efika": 2993,
      "Ð±Ð°Ð½": 2994,
      "Ð¾ÑĤĠ": 2995,
      "doku": 2996,
      "Ð´Ð°ÑĢ": 2997,
      "ÐµÑĻÐ°Ġ": 2998,
      "Ð¸ÑĤÐ¸Ð²": 2999,
      "tali": 3000,
      "pojed": 3001,
      "nalaziĠ": 3002,
      "Ð±Ð¾ÑĻ": 3003,
      "2016Ġ": 3004,
      "90Ġ": 3005,
      "Ð¸Ð·Ð½": 3006,
      "bla": 3007,
      "meÄĳu": 3008,
      "umet": 3009,
      "objek": 3010,
      "propi": 3011,
      "Ð¿Ð»Ð°Ð½": 3012,
      "svegaĠ": 3013,
      "Ð¼ÐµÑģÑĤ": 3014,
      "70Ġ": 3015,
      "ÑĺÐ°Ġ": 3016,
      "Ð¾Ð±Ð°Ð²": 3017,
      "Ð·Ð°Ñģ": 3018,
      "neÄĩeĠ": 3019,
      "2005Ġ": 3020,
      "32Ġ": 3021,
      "jenjaĠ": 3022,
      "neophod": 3023,
      "Ð¸ÑģÑĤÑĢÐ°Ð¶Ð¸Ð²Ð°ÑļÐ°Ġ": 3024,
      "matraĠ": 3025,
      "Ð¾Ð»Ð°Ġ": 3026,
      "ÑĤÐ¾Ð¼ÐµĠ": 3027,
      "profe": 3028,
      "Ð¿ÑĢÐ¸ÐºÐ°Ð·": 3029,
      "ÐĺÐ½": 3030,
      "ÑļÐ¸Ġ": 3031,
      "ÉŃĠ": 3032,
      "BeograduĠ": 3033,
      "indi": 3034,
      "Ð¿Ð¾ÑĢÐ¾Ð´": 3035,
      "ÐĳÑĢ": 3036,
      "odgovara": 3037,
      "smisl": 3038,
      "poku": 3039,
      "zen": 3040,
      "satiĠ": 3041,
      "stre": 3042,
      "ÐµÐ»Ð¾Ġ": 3043,
      "potrebnoĠ": 3044,
      "am": 3045,
      "BeogradĠ": 3046,
      "gori": 3047,
      "dozvo": 3048,
      "33Ġ": 3049,
      "ÄĨ": 3050,
      "loka": 3051,
      "institu": 3052,
      "ÑģÐ½": 3053,
      "Ð°Ð»Ð½Ð¾Ð³Ġ": 3054,
      "ÐµÑĽÐ°Ġ": 3055,
      "ÐµÑģÐ°Ġ": 3056,
      "Ð½Ð°ÑĨÐ¸Ð¾Ð½Ð°Ð»": 3057,
      "ple": 3058,
      "ÄįenjeĠ": 3059,
      "opre": 3060,
      "Ð¼Ð°ÑĢ": 3061,
      "predme": 3062,
      "É¤": 3063,
      "ÑģÐ¾ÑĨ": 3064,
      "ÑĥÐ¼Ð°Ġ": 3065,
      "sigur": 3066,
      "enĠ": 3067,
      "ÐµÑĤÑĥĠ": 3068,
      "teori": 3069,
      "Ð½Ð°Ð¼": 3070,
      "ÐµÑļÐµÐ¼Ġ": 3071,
      "ÄįkihĠ": 3072,
      "ÄĩihĠ": 3073,
      "//Ġ": 3074,
      "ÄįiÄĩĠ": 3075,
      "ÐºÐ¸Ġ": 3076,
      "Ð¸Ð·Ð²ÑĢÑĪ": 3077,
      "ÐµÐ²Ð¸ÑĽĠ": 3078,
      "ÑĥÐ¿ÑĻ": 3079,
      "Ð¾Ð³ÑĥÑĽ": 3080,
      "ÑģÐ»ÐµÐ´": 3081,
      "sposob": 3082,
      "ÑĥÐºÑĻÑĥÑĩ": 3083,
      "Ð¿Ð¾": 3084,
      "45Ġ": 3085,
      "Ð½ÐµÐ³Ð¾Ġ": 3086,
      "posta": 3087,
      "liceĠ": 3088,
      "tivnihĠ": 3089,
      "Å¡tuĠ": 3090,
      "vez": 3091,
      "pokaz": 3092,
      "socijal": 3093,
      "Ð¸ÑĨÐ¸Ð¼Ð°Ġ": 3094,
      "Ð¿ÑĢÐ¸Ñģ": 3095,
      "jeniĠ": 3096,
      "Bu": 3097,
      "likoĠ": 3098,
      "svojĠ": 3099,
      "36Ġ": 3100,
      "kavĠ": 3101,
      "ziv": 3102,
      "atĠ": 3103,
      "EUĠ": 3104,
      "promeneĠ": 3105,
      "ÐĹÐ°Ġ": 3106,
      "slobod": 3107,
      "procesaĠ": 3108,
      "jojĠ": 3109,
      "Ð¿Ð¾Ð´Ð°ÑĤ": 3110,
      "tacijeĠ": 3111,
      "Ð¸ÑĺÐ°Ð¼Ð°Ġ": 3112,
      "oni": 3113,
      "umĠ": 3114,
      "Ð¸Ð·Ð»": 3115,
      "ora": 3116,
      "ÑĨÐ¸ÑĺÐµĠ": 3117,
      "Ð¸Ð½ÑĦÐ¾ÑĢÐ¼": 3118,
      "ÄĩegĠ": 3119,
      "snov": 3120,
      "Å¡aoĠ": 3121,
      "Ð·Ð°": 3122,
      "svojimĠ": 3123,
      "Mini": 3124,
      "mental": 3125,
      "Ð²Ð»Ð°Ð´": 3126,
      "Ð»Ð°Ñģ": 3127,
      "Ð¸Ð·Ð´": 3128,
      "ÐµÑĢÐ·": 3129,
      "gosl": 3130,
      "grupaĠ": 3131,
      "2000Ġ": 3132,
      "tyĠ": 3133,
      "raduĠ": 3134,
      "Jo": 3135,
      "Äįove": 3136,
      "Ð¾Ð±ÑĢÐ°Ð·": 3137,
      "voz": 3138,
      "ÄįestoĠ": 3139,
      "Å¡ÄĩuĠ": 3140,
      "Ã©": 3141,
      "Ð¢ÑĢ": 3142,
      "ostal": 3143,
      "zv": 3144,
      "Ð¾Ð´Ð±": 3145,
      "Ð¼ÐµĠ": 3146,
      "krat": 3147,
      "ÐµÐºÑĤÑĢ": 3148,
      "ÑĤÐµÑħÐ½": 3149,
      "nivouĠ": 3150,
      "Ð¿Ð¾ÑģÑĤÐ°Ð²ÑĻ": 3151,
      "svojuĠ": 3152,
      "Ð¸ÑĢÐ°ÑļÐµĠ": 3153,
      "Ð½Ð¸Ñĺ": 3154,
      "Ð´Ð¸Ñģ": 3155,
      "Kos": 3156,
      "PremaĠ": 3157,
      "ÄĳenaĠ": 3158,
      "Ð¸Ð´ÐµÐ½ÑĤ": 3159,
      "\".Ġ": 3160,
      "ÐļÐ¾Ð½": 3161,
      "opa": 3162,
      "Ð¸ÑĪÑĻ": 3163,
      "zijaĠ": 3164,
      "nekeĠ": 3165,
      "vesti": 3166,
      "KaoĠ": 3167,
      "trebaloĠ": 3168,
      "Ð³Ð»Ð°Ð²": 3169,
      "TabelaĠ": 3170,
      "37Ġ": 3171,
      "lacijeĠ": 3172,
      "gledaĠ": 3173,
      "Ð¸ÑģÑĤÑĢ": 3174,
      "So": 3175,
      "inf": 3176,
      "kojihĠ": 3177,
      "Alek": 3178,
      "podru": 3179,
      "ÑħÑĢ": 3180,
      "Ð·Ð°Ð±": 3181,
      "mikro": 3182,
      "ÑļÐ¸ÑħĠ": 3183,
      "stavĠ": 3184,
      "sniĠ": 3185,
      "doka": 3186,
      "Ð¼ÑĥÐ·": 3187,
      "dono": 3188,
      "ditiĠ": 3189,
      "pitanjaĠ": 3190,
      "jimĠ": 3191,
      "Ð´ÑĥÐ¶": 3192,
      "Ð´ÐµÑģ": 3193,
      "ÐµÐºÑģÐ¿": 3194,
      "ÑĢÐ°Ð´Ð¸Ġ": 3195,
      "minu": 3196,
      "ÐµÐ»ÐµÐ¼": 3197,
      "ponaÅ¡": 3198,
      "jneĠ": 3199,
      "ÑģÑĤÐ²ÑĥĠ": 3200,
      "ÑĥÑĺÑĥÑĽÐ¸Ġ": 3201,
      "bolj": 3202,
      "bezbe": 3203,
      "34Ġ": 3204,
      "Ð¾Ð±Ð·": 3205,
      "jskiĠ": 3206,
      "jevaĠ": 3207,
      "obav": 3208,
      "primerĠ": 3209,
      "tere": 3210,
      "Ð²Ð¸ÑĪ": 3211,
      "stvariĠ": 3212,
      "tiÄįeĠ": 3213,
      "Ð°ÑĨÐ¸Ġ": 3214,
      "vaoĠ": 3215,
      "Ð¿ÑĢÐµÐ´ÑĥÐ·": 3216,
      "oti": 3217,
      "Ð¿ÑĢÐ¸Ñħ": 3218,
      "ÐµÐ»ÐµÐ¶": 3219,
      "ÑģÐ»Ð¾Ð±": 3220,
      "Ð°Ð»Ð½Ð¸ÑħĠ": 3221,
      "tioĠ": 3222,
      "dola": 3223,
      "jegĠ": 3224,
      "Ðı": 3225,
      "perioduĠ": 3226,
      "snaĠ": 3227,
      "izd": 3228,
      "nazi": 3229,
      "jesteĠ": 3230,
      "Ð·Ð°ÐºÑĻÑĥÑĩ": 3231,
      "Å¾ivotaĠ": 3232,
      "âĢĿ.Ġ": 3233,
      "kate": 3234,
      "Ð¿Ð¾ÑģÑĤÐ¾ÑĺÐ¸Ġ": 3235,
      "Ro": 3236,
      "nadĠ": 3237,
      "Ð²ÑĢÐ´": 3238,
      "ðĿĳ": 3239,
      "govoraĠ": 3240,
      "menataĠ": 3241,
      "ÐµÐ²ÑĢ": 3242,
      "ïĤ": 3243,
      "meh": 3244,
      "snijeĠ": 3245,
      "otkri": 3246,
      "Ð¼Ð¾ÑĤ": 3247,
      "glu": 3248,
      "TakoÄĳeĠ": 3249,
      "Ð¸ÑĤÑĥ": 3250,
      "38Ġ": 3251,
      "Sta": 3252,
      "inomĠ": 3253,
      "bora": 3254,
      "Ð¼Ð¾Ð½": 3255,
      "ÑĢÐµÑģ": 3256,
      "vrsteĠ": 3257,
      "telj": 3258,
      "defini": 3259,
      "nostimaĠ": 3260,
      "jednogĠ": 3261,
      "proizvodaĠ": 3262,
      "zemljeĠ": 3263,
      "kovan": 3264,
      "fer": 3265,
      "39Ġ": 3266,
      "Ð¾Ð²Ð¸Ð¼Ġ": 3267,
      "got": 3268,
      "ÐºÐ¾ÑĢÐ¸ÑĪÑĽ": 3269,
      "scen": 3270,
      "ÑĥÐ½ÑĥÑĤ": 3271,
      "okru": 3272,
      "RI": 3273,
      "Ð¾ÑĢÑĥĠ": 3274,
      "buĠ": 3275,
      "OvoĠ": 3276,
      "Ð¸Ð·Ð±": 3277,
      "velikiĠ": 3278,
      "Ð¿Ð¾Ð²ÐµÐ·": 3279,
      "nega": 3280,
      "ÑĩÐµÑĤ": 3281,
      "2004Ġ": 3282,
      "Ar": 3283,
      "drÅ¾avaĠ": 3284,
      "ÑģÐ»ÑĥÑĩÐ°ÑĺÑĥĠ": 3285,
      "somĠ": 3286,
      "ÐµÐ½Ð¸ÐºÐ°Ġ": 3287,
      "problemĠ": 3288,
      "rvat": 3289,
      "Ð¢Ð°Ðº": 3290,
      "Ð¿ÑĢÐµÐ¿": 3291,
      "kru": 3292,
      "rast": 3293,
      "brojaĠ": 3294,
      "regu": 3295,
      "kor": 3296,
      "ÑĦÐ°ÐºÑĤ": 3297,
      "ljenjeĠ": 3298,
      "Du": 3299,
      "specifi": 3300,
      "enoĠ": 3301,
      "Ð¾Ð²Ð¾ÑĻ": 3302,
      "Sve": 3303,
      "znaÄįajnoĠ": 3304,
      "ukolikoĠ": 3305,
      "Ð½Ð¸ÑĪÑĤ": 3306,
      "Ð´Ð°Ð½Ð°Ġ": 3307,
      "tnuĠ": 3308,
      "Uni": 3309,
      "oksi": 3310,
      "2017Ġ": 3311,
      "uslovimaĠ": 3312,
      "bolestiĠ": 3313,
      "zadovolj": 3314,
      "ÐºÐ°Ñģ": 3315,
      "reak": 3316,
      "oloÅ¡": 3317,
      "drugimĠ": 3318,
      "ÑĥÑĴ": 3319,
      "lineĠ": 3320,
      "tivnaĠ": 3321,
      "Ð¿ÑĢÐ¾ÑĦ": 3322,
      "zer": 3323,
      "ÑĥÐ¿Ġ": 3324,
      "nekoĠ": 3325,
      "ubi": 3326,
      "Ð´Ð¾ÑģÑĤ": 3327,
      "razvojaĠ": 3328,
      "Ð½Ð°ÑģÑĤÐ°Ð²": 3329,
      "razliÄįitihĠ": 3330,
      "proÅ¡": 3331,
      "pitanjuĠ": 3332,
      "ÑĥÑģĠ": 3333,
      "podrÅ¡": 3334,
      "ÑĤÐ¸Ð¿": 3335,
      "AT": 3336,
      "Ð¿Ñĥ": 3337,
      "Ð´Ð°ÑĻ": 3338,
      "Ð¸ÑĢÐ°ÑļÐ°Ġ": 3339,
      "ponu": 3340,
      "modelaĠ": 3341,
      "alneĠ": 3342,
      "ÐľÐµÑĴÑĥÑĤÐ¸Ð¼Ġ": 3343,
      "prilikomĠ": 3344,
      "Ð´Ð²ÐµĠ": 3345,
      "ÄįiniĠ": 3346,
      "dnoĠ": 3347,
      "govorĠ": 3348,
      "toriĠ": 3349,
      "Ð¸Ð½Ð¾Ð¼Ġ": 3350,
      "dimaĠ": 3351,
      "zanĠ": 3352,
      "snikĠ": 3353,
      "jajuĠ": 3354,
      "Ð´Ð¸Ð½": 3355,
      "ÐŁÐ¾ÑĢ": 3356,
      "komunika": 3357,
      "sp": 3358,
      "ÑģÐ°Ð¼Ġ": 3359,
      "prosto": 3360,
      "ÑĨÐµÐ¿": 3361,
      "ÑĩÐ¾Ð²": 3362,
      "mestaĠ": 3363,
      "odi": 3364,
      "Ð¾ÑĢÐ¸ÑĺÐµĠ": 3365,
      "Ð¿ÑĢÐ¸Ñĺ": 3366,
      "ÑĢÐ°ÑģÑĤ": 3367,
      "Ð¾Ð´Ð½": 3368,
      "priti": 3369,
      "Ð»Ð°Ð²": 3370,
      "Ð°Ð»Ð½Ð°Ġ": 3371,
      "prose": 3372,
      "eksperi": 3373,
      "kovaĠ": 3374,
      "ljeneĠ": 3375,
      "radeĠ": 3376,
      "Ð´Ð¾Ð±ÑĢ": 3377,
      "Ð°Ð¿ÑĢ": 3378,
      "ljenoĠ": 3379,
      "Ð²Ð°Ð½": 3380,
      "Ð¿Ð¾Ð²ÐµÑĽ": 3381,
      "ev": 3382,
      "ÐłÐµÐ¿ÑĥÐ±Ð»": 3383,
      "odiĠ": 3384,
      "ljud": 3385,
      "ÑĩÐ¸ÑĤ": 3386,
      "Ð¿ÑĢÐ¸Ð½": 3387,
      "predvi": 3388,
      "Ð¸Ð¼Ð¾Ġ": 3389,
      "Å¡nj": 3390,
      "niÅ¡t": 3391,
      "Ð²ÐµĠ": 3392,
      "ber": 3393,
      "Å¡avaĠ": 3394,
      "Ð½Ð°Ð²ÐµÐ´": 3395,
      "jujeĠ": 3396,
      "ÐºÑĢÐµÑĤ": 3397,
      "unarod": 3398,
      "praveĠ": 3399,
      "Ð±ÑĢÐ·": 3400,
      "ÄįeÅ¡ÄĩeĠ": 3401,
      "vasĠ": 3402,
      "sud": 3403,
      "Ð¿Ð°ÑĢÑĤ": 3404,
      "sonĠ": 3405,
      "prirod": 3406,
      "2018Ġ": 3407,
      "Gra": 3408,
      "osigu": 3409,
      "Dra": 3410,
      "gin": 3411,
      "Ð¿ÑĢÐµÑĤÑħÐ¾Ð´": 3412,
      "tiriĠ": 3413,
      "SK": 3414,
      "investi": 3415,
      "telaĠ": 3416,
      "Ð°Ð¼Ð¾Ġ": 3417,
      "ÐµÐ½ÑĨÐ¸ÑĺÐµĠ": 3418,
      "titiĠ": 3419,
      "OdĠ": 3420,
      "nikeĠ": 3421,
      "tnimĠ": 3422,
      "foto": 3423,
      "Ð½Ð°ÑĤ": 3424,
      "Ja": 3425,
      "Å¾eneĠ": 3426,
      "lak": 3427,
      "Ð»Ð°ÑĪ": 3428,
      "ÐĳÐµÐ¾Ð³ÑĢÐ°Ð´Ġ": 3429,
      "rije": 3430,
      "OnĠ": 3431,
      "Å¡u": 3432,
      "part": 3433,
      "htt": 3434,
      "done": 3435,
      "tjĠ": 3436,
      "materijalaĠ": 3437,
      "vaz": 3438,
      "Ð·Ð°Ð¼": 3439,
      "vrloĠ": 3440,
      "koristeĠ": 3441,
      "ÄĳenoĠ": 3442,
      "govori": 3443,
      "njegĠ": 3444,
      "Ð¸ÑĢÐµÐºÑĤ": 3445,
      "ÑĨÑĢÐºÐ²": 3446,
      "jenihĠ": 3447,
      "zat": 3448,
      "ranaĠ": 3449,
      "ÐľĠ": 3450,
      "stran": 3451,
      "TheĠ": 3452,
      "Au": 3453,
      "Ð¸ÑĩÐºÐ¸Ð¼Ġ": 3454,
      "Ð¾ÑĢÐµĠ": 3455,
      "ÐµÑĢÑĤ": 3456,
      "Ð¦ÑĢ": 3457,
      "Ð¸ÑĴ": 3458,
      "://Ġ": 3459,
      "obuhva": 3460,
      "Ð¸ÑĩÐ½Ð¾Ð³Ġ": 3461,
      "2003Ġ": 3462,
      "deluĠ": 3463,
      "ÐłÐ°Ð´": 3464,
      "emi": 3465,
      "Ð´Ð¾Ð³": 3466,
      "Ð¼Ð¸Ġ": 3467,
      "voraĠ": 3468,
      "meriĠ": 3469,
      "ssĠ": 3470,
      "lag": 3471,
      "AliĠ": 3472,
      "plani": 3473,
      "2020Ġ": 3474,
      "leÅ¾": 3475,
      "Ð¾ÑĢÐ¸ÑĺÐ°Ġ": 3476,
      "oriĠ": 3477,
      "ÐļÐ°ÑĢ": 3478,
      "Ð¼ÐµÑĴÑĥÐ½Ð°ÑĢÐ¾Ð´": 3479,
      "zada": 3480,
      "znanjaĠ": 3481,
      "ÑĥÐºÐ°Ð·": 3482,
      "smatraĠ": 3483,
      "ÐĶÑĢÑĥÐ³": 3484,
      "meni": 3485,
      "ÐµÐ²Ġ": 3486,
      "ovaniĠ": 3487,
      "Ã®Ã": 3488,
      "ÑĺĠ": 3489,
      "JEĠ": 3490,
      "Ð¿ÑĢÐ¾ÑĤÐ¸Ð²Ġ": 3491,
      "poredĠ": 3492,
      "noveĠ": 3493,
      "Ð¿ÑĢÐ¾Ñģ": 3494,
      "post": 3495,
      "2002Ġ": 3496,
      "doga": 3497,
      "metaraĠ": 3498,
      "ÐµÐ»ÐµĠ": 3499,
      "upo": 3500,
      "stojiĠ": 3501,
      "ÐµÐ½Ð¾ÑģÑĤÐ¸Ġ": 3502,
      "manaĠ": 3503,
      "ÑģÐ¿ÐµÑĨ": 3504,
      "zdravstven": 3505,
      "Ð¾Ð²Ð°ÑĺĠ": 3506,
      "RepublikeĠ": 3507,
      "nitiĠ": 3508,
      "jskihĠ": 3509,
      "Ð¸ÑĩÐ½Ð¸ÑħĠ": 3510,
      "Ð¿ÑĢÐµÐºÐ¾Ġ": 3511,
      "âĢ¦": 3512,
      "uticajĠ": 3513,
      "IIIĠ": 3514,
      "ÐĿÐ°Ñĺ": 3515,
      "tivi": 3516,
      "ÐºÐ°Ð¿": 3517,
      "izjav": 3518,
      "Ð½Ð°ÑĥÑĩ": 3519,
      "Ð¸ÑĢÐ°Ð": 3520,
      "ÑĢÐµÐ¶": 3521,
      "mimaĠ": 3522,
      "Ð¾Ð´ÑĢÐ¶": 3523,
      "ÑĥÐºÑĥÐ¿": 3524,
      "Ha": 3525,
      "osĠ": 3526,
      "Ð¾ÐºÐ²Ð¸ÑĢÑĥĠ": 3527,
      "ÐºÐ°ÑĢÐ°ÐºÑĤÐµÑĢÐ¸ÑģÑĤ": 3528,
      "jedini": 3529,
      "Ð¿ÑĢÐ°Ð²Ð¾Ġ": 3530,
      "Ð°ÑĩÐºÐµĠ": 3531,
      "renjaĠ": 3532,
      "tacijaĠ": 3533,
      "ÑĢÑĥÑĩ": 3534,
      "postojeĠ": 3535,
      "procesĠ": 3536,
      "ÐµÑĢÐ¸Ġ": 3537,
      "kultur": 3538,
      "ÑĽÑĥĠ": 3539,
      "ÐĤ": 3540,
      "podruÄį": 3541,
      "tivnogĠ": 3542,
      "ÐºÑĥÐ¿": 3543,
      "ÐºÐ¾Ð½ÑĤÑĢÐ¾Ð»": 3544,
      "âĪ": 3545,
      "ÑĥÐ³Ð°ÑĢ": 3546,
      "uo": 3547,
      "brĠ": 3548,
      "tiveĠ": 3549,
      "NO": 3550,
      "vrstaĠ": 3551,
      "sten": 3552,
      "govoriĠ": 3553,
      "ljivo": 3554,
      "Ð°Ð¶ÐµĠ": 3555,
      "terapi": 3556,
      "ÄįitiĠ": 3557,
      "turiĠ": 3558,
      "AL": 3559,
      "ÑĤÑĥĠ": 3560,
      "meto": 3561,
      "NAĠ": 3562,
      "tsĠ": 3563,
      "bezbed": 3564,
      "ukljuÄįu": 3565,
      "Ð²Ð¸Ġ": 3566,
      "ÐµÑĪÑĽÐµĠ": 3567,
      "ozna": 3568,
      "mereĠ": 3569,
      "Ð¸ÑĪÑĤÐµĠ": 3570,
      "putemĠ": 3571,
      "dove": 3572,
      "boraĠ": 3573,
      "ÑĥÐºÐµĠ": 3574,
      "Ð¸ÑĤĠ": 3575,
      "zatoĠ": 3576,
      "deceĠ": 3577,
      "ÐĴĠ": 3578,
      "uspo": 3579,
      "Äįinjeni": 3580,
      "ÑģÑĤÑĢĠ": 3581,
      "Ð°ÐºÐ¾Ð½Ġ": 3582,
      "ÄįemuĠ": 3583,
      "gno": 3584,
      "ÐºÐ¾ÑĺÐ¾ÑĺĠ": 3585,
      "meÄĳunarod": 3586,
      "Ð¿ÑĢÐ¾Ð¸Ð·Ð²Ð¾Ð´": 3587,
      "................": 3588,
      "Ð¾Ð²Ð¾ÑĺĠ": 3589,
      "Ã²": 3590,
      "veÄĩaĠ": 3591,
      "48Ġ": 3592,
      "nedo": 3593,
      "spa": 3594,
      "ska": 3595,
      "isklju": 3596,
      "potro": 3597,
      "veziĠ": 3598,
      "Ð³Ð»Ð°Ð³": 3599,
      "Ð´ÑĢÐ¶Ð°Ð²ÐµĠ": 3600,
      "Ð¸Ð½ÑģÑĤÐ¸ÑĤ": 3601,
      "ÑģÑĥÐ±": 3602,
      "ograni": 3603,
      "doÅ¡": 3604,
      "Ð³ÑĢÑĥÐ¿ÐµĠ": 3605,
      "Ð¸ÑģÑĤÑĢÐ°Ð¶Ð¸Ð²": 3606,
      "kren": 3607,
      "valaĠ": 3608,
      "nauÄį": 3609,
      "Ti": 3610,
      "car": 3611,
      "polo": 3612,
      "ÑĨÐ¸Ð¿": 3613,
      "sig": 3614,
      "ÑĢÐ°ÑĤÐ°Ġ": 3615,
      "uzro": 3616,
      "cioni": 3617,
      "dok": 3618,
      "logijeĠ": 3619,
      "izuze": 3620,
      "Aleksan": 3621,
      "znaÄįiĠ": 3622,
      "derĠ": 3623,
      "Ð¿Ð°Ð½": 3624,
      "jednoĠ": 3625,
      "NakonĠ": 3626,
      "kojimĠ": 3627,
      "glavnomĠ": 3628,
      "nijaĠ": 3629,
      "ÑĢÐ°Ð½ÑĨ": 3630,
      "pojedin": 3631,
      "Kra": 3632,
      "kovi": 3633,
      "krivi": 3634,
      "paÅ¾": 3635,
      "2019Ġ": 3636,
      "moguÄĩnostĠ": 3637,
      "Ð·Ð°Ð²Ð¸Ñģ": 3638,
      "ispu": 3639,
      "anoĠ": 3640,
      "ÐºÐ¾Ð²Ð¸ÑĽĠ": 3641,
      "tkuĠ": 3642,
      "Ð·Ð°Ð²ÑĢÑĪ": 3643,
      "UkolikoĠ": 3644,
      "Ð½ÐµÐ¿": 3645,
      "renĠ": 3646,
      "takmi": 3647,
      "Å¾daĠ": 3648,
      "raniĠ": 3649,
      "tusĠ": 3650,
      "ÐłĠ": 3651,
      "borĠ": 3652,
      "Ð¾Ð´ÑĢÐµÐ´": 3653,
      "demi": 3654,
      "moÅ¾eteĠ": 3655,
      "krajuĠ": 3656,
      "Ð¸ÑĤÐ¾Ġ": 3657,
      "din": 3658,
      "pripre": 3659,
      "Ð°Ð·Ð°Ġ": 3660,
      "hu": 3661,
      "Ð¸Ð´Ġ": 3662,
      "ww": 3663,
      "ÐµÐ·Ð±ÐµÐ´": 3664,
      "sprov": 3665,
      "55Ġ": 3666,
      "Ð¿ÑĢÐ²Ð¸Ġ": 3667,
      "OvajĠ": 3668,
      "njimaĠ": 3669,
      "Ð¿ÑĢÐ¾ÑĪ": 3670,
      "ÑĥÐ»Ð°Ġ": 3671,
      "ÐµÐ»ÑĥĠ": 3672,
      "lika": 3673,
      "Ð´ÑĢÑĥÐ³Ð¸ÑħĠ": 3674,
      "darĠ": 3675,
      "Ð¾Ð´Ð³Ð¾Ð²Ð¾ÑĢ": 3676,
      "wwwĠ": 3677,
      "SaĠ": 3678,
      "sebeĠ": 3679,
      "Ð¾Ñļ": 3680,
      "ÐµÑĦÐ¸Ðº": 3681,
      "42Ġ": 3682,
      "genera": 3683,
      "demo": 3684,
      "len": 3685,
      "Ã¡": 3686,
      "podrazume": 3687,
      "svakiĠ": 3688,
      "tadaĠ": 3689,
      "tokuĠ": 3690,
      "Ð°ÑĤÐ½Ð¾Ġ": 3691,
      "75Ġ": 3692,
      "jenjeĠ": 3693,
      "teljaĠ": 3694,
      "Ð½ÑĥÑĤ": 3695,
      "Ð¿Ð¾ÑģÐµÐ±Ð½Ð¾Ġ": 3696,
      "Å¡emĠ": 3697,
      "Ð¸ÑĩÐºÐ¾Ð¼Ġ": 3698,
      "muÅ¡": 3699,
      "ÐķĠ": 3700,
      "laz": 3701,
      "ÐĴÐµÐ»": 3702,
      "ÐµÐ»ÐµÐºÑĤÑĢ": 3703,
      "efek": 3704,
      "datiĠ": 3705,
      "44Ġ": 3706,
      "Ð¿Ð¾Ð²ÑĢÑĪ": 3707,
      "2001Ġ": 3708,
      "ÐµÐ¾Ð¼Ð°Ġ": 3709,
      "ovanĠ": 3710,
      "kcijeĠ": 3711,
      "Ð²ÐµÑĽÐ¸Ġ": 3712,
      "ranjuĠ": 3713,
      "teraĠ": 3714,
      "vazdu": 3715,
      "veÄĩeĠ": 3716,
      "Ð²Ð°ÑĢÐ¸Ñĺ": 3717,
      "bileĠ": 3718,
      "Ð°ÑĢÐ°Ð´": 3719,
      "Å¾ivotĠ": 3720,
      "Ð´Ð¾Ð±Ð¸Ñĺ": 3721,
      "Ð¾Ð±Ð»Ð°ÑģÑĤÐ¸Ġ": 3722,
      "problemaĠ": 3723,
      "Ð¡ÑĢÐ±Ð¸ÑĺÐ¸Ġ": 3724,
      "dovoljnoĠ": 3725,
      "Ð·Ð´ÑĢ": 3726,
      "Å¾enjaĠ": 3727,
      "dolaziĠ": 3728,
      "pote": 3729,
      "ovanaĠ": 3730,
      "ÑĩÐ¸Ñļ": 3731,
      "hro": 3732,
      "finis": 3733,
      "Ð°ÑĻÐ°Ġ": 3734,
      "Ð¸Ð¾Ð½Ð°Ġ": 3735,
      "nivoĠ": 3736,
      "renjeĠ": 3737,
      "SveĠ": 3738,
      "ponen": 3739,
      "ÐºÐ¾Ð¼ÑĥÐ½": 3740,
      "ÑĤÐ¸Ð¼Ġ": 3741,
      "ÑĺÐµÐ·Ð¸ÐºÐ°Ġ": 3742,
      "ÐºĠ": 3743,
      "odaĠ": 3744,
      "kola": 3745,
      "minĠ": 3746,
      "ÄįetiriĠ": 3747,
      "anihĠ": 3748,
      "ÐµÐ·Ð°Ġ": 3749,
      "ÑģÐ²Ð¸Ð¼Ġ": 3750,
      "muzi": 3751,
      "Ð¸ÑĨÐ¸ÑĺÐµĠ": 3752,
      "buduĠ": 3753,
      "Ð¾Ð»Ġ": 3754,
      "OD": 3755,
      "Ð°ÑĺÑĥÑĽ": 3756,
      "analizeĠ": 3757,
      "ÐŀÑģ": 3758,
      "ÏĦ": 3759,
      "mani": 3760,
      "Ho": 3761,
      "ÑģÐ¼Ð°Ñļ": 3762,
      "ciona": 3763,
      "ÑģÐ²Ð¸ÑħĠ": 3764,
      "menu": 3765,
      "smisluĠ": 3766,
      "sledĠ": 3767,
      "ÑĢÐ°Ð½Ð¸Ñĩ": 3768,
      "09Ġ": 3769,
      "ispitanikaĠ": 3770,
      "alnoĠ": 3771,
      "osobaĠ": 3772,
      "Ð½ÐµÐºÐ¾Ð»Ð¸ÐºÐ¾Ġ": 3773,
      "jednostav": 3774,
      "TE": 3775,
      "pobe": 3776,
      "svetuĠ": 3777,
      "studen": 3778,
      "otvor": 3779,
      "Ð¸ÑĩÐºÐ¾Ġ": 3780,
      "pojedina": 3781,
      "govĠ": 3782,
      "41Ġ": 3783,
      "tradi": 3784,
      "Ð´ÐµÐ²": 3785,
      "barĠ": 3786,
      "shva": 3787,
      "Î¿": 3788,
      "razlikaĠ": 3789,
      "ÑĢÐµÑĤ": 3790,
      "43Ġ": 3791,
      "Ð¼Ð°Ð»": 3792,
      "oreĠ": 3793,
      "He": 3794,
      "arti": 3795,
      "ali": 3796,
      "ÄĳivanjeĠ": 3797,
      "jedneĠ": 3798,
      "evrop": 3799,
      "priro": 3800,
      "Ð¼Ð¸ÑĪÑĻ": 3801,
      "ÐµÐ½Ð´": 3802,
      "ÑĻÑĥÐ´Ð¸Ġ": 3803,
      "Ð¸ÑĩÐ½Ð°Ġ": 3804,
      "teÅ¾": 3805,
      "ÐºÐ°Ð½": 3806,
      "Ð¸ÑģÐ¿Ð¸ÑĤÐ°Ð½": 3807,
      "Ð¢Ð¾Ġ": 3808,
      "tnomĠ": 3809,
      "65Ġ": 3810,
      "ÄįnimĠ": 3811,
      "Ð´ÑĥÑħ": 3812,
      "ÄĩenjaĠ": 3813,
      "ÑģÑĤÐ°Ð²": 3814,
      "uspeÅ¡": 3815,
      "maj": 3816,
      "Ð¾ÐºÐ¾Ð»": 3817,
      "imatiĠ": 3818,
      "zakĠ": 3819,
      "kora": 3820,
      "con": 3821,
      "Ð»Ð¸Ðº": 3822,
      "ÑģÐ¸Ġ": 3823,
      "ÑģÐ½Ð°Ð³": 3824,
      "________": 3825,
      "zemlji": 3826,
      "bol": 3827,
      "Ð³ÐµÐ½ÐµÑĢ": 3828,
      "modelĠ": 3829,
      "parti": 3830,
      "terito": 3831,
      "prikazan": 3832,
      "ÑģÐ¾ÑĨÐ¸ÑĺÐ°Ð»": 3833,
      "ÑģÐ°": 3834,
      "Ð¸Ð»Ġ": 3835,
      "ÑĺÐ°Ñģ": 3836,
      "ÑĢÐ°Ð½ÑĨÑĥ": 3837,
      "inten": 3838,
      "povezan": 3839,
      "potpunoĠ": 3840,
      "Ð¾ÑĽÐ¸Ġ": 3841,
      "ÑģÐ¼Ð¾Ġ": 3842,
      "trgov": 3843,
      "pode": 3844,
      "fen": 3845,
      "nasta": 3846,
      "ÑĤÐ°Ð»": 3847,
      "Ð²ÐµÐ¾Ð¼Ð°Ġ": 3848,
      "Ð´ÑĢÑĥÐ³Ð¸Ġ": 3849,
      "Ð½Ð°Ð»Ð°Ð·Ð¸Ġ": 3850,
      "Î±": 3851,
      "Ð¸ÑĨÐ¸Ñĺ": 3852,
      "logijaĠ": 3853,
      "sup": 3854,
      "Ð¾ÑģÑĤÐ°Ð»": 3855,
      "Å£i": 3856,
      "Ð¼Ð°ÑļÐµĠ": 3857,
      "Ob": 3858,
      "Ð¿ÑĢÐµÐ¼": 3859,
      "svomĠ": 3860,
      "lizacijeĠ": 3861,
      "iakoĠ": 3862,
      "53Ġ": 3863,
      "ÄįimaĠ": 3864,
      "ÑĤÑĢÐ¶": 3865,
      "Srp": 3866,
      "tnostiĠ": 3867,
      "Ð¸ÑĩÐ½Ð¸Ġ": 3868,
      "Ð¼ÐµÑģÑĤÐ¾Ġ": 3869,
      "ÐºÐ¾": 3870,
      "âĢĺĠ": 3871,
      "ÑģÐ¼Ð¸ÑģÐ»": 3872,
      "Voj": 3873,
      "jskogĠ": 3874,
      "prijav": 3875,
      "Ministar": 3876,
      "Ameri": 3877,
      "ÐµÐ½Ð¾ÑģÑĤĠ": 3878,
      "rezultatiĠ": 3879,
      "drÅ¾aveĠ": 3880,
      "obziromĠ": 3881,
      "ïĤ·Ġ": 3882,
      "Ð¿Ð¾Ð»Ð¾Ð¶": 3883,
      "Ã¥Ġ": 3884,
      "Ð¥ÑĢ": 3885,
      "2022Ġ": 3886,
      "zaÅ¡titeĠ": 3887,
      "Ð¶Ð¸Ð²Ð¾ÑĤÐ°Ġ": 3888,
      "vide": 3889,
      "odred": 3890,
      "ÑĤÑĢÐ°Ð´": 3891,
      "ÐµÑĩĠ": 3892,
      "ino": 3893,
      "Å¡egĠ": 3894,
      "ostav": 3895,
      "Ð¸Ð¼Ð¸Ð½": 3896,
      "Ð°ÑģÑĤĠ": 3897,
      "odgovaraju": 3898,
      "Ð¸ÑļÐµĠ": 3899,
      "Éŀ": 3900,
      "ÑģÐ¿ÑĢÐ¾Ð²": 3901,
      "):Ġ": 3902,
      "ÑĩÐµÑģÑĤÐ¾Ġ": 3903,
      "ÄįlanaĠ": 3904,
      "matiÄį": 3905,
      "Éľ": 3906,
      "ÐĪĠ": 3907,
      "Ð¸Ð³ÑĢ": 3908,
      "ÐµÑĢÑĥĠ": 3909,
      "zahtevaĠ": 3910,
      "kasnijeĠ": 3911,
      "troÅ¡ko": 3912,
      "ovdeĠ": 3913,
      "fakul": 3914,
      "rataĠ": 3915,
      "ustan": 3916,
      "at": 3917,
      "Ð¸ÑĨÐ°Ð¼Ð°Ġ": 3918,
      "Ð¿ÐµÑĢÐ¸Ð¾Ð´ÑĥĠ": 3919,
      "Ð¾Ð²Ð¸ÑĽÐ°Ġ": 3920,
      "varija": 3921,
      "..Ġ": 3922,
      "%,Ġ": 3923,
      "ÑĦÐ¸Ð½Ð°Ð½Ñģ": 3924,
      "slav": 3925,
      "Ð¿ÑĢÐ¾Ñĺ": 3926,
      "Ð°ÑĢÐ¸Ġ": 3927,
      "Ð°Ð±Ð¸Ð»": 3928,
      "IakoĠ": 3929,
      "saobra": 3930,
      "snihĠ": 3931,
      "kcijaĠ": 3932,
      "ocaĠ": 3933,
      "Ð¾Ð²Ð°Ð½Ġ": 3934,
      "mestuĠ": 3935,
      "Ð½Ð¸Ðº": 3936,
      "Ð»Ð¾Ð³": 3937,
      "ÐºÑĢÐ°Ñĺ": 3938,
      "Ð¿Ð¾ÑģÑĤÐ°Ð²": 3939,
      "tetuĠ": 3940,
      "TakoĠ": 3941,
      "zlo": 3942,
      "mpi": 3943,
      "pacijenataĠ": 3944,
      "manjaĠ": 3945,
      "Ð´Ð¸ÑĢÐµÐºÑĤ": 3946,
      "prezen": 3947,
      "Ð»ÐµÐºÑģ": 3948,
      "rezultataĠ": 3949,
      "Ð¿Ð¾Ð´ÑĢÑĥÑĩ": 3950,
      "pravi": 3951,
      "svr": 3952,
      "200Ġ": 3953,
      "gledĠ": 3954,
      "Ð¡Ð²ÐµÑĤ": 3955,
      "istaĠ": 3956,
      "milionaĠ": 3957,
      "Ste": 3958,
      "Ukraj": 3959,
      "dimen": 3960,
      "ÑģÐ¼Ð°ÑĤ": 3961,
      "komb": 3962,
      "imaoĠ": 3963,
      "ÐĪÑĥÐ³Ð¾ÑģÐ»": 3964,
      "03Ġ": 3965,
      "Ð¾Ð³ÑĢÐ°Ð½Ð¸Ñĩ": 3966,
      "ene": 3967,
      "ÑĥÑĤÐ²ÑĢÑĴ": 3968,
      "oprivred": 3969,
      "Ð¸ÑģÑĤÐ¸ÑĩÐºÐ¸Ġ": 3970,
      "komponen": 3971,
      "noviĠ": 3972,
      "raneĠ": 3973,
      "Fa": 3974,
      "sum": 3975,
      "damĠ": 3976,
      "upravoĠ": 3977,
      "zatimĠ": 3978,
      "ista": 3979,
      "siv": 3980,
      "08Ġ": 3981,
      "ÐĵÑĢ": 3982,
      "Ð²Ð°Ð»": 3983,
      "Ã¨Ġ": 3984,
      "koristi": 3985,
      "evraĠ": 3986,
      "Ku": 3987,
      "OvaĠ": 3988,
      "blo": 3989,
      "ÑģÐ¸ÑĤÑĥ": 3990,
      "jekataĠ": 3991,
      "naÅ¡eĠ": 3992,
      "jnoĠ": 3993,
      "ÄįuĠ": 3994,
      "viru": 3995,
      "Ð¾ÐºÐ°Ġ": 3996,
      "46Ġ": 3997,
      "Da": 3998,
      "ratiĠ": 3999,
      "ÃłÃ": 4000,
      "ÑĤÐ¸Ġ": 4001,
      "Go": 4002,
      "postu": 4003,
      "Ð¿Ð¾Ð´Ð°ÑĤÐ°ÐºÐ°Ġ": 4004,
      "Äįita": 4005,
      "tiva": 4006,
      "2021Ġ": 4007,
      "godinuĠ": 4008,
      "jumĠ": 4009,
      "pokre": 4010,
      "Pi": 4011,
      "definis": 4012,
      "Ð¼Ð°ÑĤÑĢ": 4013,
      "sop": 4014,
      "nared": 4015,
      "sov": 4016,
      "ÑĢÐ°Ð¼Ð°Ġ": 4017,
      "gubi": 4018,
      "glob": 4019,
      "uro": 4020,
      "ÄĩimĠ": 4021,
      "Ð¾Ð±ÑĢ": 4022,
      "ÐĺÐ": 4023,
      "koncep": 4024,
      "skri": 4025,
      "zakonaĠ": 4026,
      "04Ġ": 4027,
      "Ð¸Ð¾ÑĨ": 4028,
      "49Ġ": 4029,
      "navodiĠ": 4030,
      "Ð³Ð¾ÑĢ": 4031,
      "odnosaĠ": 4032,
      "imaliĠ": 4033,
      "ÑĥÑļ": 4034,
      "Ð¸Ð±Ð»": 4035,
      "odstoĠ": 4036,
      "konstruk": 4037,
      "Ð³Ð»Ð°Ñģ": 4038,
      "maksi": 4039,
      "svetaĠ": 4040,
      "njegaĠ": 4041,
      "linaĠ": 4042,
      "AR": 4043,
      "Ð°ÑĩĠ": 4044,
      "Ð¸ÑĺÑģÐºÐ¸Ġ": 4045,
      "Ð¡ÐĲ": 4046,
      "51Ġ": 4047,
      "enjaĠ": 4048,
      "64Ġ": 4049,
      "et": 4050,
      "%)Ġ": 4051,
      "ÑģÐ¼Ð¸ÑģÐ»ÑĥĠ": 4052,
      "ÐµÐ½ÑĤÐ¸Ġ": 4053,
      "ÑĤÐµÐ¶": 4054,
      "Ð¾ÑĤÐ²Ð¾ÑĢ": 4055,
      "ED": 4056,
      "PoredĠ": 4057,
      "02Ġ": 4058,
      "Å¡kol": 4059,
      "dis": 4060,
      "Ð¾Ð¼Ð¾Ð³ÑĥÑĽ": 4061,
      "sadr": 4062,
      "tret": 4063,
      "Ð¿Ð¾ÑģÑĢÐµÐ´": 4064,
      "uÄįest": 4065,
      "Inter": 4066,
      "Ð½Ð¸Ð²Ð¾": 4067,
      "57Ġ": 4068,
      "kogaĠ": 4069,
      "ner": 4070,
      "Ð¸ÑĺÑģÐºÐµĠ": 4071,
      "odnosiĠ": 4072,
      "Fe": 4073,
      "narod": 4074,
      "jasnoĠ": 4075,
      "ÑĦÐ¸Ð·": 4076,
      "daÅ¡": 4077,
      "Ð¸Ð¼ÐµÐ½": 4078,
      "ÐŁÑĢÐµÐ¼Ð°Ġ": 4079,
      "cenaĠ": 4080,
      "huĠ": 4081,
      "gri": 4082,
      "renaĠ": 4083,
      "Ð¿ÑĢÐ¾Ð²": 4084,
      "uglavnomĠ": 4085,
      "dinaraĠ": 4086,
      "95Ġ": 4087,
      "Ð½Ð¸ÑĺÐ¸Ġ": 4088,
      "ÑĥÐ»Ð¾Ð³": 4089,
      "ÑĥÐ¿ÑĢÐ°Ð²ÑĻ": 4090,
      "komplek": 4091,
      "ÑĨÐ¸ÑĺÐ°Ġ": 4092,
      "zimaĠ": 4093,
      "Ð¾Ð¿ÑĢÐ°Ð²": 4094,
      "ÐºÑļÐ¸Ð³": 4095,
      "ÐŀÐ´": 4096,
      "potrebeĠ": 4097,
      "bud": 4098,
      "ft": 4099,
      "47Ġ": 4100,
      "ovak": 4101,
      "Ð¸Ð²ÑĻ": 4102,
      "Ð³ÑĥÐ±": 4103,
      "ÑģÐºÐ»Ð°Ð´": 4104,
      "oÄįeki": 4105,
      "greÅ¡": 4106,
      "ÑĩÐ¸ÑļÐµÐ½": 4107,
      "unutra": 4108,
      "opÅ¡teĠ": 4109,
      "Ri": 4110,
      "07Ġ": 4111,
      "ÐºÑĥÑĢ": 4112,
      "poja": 4113,
      "Ð¿Ð¾ÑģÐ»ÐµĠ": 4114,
      "Ki": 4115,
      "strĠ": 4116,
      "jezikaĠ": 4117,
      "52Ġ": 4118,
      "ÑĨÐ°ÑĢ": 4119,
      "jumaĠ": 4120,
      "ale": 4121,
      "pita": 4122,
      "kujuĠ": 4123,
      "Ð¸ÑĢÐ¸Ġ": 4124,
      "Ð°ÐºÑĤÐ¸Ð²Ð½Ð¾ÑģÑĤÐ¸Ġ": 4125,
      "ÑĢÐ¾Ð´": 4126,
      "Fo": 4127,
      "detal": 4128,
      "predsednikĠ": 4129,
      "nicimaĠ": 4130,
      "mob": 4131,
      "Ð±ÑĢÐ°Ġ": 4132,
      "ÄĩeteĠ": 4133,
      "pomoÄĩĠ": 4134,
      "Ð¾Ð±ÑĥÑħ": 4135,
      "ÐºÐ¾ÑĢÐ¸Ñģ": 4136,
      "snostĠ": 4137,
      "tekĠ": 4138,
      "sakĠ": 4139,
      "ameri": 4140,
      "Ð¿ÑĢÐ°Ðº": 4141,
      "ÑĤÐ¸Ð²": 4142,
      "preduzeÄĩaĠ": 4143,
      "ÐĲÑĢ": 4144,
      "Ð¸Ð´Ðµ": 4145,
      "ÑģÐµÐº": 4146,
      "Ð°ÑĪÑĤ": 4147,
      "ÐµÑĢÐµĠ": 4148,
      "Ð¿Ð¸ÑĤÐ°ÑļÐµĠ": 4149,
      "Ð¿ÑĢÐµÐ·": 4150,
      "posmatra": 4151,
      "É¥": 4152,
      "skoroĠ": 4153,
      "ÑĢÐ°Ð·Ð²Ð¾ÑĺĠ": 4154,
      "slovĠ": 4155,
      "enjeĠ": 4156,
      "ÐºÐ¾Ð½ÑĤ": 4157,
      "Ð¸ÑĢÐ°ÑĺÑĥĠ": 4158,
      "ÄįegaĠ": 4159,
      "Ð¾Ð²Ð°Ð½Ð°Ġ": 4160,
      "Ð¿Ñģ": 4161,
      "odra": 4162,
      "1999Ġ": 4163,
      "ÐºÐ°Ð·": 4164,
      "konku": 4165,
      "promenaĠ": 4166,
      "RSĠ": 4167,
      "ÑĤÐ°ÑĺĠ": 4168,
      "ÐĿÐµÐ¼": 4169,
      "ÑĢÐµÑĦ": 4170,
      "acĠ": 4171,
      "ÐºÐ¾ÑĢÐ¸ÑģÑĤÐ¸Ġ": 4172,
      "odbra": 4173,
      "Ð±ÐµĠ": 4174,
      "Ð´ÑĥÐ³": 4175,
      "ÑģÑĤÐµÐ¿": 4176,
      "Ð¡ÑĢÐ¿": 4177,
      "Ð¸ÑģÑĤÐ¸Ġ": 4178,
      "pretpostav": 4179,
      "sur": 4180,
      "Ñĭ": 4181,
      "loÅ¾en": 4182,
      "ÐļÐ°Ð¾Ġ": 4183,
      "ÑĨÑĥĠ": 4184,
      "ÐµÐ¼Ð°ÑĤ": 4185,
      "ljivoĠ": 4186,
      "Ð¼Ð°Ðº": 4187,
      "kupa": 4188,
      "ÑģÐµÑĢ": 4189,
      "ÄĩenĠ": 4190,
      "korisni": 4191,
      "Zako": 4192,
      "ÑĢÐ°Ð·Ð²Ð¾ÑĺÐ°Ġ": 4193,
      "ret": 4194,
      "ÑģÐµÐ±": 4195,
      "06Ġ": 4196,
      "Ð¸Ð·Ð¼Ð°Ġ": 4197,
      "we": 4198,
      "gr": 4199,
      "Ca": 4200,
      "programaĠ": 4201,
      "staliĠ": 4202,
      "ÄĩelijaĠ": 4203,
      "dnaĠ": 4204,
      "stvar": 4205,
      "praviĠ": 4206,
      "En": 4207,
      "ÑĢÐµÑĩÐ¸Ġ": 4208,
      "njemĠ": 4209,
      "Ã¨Ã": 4210,
      "zomĠ": 4211,
      "Sva": 4212,
      "vekaĠ": 4213,
      "54Ġ": 4214,
      "vidi": 4215,
      "Ð»ÐµÐ¶": 4216,
      "zajedniÄį": 4217,
      "izgrad": 4218,
      "ÑĢÐ¸Ð·": 4219,
      "56Ġ": 4220,
      "Ð¸ÑĤÑĢ": 4221,
      "energijeĠ": 4222,
      "agen": 4223,
      "ÑĥÑģÑĤÐ°Ð½": 4224,
      "oÅ¡te": 4225,
      "LA": 4226,
      "jar": 4227,
      "supro": 4228,
      "Ð¿ÑĢÐ¸Ð¼ÐµÑĢĠ": 4229,
      "ÄįijiĠ": 4230,
      "ljenihĠ": 4231,
      "Å¾iv": 4232,
      "broj": 4233,
      "normal": 4234,
      "ÑģÐ¸ÑģÑĤÐµÐ¼Ġ": 4235,
      "Ð°Ð·Ġ": 4236,
      "Ð¾Ð²Ð°Ð¾Ġ": 4237,
      "Ð±ÑĥÐ´ÐµĠ": 4238,
      "gotovoĠ": 4239,
      "bele": 4240,
      "vrÅ¡iĠ": 4241,
      "Ð¾Ð¿ÑĤ": 4242,
      "informacijeĠ": 4243,
      "Ð¼Ð¾ÑĢÐ°Ġ": 4244,
      "mbraĠ": 4245,
      "Ð½Ð°ÑĢÐ¾Ð´": 4246,
      "ÐºÐ»Ð°Ñģ": 4247,
      "Ð½ÐµÑĢ": 4248,
      "Ð¡Ð°Ð²": 4249,
      "najviÅ¡eĠ": 4250,
      "âĢĻ": 4251,
      "ujuĠ": 4252,
      "areĠ": 4253,
      "ÐºÐ¾Ð½ÑĨÐµÐ¿": 4254,
      "alniĠ": 4255,
      "Äĩi": 4256,
      "LI": 4257,
      "stanjaĠ": 4258,
      "Jugosl": 4259,
      "ÐµÐ²ÐµĠ": 4260,
      "raÄįuna": 4261,
      "ÑĺÐµÑģÑĤ": 4262,
      "vidiĠ": 4263,
      "ÄĳuĠ": 4264,
      "turuĠ": 4265,
      "Ð¾Ð¿ÐµÑĢ": 4266,
      "zavisnostiĠ": 4267,
      "ÄĳeniĠ": 4268,
      "Ð±Ð¸ÑĻ": 4269,
      "jeteĠ": 4270,
      "ÐµÐ½ÐµÑĢÐ³": 4271,
      "ÐµÑĺÐ°Ġ": 4272,
      "ciljĠ": 4273,
      "opti": 4274,
      "ÑĢÐ°Ð½ÐµĠ": 4275,
      "Å¾noĠ": 4276,
      "mir": 4277,
      "jednuĠ": 4278,
      "Äİ": 4279,
      "Ð°Ð±ÐµÐ»Ð°Ġ": 4280,
      "izveÅ¡ta": 4281,
      "ÐµÐºÑĤÐ°Ġ": 4282,
      "vlastiĠ": 4283,
      "efe": 4284,
      "razlikeĠ": 4285,
      "500Ġ": 4286,
      "anakĠ": 4287,
      "Ð°Ð½Ð¾Ð³Ġ": 4288,
      "poputĠ": 4289,
      "ÑĥÐ½Ð°Ġ": 4290,
      "analizi": 4291,
      "analizaĠ": 4292,
      "ÄįioĠ": 4293,
      "vojĠ": 4294,
      "Â°Ġ": 4295,
      "vis": 4296,
      "Ð¸Ð½Ð°Ð¼Ð°Ġ": 4297,
      "viduĠ": 4298,
      "moguÄĩnostiĠ": 4299,
      "prila": 4300,
      "Ð»Ð¸ÑĨÐ°Ġ": 4301,
      "fir": 4302,
      "ÐµÐ²ÐµÑĢ": 4303,
      "vali": 4304,
      "ÄįkoĠ": 4305,
      "Ð»Ð°ÑĤ": 4306,
      "moÅ¾emoĠ": 4307,
      "nadleÅ¾": 4308,
      "mil": 4309,
      "Ð¿ÑĥÐ½": 4310,
      "klasi": 4311,
      "poz": 4312,
      "novihĠ": 4313,
      "ostvari": 4314,
      "ÄĳenjuĠ": 4315,
      "emo": 4316,
      "ÑĢÐ°ÑĽ": 4317,
      "ravnoĠ": 4318,
      "Ð²ÑĢÐµÐ¼ÐµÐ½Ð°Ġ": 4319,
      "Ð´ÑĢÐ¶Ð°Ð²Ð°Ġ": 4320,
      "59Ġ": 4321,
      "sebiĠ": 4322,
      "Ð²Ð¸ÑĴ": 4323,
      "pobolj": 4324,
      "tonĠ": 4325,
      "hidro": 4326,
      "kvalitetaĠ": 4327,
      "ÐµÐ½Ð¾ÑĺĠ": 4328,
      "ÑŁ": 4329,
      "ÑĩÐµÑĪÑĽÐµĠ": 4330,
      "lav": 4331,
      "ekstra": 4332,
      "gijaĠ": 4333,
      "Ð¢Ð°ÐºÐ¾ÑĴÐµĠ": 4334,
      "72Ġ": 4335,
      "razliÄįiteĠ": 4336,
      "Nema": 4337,
      "Ð½ÐµÐ¼Ð°Ġ": 4338,
      "paci": 4339,
      "smr": 4340,
      "strate": 4341,
      "Fran": 4342,
      "biÄĩeĠ": 4343,
      "mmĠ": 4344,
      "ciljuĠ": 4345,
      "onihĠ": 4346,
      "Ð·Ð°ÑģÑĤ": 4347,
      "ÐĿÐ¸Ðº": 4348,
      "ariĠ": 4349,
      "uzora": 4350,
      "ÑģÐ°ÑĢÐ°Ð´": 4351,
      "sisĠ": 4352,
      "ÄįkomĠ": 4353,
      "predstavljajuĠ": 4354,
      "reÄįiĠ": 4355,
      "reÄįĠ": 4356,
      "poÅ¡": 4357,
      "zaoĠ": 4358,
      "njihoveĠ": 4359,
      "zajednoĠ": 4360,
      "oruĠ": 4361,
      "Ð³Ð»ÐµÐ´": 4362,
      "Ð²ÑĢÐµÐ´Ð½Ð¾ÑģÑĤĠ": 4363,
      "Ð¼Ð°Ñļ": 4364,
      "ovatiĠ": 4365,
      "Ð¸Ð´Ð°Ġ": 4366,
      "odnoseĠ": 4367,
      "zdra": 4368,
      "ÑģÐ¸Ð½": 4369,
      "noÅ¡ÄĩuĠ": 4370,
      "*''Ġ": 4371,
      "cmĠ": 4372,
      "osimĠ": 4373,
      "preporu": 4374,
      "odnosĠ": 4375,
      "uk": 4376,
      "gomĠ": 4377,
      "Ð¿ÑĢÐµÐ´Ð»": 4378,
      "zmaĠ": 4379,
      "princi": 4380,
      "ÑĥÐ·Ð¾ÑĢ": 4381,
      "ÑģÐ»ÑĥÑĩÐ°Ñĺ": 4382,
      "psiho": 4383,
      "eks": 4384,
      "ÑĤÐ¾ÑĢ": 4385,
      "sluÅ¾": 4386,
      "statistiÄįkiĠ": 4387,
      "Ð´Ð¸Ñĺ": 4388,
      "Ð»Ð¸ÑĤ": 4389,
      "ovaneĠ": 4390,
      "sopstven": 4391,
      "lacijaĠ": 4392,
      "izbe": 4393,
      "ÑĥÐ²ÐµÐºĠ": 4394,
      "58Ġ": 4395,
      "Ð¿Ð¾ÑģÐ¾Ð±": 4396,
      "ÑģÐ²Ð¾ÑĺÐ¸Ð¼Ġ": 4397,
      "avanjuĠ": 4398,
      "Bro": 4399,
      "Ð¿ÑĢÐ¸ÑĢÐ¾Ð´": 4400,
      "mogaoĠ": 4401,
      "Ð¸ÑĨÐ¸ÑĺÐ°Ġ": 4402,
      "ÐºÐ¾Ð¼ÐµĠ": 4403,
      "tehniÄį": 4404,
      "Rezulta": 4405,
      "tob": 4406,
      "Ð°Ð»Ð½Ð¾Ð¼Ġ": 4407,
      "mole": 4408,
      "tojĠ": 4409,
      "istoĠ": 4410,
      "81Ġ": 4411,
      "ÐºÐ°ÑģÐ½Ð¸ÑĺÐµĠ": 4412,
      "reÅ¡": 4413,
      "lakoĠ": 4414,
      "tala": 4415,
      "vori": 4416,
      "isko": 4417,
      "ÄįnomĠ": 4418,
      "nedosta": 4419,
      "usledĠ": 4420,
      "stabil": 4421,
      "ÑģÐ°Ð²ÑĢÐµÐ¼": 4422,
      "ÑģÐµÐ¼": 4423,
      "ovo": 4424,
      "ÑģÑĤÐ°Ð½Ð´Ð°ÑĢ": 4425,
      "É¨Ġ": 4426,
      "Ð¾ÑĺÐ¸Ġ": 4427,
      "Ð´Ð¾Ð¿ÑĢ": 4428,
      "ÐŀÐ´Ġ": 4429,
      "Ð¿Ð¾ÑĪÑĤ": 4430,
      "Ð¾Ð´Ð°Ð²": 4431,
      "Ð¸ÑĤÐµÑĻ": 4432,
      "deteĠ": 4433,
      "Evro": 4434,
      "druÅ¡tvaĠ": 4435,
      "lacĠ": 4436,
      "eli": 4437,
      "ÐºÐ¾Ð¼Ð¿Ð»": 4438,
      "Ð¸ÑĩÑĥĠ": 4439,
      "gli": 4440,
      "Ð¸Ð¿Ġ": 4441,
      "vid": 4442,
      "ÑĤÑĢÐ°Ð½": 4443,
      "tero": 4444,
      "jekatĠ": 4445,
      "zacijeĠ": 4446,
      "bihĠ": 4447,
      "63Ġ": 4448,
      "pli": 4449,
      "poljoprivred": 4450,
      "TI": 4451,
      "Ð¸ÑĪÑĥĠ": 4452,
      "vanjemĠ": 4453,
      "Ð¸Ð·ÑĢÐ°Ð¶": 4454,
      "Ð¸ÑģÑĤÐ¾ÑĢÐ¸Ñĺ": 4455,
      "ÐºÐ¾ÑĺÐ¸ÑħĠ": 4456,
      "SP": 4457,
      "Poli": 4458,
      "ÑĤÑĥÐ¼": 4459,
      "elektri": 4460,
      "ÑģÐ°Ð³": 4461,
      "tolikoĠ": 4462,
      "namaĠ": 4463,
      "ÑĤÐµÑģÑĤ": 4464,
      "grupiĠ": 4465,
      "ÐµÑģÑĤÐ²": 4466,
      "KodĠ": 4467,
      "kriteri": 4468,
      "daoĠ": 4469,
      "ÑĨÐ¸Ð¼Ð°Ġ": 4470,
      "Ð´ÐµÑĦÐ¸Ð½Ð¸Ñģ": 4471,
      "alnogĠ": 4472,
      "svogĠ": 4473,
      "kojemĠ": 4474,
      "informacijaĠ": 4475,
      "okol": 4476,
      "morajuĠ": 4477,
      "pristupĠ": 4478,
      "SADĠ": 4479,
      "ÑĤÐµÑĢÐ¸ÑĤ": 4480,
      "Ð¿ÑĢÐµÐ´ÑģÑĤÐ°Ð²": 4481,
      "arhi": 4482,
      "mbo": 4483,
      "podi": 4484,
      "stiÄįkeĠ": 4485,
      "mirĠ": 4486,
      "Ð´ÐµÐ¼": 4487,
      "nivoaĠ": 4488,
      "Ð°ÑļÐ¸Ð¼Ð°Ġ": 4489,
      "druga": 4490,
      "zamĠ": 4491,
      "ÐºÑĥÑĽ": 4492,
      "Ð¾ÑĢÐ¸ÑĺÐ¸Ġ": 4493,
      "Ð¿Ð¸ÑĤÐ°ÑļÐ°Ġ": 4494,
      "Ð¿ÑĢÐ¸Ð¿Ð°Ð´": 4495,
      "Ð½Ð¾ÑĢÐ¼": 4496,
      "ph": 4497,
      "MAĠ": 4498,
      "85Ġ": 4499,
      "razliÄįitimĠ": 4500,
      "stepen": 4501,
      "Ð¼Ð°ÑĤÐµÑĢ": 4502,
      "Ð¾Ð·Ð½Ð°Ñĩ": 4503,
      "Ð°ÑĩÐºÐ°Ġ": 4504,
      "ÑĺÑĥĠ": 4505,
      "snostiĠ": 4506,
      "koro": 4507,
      "zanaĠ": 4508,
      "ÑģÐºÐ»": 4509,
      "sredineĠ": 4510,
      "osiĠ": 4511,
      "Ð¡Ð»Ð¸ÐºÐ°Ġ": 4512,
      "Ð¿ÑĢÐ¸ÑģÑĤÑĥÐ¿": 4513,
      "izaz": 4514,
      "remenoĠ": 4515,
      "kredi": 4516,
      "pripad": 4517,
      "Raz": 4518,
      "slikaĠ": 4519,
      "99Ġ": 4520,
      "Ð°ÑĨÐ¸ÑĺÐ°Ð¼Ð°Ġ": 4521,
      "che": 4522,
      "starĠ": 4523,
      "ÑģÑĥÐ±Ñĺ": 4524,
      "reklaĠ": 4525,
      "ÑĺÐµÐ´Ð¸Ñļ": 4526,
      "merĠ": 4527,
      "Ð¾ÑĪÑĽÑĥĠ": 4528,
      "Å¡tineĠ": 4529,
      "Ð´ÐµÐ»ÑĥĠ": 4530,
      "Ð´Ð¾Ð¿ÑĢÐ¸Ð½": 4531,
      "ÑģÐ²ÐµÐ³Ð°Ġ": 4532,
      "Hrvat": 4533,
      "isĠ": 4534,
      "JaĠ": 4535,
      "Ð¢Ġ": 4536,
      "organizacijeĠ": 4537,
      "ÄįitoĠ": 4538,
      "pravil": 4539,
      "bru": 4540,
      "hraneĠ": 4541,
      "mje": 4542,
      "Ð¸Ð½ÑģÑĤÐ¸ÑĤÑĥÑĨ": 4543,
      "ÐĪÑĥÐ³Ð¾ÑģÐ»Ð°Ð²": 4544,
      "Ð¾Ð½Ð¾Ġ": 4545,
      "92Ġ": 4546,
      "niÅ¡taĠ": 4547,
      "Ð¿Ð¾Ð½Ð°ÑĪ": 4548,
      "Ð´ÑĢÑĥÐ³Ð¸Ð¼Ġ": 4549,
      "Kri": 4550,
      "faktoraĠ": 4551,
      "Fi": 4552,
      "raoĠ": 4553,
      "ÑĢÐ°Ð·Ð»Ð¸ÑĩÐ¸ÑĤÐ¸ÑħĠ": 4554,
      "unapre": 4555,
      "epi": 4556,
      "boljiĠ": 4557,
      "ipakĠ": 4558,
      "razlogaĠ": 4559,
      "Ð¾Ð±Ð°Ð²ÐµÐ·": 4560,
      "ÐĪÐµÐ´": 4561,
      "Ð¿ÑĥÑĤĠ": 4562,
      "uslugaĠ": 4563,
      "Ð°ÑĩÐºÐ¸Ġ": 4564,
      "tujeĠ": 4565,
      "Ð¿Ð¾ÑĢÐµÐ´Ġ": 4566,
      "ÐĿÐ°ÐºÐ¾Ð½Ġ": 4567,
      "Ð¾ÑĽĠ": 4568,
      "ÑģÑĤÐ°Ð²Ð°Ġ": 4569,
      "VI": 4570,
      "ÄįnuĠ": 4571,
      "interak": 4572,
      "jenoĠ": 4573,
      "ÐµÐ²Ð¸Ġ": 4574,
      "nalazeĠ": 4575,
      "Ð¿ÑĢÑĥÐ¶": 4576,
      "dogaÄĳa": 4577,
      "ckĠ": 4578,
      "Ð¾Ð´Ð³Ð¾Ð²Ð°ÑĢ": 4579,
      "gan": 4580,
      "bak": 4581,
      "67Ġ": 4582,
      "ÄįkuĠ": 4583,
      "Ð°ÑĨÐ¸ÑĺÐ¾Ð¼Ġ": 4584,
      "beliĠ": 4585,
      "Ana": 4586,
      "ÑĤÐµÐ»": 4587,
      "meniĠ": 4588,
      "cilje": 4589,
      "stanjeĠ": 4590,
      "Ð¿Ð¾Ð´ÑĢÐ°Ð·ÑĥÐ¼": 4591,
      "Ð½Ð¸ÑĨÐ°Ġ": 4592,
      "ficijen": 4593,
      "prĠ": 4594,
      "Ð²ÐµÐ½ÑĨ": 4595,
      "Ð¾Ð´Ð»ÑĥÑĩ": 4596,
      "odr": 4597,
      "Ð´Ð¾Ð¼Ð°ÑĽ": 4598,
      "katego": 4599,
      "ÐŁÐ°ÑĢ": 4600,
      "forĠ": 4601,
      "Ð¸ÑĩÐºÑĥĠ": 4602,
      "izbor": 4603,
      "Tre": 4604,
      "ÐļÐ¾Ð¼": 4605,
      "inskiĠ": 4606,
      "ÄĳeneĠ": 4607,
      "ÑģÐ²Ð¾ÑĺÑĥĠ": 4608,
      "nan": 4609,
      "menĠ": 4610,
      "Bri": 4611,
      "gled": 4612,
      "jakaĠ": 4613,
      "nikuĠ": 4614,
      "Ð¾ÐºÑĢ": 4615,
      "upu": 4616,
      "62Ġ": 4617,
      "napa": 4618,
      "ÑĥÐ»Ð°ÑĢ": 4619,
      "zemal": 4620,
      "61Ġ": 4621,
      "Ð°ÑĤÐ¸Ð²Ð½Ð¾Ġ": 4622,
      "saobraÄĩa": 4623,
      "Ð¾ÐºÑģ": 4624,
      "rijan": 4625,
      "Äįit": 4626,
      "ÄįnostiĠ": 4627,
      "Ð¾Ð±Ð°Ġ": 4628,
      "podaciĠ": 4629,
      "godiniĠ": 4630,
      "Ð½Ð°ÑģÐ»": 4631,
      "Å¾enjeĠ": 4632,
      "Å¾enĠ": 4633,
      "Ð¿Ġ": 4634,
      "ÑģÑĥÐ¿": 4635,
      "Ð³ÑĢÑĥÐ¿Ð°Ġ": 4636,
      "Sto": 4637,
      "Ð±Ð¸ÑĤ": 4638,
      "vezan": 4639,
      "sadrÅ¾iĠ": 4640,
      "Ð½ÐµÐ¾Ð¿": 4641,
      "us": 4642,
      "tivanĠ": 4643,
      "Ð¸Ð·Ð¼": 4644,
      "Ð¿ÑĢÐµÐ½": 4645,
      "68Ġ": 4646,
      "ÑĢÐ°": 4647,
      "ÐµÐ²Ð¸Ð¼Ð°Ġ": 4648,
      "netĠ": 4649,
      "Ð²ÐµÑĤ": 4650,
      "Ð¿ÑĢÐ¾ÑĦÐµÑģ": 4651,
      "Ð°ÑĩÐ¸Ġ": 4652,
      "ÐµÐ¼ÐµĠ": 4653,
      "posaoĠ": 4654,
      "É¦": 4655,
      "rastaĠ": 4656,
      "kolaĠ": 4657,
      "Ð¸Ð·Ð½Ð¾Ñģ": 4658,
      "izme": 4659,
      "Ð²Ð°Ð·": 4660,
      "indust": 4661,
      "Ð½ÐµÑģ": 4662,
      "Ð½Ð¸Ð²Ð¾ÑĥĠ": 4663,
      "tipaĠ": 4664,
      "uloguĠ": 4665,
      "ÑĪÐ¸Ġ": 4666,
      "ÑĢÐ°Ð·Ð²Ð¸Ñĺ": 4667,
      "proto": 4668,
      "ÑģÑħ": 4669,
      "najÄįeÅ¡ÄĩeĠ": 4670,
      "rezultatĠ": 4671,
      "ÄĳujuĠ": 4672,
      "tki": 4673,
      "uspostav": 4674,
      "Ðī": 4675,
      "ÄįijeĠ": 4676,
      "Ð¾Ð»Ð¾Ð³Ð¸ÑĺÐµĠ": 4677,
      "Ð¾Ð´Ð½Ð¾ÑģÐ°Ġ": 4678,
      "Ð²Ð¸ÑģÐ¾Ðº": 4679,
      "janjuĠ": 4680,
      "nosi": 4681,
      "ZbogĠ": 4682,
      "É¢Êģ": 4683,
      "ÐµÑģÑĥĠ": 4684,
      "kultureĠ": 4685,
      "Äįan": 4686,
      "reÅ¡enjaĠ": 4687,
      "ÐµÑĺĠ": 4688,
      "Ban": 4689,
      "moÅ¾daĠ": 4690,
      "ilĠ": 4691,
      "66Ġ": 4692,
      "cioneĠ": 4693,
      "struktureĠ": 4694,
      "httpĠ": 4695,
      "akĠ": 4696,
      "Ð±Ð¾Ð³": 4697,
      "godĠ": 4698,
      "VuÄįiÄĩĠ": 4699,
      "ravno": 4700,
      "podrazumevaĠ": 4701,
      "mul": 4702,
      "jnaĠ": 4703,
      "ÑĩÐ°ÐºĠ": 4704,
      "Ð·ÐµÐ¼ÑĻÐµĠ": 4705,
      "Bal": 4706,
      "sadrÅ¾ajĠ": 4707,
      "potencijal": 4708,
      "Cen": 4709,
      "SAĠ": 4710,
      "ÄįenoĠ": 4711,
      "odma": 4712,
      "kapaci": 4713,
      "obrazov": 4714,
      "Ð°Ð¼ÐµÑĢ": 4715,
      "Ð´Ð¾ÑĪ": 4716,
      "ozo": 4717,
      "ÉŁÉ§": 4718,
      "diser": 4719,
      "ÑĥÑģÐ¼": 4720,
      "Or": 4721,
      "Ð°ÑģÐ¿": 4722,
      "Ð¼ÐµÑģ": 4723,
      "Ð¾Ð°Ġ": 4724,
      "ramaĠ": 4725,
      "denĠ": 4726,
      "DE": 4727,
      "Milo": 4728,
      "ÑĺÐµÐ´Ð½Ð¾Ð¼Ġ": 4729,
      "nijihĠ": 4730,
      "ponovoĠ": 4731,
      "ÐĳÐµÐ¾Ð³ÑĢÐ°Ð´ÑĥĠ": 4732,
      "Ð¸Ð²Ð¾Ġ": 4733,
      "kolo": 4734,
      "Ð¿Ð¾Ð³Ð»ÐµÐ´": 4735,
      "ÑĤÑĺĠ": 4736,
      "78Ġ": 4737,
      "Êĥ": 4738,
      "skup": 4739,
      "TOĠ": 4740,
      "Ð¼Ð¸Ñģ": 4741,
      "janaĠ": 4742,
      "tskeĠ": 4743,
      "aveĠ": 4744,
      "sadrÅ¾ajaĠ": 4745,
      "moder": 4746,
      "Ð¸ÑĢÐ¾Ð¼Ġ": 4747,
      "ÑĥÐ¼ÐµÑĤ": 4748,
      "vodaĠ": 4749,
      "ÑĽÐµÐ»": 4750,
      "ÐºÐ°ÑĤÐµÐ³": 4751,
      "onsĠ": 4752,
      "nisamĠ": 4753,
      "stic": 4754,
      "Ð²Ð»Ð°ÑģÑĤÐ¸Ġ": 4755,
      "aktivnostĠ": 4756,
      "nase": 4757,
      "Ð´Ð¸ÑģÐº": 4758,
      "istiĠ": 4759,
      "ÐľÐ°Ðº": 4760,
      "rijuĠ": 4761,
      "Ð¿ÑĢÐµÐ´Ġ": 4762,
      "1998Ġ": 4763,
      "OR": 4764,
      "posledicaĠ": 4765,
      "kontak": 4766,
      "Ð¾Ð²Ð¸ÑĽ": 4767,
      "ÄįkimĠ": 4768,
      "Ð²Ð¸Ð·": 4769,
      "Ð´Ð°ÑĻÐµĠ": 4770,
      "brzoĠ": 4771,
      "RezultatiĠ": 4772,
      "Ð¿ÑĢÐ¸ÑĤ": 4773,
      "ÑĥÐ´Ġ": 4774,
      "ÑĥÑĤÐ¸ÑĨÐ°ÑĺĠ": 4775,
      "ÑģÐ¿Ð¾ÑĻ": 4776,
      "Ð¸Ð·Ð°Ð·": 4777,
      "penĠ": 4778,
      "Ð¿Ð¾ÐºÑĥÑĪ": 4779,
      "VE": 4780,
      "Ð¿ÑĢÐ¾Ð¿": 4781,
      "ÐµÐºÑĥĠ": 4782,
      "metodaĠ": 4783,
      "tekstuĠ": 4784,
      "Ð·Ð°Ð¿Ð¾ÑģÐ»": 4785,
      "ade": 4786,
      "nekaĠ": 4787,
      "profesi": 4788,
      "traÅ¾i": 4789,
      "teljiĠ": 4790,
      "71Ġ": 4791,
      "nicuĠ": 4792,
      "Ãª": 4793,
      "IVĠ": 4794,
      "upi": 4795,
      "Ð²ÑĥĠ": 4796,
      "Ð¸ÑĩÐ½Ð¾ÑģÑĤÐ¸Ġ": 4797,
      "samaĠ": 4798,
      "ÑĥÐ½ÑĥÑĤÑĢ": 4799,
      "Ð±Ð¸Ð»ÐµĠ": 4800,
      "69Ġ": 4801,
      "ÑĩÐµÐ¼ÑĥĠ": 4802,
      "ÑĨÐµĠ": 4803,
      "ÐµÑĦÐ¸ÐºÐ°Ñģ": 4804,
      "menuĠ": 4805,
      "PRE": 4806,
      "ovaoĠ": 4807,
      "prepozna": 4808,
      "volu": 4809,
      "Ð´Ð¾Ð³Ð°ÑĴ": 4810,
      "postoje": 4811,
      "energe": 4812,
      "uticajaĠ": 4813,
      "usme": 4814,
      "postig": 4815,
      "dataĠ": 4816,
      "cioniĠ": 4817,
      "ÐµÑĪÑĤÐ¾Ġ": 4818,
      "ÑģÐºÑĥÐ¿": 4819,
      "Jugoslavi": 4820,
      "DAĠ": 4821,
      "ÐµÑĢÑĨ": 4822,
      "ÑĥÑģÐ°Ġ": 4823,
      "poÄįin": 4824,
      "stvomĠ": 4825,
      "Ð¿ÑĢÐµÐ»": 4826,
      "port": 4827,
      "pravo": 4828,
      "Op": 4829,
      "Ð²ÐµÐ·Ð¸Ġ": 4830,
      "sadĠ": 4831,
      "JAĠ": 4832,
      "ben": 4833,
      "Ð¸Ð³Ð½": 4834,
      "Ð²Ð¾ÑĻ": 4835,
      "ÑģÐ»ÑĥÐ¶Ð±": 4836,
      "Posl": 4837,
      "hil": 4838,
      "Ð½ÐµÐ²": 4839,
      "ine": 4840,
      "Ð¾Ð±ÑĺÐ°Ð²ÑĻ": 4841,
      "Ð¿ÑĢÐ¾ÑĨÐµÑģÐ°Ġ": 4842,
      "Ð½ÐµÐ¾Ð¿ÑħÐ¾Ð´": 4843,
      "ÑĮ": 4844,
      "Ð¿Ð¾Ð·Ð¸ÑĤÐ¸Ð²": 4845,
      "dostup": 4846,
      "zastup": 4847,
      "Ð°Ð²Ð¸Ñģ": 4848,
      "gne": 4849,
      "Ð¼Ð°ÑĤÐµÑĢÐ¸Ñĺ": 4850,
      "Ð¿ÑĢÐµÐ³": 4851,
      "Ð°ÐºÐ»ÐµĠ": 4852,
      "timeĠ": 4853,
      "ranijeĠ": 4854,
      "ÐµÐ²ÑĢÐ¾Ð¿": 4855,
      "verovatnoĠ": 4856,
      "Ñı": 4857,
      "ÑĤÐµÑĪ": 4858,
      "ÑĢÐµÐ²": 4859,
      "lneĠ": 4860,
      "Ð¿ÑĢÐ¸": 4861,
      "zvani": 4862,
      "krenu": 4863,
      "novaĠ": 4864,
      "Ð°Ð»Ð½Ð¸Ð¼Ġ": 4865,
      "ÑĺÐµÐ´Ð½Ð°Ġ": 4866,
      "76Ġ": 4867,
      "Lu": 4868,
      "staro": 4869,
      "stiÄįeĠ": 4870,
      "oven": 4871,
      "ÐŀÐ±": 4872,
      "NijeĠ": 4873,
      "vodi": 4874,
      "St": 4875,
      "ZA": 4876,
      "osaĠ": 4877,
      "Ð´Ð°Ð½Ð°ÑģĠ": 4878,
      "dej": 4879,
      "periodĠ": 4880,
      "obele": 4881,
      "ÑĢÐ°ÑĩÑĥÐ½": 4882,
      "Ð¿ÑĢÐ¸Ð²ÑĢÐµÐ´": 4883,
      "Ð½Ð¾ÑģÑĤÐ¸Ð¼Ð°Ġ": 4884,
      "nezavis": 4885,
      "ÐŁÑĢÐµÐ´": 4886,
      "niÅ¡tvaĠ": 4887,
      "ÑĢÐµÐ°Ð»Ð¸Ð·": 4888,
      "obaĠ": 4889,
      "Ð¿ÑĢÐ¸Ð´": 4890,
      "Ð°ÑĤÐ¸Ð²Ð½ÐµĠ": 4891,
      "baviĠ": 4892,
      "Ð°ÐºÑĥÐ»ÑĤ": 4893,
      "Ð¼Ð¸Ð»": 4894,
      "korela": 4895,
      "Lo": 4896,
      "primeneĠ": 4897,
      "fotografi": 4898,
      "marke": 4899,
      "Ð¾Ð´Ð½Ð¾ÑģÐ¸Ġ": 4900,
      "ÑĢÐµÐ¼ÐµÐ½Ð¾Ġ": 4901,
      "sprove": 4902,
      "metodeĠ": 4903,
      "drugogĠ": 4904,
      "mgĠ": 4905,
      "kmĠ": 4906,
      "ruko": 4907,
      "kaz": 4908,
      "sredstavaĠ": 4909,
      "Ð¿ÑĢÐ¸Ð»Ð¸ÐºÐ¾Ð¼Ġ": 4910,
      "ÐºÐ°Ð¼": 4911,
      "sh": 4912,
      "sep": 4913,
      "ÐĳĠ": 4914,
      "faĠ": 4915,
      "velikeĠ": 4916,
      "liteĠ": 4917,
      "meseciĠ": 4918,
      "Ð¸ÑĻĠ": 4919,
      "%.Ġ": 4920,
      "imov": 4921,
      "Mak": 4922,
      "novi": 4923,
      "ono": 4924,
      "Ð¿ÑĢÐ¾Ð¼ÐµÐ½ÐµĠ": 4925,
      "ME": 4926,
      "psĠ": 4927,
      "maÅ¡": 4928,
      "«É¬": 4929,
      "ÑĤÑĢÐµÐ½ÑĥÑĤ": 4930,
      "73Ġ": 4931,
      "ÐłÐ°Ð·": 4932,
      "ÑĺÐµÑģÑĤÐµĠ": 4933,
      "posve": 4934,
      "77Ġ": 4935,
      "Î¼": 4936,
      "ovremenoĠ": 4937,
      "Å¾emĠ": 4938,
      "mathĠ": 4939,
      "ÑĺÐµÐ´Ð½Ð¾Ð³Ġ": 4940,
      "pov": 4941,
      "Ð¸ÑĤÐµÑĤ": 4942,
      "Å£eĠ": 4943,
      "Ima": 4944,
      "Îµ": 4945,
      "koncentracijeĠ": 4946,
      "onalĠ": 4947,
      "razlikuĠ": 4948,
      "kle": 4949,
      "polu": 4950,
      "Ð¸Ð½ÑĦ": 4951,
      "Å¾ivotin": 4952,
      "Ð¿ÑĢÐ²ÐµÐ½": 4953,
      "istorij": 4954,
      "desetĠ": 4955,
      "Ð»Ð°Ð½": 4956,
      "itdĠ": 4957,
      "elektron": 4958,
      "ÄįkojĠ": 4959,
      "svojihĠ": 4960,
      "ÐļÐ°Ð´Ð°Ġ": 4961,
      "ÐĺÐ°ÐºÐ¾Ġ": 4962,
      "Ð¼Ð°Ñĺ": 4963,
      "priva": 4964,
      "stalaĠ": 4965,
      "uvo": 4966,
      "Å¡enaĠ": 4967,
      "Ð·Ð°ÑĤÐ¸Ð¼Ġ": 4968,
      "alnihĠ": 4969,
      "dela": 4970,
      "mon": 4971,
      "graduĠ": 4972,
      "ksĠ": 4973,
      "teÅ¡koĠ": 4974,
      "89Ġ": 4975,
      "Ð¿ÑĥÑĤÐ°Ġ": 4976,
      "nagla": 4977,
      "sanjaĠ": 4978,
      "IpakĠ": 4979,
      "stani": 4980,
      "sport": 4981,
      "96Ġ": 4982,
      "boga": 4983,
      "83Ġ": 4984,
      "Ð½Ð¸ÑĨÐµĠ": 4985,
      "Ð°Ð½Ð¸Ð¼Ġ": 4986,
      "tkomĠ": 4987,
      "Ga": 4988,
      "svakogĠ": 4989,
      "crk": 4990,
      "93Ġ": 4991,
      "Ð²ÑĢÑģÑĤÐµĠ": 4992,
      "Ð¿ÑĢÐµÐ´Ð¼": 4993,
      "njegovĠ": 4994,
      "zemaljaĠ": 4995,
      "prostoraĠ": 4996,
      "ozbilj": 4997,
      "gradeĠ": 4998,
      "ÉªÉļÉ": 4999,
      "njegoveĠ": 5000,
      "ski": 5001,
      "mnog": 5002,
      "osobeĠ": 5003,
      "Ð±ÐµÐ·Ð±ÐµÐ´": 5004,
      "tiÄįuĠ": 5005,
      "Ð±Ð¸": 5006,
      "ÄįujeĠ": 5007,
      "premi": 5008,
      "tivaĠ": 5009,
      "alo": 5010,
      "Ð²ÐµÑĢÐ¾Ð²": 5011,
      "ÑģÐºÐ»Ð°Ð´ÑĥĠ": 5012,
      "krea": 5013,
      "88Ġ": 5014,
      "akleĠ": 5015,
      "ereĠ": 5016,
      "loÅ¡kiĠ": 5017,
      "mogliĠ": 5018,
      "ÐłÐµÐ·": 5019,
      "thĠ": 5020,
      "IzĠ": 5021,
      "tamoĠ": 5022,
      "Ð´Ð°ÑĤ": 5023,
      "1997Ġ": 5024,
      "jskaĠ": 5025,
      "ÑĥÑĢÐµÑĴ": 5026,
      "Veli": 5027,
      "ljiveĠ": 5028,
      "ÄĩanjaĠ": 5029,
      "materijal": 5030,
      "Ð¸Ð½ÑģÐºÐ¸Ġ": 5031,
      "Pra": 5032,
      "eficijen": 5033,
      "Ð³ÑĢÐ°Ð´Ð°Ġ": 5034,
      "ganĠ": 5035,
      "Ð±Ð°Ð»": 5036,
      ",,Ġ": 5037,
      "najmanjeĠ": 5038,
      "Ð±ÑĢĠ": 5039,
      "Ð¸ÑģÑĤÐµĠ": 5040,
      "name": 5041,
      "ukazujeĠ": 5042,
      "maksimal": 5043,
      "Ð¾ÑĩÐµÐº": 5044,
      "ranihĠ": 5045,
      "klini": 5046,
      "Ðĭ": 5047,
      "1996Ġ": 5048,
      "silaĠ": 5049,
      "tikaĠ": 5050,
      "Ð¸ÑĺÑģÐºÐ¸ÑħĠ": 5051,
      "ÑĺÐµÐ·Ð¸ÐºÑĥĠ": 5052,
      "Ð»ÐµÑĤ": 5053,
      "ÑĺÐµÐ´Ð½ÐµĠ": 5054,
      "vestĠ": 5055,
      "genaĠ": 5056,
      "Ð¼Ð¾Ð´ÐµÐ»Ð°Ġ": 5057,
      "ÐĶÐ°Ġ": 5058,
      "ÑģÑĤÐ°Ð½Ð¾Ð²Ð½Ð¸ÑĪÑĤ": 5059,
      "Ð¿ÑĢÐ¸Ð¼ÐµÑļ": 5060,
      "Ð°Ð½Ð³": 5061,
      "Ð°Ð²Ð°ÑļÑĥĠ": 5062,
      "tivnimĠ": 5063,
      "ÄįenaĠ": 5064,
      "obrazovanjaĠ": 5065,
      "njenĠ": 5066,
      "ÄĩenjeĠ": 5067,
      "É¢É§": 5068,
      "imalaĠ": 5069,
      "87Ġ": 5070,
      "Ð¼Ð¾Ð³ÑĥÑĽÐµĠ": 5071,
      "vidu": 5072,
      "ÑģÐ²Ð¾ÑĺĠ": 5073,
      "pogleduĠ": 5074,
      "sanjeĠ": 5075,
      "ÐµÐºÐ°ÑĤÐ°Ġ": 5076,
      "Ð¢Ð°Ð±ÐµÐ»Ð°Ġ": 5077,
      "Ð¿ÑĢÐ¸ÑĺÐ°ÑĤ": 5078,
      "zavisiĠ": 5079,
      "ekonomi": 5080,
      "ÑģÐ¿ÐµÑĨÐ¸ÑĦ": 5081,
      "ÑĥÐ·ÐµÑĤ": 5082,
      "Ð¾ÑĪÐº": 5083,
      "ÐµÐ´Ð½Ð¾Ġ": 5084,
      "preci": 5085,
      "ÐµÐ³ÑĢ": 5086,
      "ÐłÐµÐ¿ÑĥÐ±Ð»Ð¸ÐºÐµĠ": 5087,
      "dri": 5088,
      "Ð¾Ð²Ð°Ðº": 5089,
      "ÑĥÐ·ÑĢ": 5090,
      "Å¾ev": 5091,
      "funkcijeĠ": 5092,
      "tilaĠ": 5093,
      "Ð¾ÐºÑĢÑĥÐ¶": 5094,
      "Ð¿ÑĢÐµÑģÑĤ": 5095,
      "ÐĵĠ": 5096,
      "Ð¿Ð°ÑĢÐ°Ð¼": 5097,
      "ÑĢÐ°Ð´ÐµĠ": 5098,
      "74Ġ": 5099,
      "ron": 5100,
      "Î±Ġ": 5101,
      "ÑģÐ¿Ð¾ÑģÐ¾Ð±": 5102,
      "stanjuĠ": 5103,
      "Ã¤": 5104,
      "ÑģÑĤÑĢÑĥ": 5105,
      "Ð»Ð°Ð¼": 5106,
      "Save": 5107,
      "rizikaĠ": 5108,
      "studijeĠ": 5109,
      "Ð¸ÑĺÑģÐºÐ¾Ð³Ġ": 5110,
      "stomĠ": 5111,
      "âĪĴĠ": 5112,
      "ÑĤÑĢÐ°Ñĺ": 5113,
      "Ð¿ÑĢÐ¾Ð¿Ð¸Ñģ": 5114,
      "pokazujeĠ": 5115,
      "kona": 5116,
      "12": 5117,
      "Ð¸Ð·Ð°Ð¼Ġ": 5118,
      "kompanijeĠ": 5119,
      "produk": 5120,
      "paramet": 5121,
      "minutaĠ": 5122,
      "82Ġ": 5123,
      "Ð´ÑĢÑĥÑĪÑĤÐ²Ð°Ġ": 5124,
      "odli": 5125,
      "ÑģÐºÑĢ": 5126,
      "njimĠ": 5127,
      "ÑĤÑĢÐ°Ð´Ð¸ÑĨ": 5128,
      "sredstvaĠ": 5129,
      "Ð²ÑĢÑģÑĤÐ°Ġ": 5130,
      "Å¾u": 5131,
      "ovanihĠ": 5132,
      "saneĠ": 5133,
      "trenutkuĠ": 5134,
      "Ð¼ÐµÐ½ÑĤ": 5135,
      "povra": 5136,
      "Ð±ÑĢÐ¾ÑĺÐ°Ġ": 5137,
      "interes": 5138,
      "Ð¢Ð°ÐºÐ¾Ġ": 5139,
      "adekva": 5140,
      "Ð²ÐµÐ»Ð¸ÐºÐ¸Ġ": 5141,
      "ÑĥÐ¾Ñĩ": 5142,
      "zaÅ¡tituĠ": 5143,
      "testi": 5144,
      "kontin": 5145,
      "ÑĤÑĢÐ°Ð¶": 5146,
      "vozilaĠ": 5147,
      "podatkeĠ": 5148,
      "ÑĥÑĤÐ°Ġ": 5149,
      "Ð´Ð¾Ð·": 5150,
      "unutraÅ¡": 5151,
      "saniĠ": 5152,
      "poma": 5153,
      "snogĠ": 5154,
      "pokazujuĠ": 5155,
      "drugomĠ": 5156,
      "86Ġ": 5157,
      "Ð¸ÑģÐ¿Ð¸ÑĤÐ°Ð½Ð¸ÐºÐ°Ġ": 5158,
      "kgĠ": 5159,
      "zabra": 5160,
      "ÑĤÑĢÐ°Ð½Ñģ": 5161,
      "ÑĩÐ¸Ð½": 5162,
      "nak": 5163,
      "84Ġ": 5164,
      "signa": 5165,
      "procedu": 5166,
      "Ð¾Ð»Ð¾Ð³Ð¸ÑĺÐ°Ġ": 5167,
      "98Ġ": 5168,
      "Ð¼Ð»Ð°Ð´": 5169,
      "1995Ġ": 5170,
      "Ð·Ð½Ð°ÑĩÐ°ÑĺÐ½Ð¾Ġ": 5171,
      "reÄĩiĠ": 5172,
      "ui": 5173,
      "Ð¾Ð²ÑĻ": 5174,
      "ranoĠ": 5175,
      "ÐºÐ¾Ð»Ð¸ÐºÐ¾Ġ": 5176,
      "Ð½Ð°ÑĺÐ²ÐµÑĽ": 5177,
      "Ð¸ÑĩÐ½Ð¸Ð¼Ġ": 5178,
      "Ð¿Ð¾ÑĤÐµÐ½ÑĨ": 5179,
      "hla": 5180,
      "mskeĠ": 5181,
      "Ð¸Ð¼Ð°Ð¾Ġ": 5182,
      "ÑĢÐ°Ñļ": 5183,
      "proizvodnjeĠ": 5184,
      "ÐĹÐ°Ðº": 5185,
      "Lju": 5186,
      "ÑĥÐ½Ġ": 5187,
      "iskljuÄįi": 5188,
      "vorĠ": 5189,
      "Ð¿Ð¾ÑģÐ»Ð¾Ð²": 5190,
      "njojĠ": 5191,
      "funkcional": 5192,
      "ÑģÐ¼ÑĢÑĤ": 5193,
      "ÐµÐºÐ°ÑĤĠ": 5194,
      "91Ġ": 5195,
      "É¨Éľ": 5196,
      "1990Ġ": 5197,
      "ÄĮe": 5198,
      "ÑĢÐµÑĩĠ": 5199,
      "vezeĠ": 5200,
      "jevimaĠ": 5201,
      "Ð½Ð¿": 5202,
      "IJAĠ": 5203,
      "Ð°ÑģÐ°Ġ": 5204,
      "Ð¿ÑĢÐµÐ´Ð²Ð¸ÑĴ": 5205,
      "1991Ġ": 5206,
      "Ð¾Ð¿Ð»": 5207,
      "ÐŁÐ¾ÑĢÐµÐ´Ġ": 5208,
      "KAĠ": 5209,
      "Ð»Ð°Ð²Ð½Ð¾Ð¼Ġ": 5210,
      "elemen": 5211,
      "ÐºÐ°ÑĤ": 5212,
      "Ð¾Ð²Ð¸Ð½ÐµĠ": 5213,
      "der": 5214,
      "cionihĠ": 5215,
      "ÐĿÐ°": 5216,
      "svojojĠ": 5217,
      "drugaĠ": 5218,
      "Ð¸Ð½ÑĤÐµÑĢÐµÑģ": 5219,
      "ÑģÑĢÐµÐ´Ñļ": 5220,
      "mato": 5221,
      "aspek": 5222,
      "detek": 5223,
      "á½": 5224,
      "bili": 5225,
      "ZAĠ": 5226,
      "gradĠ": 5227,
      "prizna": 5228,
      "hovĠ": 5229,
      "PaĠ": 5230,
      "nekimĠ": 5231,
      "tinaĠ": 5232,
      "Ð´Ð¾ÐºÑĥÐ¼": 5233,
      "Ð¸ÑģÑĤÐ¸ÑĩÐºÐµĠ": 5234,
      "ÐŁÐ¾ÑģÐ»": 5235,
      "ÐºÑĢÐµ": 5236,
      "direktnoĠ": 5237,
      "Ð´ÑĢĠ": 5238,
      "tuÅ¾i": 5239,
      "Sl": 5240,
      "ÑģÐ¼Ð°ÑĤÑĢ": 5241,
      "nasil": 5242,
      "tingĠ": 5243,
      "ÑĥÐ³Ð»Ð°Ð²Ð½Ð¾Ð¼Ġ": 5244,
      "naroÄįitoĠ": 5245,
      "znoĠ": 5246,
      "poÅ¡t": 5247,
      "ÑĤÐµÐºÑģÑĤÑĥĠ": 5248,
      "socija": 5249,
      "asĠ": 5250,
      "97Ġ": 5251,
      "Ð¸ÑĪÑĤÑĥĠ": 5252,
      "odo": 5253,
      "ÐĵÐ¾Ð´": 5254,
      "Vr": 5255,
      "Prav": 5256,
      "diza": 5257,
      "ÐĿĠ": 5258,
      "79Ġ": 5259,
      "ÐĴÐ¾Ñĺ": 5260,
      "baÅ¡Ġ": 5261,
      "jujuĠ": 5262,
      "Ð¼ÑĥÑĪ": 5263,
      "zemljiĠ": 5264,
      "calĠ": 5265,
      "nprĠ": 5266,
      "tnostĠ": 5267,
      "kvalite": 5268,
      "truĠ": 5269,
      "zakon": 5270,
      "sastav": 5271,
      "tskiĠ": 5272,
      "nerĠ": 5273,
      "polaĠ": 5274,
      "ideĠ": 5275,
      "94Ġ": 5276,
      "ÑĥÑĩÐµÑģÑĤÐ²": 5277,
      "Ã¯": 5278,
      "MA": 5279,
      "eksperimental": 5280,
      "Ã³": 5281,
      "litera": 5282,
      "unutarĠ": 5283,
      "Ð¿ÑĢÐµÐ·ÐµÐ½ÑĤ": 5284,
      "sklo": 5285,
      "Ð½ÐµÑĪÑĤÐ¾Ġ": 5286,
      "Ð°Ð½Ð¾Ð¼Ġ": 5287,
      "ljamaĠ": 5288,
      "njihovogĠ": 5289,
      "inskeĠ": 5290,
      "sterĠ": 5291,
      "Ð·Ð°ÑĪÑĤÐ¸ÑĤÐµĠ": 5292,
      "pomoÄĩiĠ": 5293,
      "Ð¸ÑĩÐ°Ð½Ġ": 5294,
      "Ð¼Ð»": 5295,
      "ÑĤÐ°Ñĩ": 5296,
      "uÄįenikaĠ": 5297,
      "ovla": 5298,
      "Ð¸Ð°ÐºÐ¾Ġ": 5299,
      "Ð¾Ð¿Ð¾Ð»": 5300,
      "NE": 5301,
      "ÑĥÑĩÐµÐ½": 5302,
      "radovaĠ": 5303,
      "lusĠ": 5304,
      "svakomĠ": 5305,
      "ÄįavaĠ": 5306,
      "ÐºÐ¾Ð³Ġ": 5307,
      "rastĠ": 5308,
      "dijagno": 5309,
      "tiliĠ": 5310,
      "Ð¿Ð¾ÑģÑĤÐ¾ÑĺÐµĠ": 5311,
      "Ð½Ð°ÑĺÐ±Ð¾ÑĻ": 5312,
      "Ð±Ġ": 5313,
      "komi": 5314,
      "ÑĢÐµÑĨ": 5315,
      "ÄĮlanĠ": 5316,
      "vak": 5317,
      "raÄįunaĠ": 5318,
      "Ð¾Ð»Ð¾ÑĪÐºÐ¸Ġ": 5319,
      "sovaĠ": 5320,
      "Mu": 5321,
      "ÑģÐ¼Ð°ÑĤÑĢÐ°Ġ": 5322,
      "deli": 5323,
      "istraÅ¾iva": 5324,
      "Ð¾ÐºÑĢÐ°ÑĤ": 5325,
      "prona": 5326,
      "ÐºÐ¾ÑĺÐ¸Ð¼Ġ": 5327,
      "Ð°ÑĪĠ": 5328,
      "Ð¼ÐµÑħ": 5329,
      "teljĠ": 5330,
      "odlukaĠ": 5331,
      "Ð¼ÐµÑĢÐ¸Ġ": 5332,
      "navi": 5333,
      "poj": 5334,
      "Ð¿Ð¾Ð·Ð½": 5335,
      "zahval": 5336,
      "ÑĥÐµÐ»": 5337,
      "ÑĢÐµÐ³ÑĥÐ»": 5338,
      "Pu": 5339,
      "alnaĠ": 5340,
      "pomĠ": 5341,
      "SrbijuĠ": 5342,
      "Ð¾Ð²Ð°Ð½Ð¸Ġ": 5343,
      "nikadaĠ": 5344,
      "imamoĠ": 5345,
      "oktob": 5346,
      "har": 5347,
      "ÑĺÐµÐ´Ð½": 5348,
      "ÑĢÐ¾ÑĪ": 5349,
      "sinte": 5350,
      "Ð¾Ð½ÑĥĠ": 5351,
      "varijan": 5352,
      "oblikaĠ": 5353,
      "nekogĠ": 5354,
      "Ð·Ð´ÑĢÐ°Ð²": 5355,
      "redov": 5356,
      "kvalitetĠ": 5357,
      "individu": 5358,
      "ÑĤÑĢÐ³Ð¾Ð²": 5359,
      "ÑĺÐµÐ·Ð¸ÐºĠ": 5360,
      "âĢĶ": 5361,
      "kleĠ": 5362,
      "naÄįe": 5363,
      "Ð¸ÑĩÐ½Ð¾Ð¼Ġ": 5364,
      "ÐºÑĢÐ°ÑĺÑĥĠ": 5365,
      "pruÅ¾": 5366,
      "uli": 5367,
      "Bra": 5368,
      "pravilaĠ": 5369,
      "LE": 5370,
      "dopu": 5371,
      "Äįetvr": 5372,
      "odgovorĠ": 5373,
      "domaÄĩ": 5374,
      "MI": 5375,
      "Vojvod": 5376,
      "biv": 5377,
      "Ã¢": 5378,
      "savremen": 5379,
      "maleĠ": 5380,
      "tedĠ": 5381,
      "zani": 5382,
      "Ð¾Ð½Ð´Ð°Ġ": 5383,
      "odmahĠ": 5384,
      "zaposlenihĠ": 5385,
      "moleku": 5386,
      "reli": 5387,
      "koeficijen": 5388,
      "aoĠ": 5389,
      "ÏĤĠ": 5390,
      "Å¡al": 5391,
      "stanakĠ": 5392,
      "znamĠ": 5393,
      "Ð¿ÑĢÐ¾ÑĨÐµÑģĠ": 5394,
      "Ð¾Ð·Ð½": 5395,
      "maliĠ": 5396,
      "NoviĠ": 5397,
      "Ð¸Ð·ÑĢÐ°Ð·": 5398,
      "ÑģÐµÐ¿": 5399,
      "ÄįinuĠ": 5400,
      "funkcioni": 5401,
      "anga": 5402,
      "ÄįlanĠ": 5403,
      "Ze": 5404,
      "Ð¾ÑĢÐ¸Ð¼Ð°Ġ": 5405,
      "ÑĩÐµÑĤÐ¸ÑĢÐ¸Ġ": 5406,
      "menad": 5407,
      "distri": 5408,
      "graÄĳanaĠ": 5409,
      "eriĠ": 5410,
      "ÑģÐ²ÐµÐ´": 5411,
      "komentaraĠ": 5412,
      "zamaĠ": 5413,
      "Ð¸ÑĤÑĥĠ": 5414,
      "Univerzi": 5415,
      "ÄįijaĠ": 5416,
      "Ð·Ð°Ð½": 5417,
      "Ð¿Ð¸ÑĤÐ°ÑļÑĥĠ": 5418,
      "pomoÄĩuĠ": 5419,
      "Tu": 5420,
      "OniĠ": 5421,
      "ÑĤÐ°Ð´Ð°Ġ": 5422,
      "minaĠ": 5423,
      "Ð¼ÐµÑģÑĤÐ°Ġ": 5424,
      "Ð¸Ð½Ð´ÑĥÑģÑĤÑĢ": 5425,
      "napi": 5426,
      "sezo": 5427,
      "dostav": 5428,
      "ÑĤÐ¾Ð³Ġ": 5429,
      "É¡": 5430,
      "Ð¿ÑĢÐ¾Ð½": 5431,
      "ÑģÐ²ÑĢ": 5432,
      "Ð²Ð°ÑĤÐ°Ġ": 5433,
      "kolaÄįi": 5434,
      "pomenu": 5435,
      "Ð¼Ð¾Ð³ÑĥÑĽÐ½Ð¾ÑģÑĤĠ": 5436,
      "far": 5437,
      "Ð¾Ð²Ð°ÑĤÐ¸Ġ": 5438,
      "Ð¾ÐºÑĤ": 5439,
      "korisnikaĠ": 5440,
      "preva": 5441,
      "Ð·Ð°Ð´Ð°ÑĤ": 5442,
      "ÐµÑĢÐ¸Ð¼": 5443,
      "ÑĮĠ": 5444,
      "Ge": 5445,
      "gramĠ": 5446,
      "volj": 5447,
      "kuÄĩeĠ": 5448,
      "inde": 5449,
      "ceneĠ": 5450,
      "ÐĲÐ»ÐµÐºÑģ": 5451,
      "the": 5452,
      "ÑģÐ¾Ð»": 5453,
      "Ð°ÐºÑĨÐ¸ÑĺÐµĠ": 5454,
      "Ð¿Ð°ÐºĠ": 5455,
      "Ð¸ÑĺÐ°Ð½": 5456,
      "razvojuĠ": 5457,
      "Ð¤Ð¸Ð»": 5458,
      "politikeĠ": 5459,
      "AleksandarĠ": 5460,
      "ÑģÐ¾Ð¿": 5461,
      "utiÄįeĠ": 5462,
      "eti": 5463,
      "sudaĠ": 5464,
      "PoĠ": 5465,
      "Ð¶Ð¸Ð²Ð¾ÑĤĠ": 5466,
      "sujeĠ": 5467,
      "Ð¾Ð½ÑĤ": 5468,
      "enogĠ": 5469,
      "dostaĠ": 5470,
      "integra": 5471,
      "Ð´ÐµÐ»Ð¾Ġ": 5472,
      "ÑģÑĤÐ°Ð²Ġ": 5473,
      "ÑģÐ»Ð¾Ð±Ð¾Ð´": 5474,
      "Ð¿Ð°ÑĨÐ¸Ñĺ": 5475,
      "rezer": 5476,
      "moÄĩiĠ": 5477,
      "Her": 5478,
      "tesĠ": 5479,
      "izabra": 5480,
      "ÑļÐµÐ³Ð¾Ð²ÐµĠ": 5481,
      "snageĠ": 5482,
      "Ð¾ÑĴÐµÑļÐµĠ": 5483,
      "fud": 5484,
      "iskori": 5485,
      "Ð¼Ð½Ð¾Ð³Ð¾Ġ": 5486,
      "Ð¸ÑĤÐ°Ð½": 5487,
      "Ð¾Ð´Ð½Ð¾ÑģĠ": 5488,
      "karakteristikeĠ": 5489,
      "poboljÅ¡": 5490,
      "kombina": 5491,
      "ÐļÐ¾ÑĢ": 5492,
      "Ð¿Ð¾ÑĤÐ¿Ñĥ": 5493,
      "Ð¾Ð±Ð·Ð¸ÑĢÐ¾Ð¼Ġ": 5494,
      "onuĠ": 5495,
      "Ð¸Ð½ÑĤÐµÐ³ÑĢ": 5496,
      "staneĠ": 5497,
      "raliĠ": 5498,
      "tuel": 5499,
      "resur": 5500,
      "Ð¸ÑģÑĤÐ¾Ð²": 5501,
      "vil": 5502,
      "ÑĤÐµÐ¼Ð¿ÐµÑĢ": 5503,
      "BeogradaĠ": 5504,
      "svaĠ": 5505,
      "flu": 5506,
      "veru": 5507,
      "DN": 5508,
      "dod": 5509,
      "Ð°ÑŁ": 5510,
      "inar": 5511,
      "ÑĺÐ°Ð½": 5512,
      "Ð¡Ð°Ġ": 5513,
      "Ð°Ð´Ð°ÑĪÑļ": 5514,
      "AV": 5515,
      "viÅ¡e": 5516,
      "ÐºÐ¾Ð½ÑĨÐµÐ½ÑĤÑĢ": 5517,
      "infek": 5518,
      "Ð²Ð¸Ð´ÑĥĠ": 5519,
      "pogod": 5520,
      "kole": 5521,
      "iznosiĠ": 5522,
      "potomĠ": 5523,
      "budÅ¾e": 5524,
      "vremenuĠ": 5525,
      "fikovan": 5526,
      "ÄĩenaĠ": 5527,
      "ÑģÐ»ÑĥÐ¶": 5528,
      "ÐļÐ°ÐºÐ¾Ġ": 5529,
      "É©Éª": 5530,
      "linĠ": 5531,
      "ÐºÐ¾ÑĢÐ¸ÑģÑĤÐµĠ": 5532,
      "ÑģÐ²Ð¾Ð³Ġ": 5533,
      "Ïģ": 5534,
      "ÐļÑĢÐ°Ñ": 5535,
      "ÑģÐ²Ð¾Ð¼Ġ": 5536,
      "ÐłÐµÐ·ÑĥÐ»ÑĤ": 5537,
      "Con": 5538,
      "elĠ": 5539,
      "profesional": 5540,
      "zor": 5541,
      "sioĠ": 5542,
      "poslovaĠ": 5543,
      "oviÄĩaĠ": 5544,
      "SI": 5545,
      "Ð¸ÑģÐºÑĻÑĥÑĩ": 5546,
      "jer": 5547,
      "krajaĠ": 5548,
      "ÐŁÐ¾Ð»": 5549,
      "lostiĠ": 5550,
      "dovodiĠ": 5551,
      "Ð¸ÑĽÐµĠ": 5552,
      "fan": 5553,
      "ZakonaĠ": 5554,
      "ÑĥÐ»Ð¾Ð³ÑĥĠ": 5555,
      "SE": 5556,
      "ÑĤÑĢÐµÐ±Ð°Ð»Ð¾Ġ": 5557,
      "Ð±Ð°ÑĢĠ": 5558,
      "nosiĠ": 5559,
      "dijaĠ": 5560,
      "jakoĠ": 5561,
      "Ð¾ÑĢÐ³Ð°Ð½Ð¸Ð·Ð°ÑĨÐ¸ÑĺÐµĠ": 5562,
      "Ð¿ÑģÐ¸Ñħ": 5563,
      "predsednikaĠ": 5564,
      "ÐºÐ¾Ð½ÐºÑĥÑĢ": 5565,
      "prostorĠ": 5566,
      ".).Ġ": 5567,
      "distribu": 5568,
      "ÑĥÐ´Ð°Ġ": 5569,
      "Ð±Ð¸Ð½": 5570,
      "izbeg": 5571,
      "mlĠ": 5572,
      "Î¹": 5573,
      "organizacijaĠ": 5574,
      "odlukeĠ": 5575,
      "radioĠ": 5576,
      "leka": 5577,
      "testĠ": 5578,
      "optere": 5579,
      "Ð¿Ð°Ð¶": 5580,
      "ÑħÐ¸Ð¿": 5581,
      "Ð¸ÑģÐ¿": 5582,
      "graÄĳe": 5583,
      "prvoĠ": 5584,
      "Ð¿ÑĢÐ¸ÑħÐ²Ð°ÑĤ": 5585,
      "lerĠ": 5586,
      "cel": 5587,
      "Å¾ele": 5588,
      "baci": 5589,
      "eg": 5590,
      "dneĠ": 5591,
      "Ð¿ÑĢÐµÐ´ÑĥÐ·ÐµÑĽÐ°Ġ": 5592,
      "svako": 5593,
      "sorp": 5594,
      "reÅ¡enjeĠ": 5595,
      "Ð³Ð°ÑĢ": 5596,
      "''.Ġ": 5597,
      "simp": 5598,
      "najboljeĠ": 5599,
      "eki": 5600,
      "iteĠ": 5601,
      "studijaĠ": 5602,
      "Ð½Ð°Ð´Ġ": 5603,
      "ac": 5604,
      "NaimeĠ": 5605,
      "Ð´Ð¸Ġ": 5606,
      "ÐŀÐ²Ð¾Ġ": 5607,
      "Ð¼Ð¾Ð´ÐµÑĢ": 5608,
      "Ã³Ġ": 5609,
      "mskiĠ": 5610,
      "sc": 5611,
      "ÑģÐ²ÐµÑĤÐ°Ġ": 5612,
      "uslovaĠ": 5613,
      "Ð´Ð¸ÑģÐµÑĢÑĤ": 5614,
      "Ð½Ð°ÑĺÑĩÐµÑĪÑĽÐµĠ": 5615,
      "ureÄĳa": 5616,
      "Å¾ive": 5617,
      "valiĠ": 5618,
      "Ð½Ð¾Ð²ÐµĠ": 5619,
      "maseĠ": 5620,
      "modi": 5621,
      "instru": 5622,
      "zaistaĠ": 5623,
      "straĠ": 5624,
      "rezultateĠ": 5625,
      "projektaĠ": 5626,
      "Ð¾ÐºÐ¾Ð¼Ġ": 5627,
      "Tra": 5628,
      "kun": 5629,
      "subjek": 5630,
      "Å¡estĠ": 5631,
      "prvomĠ": 5632,
      "Ð°ÑħĠ": 5633,
      "limoĠ": 5634,
      "Âµ": 5635,
      "sijuĠ": 5636,
      "Ð¾ÐºÑĥÐ¿": 5637,
      "Ð¾Ð¿ÑĪÑĤÐµĠ": 5638,
      "berĠ": 5639,
      "rÅ¡": 5640,
      "OB": 5641,
      "ÑĢÐ°Ð·Ð»Ð¸Ðº": 5642,
      "Î½": 5643,
      "Ð¸ÑĩÐºÐ¾ÑĺĠ": 5644,
      "Ð°Ð²ÑĥĠ": 5645,
      "Osnov": 5646,
      "Å¡njen": 5647,
      "Ð·Ð»": 5648,
      "Ð¼Ð°Ð½Ð°ÑģÑĤ": 5649,
      "Ð¿Ð¾Ð³Ð»": 5650,
      "parametaraĠ": 5651,
      "poreme": 5652,
      "Å¾ivotneĠ": 5653,
      "povrÅ¡ineĠ": 5654,
      "oruÅ¾": 5655,
      "ÑģÐ²Ð¸Ġ": 5656,
      "Ð¾Ð»ÑĥÑĨ": 5657,
      "ociĠ": 5658,
      "ostalihĠ": 5659,
      "tionalĠ": 5660,
      "ssi": 5661,
      "ÐŀÐ²Ð°ÑĺĠ": 5662,
      "ovanoĠ": 5663,
      "Ð³Ð»Ðµ": 5664,
      "ispodĠ": 5665,
      "videoĠ": 5666,
      "Å½i": 5667,
      "Ð¾ÑģÑĤÐ°ÑĤ": 5668,
      "ÑĤÐ²ÑĢÐ´": 5669,
      "graf": 5670,
      "uslugeĠ": 5671,
      "jniĠ": 5672,
      "Zna": 5673,
      "dugo": 5674,
      "Ð¶ÐµÐ½": 5675,
      "njegovaĠ": 5676,
      "proda": 5677,
      "lyĠ": 5678,
      "Ð³ÑĥÑģÑĤ": 5679,
      "knjiÅ¾ev": 5680,
      "ÐļÐ»": 5681,
      "spolj": 5682,
      "bismoĠ": 5683,
      "rokuĠ": 5684,
      "ÄĩelijeĠ": 5685,
      "TAĠ": 5686,
      "nabav": 5687,
      "ÑĩÐ»Ð°Ð½Ġ": 5688,
      "ÑģÑĤÑĢÑĥÑĩ": 5689,
      "gamaĠ": 5690,
      "Â±Ġ": 5691,
      "ÑģÑĤÑĢÐ°ÑĤÐµÐ³": 5692,
      "redaĠ": 5693,
      "sijiĠ": 5694,
      "vacĠ": 5695,
      "ÐŀÐ²Ð°Ġ": 5696,
      "poloÅ¾a": 5697,
      "medicin": 5698,
      "Ð¿ÑĢÐ¸ÑģÑĥÑĤ": 5699,
      "Ð¾ÑĴÐµÑļÐ°Ġ": 5700,
      "Å¾rt": 5701,
      "Ð´Ð¾Ð¼Ð¸Ð½": 5702,
      "1992Ġ": 5703,
      "mono": 5704,
      "ÑĢÐ°Ð·Ð»Ð¸ÑĩÐ¸ÑĤÐµĠ": 5705,
      "Stu": 5706,
      "Ð°ÑĤÐ¾ÑĢÐ°Ġ": 5707,
      "meÅ¡": 5708,
      "saglas": 5709,
      "otva": 5710,
      "ÑļÐµÐ³Ð¾Ð²Ġ": 5711,
      "prvogĠ": 5712,
      "ustav": 5713,
      "ÐµÐ½ÑĤÐµĠ": 5714,
      "sluÄįajĠ": 5715,
      "Ð·Ð½Ð°ÑĩÐ¸Ġ": 5716,
      "Ð¢ÑĥÑĢ": 5717,
      "Ð½Ð¸ÑĨÐ¸Ð¼Ð°Ġ": 5718,
      "Kori": 5719,
      "ÑħĠ": 5720,
      "poÅ¡toĠ": 5721,
      "ÐŁÐ¾ÑģÑĤ": 5722,
      "jatiĠ": 5723,
      "Ð¼Ð¾Ð´ÐµÐ»Ġ": 5724,
      "Ð²ÑĢÐµÐ¼ÐµÐ½": 5725,
      "Ð¿Ð°Ð´": 5726,
      "Ð¾ÑĺÐ°Ġ": 5727,
      "Ð°Ð¼Ð±": 5728,
      "ÑĺÐµÐ´Ð½Ð¾Ġ": 5729,
      "fon": 5730,
      "ÐºÐ°Ðº": 5731,
      "autoraĠ": 5732,
      "oseÄĩa": 5733,
      "izboraĠ": 5734,
      "ÐľÐ¸Ð½": 5735,
      "nimaĠ": 5736,
      "ÑĺÑĥÐ½": 5737,
      "Å¡koleĠ": 5738,
      "sliciĠ": 5739,
      "pati": 5740,
      "stanĠ": 5741,
      "Ð¾Ð·Ð¸Ġ": 5742,
      "Ð¾ÑģÐ»Ð¾Ð±": 5743,
      "Ð½Ð°ÑĢÐ¾Ñĩ": 5744,
      "mle": 5745,
      "formiĠ": 5746,
      "Ð·Ð²": 5747,
      "majuĠ": 5748,
      "ceni": 5749,
      "ÐĶÐ°Ð½": 5750,
      "ÑĦÐ°ÐºÑĥÐ»ÑĤ": 5751,
      "ÑĥÑģÐ¿ÐµÑĪ": 5752,
      "tlji": 5753,
      "ralaĠ": 5754,
      "prela": 5755,
      "neophodnoĠ": 5756,
      "Å¾al": 5757,
      "Ð¸Ð½Ð³": 5758,
      "Narod": 5759,
      "Ð¸ÑģÐ°Ð¾Ġ": 5760,
      "Å¡tinaĠ": 5761,
      "faziĠ": 5762,
      "PRO": 5763,
      "ÑĤÑĢÐµÑĤ": 5764,
      "ÑĩÐ¸Ð½Ð¸Ġ": 5765,
      "ovaliĠ": 5766,
      "ajĠ": 5767,
      "priÄįaĠ": 5768,
      "ÑģÐ¾Ð¿ÑģÑĤÐ²": 5769,
      "Ð½ÐµÐ·Ð°Ð²Ð¸Ñģ": 5770,
      "LJ": 5771,
      "ÐºÑĢÐ°ÑĤ": 5772,
      "funkcijaĠ": 5773,
      "njomĠ": 5774,
      "ÅłtaĠ": 5775,
      "Ð¼Ð¾Ð»": 5776,
      "zapravoĠ": 5777,
      "Ð¸Ð¾ÑĤ": 5778,
      "bakteri": 5779,
      "poglav": 5780,
      "drugoĠ": 5781,
      "cesĠ": 5782,
      "ÑĪÑĤÐ°Ġ": 5783,
      "primenomĠ": 5784,
      "oksida": 5785,
      "Ð¸Ð·Ð°Ġ": 5786,
      "porodiceĠ": 5787,
      "ekspre": 5788,
      "mesecaĠ": 5789,
      "programĠ": 5790,
      "Ð¿Ð¾ÑģÐ¼Ð°ÑĤ": 5791,
      "Ð°Ð½Ð°Ð»Ð¸Ð·ÐµĠ": 5792,
      "bleĠ": 5793,
      "1994Ġ": 5794,
      "300Ġ": 5795,
      "Ð¼ÑĢÐµÐ¶": 5796,
      "Ð¿ÑĢÐµÐ´ÑģÑĤÐ°Ð²ÑĻÐ°ÑĺÑĥĠ": 5797,
      "lizacijaĠ": 5798,
      "let": 5799,
      "trÅ¾iÅ¡tuĠ": 5800,
      "fikacijeĠ": 5801,
      "ote": 5802,
      "Äįnja": 5803,
      "zbi": 5804,
      "Slu": 5805,
      "sul": 5806,
      "izla": 5807,
      "ÐµÑĻÐµĠ": 5808,
      "formu": 5809,
      "ÑĥÐ½ÑĥÑĤÑĢÐ°ÑĪÑļ": 5810,
      "ugovoraĠ": 5811,
      "ÑĦÑĢ": 5812,
      "vizi": 5813,
      "Ð¸Ð²ÐµÑĢÐ·": 5814,
      "fra": 5815,
      "nemajuĠ": 5816,
      "Ð¸ÑģÐºÑĥ": 5817,
      "izgu": 5818,
      "Ð¿Ð¾Ð´ÑĢÑĪ": 5819,
      "solu": 5820,
      "udru": 5821,
      "É¨Éŀ": 5822,
      "Ð²Ð¾Ð´ÐµĠ": 5823,
      "ispitivanjaĠ": 5824,
      "Ð³Ð¾Ð²Ð¾ÑĢÐ¸Ġ": 5825,
      "ÑĺÐµÑĤ": 5826,
      "krei": 5827,
      "ÑĻÑĥÐ±": 5828,
      "obziraĠ": 5829,
      "DÅ¾": 5830,
      "procesuĠ": 5831,
      "Ð°Ð²Ð¸Ð¾Ġ": 5832,
      "konkuren": 5833,
      "Ð¿ÑĢÐ°Ð²Ð¸Ð»": 5834,
      "Ð»Ð¸ÑĤÐµÑĢ": 5835,
      "Ð¸Ð²Ð°ÑļÑĥĠ": 5836,
      "sfer": 5837,
      "omoguÄĩavaĠ": 5838,
      "najveÄĩiĠ": 5839,
      "fici": 5840,
      "ÑļÐ¸Ð¼Ð°Ġ": 5841,
      "deve": 5842,
      "âĢĶ,Ġ": 5843,
      "ured": 5844,
      "Ð½Ð°Ð·Ð¸Ð²": 5845,
      "NEĠ": 5846,
      "prevo": 5847,
      "snimĠ": 5848,
      "efekatĠ": 5849,
      "Ð¿Ð¾Ð¼ÐµÐ½ÑĥÑĤ": 5850,
      "Ð¸Ð·Ð°ÑĨÐ¸ÑĺÐµĠ": 5851,
      "decaĠ": 5852,
      "ÐºÐ¾Ð¼ÑĥÐ½Ð¸Ðº": 5853,
      "stalnoĠ": 5854,
      "uvi": 5855,
      "gni": 5856,
      "moglaĠ": 5857,
      "prene": 5858,
      "jaliĠ": 5859,
      "napu": 5860,
      "Ð¾ÑģÐ¸Ð³ÑĥÑĢ": 5861,
      "Gr": 5862,
      "brojuĠ": 5863,
      "minan": 5864,
      "Ð°Ð´ÐµÐ¼": 5865,
      "evi": 5866,
      "buduÄĩ": 5867,
      "ÄĩanjeĠ": 5868,
      "privat": 5869,
      "forman": 5870,
      "Ð°ÑĩÐºÐ¾Ð³Ġ": 5871,
      "njihovĠ": 5872,
      "wit": 5873,
      "ÄįnostĠ": 5874,
      "We": 5875,
      "taraĠ": 5876,
      "docĠ": 5877,
      "TA": 5878,
      "zasnov": 5879,
      "elemenataĠ": 5880,
      "Ð½Ð°Ð²Ð¾Ð´Ð¸Ġ": 5881,
      "nikoĠ": 5882,
      "ÑģÑĢÐ¿ÑģÐºÐµĠ": 5883,
      "OnaĠ": 5884,
      "seg": 5885,
      "Ð¿ÐµÑĤ": 5886,
      "ÑģÐ°Ð·": 5887,
      "diplo": 5888,
      "doÅ¡loĠ": 5889,
      "Ð¿ÑĢÐ¾Ð¼ÐµÐ½": 5890,
      "Ð¿Ð¾Ð³Ð»ÐµÐ´ÑĥĠ": 5891,
      "jskimĠ": 5892,
      "Ð¾Ð²Ð°Ð½ÐµĠ": 5893,
      "risĠ": 5894,
      "ZatoĠ": 5895,
      "velikaĠ": 5896,
      "pato": 5897,
      "ÐµÐ¼Ð±ÑĢÐ°Ġ": 5898,
      "ukljuÄįujuÄĩiĠ": 5899,
      "zra": 5900,
      "tivnomĠ": 5901,
      "tekstaĠ": 5902,
      "govoreĠ": 5903,
      "urĠ": 5904,
      "Ð²ÐµÐ»Ð¸Ñĩ": 5905,
      "cionogĠ": 5906,
      "Ïĥ": 5907,
      "loÅ¡keĠ": 5908,
      "prikup": 5909,
      "potpi": 5910,
      "Äīe": 5911,
      "Äįuna": 5912,
      "sporazu": 5913,
      "uzorakaĠ": 5914,
      "Ð¸Ð½ÑģÐºÐµĠ": 5915,
      "ÐµÐºÑģÐ¿ÐµÑĢÐ¸Ð¼": 5916,
      "Äįesti": 5917,
      "KA": 5918,
      "merenjaĠ": 5919,
      "ae": 5920,
      "ljudimaĠ": 5921,
      "ster": 5922,
      "zacijaĠ": 5923,
      "Ð¼Ð¾Ġ": 5924,
      "vaÅ¾noĠ": 5925,
      "Ber": 5926,
      "njemuĠ": 5927,
      "svetĠ": 5928,
      "SviĠ": 5929,
      "iskljuÄįivoĠ": 5930,
      "RU": 5931,
      "lep": 5932,
      "formeĠ": 5933,
      "ÐŀÐ½Ġ": 5934,
      "ÑĤÑĢÐ¾ÑĪÐº": 5935,
      "ÑĥÐºÐ¾Ð»Ð¸ÐºÐ¾Ġ": 5936,
      "usloveĠ": 5937,
      "Ð²Ð°Ð½Ġ": 5938,
      "Ð¿Ð¾ÑĢÐµÑĴ": 5939,
      "kandi": 5940,
      "Ð¾ÑģÐ¸Ġ": 5941,
      "Ð°ÑĺÐ¸Ġ": 5942,
      "ÐºÐ¾Ð½ÑģÑĤÑĢÑĥÐº": 5943,
      "neposred": 5944,
      "ÑĥÑģÐ¼ÐµÑĢ": 5945,
      "sprovo": 5946,
      "Stan": 5947,
      "Ð¼ÐµÐ½": 5948,
      "bre": 5949,
      "Ð¡Ðº": 5950,
      "parĠ": 5951,
      "zemljamaĠ": 5952,
      "Ð½Ð¸Ð¶": 5953,
      "Ð¿ÑĢÐ¾Ð´ÑĥÐº": 5954,
      "hodaĠ": 5955,
      "ÑļÐµÐ³Ð°Ġ": 5956,
      "jezikĠ": 5957,
      "opÅ¡ti": 5958,
      "Institu": 5959,
      "ÑģÐµÐ·": 5960,
      "Ð¸ÑģÑĤÐ¾Ñĩ": 5961,
      "Ð½Ð°Ð´Ð»ÐµÐ¶": 5962,
      "prven": 5963,
      "Ð¸ÑĢÐ°Ð½Ð°Ġ": 5964,
      "upraveĠ": 5965,
      "straniĠ": 5966,
      "novogĠ": 5967,
      "ÐµÑĻĠ": 5968,
      "soft": 5969,
      "obeĠ": 5970,
      "**Ġ": 5971,
      "uopÅ¡teĠ": 5972,
      "aku": 5973,
      "Ð¿Ð¾Ð¿ÑĥÑĤĠ": 5974,
      "gleda": 5975,
      "Ð·Ð°Ð´Ð¾Ð²Ð¾ÑĻ": 5976,
      "ilo": 5977,
      "selek": 5978,
      "predlo": 5979,
      "viseĠ": 5980,
      "ÐŁÑĢÐ°Ð²": 5981,
      "dno": 5982,
      "praktiÄį": 5983,
      "Tur": 5984,
      "ÑĨÐ¸ÑĻĠ": 5985,
      "ljemĠ": 5986,
      "govara": 5987,
      "proteinaĠ": 5988,
      "iska": 5989,
      "talĠ": 5990,
      "CAĠ": 5991,
      "ÄįeniĠ": 5992,
      "upravljanjaĠ": 5993,
      "Ð¸ÑĢÐ°Ð¾Ġ": 5994,
      "Ð¼ÐµÑģÑĤÑĥĠ": 5995,
      "stepenĠ": 5996,
      "osni": 5997,
      "tako": 5998,
      "zabele": 5999,
      "ÑĢÐµÐ´Ð°Ġ": 6000,
      "oblikĠ": 6001,
      "jnĠ": 6002,
      "znaÄįajaĠ": 6003,
      "diteĠ": 6004,
      "ÐºÑĢÐ¸ÑĤÐµÑĢÐ¸Ñĺ": 6005,
      "neuro": 6006,
      "DI": 6007,
      "flek": 6008,
      "Ð¼Ð°Ð½Ġ": 6009,
      "narodaĠ": 6010,
      "toruĠ": 6011,
      "podrÅ¡kuĠ": 6012,
      "sistemuĠ": 6013,
      "postupakĠ": 6014,
      "(âĢŀĠ": 6015,
      "alnomĠ": 6016,
      "ÑĢÐ°Ð¼Ġ": 6017,
      "reci": 6018,
      "PA": 6019,
      "Ð¿ÑĢÐ¸ÑģÑĥ": 6020,
      "Ð°ÑĢÑĥĠ": 6021,
      "Ð¿Ð¾ÑĤÑĢÐµÐ±Ð½Ð¾Ġ": 6022,
      "tionsĠ": 6023,
      "dsĠ": 6024,
      "Å¾eniĠ": 6025,
      "Ð¾ÑģÐµÑĽ": 6026,
      "odgovaraĠ": 6027,
      "tumĠ": 6028,
      "Ser": 6029,
      "ÑĤÐµÐ¼Ð¿ÐµÑĢÐ°ÑĤÑĥÑĢ": 6030,
      "periodaĠ": 6031,
      "ÐºÐ¾ÑĺÐµÐ¼Ġ": 6032,
      "ÉļÉ§": 6033,
      "intenzi": 6034,
      "ÑģÐµÐ¿ÑĤÐµÐ¼": 6035,
      "ctĠ": 6036,
      "ÑĥÑģÐ»ÑĥÐ³": 6037,
      "Ð°Ð¼Ð¿": 6038,
      "znatnoĠ": 6039,
      "predi": 6040,
      "rov": 6041,
      "ÑĢÐ°Ð·Ð»Ð¸ÐºÐ°Ġ": 6042,
      "zaÅ¡toĠ": 6043,
      "ljujeĠ": 6044,
      "Ð»ÐµÐ³": 6045,
      "Ð¾Ð¼Ð°ÑĤ": 6046,
      "Â»Ġ": 6047,
      "ÐºÐ¾Ð¼Ð¿Ð¾Ð½": 6048,
      "prilago": 6049,
      "ÐºÑĻÑĥÑĩ": 6050,
      "ÐºÑĢÐ¸Ð¼Ð¸Ð½": 6051,
      "mate": 6052,
      "terna": 6053,
      "step": 6054,
      "hibi": 6055,
      "jaoĠ": 6056,
      "lamaĠ": 6057,
      "ÑĥÐ±ÑĢ": 6058,
      "ÐºÑĥÐ»ÑĤÑĥÑĢÐµĠ": 6059,
      "odob": 6060,
      "javnogĠ": 6061,
      "ÑĥÑģÐ»Ð¾Ð²Ð¸Ð¼Ð°Ġ": 6062,
      "graÄĳan": 6063,
      "naÄįinaĠ": 6064,
      "Ð¸ÑļÐ°Ġ": 6065,
      "ostaleĠ": 6066,
      "loÅ¡kihĠ": 6067,
      "obzirĠ": 6068,
      "devoj": 6069,
      "svakodnev": 6070,
      "Å¡enĠ": 6071,
      "filozo": 6072,
      "kapit": 6073,
      "mladi": 6074,
      "sprem": 6075,
      "imateĠ": 6076,
      "dniĠ": 6077,
      "Ð¸ÑĢÐ°Ð½Ð¸Ġ": 6078,
      "LO": 6079,
      "Ð¿Ð»ÐµÐ¼": 6080,
      "Ð¾Ð±Ð¸Ñĩ": 6081,
      "ÐºÐ¾Ð½ÐºÑĢÐµÑĤ": 6082,
      "strukturaĠ": 6083,
      "ÑĥÑĩÐµÐ½Ð¸ÐºÐ°Ġ": 6084,
      "agre": 6085,
      "poveÄĩanjeĠ": 6086,
      "Ð¾ÑģÐº": 6087,
      "padĠ": 6088,
      "referen": 6089,
      "anjimaĠ": 6090,
      "drugo": 6091,
      "Ð·Ð°Ð¿Ð°Ð´": 6092,
      "posti": 6093,
      "Ð³ÐµÐ½": 6094,
      "Ð½ÐµÐºÐ¸Ġ": 6095,
      "Ð³Ð»Ð°Ð³Ð¾Ð»": 6096,
      "izborĠ": 6097,
      "profi": 6098,
      "reprezen": 6099,
      "titeĠ": 6100,
      "ÐĹÐ±": 6101,
      "celo": 6102,
      "MiĠ": 6103,
      "veÄĩuĠ": 6104,
      "gerĠ": 6105,
      "delu": 6106,
      "pokaza": 6107,
      "Ð£Ð½Ð¸Ð²": 6108,
      "vodomĠ": 6109,
      "pouz": 6110,
      "liÄĩĠ": 6111,
      "Ð²ÐµÑĪÑĤ": 6112,
      "ÑģÐ¸ÑģÑĤÐµÐ¼": 6113,
      "Ð½ÐµÐºÐµĠ": 6114,
      "ex": 6115,
      "Ð°ÑĨÐ¸Ð¼Ð°Ġ": 6116,
      "zapad": 6117,
      "tivnuĠ": 6118,
      "oslob": 6119,
      "zemljiÅ¡taĠ": 6120,
      "potrebaĠ": 6121,
      "Pod": 6122,
      "aplika": 6123,
      "ÑĥÐºÑĥĠ": 6124,
      "Â«Ġ": 6125,
      "Ð¸ÑģÑĤÐ°ÑĢ": 6126,
      "plateĠ": 6127,
      "DakleĠ": 6128,
      "primar": 6129,
      "obiÄįnoĠ": 6130,
      "angaÅ¾": 6131,
      "nikak": 6132,
      "Ð±Ð°ÑĢ": 6133,
      "tradicional": 6134,
      "prveĠ": 6135,
      "znaÄįajnaĠ": 6136,
      "ÑĩÐµÐ³Ð°Ġ": 6137,
      "kojomĠ": 6138,
      "Ð¾Ð´Ð½Ð¾ÑģÐµĠ": 6139,
      "Ð½Ð°Ð»Ð°Ð·": 6140,
      "Ð°Ð´ÐµĠ": 6141,
      "VO": 6142,
      "weĠ": 6143,
      "ranjemĠ": 6144,
      "Ð´Ð¾Ð»Ð°Ð·Ð¸Ġ": 6145,
      "Ð´Ð°Ð½Ġ": 6146,
      "ÄįovekĠ": 6147,
      "odreÄĳeneĠ": 6148,
      "avatiĠ": 6149,
      "iskustvoĠ": 6150,
      "ÐŁÐµÑĤÑĢ": 6151,
      "ÄĳivanjaĠ": 6152,
      "Ð±ÑĥÐ´ÑĥÑĽ": 6153,
      "upozna": 6154,
      "rele": 6155,
      "feno": 6156,
      "Ð¸Ð¼ÐµÐ½Ð·": 6157,
      "kontrol": 6158,
      "vencijeĠ": 6159,
      "gar": 6160,
      "ÐĳÐ¾Ð³": 6161,
      "obrazovanjeĠ": 6162,
      "njihovaĠ": 6163,
      "nekihĠ": 6164,
      "NOĠ": 6165,
      "ari": 6166,
      "Å¡an": 6167,
      "line": 6168,
      "lizacijuĠ": 6169,
      "Ð¿ÑĢÐµÐ´ÑģÐµÐ´": 6170,
      "jenimĠ": 6171,
      "uda": 6172,
      "vlasni": 6173,
      "ÄįimeĠ": 6174,
      "ÑģÐ»Ð¾Ð¶": 6175,
      "koriÅ¡ÄĩenjeĠ": 6176,
      "dale": 6177,
      "toplo": 6178,
      "imen": 6179,
      "dje": 6180,
      "Ð´Ð¾Ð¿": 6181,
      "Ð¾Ð±ÐµÐ»ÐµÐ¶": 6182,
      "recep": 6183,
      "regula": 6184,
      "Bos": 6185,
      "ugro": 6186,
      "Ð¡ÐĲÐĶĠ": 6187,
      "ÐµÐ½ÑĨÐ¸ÑĺÐ°Ġ": 6188,
      "iskustvaĠ": 6189,
      "Ð½Ð¿ÑĢĠ": 6190,
      "ura": 6191,
      "perĠ": 6192,
      "diliĠ": 6193,
      "teme": 6194,
      "Ð±Ð°Ġ": 6195,
      "temperatureĠ": 6196,
      "mreÅ¾eĠ": 6197,
      "stankaĠ": 6198,
      "ÑĢÐ°Ð·Ð»Ð¸ÑĩÐ¸ÑĤÐ¸Ð¼Ġ": 6199,
      "Ð½Ð°ÑĢÐ¾ÑĩÐ¸ÑĤÐ¾Ġ": 6200,
      "tiÄįkiĠ": 6201,
      "ÐŁÑĢÐ¸Ð¼": 6202,
      "krv": 6203,
      "ÑĢÐ°Ð·Ð»Ð¸ÐºÑĥĠ": 6204,
      "Ð¼Ð¾Ð³ÑĥÑĽÐ½Ð¾ÑģÑĤÐ¸Ġ": 6205,
      "slĠ": 6206,
      "soĠ": 6207,
      "Ð¸Ð·Ð±Ð¾ÑĢ": 6208,
      "komple": 6209,
      "Ð£Ð½Ð¸Ð²ÐµÑĢÐ·": 6210,
      "Å¡iro": 6211,
      "digi": 6212,
      "Ð¸Ð·ÑĥÐ·ÐµÑĤ": 6213,
      "ÐĴÐ»Ð°Ð´": 6214,
      "smi": 6215,
      "vecĠ": 6216,
      "crven": 6217,
      "videtiĠ": 6218,
      "ÑĥÐ¿ÑĢÐ°Ð²Ð¾Ġ": 6219,
      "Ð¿ÑĥÑĤÐµÐ¼Ġ": 6220,
      "Ð¸ÑģÐ°Ġ": 6221,
      "zatvor": 6222,
      "Ð¿ÑĢÐ¾ÑĨÐµÑģ": 6223,
      "nav": 6224,
      "ÑĥÐ¼ÐµÑĤÐ½": 6225,
      "organaĠ": 6226,
      "Ð¿Ð¾Ð´ÑĢÐ°Ð·ÑĥÐ¼ÐµÐ²Ð°Ġ": 6227,
      "ÑģÑĤÐ°ÑĤÐ¸ÑģÑĤÐ¸ÑĩÐºÐ¸Ġ": 6228,
      "Ð°ÑĩÐµĠ": 6229,
      "Stra": 6230,
      "zisten": 6231,
      "ÑĢÐ°Ð½Ð°Ġ": 6232,
      "servi": 6233,
      "Ð¸ÐºÐ»": 6234,
      "tskogĠ": 6235,
      "koveĠ": 6236,
      "ÑĤÐ¸Ð¿Ð°Ġ": 6237,
      "ÑģÑĥÐº": 6238,
      "Å¾iviĠ": 6239,
      "Ð°ÑĺÐµÐ¼Ġ": 6240,
      "Ð´Ð¾Ð²Ð¾ÑĻ": 6241,
      "ÑģÑĢÐ¿ÑģÐºÐ¾Ð³Ġ": 6242,
      "sluÅ¾b": 6243,
      "Ð¾Ð±Ð»Ð¸ÐºÐ°Ġ": 6244,
      "ÑĩÐ°Ñģ": 6245,
      "CI": 6246,
      "tuma": 6247,
      "oblikuĠ": 6248,
      "ÑļÐµÐ³Ð¾Ð²Ð¾Ð³Ġ": 6249,
      "znanjeĠ": 6250,
      "fazeĠ": 6251,
      "misliĠ": 6252,
      "suko": 6253,
      "Ð²Ð¾Ð·": 6254,
      "zvez": 6255,
      "njegovogĠ": 6256,
      "orijen": 6257,
      "karakteristikaĠ": 6258,
      "Predsed": 6259,
      "Ch": 6260,
      "ÑĩÐ¸ÑĺÐ¸Ġ": 6261,
      "oseĠ": 6262,
      "sledeÄĩeĠ": 6263,
      "ep": 6264,
      "lijaĠ": 6265,
      "zniĠ": 6266,
      "ÐŁÐ°Ð²": 6267,
      "engle": 6268,
      "hilja": 6269,
      "poÄįetkaĠ": 6270,
      "graÄĳevin": 6271,
      "disku": 6272,
      "zavrÅ¡": 6273,
      "vje": 6274,
      "ÑģÐ°Ð´Ð°Ġ": 6275,
      "navod": 6276,
      "bolesnikaĠ": 6277,
      "Ð¼Ð¸Ñĩ": 6278,
      "narodĠ": 6279,
      "fu": 6280,
      "uÅ¾i": 6281,
      "verĠ": 6282,
      "prisustvoĠ": 6283,
      "Ð½Ð¾ÑĪÑĽÑĥĠ": 6284,
      "Ð¿Ð¾Ð»Ð¸ÑĤÐ¸ÐºÐµĠ": 6285,
      "izuzetnoĠ": 6286,
      "ÑģÑĥÐ¿ÑĢÐ¾ÑĤ": 6287,
      "Îº": 6288,
      "sekun": 6289,
      "klaĠ": 6290,
      "Ð¼ÐµÑĤÐ¾Ð´": 6291,
      "ÐŁÐµÑĤ": 6292,
      "TokomĠ": 6293,
      "ÑļÐ¸ÑħÐ¾Ð²ÐµĠ": 6294,
      "snuĠ": 6295,
      "kompanijaĠ": 6296,
      "OsimĠ": 6297,
      "tikeĠ": 6298,
      "sanoĠ": 6299,
      "liÄįnostiĠ": 6300,
      "preki": 6301,
      "imu": 6302,
      "Ð¾ÑģÐ°Ġ": 6303,
      "kontroli": 6304,
      "Ð¿ÑĢÐ¸ÑģÑĤÑĥÐ¿Ġ": 6305,
      "Ð¿Ð°ÑĤ": 6306,
      "Ð¾Ð»Ð¾ÑĪÐºÐµĠ": 6307,
      "Ð¿ÑĢÐ¾Ð»": 6308,
      "decuĠ": 6309,
      "Ð½ÐµÐ¿Ð¾ÑģÑĢÐµÐ´": 6310,
      "Ð¿Ð¾ÑĤÑĢÐ¾ÑĪ": 6311,
      "Pos": 6312,
      "valu": 6313,
      "zneĠ": 6314,
      "Ð¾Ð´Ð²": 6315,
      "tipĠ": 6316,
      "Ð¾Ð±Ð»Ð¸ÐºĠ": 6317,
      "ÑĥÐ·Ð¸Ð¼": 6318,
      "ljivostĠ": 6319,
      "uzorkaĠ": 6320,
      "Ð°Ð½Ð¾Ð²Ð¸ÑĽĠ": 6321,
      "juÄĩeĠ": 6322,
      "ÐĮ": 6323,
      "draĠ": 6324,
      "Ð¾Ð±ÑĢÐ°ÑĽ": 6325,
      "ljudeĠ": 6326,
      "ÄĩajuĠ": 6327,
      "ÐºÐ°Ð»": 6328,
      "proÅ¡i": 6329,
      "tz": 6330,
      "Ð²ÑĢÐ»Ð¾Ġ": 6331,
      "Ð¸ÑģÑĤÐ¾ÑĢ": 6332,
      "kl": 6333,
      "sposobnostiĠ": 6334,
      "fos": 6335,
      "istovremenoĠ": 6336,
      "ÐļÑĢÐ°ÑĻ": 6337,
      "Vladi": 6338,
      "jeviÄĩĠ": 6339,
      "Ð¶ÐµÐ½Ð°Ġ": 6340,
      "gos": 6341,
      "ÑĥÑŁ": 6342,
      "Ð³ÑĢÐ°ÑĴÐ°Ð½": 6343,
      "ÑģÑĤÑĥÐ¿": 6344,
      "Ð½Ð°ÑĢÐµÐ´": 6345,
      "tacijuĠ": 6346,
      "pHĠ": 6347,
      "ÑĤÐµÑĢÐ¼": 6348,
      "Ð¿Ð¾Ð·Ð½Ð°ÑĤ": 6349,
      "potroÅ¡a": 6350,
      "Ð¤ÑĢÐ°Ð½ÑĨÑĥ": 6351,
      "oprav": 6352,
      "verovat": 6353,
      ".),Ġ": 6354,
      "ukazujuĠ": 6355,
      "1993Ġ": 6356,
      "Ð°ÑĢÑĤ": 6357,
      "partne": 6358,
      "Man": 6359,
      "tari": 6360,
      "ÑĤÐ°Ð±": 6361,
      "vamaĠ": 6362,
      "jezikuĠ": 6363,
      "nicamaĠ": 6364,
      "jedinjenjaĠ": 6365,
      "osu": 6366,
      "Äīa": 6367,
      "ÑĥÐ½Ð°Ð¿ÑĢ": 6368,
      "supstan": 6369,
      "msĠ": 6370,
      "manjiĠ": 6371,
      "mentuĠ": 6372,
      "Ð¾Ð¿ÑĢÐ¸Ð²": 6373,
      "Ð»ÐµÐº": 6374,
      "Ð·Ð½Ð°ÑļÐ°Ġ": 6375,
      "Ð°ÑĪÑļÐµĠ": 6376,
      "ÐºÐ¾Ð»Ð¸Ñĩ": 6377,
      "ÐŀÑĢ": 6378,
      "seksu": 6379,
      "isteĠ": 6380,
      "dub": 6381,
      "dokumenta": 6382,
      "zaga": 6383,
      "Ð±Ð¸Ð²": 6384,
      "ÐĲÐºÐ¾Ġ": 6385,
      "ukupnoĠ": 6386,
      "ÐºÐ¾Ð½ÑĦ": 6387,
      "oli": 6388,
      "Ð½Ð¸ÐºÑĥĠ": 6389,
      "preduzet": 6390,
      "Å¡itiĠ": 6391,
      "nakna": 6392,
      "djeĠ": 6393,
      "MO": 6394,
      "namen": 6395,
      "NovomĠ": 6396,
      ".âĢĵĠ": 6397,
      "SR": 6398,
      "nasle": 6399,
      "mamaĠ": 6400,
      "performan": 6401,
      "lop": 6402,
      "Ð´ÑĥÐ±": 6403,
      "situacijaĠ": 6404,
      "Ð¸Ð½ÑĤÐµÐ½Ð·": 6405,
      "Ð°ÑĤÐ¸Ð²Ð½Ð¸Ġ": 6406,
      "Ð¿Ð¾ÑĤÐ²ÑĢÑĴ": 6407,
      "znaÄįajĠ": 6408,
      "Poru": 6409,
      "bojeĠ": 6410,
      "Ð°ÑģÐµĠ": 6411,
      "EvropeĠ": 6412,
      ".âĢĿĠ": 6413,
      "aka": 6414,
      "registr": 6415,
      "ÐĳÑĥÐ³Ð°ÑĢ": 6416,
      "Ð´ÐµÑĨÐµĠ": 6417,
      "jnihĠ": 6418,
      "protiv": 6419,
      "ÑģÐ¿Ð¾Ð¼": 6420,
      "smeĠ": 6421,
      "Ð¸Ð»Ð°ÑĨĠ": 6422,
      "Ð²Ð¾Ð»": 6423,
      "ÐĹÐ°Ð¿": 6424,
      "podne": 6425,
      "%),Ġ": 6426,
      "DO": 6427,
      "ÑĥÑĩÐ¸Ð½": 6428,
      "lacaĠ": 6429,
      "dva": 6430,
      "tuÅ¾": 6431,
      "Ð¸ÑĢÐ°Ð½Ġ": 6432,
      "polov": 6433,
      "Ð¿ÑĢÐ¾Ð±Ð»ÐµÐ¼Ð°Ġ": 6434,
      "usloviĠ": 6435,
      "vestiĠ": 6436,
      "mobil": 6437,
      "ÑĺÑĥÐ³Ð¾ÑģÐ»": 6438,
      "Ð¸Ð¿Ð»": 6439,
      "upotrebeĠ": 6440,
      "ÑģÐ¼ÑĢÑĤÐ¸Ġ": 6441,
      "ÄįenĠ": 6442,
      "Ð°ÑĢÑħÐ¸ÑĤ": 6443,
      "Ð±Ð°Ð·": 6444,
      "prese": 6445,
      "njeneĠ": 6446,
      "Ð¾Ð±ÐµĠ": 6447,
      "pal": 6448,
      "Ð¿ÑĢÐ¸Ð½ÑĨÐ¸Ð¿": 6449,
      "Ð³Ð¾ÑĤ": 6450,
      "ÐĶÑĢÐ°Ð³": 6451,
      "ÉĽ": 6452,
      "obiÄįa": 6453,
      "ÐµÑĽÑĥĠ": 6454,
      "nekadĠ": 6455,
      "ÑĢÐ°Ð·Ð»Ð¸ÐºÐµĠ": 6456,
      "istiÄįeĠ": 6457,
      "posedu": 6458,
      "ÐµÑģÐº": 6459,
      "ÑģÐ»Ð°Ð±": 6460,
      "sajtaĠ": 6461,
      ".(Ġ": 6462,
      "koristitiĠ": 6463,
      "postupkuĠ": 6464,
      "ÑĥÑĩÐµÑģ": 6465,
      "deceni": 6466,
      "prethodnoĠ": 6467,
      "ÑĢÐµÑģÑĥÑĢ": 6468,
      "hor": 6469,
      "ponaÅ¡anjaĠ": 6470,
      "rob": 6471,
      "Ð¾ÑĤÐºÑĢ": 6472,
      "Å¡kaĠ": 6473,
      "Ð¾ÑģÐ»Ð°Ð²": 6474,
      "tori": 6475,
      "objekataĠ": 6476,
      "Ð°ÐºÑĨÐ¸ÑĺÐ°Ġ": 6477,
      "ÑĥÑĻ": 6478,
      "frek": 6479,
      "predmetaĠ": 6480,
      "ÐĶÑĢÐ¶": 6481,
      "Ð½Ð¸Ð²Ð¾Ġ": 6482,
      "tekstĠ": 6483,
      "javnostiĠ": 6484,
      "ljivostiĠ": 6485,
      "oÄįi": 6486,
      "slikeĠ": 6487,
      "ÑĺÑĥÐ³Ð¾ÑģÐ»Ð¾Ð²ÐµÐ½": 6488,
      "Ð¾ÐºÑĥĠ": 6489,
      "Anali": 6490,
      "Ð·Ð°ÑħÑĤÐµÐ²Ð°Ġ": 6491,
      "Ð»Ð¸ÑĨ": 6492,
      "naÅ¡Ġ": 6493,
      "Ð¾Ð±ÐµÐ·Ð±": 6494,
      "!!": 6495,
      "Ð¸Ð·Ð°Ð±": 6496,
      "izvor": 6497,
      "Ð¸ÑģÑĤÐ¾Ġ": 6498,
      "Jovan": 6499,
      "zdravljaĠ": 6500,
      "pisĠ": 6501,
      "koviĠ": 6502,
      "jalĠ": 6503,
      "tipo": 6504,
      "zajedniceĠ": 6505,
      "JedanĠ": 6506,
      "opetĠ": 6507,
      "naru": 6508,
      "njihovoĠ": 6509,
      "ÐµÐ´Ð¾Ð½": 6510,
      "senĠ": 6511,
      "logijuĠ": 6512,
      "opse": 6513,
      "meÄĳutimĠ": 6514,
      "poremeÄĩa": 6515,
      "Ð·Ð°Ð³": 6516,
      "400Ġ": 6517,
      "zdravljeĠ": 6518,
      "ÐĺÐ·Ġ": 6519,
      "ï¿½": 6520,
      "Dob": 6521,
      "Ð´Ð¾Ð¶": 6522,
      "fikacijaĠ": 6523,
      "konstan": 6524,
      "mimĠ": 6525,
      "ÐŁÐ¾Ġ": 6526,
      "Ð·ÐµÐ¼Ð°ÑĻÐ°Ġ": 6527,
      "Ð·Ð°ÑģÐ½Ð¾Ð²": 6528,
      "zahtevĠ": 6529,
      "inhibi": 6530,
      "Î½Ġ": 6531,
      "ÑĥÐ´ÐµĠ": 6532,
      "samiĠ": 6533,
      "ÐºÐ°Ð´Ġ": 6534,
      "Ð¸Ð·Ð³ÑĢÐ°Ð´": 6535,
      "Ð»Ð¸ÑĤÐµÑĢÐ°ÑĤÑĥÑĢ": 6536,
      "lik": 6537,
      "bren": 6538,
      "Ð¸Ð¼Ð¿": 6539,
      "É¨Éª": 6540,
      "dobijaĠ": 6541,
      "central": 6542,
      "sun": 6543,
      "com": 6544,
      "ÑģÐ¸ÑĢ": 6545,
      "ÑĥÐºÐ»": 6546,
      "kupov": 6547,
      "San": 6548,
      "150Ġ": 6549,
      "ÐłÑĥÑģ": 6550,
      "ÑģÑĤÐ°Ð½ÑĤ": 6551,
      "SO": 6552,
      "stojeĠ": 6553,
      "Å¡enoĠ": 6554,
      "primenuĠ": 6555,
      "Ð¿ÑĢÐ¸Ð²Ð°ÑĤ": 6556,
      "ÑĺÐ°ÑģÐ½Ð¾Ġ": 6557,
      "Ð¸Ð¼Ð°Ð»Ð°Ġ": 6558,
      "mislimĠ": 6559,
      "ÐĳÐ¾Ñģ": 6560,
      "cemĠ": 6561,
      "Ð¿Ð¾Ð·Ð¸ÑĨ": 6562,
      "genĠ": 6563,
      "postajeĠ": 6564,
      "sigurnoĠ": 6565,
      "nikomĠ": 6566,
      "Ð¾Ð´Ð³Ð¾Ð²Ð°ÑĢÐ°ÑĺÑĥÑĽ": 6567,
      "metĠ": 6568,
      "svakakoĠ": 6569,
      "ÑĢÐµÐ·ÑĥÐ»ÑĤÐ°ÑĤÐ°Ġ": 6570,
      "Par": 6571,
      "statu": 6572,
      "Ð°ÑĢÐ½ÐµĠ": 6573,
      "Ð·Ð´ÑĢÐ°Ð²ÑģÑĤÐ²": 6574,
      "umestoĠ": 6575,
      "Ce": 6576,
      "fri": 6577,
      "Ð¿Ð¾Ð¼Ð¾ÑĽ": 6578,
      "ciklu": 6579,
      "matskiĠ": 6580,
      "ministra": 6581,
      "simbo": 6582,
      "multi": 6583,
      "Ð°ÑĥÑĤÐ¾ÑĢÐ°Ġ": 6584,
      "Ð°ÑĤÐ¾ÑĢ": 6585,
      "vas": 6586,
      "subĠ": 6587,
      "ton": 6588,
      "Pan": 6589,
      "utakmi": 6590,
      "moni": 6591,
      "Pla": 6592,
      "ÐĳÐ°Ð»": 6593,
      "Ð°Ð»Ð½ÑĥĠ": 6594,
      "izlo": 6595,
      "enomĠ": 6596,
      "pol": 6597,
      "Ð°Ð½Ð°Ð»Ð¸Ð·Ð°Ġ": 6598,
      "poslaĠ": 6599,
      "ÑģÐºÐ¾ÑĢ": 6600,
      "adre": 6601,
      "PosleĠ": 6602,
      "Medi": 6603,
      "reÄįimaĠ": 6604,
      "Sre": 6605,
      "Ð¿Ð»Ð°ÑĤ": 6606,
      "ÑĢÐ¾Ġ": 6607,
      "Ð¸Ð·Ð²ÐµÑĪÑĤ": 6608,
      "koncentracijaĠ": 6609,
      "ÐĴÑĢ": 6610,
      "Ð·Ð°ÑĺÐµÐ´Ð½Ð¾Ġ": 6611,
      "Ð¼Ð°ÑĤÐµÑĢÐ¸ÑĺÐ°Ð»": 6612,
      "ÑģÑĤÐ²Ð°ÑĢÐ¸Ġ": 6613,
      "izgledaĠ": 6614,
      "tinĠ": 6615,
      "odu": 6616,
      "Å¡njeĠ": 6617,
      "Ð°Ð»ÑĥĠ": 6618,
      "smanjenjeĠ": 6619,
      "dinami": 6620,
      "odvi": 6621,
      "krimin": 6622,
      "hov": 6623,
      "É«": 6624,
      "Å¾iveĠ": 6625,
      "grupuĠ": 6626,
      "ÑģÐ»Ð¸Ðº": 6627,
      "zakonomĠ": 6628,
      "Francu": 6629,
      "SadaĠ": 6630,
      "ïģ": 6631,
      "fran": 6632,
      "ÑĥÐºÐ°Ð·ÑĥÑĺÐµĠ": 6633,
      "Ð°Ð½Ðº": 6634,
      "vakc": 6635,
      "Ð°Ð²ÑĻÐ°ÑĺÑĥĠ": 6636,
      "ÑĩÐ¸Ð½ÐµĠ": 6637,
      "VIĠ": 6638,
      "ÑģÑħÐ²Ð°ÑĤ": 6639,
      "pokuÅ¡": 6640,
      "BI": 6641,
      "Ð¿ÑĢÐ¾Ð³ÑĢÐ°Ð¼": 6642,
      "ÑĥÐ³Ð¾Ð²Ð¾ÑĢÐ°Ġ": 6643,
      "ÐµÐºÑģÑĤĠ": 6644,
      "Euro": 6645,
      "ÐŁÐ¾Ð¿": 6646,
      "toreĠ": 6647,
      "cer": 6648,
      "Ð½Ð¸ÑĤÐ¸Ġ": 6649,
      "oki": 6650,
      "Dana": 6651,
      "Ð½Ð°Ð»Ð°Ð·ÐµĠ": 6652,
      "ÑģÐ»Ð¸ÐºÐ°Ġ": 6653,
      "Å¾eliĠ": 6654,
      "NaslovĠ": 6655,
      "sudĠ": 6656,
      "podacimaĠ": 6657,
      "ÑĥÐ½Ð¸Ð²ÐµÑĢÐ·": 6658,
      "svakoĠ": 6659,
      "koriÅ¡ÄĩenjaĠ": 6660,
      "dobarĠ": 6661,
      "Ð´Ðµ": 6662,
      "tonaĠ": 6663,
      "matri": 6664,
      "ostaliĠ": 6665,
      "faktorĠ": 6666,
      "analizuĠ": 6667,
      "sanihĠ": 6668,
      "jujuÄĩiĠ": 6669,
      "ÑĢÐµÐ·ÑĥÐ»ÑĤÐ°ÑĤĠ": 6670,
      "njenaĠ": 6671,
      "stimu": 6672,
      "njihovihĠ": 6673,
      "dobioĠ": 6674,
      "izvoraĠ": 6675,
      "planĠ": 6676,
      "ÑģÑĢÐ¿ÑģÐºÐ¸Ġ": 6677,
      "proizvoÄĳa": 6678,
      "tnojĠ": 6679,
      "dijal": 6680,
      "Ð¼Ð¾ÑĤÐ¸Ð²": 6681,
      "MSĠ": 6682,
      "inu": 6683,
      "Ð¼Ð°Ð³": 6684,
      "uÄįestvu": 6685,
      "ÑģÑĤÐ²Ð¾Ð¼Ġ": 6686,
      "ctionĠ": 6687,
      "Ð¿Ð¾ÑĺÐµÐ´Ð¸Ð½Ð°Ñĩ": 6688,
      "Ã«": 6689,
      "Ð¾Ð±ÑĺÐ°ÑĪÑļ": 6690,
      "gijuĠ": 6691,
      "rizikĠ": 6692,
      "specija": 6693,
      "kur": 6694,
      "denaĠ": 6695,
      "umetnostiĠ": 6696,
      "log": 6697,
      "Ð¸Ð½Ð³Ġ": 6698,
      "Tele": 6699,
      "krviĠ": 6700,
      "Ð³Ð»Ð¾Ð±": 6701,
      "Ð¸ÑĢÐ°Ð½ÐµĠ": 6702,
      "ÐµÐ²Ð¾Ġ": 6703,
      "traÅ¾": 6704,
      "glavniĠ": 6705,
      "ÑĨÐ¸ÑĺÑĥĠ": 6706,
      "Ð¿ÑĢÐ¾ÑģÐµÑĩ": 6707,
      "ÑĥÑģÐ»ÐµÐ´Ġ": 6708,
      "Ð¸Ð·Ð»Ð¾Ð¶": 6709,
      "kolek": 6710,
      "ÑıĠ": 6711,
      "infra": 6712,
      "velikimĠ": 6713,
      "vanaĠ": 6714,
      "PorukaĠ": 6715,
      "Hi": 6716,
      "zon": 6717,
      "Grafi": 6718,
      "ÑĺÐ°Ð½Ñĥ": 6719,
      "Ð¢Ð¾ÐºÐ¾Ð¼Ġ": 6720,
      "Ð¾ÑĢÑĥÐ¶": 6721,
      "ticeĠ": 6722,
      "datĠ": 6723,
      "Ð½Ð°ÑĩÐ¸Ð½Ð°Ġ": 6724,
      "ÄįeneĠ": 6725,
      "ÑļÐµÐ³Ð¾Ð²Ð°Ġ": 6726,
      "Å¾ivlj": 6727,
      "ratĠ": 6728,
      "Ð¿ÑĢÐ¸Ñĩ": 6729,
      "Ð¿Ð¾ÑĢÐµÐº": 6730,
      "âĢ¦âĢ¦": 6731,
      "ÄĩenoĠ": 6732,
      "pokazalaĠ": 6733,
      "Gru": 6734,
      "prvaĠ": 6735,
      "cajĠ": 6736,
      "mrt": 6737,
      "Ð¾Ð»Ð¾ÑĪÐºÐ¸ÑħĠ": 6738,
      "div": 6739,
      "ing": 6740,
      "ÐľÐ¸Ñħ": 6741,
      "Ð½Ð°ÑĢÐ¾Ð´Ð°Ġ": 6742,
      "ÑģÐµÐºÑĤ": 6743,
      "desĠ": 6744,
      "ÑĺÐµÐ´Ð½ÑĥĠ": 6745,
      "mojĠ": 6746,
      "objaÅ¡nj": 6747,
      "izvrÅ¡": 6748,
      "ÑĤÑĥÐ¼Ð°Ñĩ": 6749,
      "Ð¸Ð¾Ð³ÑĢÐ°ÑĦ": 6750,
      "Ð¾Ð¿Ð°Ġ": 6751,
      "ÑĦÑĢÐ°Ð½ÑĨÑĥ": 6752,
      "zanoĠ": 6753,
      "ÑĤÐµÐºÑģÑĤÐ°Ġ": 6754,
      "ÑĤÐµÐºĠ": 6755,
      "predmetĠ": 6756,
      "deloĠ": 6757,
      "potpunostiĠ": 6758,
      "telefo": 6759,
      "NSĠ": 6760,
      "lioĠ": 6761,
      "ÑģÑĤÐ°Ð½Ð´Ð°ÑĢÐ´": 6762,
      "Ð¿ÑĢÐ¾Ð¼ÐµÐ½Ð°Ġ": 6763,
      "ck": 6764,
      "Ð¼Ð°Ñģ": 6765,
      "Ð¸ÑĺÑģÐºÐ°Ġ": 6766,
      "praksiĠ": 6767,
      "Ð´Ð¾Ð±ÑĢÐ¾Ġ": 6768,
      "ÐĵÐ¾Ð´Ð¸Ð½ÐµĠ": 6769,
      "indika": 6770,
      "PC": 6771,
      "Ð¼Ð¸ÑĢ": 6772,
      "valen": 6773,
      "Kar": 6774,
      "komer": 6775,
      "ÄĩeniĠ": 6776,
      "razmiÅ¡": 6777,
      "karije": 6778,
      "njenoĠ": 6779,
      "mogloĠ": 6780,
      "velikogĠ": 6781,
      "meÄĳusob": 6782,
      "apri": 6783,
      "ÐµÐ¾Ð³ÑĢÐ°ÑĦ": 6784,
      "ÐĹÐ±Ð¾Ð³Ġ": 6785,
      "Ð·Ð½Ð°ÑĩÐ°ÑĺĠ": 6786,
      "KadĠ": 6787,
      "BiHĠ": 6788,
      "Ð¸ÑģÐ°ÑļÐµĠ": 6789,
      "nukle": 6790,
      "Å¡ioĠ": 6791,
      "Ð¿ÑĢÐ¾ÑĺÐµÐºÑĤ": 6792,
      "Pose": 6793,
      "Ð¾Ð¿Ġ": 6794,
      "stranaĠ": 6795,
      "ÐºÐ²Ð°Ð»Ð¸ÑĤÐµÑĤÐ°Ġ": 6796,
      "Ð½Ð¸ÑĺÐ°Ġ": 6797,
      "Ð½Ð¾Ð²Ð¸Ġ": 6798,
      "Ð´Ð°ÑĺÐµĠ": 6799,
      "tivnostĠ": 6800,
      "politikaĠ": 6801,
      "ÑģÐµÐ²ÐµÑĢ": 6802,
      "piÅ¡eĠ": 6803,
      "povre": 6804,
      "kontroleĠ": 6805,
      "druÅ¡tvoĠ": 6806,
      "stvimaĠ": 6807,
      "1989Ġ": 6808,
      "damaĠ": 6809,
      "tujuĠ": 6810,
      "ÑģÐ²Ð¾ÑĺÐ¾ÑĺĠ": 6811,
      "arhitek": 6812,
      "tvor": 6813,
      "engĠ": 6814,
      "Å¡ar": 6815,
      "Ð¿ÑĢÐ¾ÑģÑĤÐ¾ÑĢÐ°Ġ": 6816,
      "ÐľÐ°ÑĤ": 6817,
      "posred": 6818,
      "foku": 6819,
      "upotrebuĠ": 6820,
      "Ver": 6821,
      "ÐŀÐ¿": 6822,
      "ÑģÑĥÐ´Ġ": 6823,
      "ÐķÐ£Ġ": 6824,
      "novacĠ": 6825,
      "Â£Ġ": 6826,
      "Ð¸Ð´ÐµÐ½ÑĤÐ¸ÑĦÐ¸Ðº": 6827,
      "ÐĲÐ¼ÐµÑĢ": 6828,
      "ÑħÐµÐ¼": 6829,
      "ÑģÐ²Ð¾ÑĺÐ¸ÑħĠ": 6830,
      "Ð¾Ð²Ð°ÑļÑĥĠ": 6831,
      "Ke": 6832,
      "Ð¿Ð¾Ð¼Ð¾ÑĽĠ": 6833,
      "one": 6834,
      "Ð¸Ð´Ñĥ": 6835,
      "sasvimĠ": 6836,
      "ÐĿÐ°ÑĢÐ¾Ð´": 6837,
      "Ñĸ": 6838,
      "snim": 6839,
      "Å¡tvoĠ": 6840,
      "ÊģÉŁĠ": 6841,
      "svakeĠ": 6842,
      "stvara": 6843,
      "ksaĠ": 6844,
      "-,Ġ": 6845,
      "pokuÅ¡a": 6846,
      "trenutnoĠ": 6847,
      "milijar": 6848,
      "novcaĠ": 6849,
      "Ð¿ÑĢÐµÑĨ": 6850,
      "tzvĠ": 6851,
      "veÅ¡ta": 6852,
      "dalekoĠ": 6853,
      "sam": 6854,
      "metrij": 6855,
      "gnu": 6856,
      "iznadĠ": 6857,
      "Ð¾ÐºÑĤÐ¾Ð±": 6858,
      "enzi": 6859,
      "prim": 6860,
      "Å¾ivotuĠ": 6861,
      "Spe": 6862,
      "ÑĤÑĢÐ°Ð´Ð¸ÑĨÐ¸Ð¾Ð½Ð°Ð»": 6863,
      "sitiĠ": 6864,
      "Ð¾Ð±ÐµÐ·Ð±ÐµÑĴ": 6865,
      "srpskiĠ": 6866,
      "mozeĠ": 6867,
      "kata": 6868,
      "bankeĠ": 6869,
      "ÑģÐµÐ³": 6870,
      "sedi": 6871,
      "izaĠ": 6872,
      "Äīi": 6873,
      "wi": 6874,
      "ïĢ": 6875,
      "PI": 6876,
      "Ð¸Ð½Ñĥ": 6877,
      "ÑĥÑĤÐ¸ÑĨÐ°ÑĺÐ°Ġ": 6878,
      "EvropskeĠ": 6879,
      "nar": 6880,
      "ÑģÐµÐ¼Ð°Ð½ÑĤ": 6881,
      "Ð²Ð°ÑĽ": 6882,
      "ÑĤÐ¾ÐºÑĥĠ": 6883,
      "vezaĠ": 6884,
      "EÐ": 6885,
      "tekst": 6886,
      "Ð¿Ð¾ÑĤÐ¿ÑĥÐ½Ð¾Ġ": 6887,
      "vrataĠ": 6888,
      "Komenta": 6889,
      "listaĠ": 6890,
      "Äįeni": 6891,
      "tiÄĩĠ": 6892,
      "Ð³Ð¾Ð´Ð¸Ð½Ð¸Ġ": 6893,
      "ÑĤÑĥÐ¶": 6894,
      "RusijeĠ": 6895,
      "ÐļÐ¾Ñģ": 6896,
      "ÐŁÐ¾Ñģ": 6897,
      "izjavioĠ": 6898,
      "Ð¼Ð¾Ð³Ð°Ð¾Ġ": 6899,
      "OdgĠ": 6900,
      "popula": 6901,
      "sajtuĠ": 6902,
      "srpskeĠ": 6903,
      "ÉĿ": 6904,
      "ÑĤÐ°ÐºÐ²": 6905,
      "avanjemĠ": 6906,
      "Bar": 6907,
      "zivanjeĠ": 6908,
      "regional": 6909,
      "Ð¼Ð¸Ðº": 6910,
      "Ð¸ÑĨÐ¾Ð¼Ġ": 6911,
      "PE": 6912,
      "ÑĦÐ°ÐºÑĤÐ¾ÑĢÐ°Ġ": 6913,
      "miÅ¡i": 6914,
      "poÄįetkuĠ": 6915,
      "inskihĠ": 6916,
      "javljaĠ": 6917,
      "Ð¸Ð¾Ð½Ġ": 6918,
      "EvropiĠ": 6919,
      "Ð°ÐºÐ°Ð´ÐµÐ¼": 6920,
      "moz": 6921,
      "CDĠ": 6922,
      "ÑģÑĤÐ°Ð±Ð¸Ð»": 6923,
      "Ð¾Ð²Ð°Ð½Ð¸ÑħĠ": 6924,
      "ÐĲÐ½Ð´ÑĢ": 6925,
      "Â´Ġ": 6926,
      "edĠ": 6927,
      "ljivaĠ": 6928,
      "IJEĠ": 6929,
      "Itali": 6930,
      "migra": 6931,
      "enikaĠ": 6932,
      "Ð²Ð¸Ð´Ð¸Ġ": 6933,
      "Äįlani": 6934,
      "ÄĳenihĠ": 6935,
      "PrviĠ": 6936,
      "ÑĢÑĥÐ¼": 6937,
      "dodatnoĠ": 6938,
      "goreĠ": 6939,
      "movaĠ": 6940,
      "Ð¸Ð½Ð¾Ð²": 6941,
      "Ð¢Ðµ": 6942,
      "aktivi": 6943,
      "Ð¿Ð¾ÑĤÑĢÐµÐ±ÐµĠ": 6944,
      "Parti": 6945,
      "ÑģÐ¸Ð¼Ð±Ð¾Ð»": 6946,
      "utiÄįuĠ": 6947,
      "Ëĩc": 6948,
      "Ð¿Ð¾ÑģÐµÐ´": 6949,
      "SamoĠ": 6950,
      "stiÄįkihĠ": 6951,
      "pola": 6952,
      "ÑĢÐ°Ð·Ð»Ð¾Ð³Ð°Ġ": 6953,
      "ÑĢÐ°Ð¾Ġ": 6954,
      "ritiĠ": 6955,
      "lizmaĠ": 6956,
      "DrÅ¾": 6957,
      "ÄĩujeĠ": 6958,
      "Ð¿Ð¾ÑģÑĤÑĥÐ¿ÐºÑĥĠ": 6959,
      "Ð¿ÑĢÐ¾Ð±Ð»ÐµÐ¼Ġ": 6960,
      "pul": 6961,
      "Ð³Ð¾Ð´Ð¸ÑĪ": 6962,
      "atiĠ": 6963,
      "NATOĠ": 6964,
      "pmĠ": 6965,
      "Ð¿Ð¾Ð½Ð¾Ð²Ð¾Ġ": 6966,
      "toksi": 6967,
      "Ð¿Ð¾ÑĤÐ¿ÑĥÐ½": 6968,
      "SEĠ": 6969,
      "plu": 6970,
      "Ci": 6971,
      "oÄįu": 6972,
      "penzi": 6973,
      "chi": 6974,
      "DoĠ": 6975,
      "odomĠ": 6976,
      "tiÄįkeĠ": 6977,
      "Ð³Ðµ": 6978,
      "ÑģÑĤÐ°Ð½Ð¾Ð²Ð½Ð¸ÑĪÑĤÐ²Ð°Ġ": 6979,
      "Å¾ioĠ": 6980,
      "ÑĥÑĦ": 6981,
      "ÑĢÐµÐ·ÑĥÐ»ÑĤÐ°ÑĤÐ¸Ġ": 6982,
      "paÅ¾njuĠ": 6983,
      "nedeljeĠ": 6984,
      "Ð¾Ð¿ÑĢÐ¸Ð²ÑĢÐµÐ´": 6985,
      "ÑĥÐºĠ": 6986,
      "ÐĿÐ°Ð¸Ð¼ÐµĠ": 6987,
      "pristupaĠ": 6988,
      "ÑģÑĤÐ°ÑļÐµĠ": 6989,
      "dece": 6990,
      "Ð·Ð°ÑĢ": 6991,
      "Ð´ÑĢÑĥÐ³Ð¾Ð¼Ġ": 6992,
      "Ð¾Ð²Ð¾Ð´": 6993,
      "ispla": 6994,
      "obeleÅ¾": 6995,
      "sluÄįajevaĠ": 6996,
      "Ð·Ð°Ð±ÐµÐ»ÐµÐ¶": 6997,
      "STĠ": 6998,
      "manj": 6999,
      "É«É¤": 7000,
      "ÐºÑĢÐ°ÑĻ": 7001,
      "Ð¾Ð·Ð¾ÑĦ": 7002,
      "ÑĥÐ¿Ð¾ÑĢ": 7003,
      "feĠ": 7004,
      "ÐĴÐ¸Ð´": 7005,
      "rakĠ": 7006,
      "relevan": 7007,
      "ÑģÐ²ÐµÑĤÑĥĠ": 7008,
      "doviĠ": 7009,
      "ÐĪÑĥÐ³Ð¾ÑģÐ»Ð°Ð²Ð¸ÑĺÐµĠ": 7010,
      "Ð¼Ð°ÑĤÐµÑĢÐ¸ÑĺÐ°Ð»Ð°Ġ": 7011,
      "pozicijeĠ": 7012,
      "Ð½Ð¸Ð²Ð¾Ð°Ġ": 7013,
      "godinamaĠ": 7014,
      "Ð¾ÑĪÑĤÐµÑĽ": 7015,
      "naÅ¡egĠ": 7016,
      "Ð¿Ð¾Ð´ÑģÑĤ": 7017,
      "Ð¼ÐµÑĢÐµĠ": 7018,
      "ÑĨÑĢÐºÐ²ÐµĠ": 7019,
      "Com": 7020,
      "TO": 7021,
      "odabra": 7022,
      "jskomĠ": 7023,
      "isprav": 7024,
      "sledeÄĩiĠ": 7025,
      "fudbal": 7026,
      "kosĠ": 7027,
      "septe": 7028,
      "PreĠ": 7029,
      "garan": 7030,
      "tamĠ": 7031,
      "sazna": 7032,
      "torskaĠ": 7033,
      "ÐºÐ¾Ð¼Ð±Ð¸Ð½": 7034,
      "Ð»Ð¸Ð³": 7035,
      "konkre": 7036,
      "Sli": 7037,
      "Ð´Ð¾Ð´Ð°ÑĤ": 7038,
      "ÄįovekaĠ": 7039,
      "dre": 7040,
      "stvarĠ": 7041,
      "Ð°ÑĽÐ¸Ġ": 7042,
      "inova": 7043,
      "plat": 7044,
      "Ð¾ÑĢÐ³Ð°Ð½Ð¸Ð·Ð°ÑĨÐ¸ÑĺÐ°Ġ": 7045,
      "ÐµÐ±ÑĢÑĥ": 7046,
      "praz": 7047,
      "pojaveĠ": 7048,
      "Ð¾Ð²Ð½ÐµĠ": 7049,
      "ÑĺÐµÑĢ": 7050,
      "Ð·Ð½Ð°ÑĩÐµÑļÐ°Ġ": 7051,
      "ÑĥÑĢÐ°Ġ": 7052,
      "Ð´ÐµÐº": 7053,
      "1941Ġ": 7054,
      "TVĠ": 7055,
      "objektaĠ": 7056,
      "minimal": 7057,
      "dobro": 7058,
      "Ð°ÑĢÑħÐ¸ÑĤÐµÐºÑĤ": 7059,
      "preuze": 7060,
      "Ð·Ð½Ð°ÑĩÐµÑļÐµĠ": 7061,
      "Ð¿ÑĢÐ°Ð²Ð¸Ð»Ð°Ġ": 7062,
      "Ð°Ð²Ð½Ð¾Ġ": 7063,
      "ÐĬÐµÐ³": 7064,
      "tivnostiĠ": 7065,
      "Ð¸ÑĤÐµÑĻÐ°Ġ": 7066,
      "Ã¶": 7067,
      "jedinstven": 7068,
      "Ð¿ÐµÑĢÐ¸Ð¾Ð´Ð°Ġ": 7069,
      "Pove": 7070,
      "Ð°Ð½ÐºÐ°Ġ": 7071,
      "ÄįaraĠ": 7072,
      "waĠ": 7073,
      "Ð¿Ð¾ÑģÐ»ÐµÐ´Ð¸ÑĨÐ°Ġ": 7074,
      "Ð¿ÐµÑĤĠ": 7075,
      "Ð´ÐµÑĢ": 7076,
      "Ð½Ð¸ÑĺÐ¸ÑħĠ": 7077,
      "Î²Ġ": 7078,
      "Ð·Ð°ÑĺÐµÐ´Ð½Ð¸ÑĨÐµĠ": 7079,
      "kakavĠ": 7080,
      "DÐĮ": 7081,
      "centarĠ": 7082,
      "klijen": 7083,
      "labora": 7084,
      "jediniĠ": 7085,
      "Br": 7086,
      "ljeni": 7087,
      "Ð´Ð¾Ñģ": 7088,
      "naÅ¡emĠ": 7089,
      "Ð½Ð¸ÐºÐµĠ": 7090,
      "dominan": 7091,
      "(''Ġ": 7092,
      "OnoĠ": 7093,
      "Ð¿ÑĢÐ¾ÑĥÑĩ": 7094,
      "Ð½Ð¾ÑĤ": 7095,
      "ordina": 7096,
      "madaĠ": 7097,
      "zoraĠ": 7098,
      "Ð¾ÑĤÐ¿": 7099,
      "ÐºÐ¸Ñģ": 7100,
      "ÑļÐµÐ¼ÑĥĠ": 7101,
      "mnogiĠ": 7102,
      "ÑģÐµÐ±ÐµĠ": 7103,
      "navodeĠ": 7104,
      "zivanjaĠ": 7105,
      "Ð¾Ð±Ð¸ÑĩÐ½Ð¾Ġ": 7106,
      "ÐºÐ°Ð¿Ð¸ÑĤ": 7107,
      "Ð¿ÑĥÐ±Ð»": 7108,
      "pribli": 7109,
      "puÅ¡t": 7110,
      "ogro": 7111,
      "ÑģÐ°Ñĩ": 7112,
      "integri": 7113,
      "kara": 7114,
      "nizĠ": 7115,
      "Ð´ÑĢÑĥÐ³Ð¾Ð³Ġ": 7116,
      "Ð±Ð¸Ð±Ð»": 7117,
      "Ek": 7118,
      "bezbednostiĠ": 7119,
      "nena": 7120,
      "posloveĠ": 7121,
      "IZ": 7122,
      "Å¾itiĠ": 7123,
      "alterna": 7124,
      "Ð³ÑĢÐ°Ð´Ġ": 7125,
      "utĠ": 7126,
      "ÑģÐ¾ÑĢ": 7127,
      "vazduhaĠ": 7128,
      "Ð¿ÑĢÐ¸Ð¼ÐµÐ½ÐµĠ": 7129,
      "srpskogĠ": 7130,
      "Ð²ÐµÑĢÐ·": 7131,
      "Ð·Ð°ÐºÐ¾Ð½Ð¾Ð´Ð°Ð²": 7132,
      "znaÄįajneĠ": 7133,
      "Gene": 7134,
      "Ð´ÐµÑĤÐ°ÑĻ": 7135,
      "ÑģÐµÐ»Ð°Ġ": 7136,
      "jednojĠ": 7137,
      "ÑĺÐµÐ´Ð½Ð¾ÑģÑĤ": 7138,
      "kanaĠ": 7139,
      "Ð¿ÑĢÐ¸Ð¿Ð¾Ð²": 7140,
      "ljenogĠ": 7141,
      "SSĠ": 7142,
      "Å¡keĠ": 7143,
      "ÑĬ": 7144,
      "ÐľÐµÑĤ": 7145,
      "cito": 7146,
      "osnovneĠ": 7147,
      "Ð¿o": 7148,
      "ÐµÑĢÐµÐ½ÑĨ": 7149,
      "ÏĢ": 7150,
      "Ð¸ÑĤÐ´Ġ": 7151,
      "znaÄįajanĠ": 7152,
      "Ð¸Ð¼Ð°ÑĤÐ¸Ġ": 7153,
      "bazi": 7154,
      "Å¾neĠ": 7155,
      "Ð°Ð¾ÑĨ": 7156,
      "lesĠ": 7157,
      "nekuĠ": 7158,
      "adĠ": 7159,
      "Î»": 7160,
      "ÐĲÑĥÑģÑĤÑĢ": 7161,
      "zorĠ": 7162,
      "Ð¸Ð¼Ð°Ð»Ð¸Ġ": 7163,
      "boĠ": 7164,
      "Ð¿ÑĢÐ¾ÑĪÐ»": 7165,
      "udal": 7166,
      "Ð²Ð°ÑĻ": 7167,
      "alnimĠ": 7168,
      "bisteĠ": 7169,
      "treĠ": 7170,
      "ÐĿÐ¸ÐºÐ¾Ð»": 7171,
      "tamaĠ": 7172,
      "Ð¼Ð¾Ð¶ÐµÐ¼Ð¾Ġ": 7173,
      "naravnoĠ": 7174,
      "Mno": 7175,
      "Ð¿ÐµÑĢÐ¸Ð¾Ð´Ġ": 7176,
      "Å¡tiĠ": 7177,
      "Ap": 7178,
      "inskogĠ": 7179,
      "kupi": 7180,
      "istraÅ¾ivanjeĠ": 7181,
      "ÄįarĠ": 7182,
      "alko": 7183,
      "ÑĢÐ°Ð½Ð¸Ġ": 7184,
      "Ð¸ÑĤÐµÑĤÑĥĠ": 7185,
      "susre": 7186,
      "Ð¸Ð¿Ð°ÐºĠ": 7187,
      "lataĠ": 7188,
      "ÑģÑĢÐ¿ÑģÐºÐ¾Ð¼Ġ": 7189,
      "ostajeĠ": 7190,
      "stiteĠ": 7191,
      "ÑĨÐ¸ÑĻÑĥĠ": 7192,
      "banĠ": 7193,
      "Ð²Ð°Ñĺ": 7194,
      "Per": 7195,
      "Ð²ÐµÑĽÐ°Ġ": 7196,
      "SDĠ": 7197,
      "prostoruĠ": 7198,
      "Ð¾ÑģÐ²Ð¾Ñĺ": 7199,
      "lokalneĠ": 7200,
      "lisĠ": 7201,
      "punoĠ": 7202,
      "smatrajuĠ": 7203,
      "Ð¿Ð°ÑĢÐ°Ð¼ÐµÑĤ": 7204,
      "ranogĠ": 7205,
      "prije": 7206,
      "Ð¾ÑģÑĤÑĢ": 7207,
      "makĠ": 7208,
      "ÑģÐ²Ð°ÐºÐ¸Ġ": 7209,
      "svedo": 7210,
      "tskihĠ": 7211,
      "pristup": 7212,
      "ÑĦÐµÐ±ÑĢÑĥ": 7213,
      "No": 7214,
      "ÑĤÐµÐ¾ÑĢÐ¸Ñĺ": 7215,
      "SadĠ": 7216,
      "stepenaĠ": 7217,
      "ÑĥÐ¼ÐµÑĤÐ½Ð¾ÑģÑĤÐ¸Ġ": 7218,
      "Ã£": 7219,
      "ÐĵÐ¾ÑĢ": 7220,
      "tabeliĠ": 7221,
      "pamaĠ": 7222,
      "este": 7223,
      "sedamĠ": 7224,
      "vita": 7225,
      "ÑģÑĢÐµÐ´Ð¸Ð½ÐµĠ": 7226,
      "pripa": 7227,
      "jev": 7228,
      "sy": 7229,
      "itĠ": 7230,
      "Ð¶ÐµÐ»": 7231,
      "upravljanjeĠ": 7232,
      "boj": 7233,
      "sadrÅ¾eĠ": 7234,
      "Å¡iÄĩĠ": 7235,
      "pokazaliĠ": 7236,
      "mojeĠ": 7237,
      "anuĠ": 7238,
      "ÑĥÑģÐ¿Ð¾ÑģÑĤÐ°Ð²ÑĻ": 7239,
      "Ð¿Ð¾ÐºÐ°Ð·ÑĥÑĺÐµĠ": 7240,
      "rnaĠ": 7241,
      "graniÄį": 7242,
      "objasni": 7243,
      "Ð°Ð´ÑĥĠ": 7244,
      "sekre": 7245,
      "PSĠ": 7246,
      "Ð¿ÑĢÐµÑĤÐ¿Ð¾ÑģÑĤÐ°Ð²": 7247,
      "ÄįnojĠ": 7248,
      "Ð¸Ð²Ð¸Ð´Ñĥ": 7249,
      "simpto": 7250,
      "veliÄįineĠ": 7251,
      "anogĠ": 7252,
      "pokri": 7253,
      "Ð¸Ð½Ð²": 7254,
      "Dok": 7255,
      "sileĠ": 7256,
      "Äįvr": 7257,
      "animĠ": 7258,
      "situacijeĠ": 7259,
      "ralnoĠ": 7260,
      "Åłe": 7261,
      "ÐµÐ¼ÑĻ": 7262,
      "prodav": 7263,
      "podruÄįjaĠ": 7264,
      "nomi": 7265,
      "postignu": 7266,
      "Ð¿Ð¾ÑĢÐ¾Ð´Ð¸ÑĨÐµĠ": 7267,
      "rastvor": 7268,
      "Ð½Ð¾Ð²Ð¸ÑħĠ": 7269,
      "ÐµÐ½Ð¸ÐºĠ": 7270,
      "reduĠ": 7271,
      "ÑħÑĢÐ¸ÑĪÑĽ": 7272,
      "Å¡tvaĠ": 7273,
      "teritorijiĠ": 7274,
      "Ð¾Ð´ÑĢÐµÑĴÐµÐ½ÐµĠ": 7275,
      "dode": 7276,
      "transforma": 7277,
      "Ð¾Ð½Ð¸ÑħĠ": 7278,
      "nosĠ": 7279,
      "prikazaniĠ": 7280,
      "cha": 7281,
      "hrvat": 7282,
      "120Ġ": 7283,
      "ponaÅ¡anjeĠ": 7284,
      "igraĠ": 7285,
      "izvorĠ": 7286,
      "mine": 7287,
      "Ð¿ÑĢÐ¾ÑĪÐ¸ÑĢ": 7288,
      "Ð¿Ð¾ÑģÐ²ÐµÑĽ": 7289,
      "objavlji": 7290,
      "podse": 7291,
      "dobitiĠ": 7292,
      "rujeĠ": 7293,
      "ÑĥÐ¿ÑĥÑĽ": 7294,
      "ogla": 7295,
      "Ð¼ÐµÑĢÐ°Ġ": 7296,
      "ÐµÑĺÑĥĠ": 7297,
      "Ð¼ÐµÑĤÐ¾Ð´Ð°Ġ": 7298,
      "cro": 7299,
      "supĠ": 7300,
      "Ã¼": 7301,
      "ÑĥÐ²ÐµÑĢ": 7302,
      "Ð¶ÑĢÑĤ": 7303,
      "Ð·Ð°Ð»": 7304,
      "Kan": 7305,
      "KOĠ": 7306,
      "blj": 7307,
      "bamaĠ": 7308,
      "Ð´ÐµÐ»Ð°ÑĤ": 7309,
      "ÄįlanovaĠ": 7310,
      "Ð¾Ð²Ð°Ð»Ð°Ġ": 7311,
      "neprija": 7312,
      "miraĠ": 7313,
      "ryĠ": 7314,
      "godiÅ¡njeĠ": 7315,
      "poÄįinjeĠ": 7316,
      "virusaĠ": 7317,
      "reneĠ": 7318,
      "prirodeĠ": 7319,
      "Hu": 7320,
      "DanasĠ": 7321,
      "ÐºÑĢÐ°ÑĺÐ°Ġ": 7322,
      "ÑĥÐ½ÑĥÑĤÐ°ÑĢĠ": 7323,
      "ÑģÑĥÑĪÑĤ": 7324,
      "Ð½Ð°ÑģÐ¸ÑĻ": 7325,
      "uÄįestv": 7326,
      "vaniĠ": 7327,
      "idĠ": 7328,
      "novo": 7329,
      "ÐĳÐµÐ»": 7330,
      "Ð¿ÑĢÐ¾Ð¸Ð·Ð²Ð¾Ð´Ð°Ġ": 7331,
      "spon": 7332,
      "Ð¸ÑĩÐ°ÑĢ": 7333,
      "Ð¸ÑĺÐ¸ÑħĠ": 7334,
      "ÑĢÐ¾ÑĴ": 7335,
      "ÑĩÐ¸Ð¼ÐµĠ": 7336,
      "byĠ": 7337,
      "glasnikĠ": 7338,
      "Ð¼ÐµÑģÐµÑĨ": 7339,
      "gust": 7340,
      "pomog": 7341,
      "sposobnostĠ": 7342,
      "Ð°ÑĥÑĤÐ¾ÑĢ": 7343,
      "dilaĠ": 7344,
      "BO": 7345,
      "Ð´Ð¸Ð¼ÐµÐ½Ð·": 7346,
      "Ð½Ð¾ÑĽ": 7347,
      "jonaĠ": 7348,
      "ÑģÐµÐ»": 7349,
      "ÐºÐ¾Ð½Ð·": 7350,
      "ÑĥÐ»Ġ": 7351,
      "ÑĢÐ°Ð½Ð¸ÑĺÐµĠ": 7352,
      "administra": 7353,
      "Ð¯": 7354,
      "tiraĠ": 7355,
      "janu": 7356,
      "aktuel": 7357,
      "radnikaĠ": 7358,
      "ÄĮa": 7359,
      "relativnoĠ": 7360,
      "geo": 7361,
      "odav": 7362,
      "Ð¿ÑĢÐ°ÐºÑĤ": 7363,
      "ÉŁÉŀ": 7364,
      "Ð·Ð°ÐºÐ¾Ð½Ð°Ġ": 7365,
      "poslednjihĠ": 7366,
      "ÑĻÐ¸Ð²Ð¾Ġ": 7367,
      "najvaÅ¾": 7368,
      "odbraneĠ": 7369,
      "ÐĶÑĢ": 7370,
      "ÑĢÐ°ÑĤĠ": 7371,
      "ÑĤÐ¸ÑħĠ": 7372,
      "popular": 7373,
      "pto": 7374,
      "izraÄįuna": 7375,
      "apsolu": 7376,
      "NIĠ": 7377,
      "postupkaĠ": 7378,
      "ÑĢÐµÑĪÐµÑļÐ°Ġ": 7379,
      "Ð¸Ð·Ð²ÐµÑģ": 7380,
      "ÑĥÐ¼ÑĥĠ": 7381,
      "ÑģÑĤÐ²Ð¾ÑĢ": 7382,
      "ekstrak": 7383,
      "srednjeĠ": 7384,
      "1988Ġ": 7385,
      "Ð¿ÑĢÐ¾ÑĤÐ¸Ð²": 7386,
      "nekomĠ": 7387,
      "dif": 7388,
      "Ð¸ÑģÐ¿Ð¸ÑĤÐ¸Ð²": 7389,
      "Ñķ": 7390,
      "ljivĠ": 7391,
      "Ð¸Ð½ÑĦÐ¾ÑĢÐ¼Ð°ÑĨÐ¸ÑĺÐ°Ġ": 7392,
      "obavezeĠ": 7393,
      "ÐµÐ½Ð³Ð»Ðµ": 7394,
      "ÑĪÐºÐ¾Ð»ÐµĠ": 7395,
      "Ð±ÑĢÐ·Ð¾Ġ": 7396,
      "Ð½o": 7397,
      "Ð¾ÑģÐ¾Ð±Ð°Ġ": 7398,
      "torimaĠ": 7399,
      "Ak": 7400,
      "Mis": 7401,
      "kiselineĠ": 7402,
      "zapa": 7403,
      "ÑļÐ¾ÑĺĠ": 7404,
      "ÑĦÐ»": 7405,
      "formal": 7406,
      "saopÅ¡ti": 7407,
      "ÑĦÐµÐ½": 7408,
      "dnogĠ": 7409,
      "ÑĦÑĥÐ½ÐºÑĨÐ¸Ð¾Ð½": 7410,
      "aniz": 7411,
      "Ð¸ÑģÑĤÐ¸ÑĩÐµĠ": 7412,
      "eksplo": 7413,
      "ÑģÐ°Ð¼Ð¾": 7414,
      "ÑĺÑĥÐ¶": 7415,
      "Ð¸Ð½ÑģÐºÐ¾Ð³Ġ": 7416,
      "Ð´ÐµÐ¼Ð¾ÐºÑĢÐ°ÑĤ": 7417,
      "cipl": 7418,
      "lijeĠ": 7419,
      "Ð¼Ð¸Ð½Ð¸ÑģÑĤÑĢ": 7420,
      "ÑģÐ»ÑĥÑĩÐ°ÑĺĠ": 7421,
      "ÐļÐ¾Ð»": 7422,
      "Crven": 7423,
      "Ð¸ÑĽÐ¸Ġ": 7424,
      "ÉŁÉª": 7425,
      "Ð»Ð¸ÑĨÐµĠ": 7426,
      "kretanjaĠ": 7427,
      "jedinoĠ": 7428,
      "ÐºÐ°Ð¶ÐµĠ": 7429,
      "priÄįa": 7430,
      "krajĠ": 7431,
      "oktobraĠ": 7432,
      "ovanjuĠ": 7433,
      "Ð¾ÑĢÑĴ": 7434,
      "CA": 7435,
      "ÅłtoĠ": 7436,
      "lon": 7437,
      "Å¡Äĩ": 7438,
      "ÐµÐºÐ²Ð°ÑĤ": 7439,
      "ÑģÑĤÐ°ÑļÐ°Ġ": 7440,
      "naÄįel": 7441,
      "ÐŁÐ¾Ð´": 7442,
      "Ð±Ð»Ð°Ð³": 7443,
      "ÑĤÐµÐ»Ð°Ġ": 7444,
      "obavezaĠ": 7445,
      "ÐºÐ¾Ð½Ð°Ñĩ": 7446,
      "Ð¼ÐµÑħÐ°Ð½Ð¸Ð·": 7447,
      "ÑģÐµÐ±Ð¸Ġ": 7448,
      "SrbiĠ": 7449,
      "ÐºÑļÐ¸Ð¶ÐµÐ²Ð½Ð¾ÑģÑĤÐ¸Ġ": 7450,
      "ÐĪÐ¾Ð²Ð°Ð½": 7451,
      "ÑģÑĥÐ´Ð°Ġ": 7452,
      "âĢĴĠ": 7453,
      "litiĠ": 7454,
      "Zav": 7455,
      "centraĠ": 7456,
      "veÄĩinaĠ": 7457,
      "snomĠ": 7458,
      "reÅ¾": 7459,
      "vet": 7460,
      "MinistarstvaĠ": 7461,
      "Äįar": 7462,
      "avajuÄĩiĠ": 7463,
      "Ð¾Ð²Ð½Ð¾Ð³Ġ": 7464,
      "Ð´ÑĥÑĪ": 7465,
      "Ð°Ð½Ð¾ÑģÑĤĠ": 7466,
      "dijeĠ": 7467,
      "yo": 7468,
      "Nje": 7469,
      "kriteriju": 7470,
      "visokoĠ": 7471,
      "medijaĠ": 7472,
      "Ð¾Ð²Ð½Ð¾Ġ": 7473,
      "josĠ": 7474,
      "Ð¾ÑģÐ¸Ð¼Ġ": 7475,
      "napred": 7476,
      "moÅ£eĠ": 7477,
      "Ð±Ð¾Ð»ÐµÑģÑĤÐ¸Ġ": 7478,
      "donosiĠ": 7479,
      "transpor": 7480,
      "Å¾enoĠ": 7481,
      "dnihĠ": 7482,
      "najveÄĩ": 7483,
      "Ð°Ð²Ð°Ð¾Ġ": 7484,
      "specijal": 7485,
      "postojanjeĠ": 7486,
      "GRA": 7487,
      "zioĠ": 7488,
      "sataĠ": 7489,
      "Ð°ÑĤÐ¸Ð²Ð½Ð°Ġ": 7490,
      "ÐļÑĢÐ°ÑĻÐµÐ²": 7491,
      "reakcijeĠ": 7492,
      "onimaĠ": 7493,
      "aluĠ": 7494,
      "ovanjemĠ": 7495,
      "ÑĤÐ°ÐºÐ¼Ð¸Ñĩ": 7496,
      "mskihĠ": 7497,
      "ÐµÐºÑģÐ¿ÐµÑĢÐ¸Ð¼ÐµÐ½ÑĤ": 7498,
      "ÑĥÐºÑĻÑĥÑĩÑĥÑĺÑĥÑĽÐ¸Ġ": 7499,
      "imple": 7500,
      "reguli": 7501,
      "ÄįiliĠ": 7502,
      "inicija": 7503,
      "ÑĥÑģÐ¾Ð±": 7504,
      "Ð²Ð¾ÑĴ": 7505,
      "javnoĠ": 7506,
      "Jan": 7507,
      "ÄĩimaĠ": 7508,
      "proizvodĠ": 7509,
      "Ð°ÑĤÐ¸Ð²Ð½Ð¸ÑħĠ": 7510,
      "sluÄįajevimaĠ": 7511,
      "bes": 7512,
      "poljaĠ": 7513,
      "renuĠ": 7514,
      "novuĠ": 7515,
      "cusĠ": 7516,
      "VasĠ": 7517,
      "obuhvataĠ": 7518,
      "Ð¸ÑĺÑģÐºÐ¸Ð¼Ġ": 7519,
      "LAĠ": 7520,
      "nalĠ": 7521,
      "takavĠ": 7522,
      "sadaÅ¡": 7523,
      "Ð¼Ð°ÑĢÐº": 7524,
      "BE": 7525,
      "ÑĢÐ°Ð½Ġ": 7526,
      "struÄįnja": 7527,
      "ÑģÐ¿Ð¾ÑĢÑĤ": 7528,
      "digital": 7529,
      "Â²Ġ": 7530,
      "kvan": 7531,
      "ÐºÐ¾Ð½ÑĤÐµÐºÑģÑĤÑĥĠ": 7532,
      "Ð½ÐµÑĤ": 7533,
      "Ð¾Ð±Ð¸Ð»": 7534,
      "Ð¸Ð½Ð´Ð¸Ð²Ð¸Ð´Ñĥ": 7535,
      "ÑģÐ°Ð´ÑĢÐ¶Ð¸Ġ": 7536,
      "ÑĦÑĥÐ½ÐºÑĨÐ¸ÑĺÐµĠ": 7537,
      "uri": 7538,
      "ÐŀÑĤ": 7539,
      "isporu": 7540,
      "ÄĳĠ": 7541,
      "racijeĠ": 7542,
      "ÐŁÑĢÐ²Ð¸Ġ": 7543,
      "ÄįasovaĠ": 7544,
      "jedinicaĠ": 7545,
      "Ð²Ð¾Ð´Ð¸Ġ": 7546,
      "dugoĠ": 7547,
      "ÑĤÑĢÐµÑĽ": 7548,
      "ÐĳÐµÑĢ": 7549,
      "smrtiĠ": 7550,
      "skra": 7551,
      "Ð¥ÑĢÐ²Ð°ÑĤ": 7552,
      "uzimaĠ": 7553,
      "dÅ¾": 7554,
      "Ð°Ð´ÐµÐºÐ²Ð°ÑĤ": 7555,
      "anijeĠ": 7556,
      "parla": 7557,
      "For": 7558,
      "Ð¿Ð¾ÑģÑĤÐ°ÑĺÐµĠ": 7559,
      "stanovniÅ¡tvaĠ": 7560,
      "proizvodnjuĠ": 7561,
      "Ð½Ð°ÑĺÐ²Ð¸ÑĪÐµĠ": 7562,
      "Istra": 7563,
      "Ð¡ÑĤÐ°Ð½": 7564,
      "Â¼Ġ": 7565,
      "ÑĥÑĢÐµĠ": 7566,
      "Ð°Ð½ÑģÐºÐ¸Ġ": 7567,
      "knjigeĠ": 7568,
      "okĠ": 7569,
      "knjigaĠ": 7570,
      "Ð´Ð¸Ð¿Ð»": 7571,
      "Äįeka": 7572,
      "dakleĠ": 7573,
      "dogod": 7574,
      "novimĠ": 7575,
      "tineĠ": 7576,
      "svakuĠ": 7577,
      "dobijenihĠ": 7578,
      "uslov": 7579,
      "informi": 7580,
      "odla": 7581,
      "davnoĠ": 7582,
      "Ð¾Ð¿Ð°Ñģ": 7583,
      "avaoĠ": 7584,
      "tral": 7585,
      "odgovoraĠ": 7586,
      "Ð²Ð°Ð·Ð´ÑĥÑħ": 7587,
      "ferĠ": 7588,
      "Ð¸ÑĩÐ½Ð¾ÑģÑĤĠ": 7589,
      "Ð´Ð¾ÑģÑĤÑĥÐ¿": 7590,
      "edu": 7591,
      "Ð¸ÑģÑĤÐ°Ðº": 7592,
      "borav": 7593,
      "Ðºo": 7594,
      "Ð²ÐµÑĽÐµĠ": 7595,
      "trÅ¾iÅ¡taĠ": 7596,
      "ÐĺÑĤÐ°Ð»": 7597,
      "Sch": 7598,
      "menjaĠ": 7599,
      "umetniÄį": 7600,
      "drugojĠ": 7601,
      "Äįini": 7602,
      "hipote": 7603,
      "Ð¿ÑĢÐ¾Ð¸Ð·Ð²Ð¾Ð´ÑļÐµĠ": 7604,
      "Tri": 7605,
      "Ð°ÑĤÑĥĠ": 7606,
      "statusĠ": 7607,
      "ÄĩeneĠ": 7608,
      "Ð¸Ð²Ð°ÑĤÐ¸Ġ": 7609,
      "Ð»ÐµÐ¿": 7610,
      "kine": 7611,
      "Ð¾Ð²Ð°Ð»Ð¸Ġ": 7612,
      "stitiĠ": 7613,
      "teloĠ": 7614,
      "Ð¿ÑĢÐ²Ð¾Ð¼Ġ": 7615,
      "................................": 7616,
      "Ð¿Ð¾Ð±ÐµÐ´": 7617,
      "ÐĺÐ¿Ð°ÐºĠ": 7618,
      "ispredĠ": 7619,
      "amĠ": 7620,
      "ÐºÐ¾ÑĢÐµÐ»": 7621,
      "Ð¿Ð¾Ð´Ð°ÑĨÐ¸Ġ": 7622,
      "ÄįenjuĠ": 7623,
      "ÑĢÐ°Ð·Ð²Ð¾ÑĺÑĥĠ": 7624,
      "ÑģÑĤÐ°Ð½Ð¾Ð²Ð½Ð¸ÐºÐ°Ġ": 7625,
      "Cil": 7626,
      "avioĠ": 7627,
      "Ð½Ð°ÑģÐµÑĻ": 7628,
      "inci": 7629,
      "ÐŁÑĢÐ²": 7630,
      "Skup": 7631,
      "stanuĠ": 7632,
      "pregledĠ": 7633,
      "ograf": 7634,
      "poklo": 7635,
      "Ð¿Ð¾ÑĻÐ¾Ð¿ÑĢÐ¸Ð²ÑĢÐµÐ´": 7636,
      "Ð±Ð»Ð¸Ð·": 7637,
      "manife": 7638,
      "ljenjuĠ": 7639,
      "ÐĲÑĥÑĤ": 7640,
      "naÅ¡ojĠ": 7641,
      "Ð¿Ð¾ÑģÑĤÑĥÐ¿ÐºÐ°Ġ": 7642,
      "inskaĠ": 7643,
      "siro": 7644,
      "proizvodiĠ": 7645,
      "tretmanaĠ": 7646,
      "ÑĩÑĥÐ²": 7647,
      "alkoho": 7648,
      "ÑĢÐ°Ð²Ð¾Ġ": 7649,
      "kontroluĠ": 7650,
      "rup": 7651,
      "Ð¸Ð¾ÑĨÐ°Ġ": 7652,
      "Slov": 7653,
      "ÐµÐºÑģÑĤÑĢ": 7654,
      "linear": 7655,
      "tajuĠ": 7656,
      "SlĠ": 7657,
      "kiselinaĠ": 7658,
      "--": 7659,
      "uskla": 7660,
      "Ã®Ġ": 7661,
      "vlastĠ": 7662,
      "baziĠ": 7663,
      "ÑĩÐ¾Ð²ÐµÐºÐ°Ġ": 7664,
      "reniĠ": 7665,
      "vrednostimaĠ": 7666,
      "venĠ": 7667,
      "gradi": 7668,
      "ÑģÐ¿ÑĢÐµÑĩ": 7669,
      "Ð·Ð½Ð°ÑĩÐ°ÑĺÐ°Ġ": 7670,
      "idejaĠ": 7671,
      "KosovaĠ": 7672,
      "httpsĠ": 7673,
      "politiÄįkeĠ": 7674,
      "bliote": 7675,
      "Ð¿Ð¸ÑĢ": 7676,
      "ÑĥÐ»Ð°ÑĨÐ¸ÑĺÐµĠ": 7677,
      "jenogĠ": 7678,
      "Ð¿Ð¾ÑģÑĤÐ°Ð²ÑĻÐ°Ġ": 7679,
      "pravuĠ": 7680,
      "istomĠ": 7681,
      "ÑĢÐ°Ð·ÑĥÐ¼ÐµÐ²": 7682,
      "poslani": 7683,
      "VladeĠ": 7684,
      "tisĠ": 7685,
      "viÅ¡": 7686,
      "ÄįakaĠ": 7687,
      "VA": 7688,
      "Ð»Ð°Ðº": 7689,
      "ÐºÐ¾Ð¼Ð¿Ð°Ð½": 7690,
      "svakaĠ": 7691,
      "napravi": 7692,
      "algori": 7693,
      "homo": 7694,
      "Ð¸j": 7695,
      "stiÄįkaĠ": 7696,
      "vaneĠ": 7697,
      "test": 7698,
      "bur": 7699,
      "enjuĠ": 7700,
      "staoĠ": 7701,
      "ÐŀÑģÐ½Ð¾Ð²": 7702,
      "ÐĴÐµÐ»Ð¸Ðº": 7703,
      "ÑģÐ½Ð°Ð³ÐµĠ": 7704,
      "oranĠ": 7705,
      "Ð¼ÐµÑĴÑĥÑģÐ¾Ð±": 7706,
      "industrij": 7707,
      "sorĠ": 7708,
      "Ð¾Ð±ÑĥÑħÐ²Ð°ÑĤ": 7709,
      "ovĠ": 7710,
      "izne": 7711,
      "1980Ġ": 7712,
      "Ð¿Ð¾Ð²ÐµÑĢ": 7713,
      "zemljuĠ": 7714,
      "raÄįunĠ": 7715,
      "ÑģÑĥÐ¼": 7716,
      "poslovanjaĠ": 7717,
      "Ð·Ð°ÑģÑĤÑĥÐ¿ÑĻ": 7718,
      "Ð°Ð½ÑģÐºÐµĠ": 7719,
      "deleĠ": 7720,
      "ÑĢÐµÐ¿": 7721,
      "Å¡kolaĠ": 7722,
      "ÑģÐ»Ġ": 7723,
      "ljanjuĠ": 7724,
      "SOĠ": 7725,
      "ÉļÉ¥": 7726,
      "vredeĠ": 7727,
      "Ð¾ÑĻÑĪ": 7728,
      "troĠ": 7729,
      "pojedinihĠ": 7730,
      "Ð¾Ð²Ð½Ð¸Ġ": 7731,
      "ÑĢÐµÐ¿ÑĢÐµÐ·ÐµÐ½ÑĤ": 7732,
      "raditiĠ": 7733,
      "Ð³Ð¾ÑĤÐ¾Ð²Ð¾Ġ": 7734,
      "projekatĠ": 7735,
      "loÅ¡kogĠ": 7736,
      "samimĠ": 7737,
      "prkosĠ": 7738,
      "timoĠ": 7739,
      "Ð¶ÐµÐ½ÐµĠ": 7740,
      "remĠ": 7741,
      "Ð°ÑĤÑĢÐ¸Ñĺ": 7742,
      "hte": 7743,
      "ÑģÐ¸Ð»": 7744,
      "poveÄĩavaĠ": 7745,
      "Å¾enjuĠ": 7746,
      "odgovori": 7747,
      "ÐµÐ½Ð¸ÑĨÐ°Ġ": 7748,
      "hy": 7749,
      "Ð°Ð½ÑģÐºÐ¾Ð³Ġ": 7750,
      "ÐµÑļÐ¸Ð¼Ð°Ġ": 7751,
      "Ð²ÐµÐ»Ð¸ÐºÐµĠ": 7752,
      "ravaĠ": 7753,
      "lizamĠ": 7754,
      "ÑĦÑĥÐ½ÐºÑĨÐ¸ÑĺÐ°Ġ": 7755,
      "ÐµÐ½ÑĤÑĢ": 7756,
      "viÄĩaĠ": 7757,
      "Ð¸ÑĢÐ°ÑĤÐ¸Ġ": 7758,
      "Ð¾Ð³Ð»ÐµÐ´": 7759,
      "ÐµÐ½ÑĤÐ°ÑĢ": 7760,
      "ÑĤÑĢÐµÐ½": 7761,
      "zanim": 7762,
      "Ð½Ð°Ð¼Ġ": 7763,
      "najboljiĠ": 7764,
      "Ð·Ð°ÑĪÑĤÐ¸ÑĤÑĥĠ": 7765,
      "mehaniz": 7766,
      "Ð¿Ð¾ÑĤÐ¾Ð¼Ġ": 7767,
      "zakonĠ": 7768,
      "karcin": 7769,
      "mailĠ": 7770,
      "Ð½ÐµÑģÑĤ": 7771,
      "korakĠ": 7772,
      "Ð°ÑĴÐ°ÑĢ": 7773,
      "tvo": 7774,
      "Ð·Ð°Ð¿Ð¾Ñĩ": 7775,
      "Ð¸Ð½ÑģÐºÐ¸ÑħĠ": 7776,
      "Ð´ÐµÑĺ": 7777,
      "JugoslavijeĠ": 7778,
      "ÑĪÑĥÐ¼": 7779,
      "ÐĿÐµÐº": 7780,
      "ÐļÐ¾Ð´Ġ": 7781,
      "ÐķÐ½": 7782,
      "Ð·Ð°ÑĤÐ¾Ġ": 7783,
      "doprine": 7784,
      "ÐµÑģÐµĠ": 7785,
      "1986Ġ": 7786,
      "menadÅ¾": 7787,
      "Ð¿ÑĢÐ¾ÑģÑĤÐ¾ÑĢĠ": 7788,
      "cionaĠ": 7789,
      "ftĠ": 7790,
      "trebiĠ": 7791,
      "EÐİ": 7792,
      "pruÅ¾aĠ": 7793,
      "temaĠ": 7794,
      "nismoĠ": 7795,
      "Ð¿Ð¾ÑģÑĤÑĥÐ¿Ð°ÐºĠ": 7796,
      "statisti": 7797,
      "ticaĠ": 7798,
      "hap": 7799,
      "Ð¿ÑĢÐ¾ÑģÑĤÐ¾ÑĢÑĥĠ": 7800,
      "Ð·Ġ": 7801,
      "generi": 7802,
      "bez": 7803,
      "ÄįicaĠ": 7804,
      "Ð¸ÑģÑĤÐ¾Ð²ÑĢÐµÐ¼ÐµÐ½Ð¾Ġ": 7805,
      "Ð±ÑĢÐ¾ÑĺÑĥĠ": 7806,
      "discipl": 7807,
      "Ð¿ÑĢÐ¾ÑģÑĤÐ¾ÑĢ": 7808,
      "É«É¬": 7809,
      "Ð¿ÑĢÐ¸Ð·": 7810,
      "kaÅ¾uĠ": 7811,
      "istraÅ¾ivanjuĠ": 7812,
      "ÉļÉª": 7813,
      "simu": 7814,
      "Ð°Ð½Ð´ÑĢ": 7815,
      "miÅ¡ljenjeĠ": 7816,
      "fiko": 7817,
      "tehnologijeĠ": 7818,
      "kompe": 7819,
      "velikuĠ": 7820,
      "ÐµÑĤÐ¸ÑħĠ": 7821,
      "sastojiĠ": 7822,
      "ÐŁÐµÑĢ": 7823,
      "interesaĠ": 7824,
      "ÑĢÐµÑĴ": 7825,
      "Ð¿Ð¾ÑģÑĤÐ°Ð¾Ġ": 7826,
      "saopÅ¡t": 7827,
      "depre": 7828,
      "nove": 7829,
      "obole": 7830,
      "magne": 7831,
      "Ð¸Ð´ÑĢ": 7832,
      "ÐłÐµÐ·ÑĥÐ»ÑĤÐ°ÑĤÐ¸Ġ": 7833,
      "Ð¾Ð¿ÑĤÐ¸Ð¼": 7834,
      "endo": 7835,
      "voduĠ": 7836,
      "wa": 7837,
      "nastaveĠ": 7838,
      "Ð°ÑĤÐ¸Ð²Ð½Ð¾Ð³Ġ": 7839,
      "suÅ¡t": 7840,
      "ÉļÊĥ": 7841,
      "novĠ": 7842,
      "mnogeĠ": 7843,
      "Ð»ÑĥĠ": 7844,
      "oÄįekujeĠ": 7845,
      "ÑĥÐ½Ð°Ð¿ÑĢÐµÑĴ": 7846,
      "jeviĠ": 7847,
      "optimal": 7848,
      "naÅ¡ihĠ": 7849,
      "enimĠ": 7850,
      "licuĠ": 7851,
      "delatnostiĠ": 7852,
      "ÄįinjenicaĠ": 7853,
      "podlo": 7854,
      "É©É¨É": 7855,
      "centri": 7856,
      "Ð´Ð¾ÑĪÐ»Ð¾Ġ": 7857,
      "kance": 7858,
      "É¢É¯Ġ": 7859,
      "Tr": 7860,
      "Ð°ÑģÐº": 7861,
      "ore": 7862,
      "izni": 7863,
      "znajuĠ": 7864,
      "ovanogĠ": 7865,
      "Ð¼ÐµÐ´Ð¸ÑĨ": 7866,
      "SrbaĠ": 7867,
      "ÑĩÐµÑĤÐ²ÑĢ": 7868,
      "samogĠ": 7869,
      "vizu": 7870,
      "javnihĠ": 7871,
      "velikihĠ": 7872,
      "njegovoĠ": 7873,
      "Isto": 7874,
      "mskogĠ": 7875,
      "Ð¿ÑĢÐ¾ÑĨÐµÑģÑĥĠ": 7876,
      "Ð·Ð²Ð°Ð½": 7877,
      "poro": 7878,
      "ÐµÐ½ÑĤÐ°ÑĢĠ": 7879,
      "ÑĩÐ¾Ð²ÐµÐºĠ": 7880,
      "mehaniza": 7881,
      "1987Ġ": 7882,
      "ÑģÐ¿Ð¾ÑĢÐ°Ð·": 7883,
      "pake": 7884,
      "veraĠ": 7885,
      "Stru": 7886,
      "ÑĤÐ¸Ð¼ÐµĠ": 7887,
      "detetaĠ": 7888,
      "ÐµÐ»ÐµÐ¼ÐµÐ½Ð°ÑĤÐ°Ġ": 7889,
      "Ð½Ð¾Ð¼": 7890,
      "tretira": 7891,
      "mneĠ": 7892,
      "zad": 7893,
      "metabo": 7894,
      "Ð´Ð¾ÐºÐ°Ð·": 7895,
      "Ð¾ÑĢÐ¸Ð·": 7896,
      "Ð¸ÑĩÐ½ÑĥĠ": 7897,
      "stiliĠ": 7898,
      "ZakonĠ": 7899,
      "koriÅ¡ÄĩenjemĠ": 7900,
      "hiru": 7901,
      "Ð²Ð°ÑĢÐ¸ÑĺÐ°Ð±": 7902,
      "ÑģÐ¸Ð³ÑĥÑĢ": 7903,
      "Ð³Ð¾Ð²Ð¾ÑĢÐ°Ġ": 7904,
      "Ð´ÑĢÑĥÐ³Ð°Ġ": 7905,
      "MEN": 7906,
      "á¼": 7907,
      "jnogĠ": 7908,
      "vencijaĠ": 7909,
      "htĠ": 7910,
      "Ð³Ð»Ð°Ð³Ð¾Ð»Ð°Ġ": 7911,
      "TEĠ": 7912,
      "Ð±ÐµÑĢ": 7913,
      "cre": 7914,
      "dovimaĠ": 7915,
      "ÑģÑĤÐ¸ÑĤ": 7916,
      "ÑĢÐµÐ»Ð¸Ð³": 7917,
      "serĠ": 7918,
      "Car": 7919,
      "ÐµÐ½Ð¸ÑĨÐµĠ": 7920,
      "stero": 7921,
      "ÄįilaĠ": 7922,
      "Ð¸Ð²Ð°Ð¾Ġ": 7923,
      "demijeĠ": 7924,
      "ÐºÐ¾Ð³Ð°Ġ": 7925,
      "ÐĳÐ¾Ð¶": 7926,
      "MinistarstvoĠ": 7927,
      "zal": 7928,
      "radnogĠ": 7929,
      "mentiĠ": 7930,
      "ÑģÐ¸ÑģÑĤÐµÐ¼ÑĥĠ": 7931,
      "Ð¿ÑĢÐ°Ð²Ð¾ÑģÐ»Ð°Ð²": 7932,
      "snagaĠ": 7933,
      "ministar": 7934,
      "Ð¿ÑĢÐ¸ÑĢÐ¾Ð´ÐµĠ": 7935,
      "tkivaĠ": 7936,
      "Ð¸Ð½ÑĤÐµÐ»": 7937,
      "smanjujeĠ": 7938,
      "ljavaĠ": 7939,
      "ÐºÐ¸ÑħĠ": 7940,
      "ÐĲÑĤ": 7941,
      "disertacijaĠ": 7942,
      "OVI": 7943,
      "Ð½Ð°ÑģĠ": 7944,
      "Ð¸ÑģÐºÐ°Ġ": 7945,
      "ÐºÑĢÐ¸Ð²Ð¸ÑĩÐ½Ð¾Ð³Ġ": 7946,
      "dobiliĠ": 7947,
      "wor": 7948,
      "ÐĿÐŀ": 7949,
      "Ð¾Ð·Ð°Ġ": 7950,
      "ÑģÐ¸Ð½ÑĤ": 7951,
      "muÅ¡kar": 7952,
      "dobraĠ": 7953,
      "ÑģÑĤÑĢÑĥÐºÑĤÑĥÑĢÐµĠ": 7954,
      "SL": 7955,
      "Ð¸ÑĺÐ°Ð»Ð½ÐµĠ": 7956,
      "SaduĠ": 7957,
      "Ð¸ÑĢÐ°Ð½Ð¸ÑħĠ": 7958,
      "ÉļÉ¬": 7959,
      "Ð¡Ð¸Ð¼": 7960,
      "Å¾eleĠ": 7961,
      "poslu": 7962,
      "zapre": 7963,
      "ÐºÐ¾ÑĺÐ¾Ð¼Ġ": 7964,
      "ÐµÐ½Ð¸ÑĨÐ¸Ġ": 7965,
      "Ð·ÐµÐ¼ÑĻÐ°Ð¼Ð°Ġ": 7966,
      "ÐµÐºÑĤÐ¸Ġ": 7967,
      "zasni": 7968,
      "Ð¾Ð´Ð»ÑĥÐºÐ°Ġ": 7969,
      "osnovnihĠ": 7970,
      "Mla": 7971,
      "Ð´ÑĢÐ°Ð¼": 7972,
      "Ð¸ÑģÑĤÑĢÐ¸Ð±": 7973,
      "ugovorĠ": 7974,
      "Ð¼Ð¸ÑģÐ»": 7975,
      "Ð±ÑĥÐ³Ð°ÑĢ": 7976,
      "Ð·Ð°Ð´ÑĢÐ¶": 7977,
      "obro": 7978,
      "ÐµÐ½ÑĤÐ¸Ð¼Ð°Ġ": 7979,
      "________________": 7980,
      "Ð¸Ð¶ÐµĠ": 7981,
      "ovalaĠ": 7982,
      "Ð°Ð²Ð°ÑļÐµÐ¼Ġ": 7983,
      "devi": 7984,
      "ceoĠ": 7985,
      "lim": 7986,
      "voÅ¾": 7987,
      "Ð°Ð»Ð¸Ð·Ð°ÑĨÐ¸ÑĺÐµĠ": 7988,
      "ÑģÐ½Ð¸Ð¼": 7989,
      "sja": 7990,
      "koliÄįineĠ": 7991,
      "Ð·Ð°ÑĥÐ·": 7992,
      "Ð¸ÑĩÐ°ÑĢĠ": 7993,
      "napre": 7994,
      "dateĠ": 7995,
      "Ð±ÑĥÐ´ÑĥĠ": 7996,
      "soli": 7997,
      "izbo": 7998,
      "razlogĠ": 7999,
      "ganjaĠ": 8000,
      "ÐĹÐ°ÑĤ": 8001,
      "izgra": 8002,
      "problemeĠ": 8003,
      "ER": 8004,
      "Ð¾Ð²Ð´ÐµĠ": 8005,
      "nastavnikaĠ": 8006,
      "potrebnaĠ": 8007,
      "Ð¾ÑģÑĤÐ°Ð»Ð¸ÑħĠ": 8008,
      "trak": 8009,
      "javneĠ": 8010,
      "vÅ¡iĠ": 8011,
      "É§É¨É": 8012,
      "Ð°ÑĤÐ¾ÑĢĠ": 8013,
      "Ð¿Ð¾Ð±Ð¾ÑĻÑĪ": 8014,
      "prouÄį": 8015,
      "kojegĠ": 8016,
      "troÅ¡kovaĠ": 8017,
      "biljakaĠ": 8018,
      "ï¬": 8019,
      "komentarĠ": 8020,
      "ÐµÐ¼Ð¾ÑĨ": 8021,
      "FotoĠ": 8022,
      "Ð¿ÑĢÐ°ÑĤ": 8023,
      "ÑĦÐ¾Ð½": 8024,
      "laganjaĠ": 8025,
      "Ð¾ÑĤÐ°Ġ": 8026,
      "stadi": 8027,
      "pozori": 8028,
      "ÑĦÐ¸Ð»Ð¼": 8029,
      "Ð¼ÐµÑĴÑĥÑĤÐ¸Ð¼Ġ": 8030,
      "Ð¸ÑģÑĤÐ¸ÑĩÐºÐ¸ÑħĠ": 8031,
      "Å¾avaĠ": 8032,
      "ÐĸÐ¸Ð²": 8033,
      "baveĠ": 8034,
      "Ð¡ÑĤÐµÑĦ": 8035,
      "Ð¿ÑĢÐµÐ´Ð¼ÐµÑĤĠ": 8036,
      "malaĠ": 8037,
      "Ð¿ÑĢÐ²ÐµĠ": 8038,
      "valeĠ": 8039,
      "zavi": 8040,
      "É¢É¬": 8041,
      "oÅ¡teÄĩenjaĠ": 8042,
      "ÐµÑĢÐ²": 8043,
      "telĠ": 8044,
      "coĠ": 8045,
      "diferen": 8046,
      "druguĠ": 8047,
      "Lon": 8048,
      "stil": 8049,
      "ÑĺÐ¾ÑĺĠ": 8050,
      "ÐĳÐ»": 8051,
      "Ð°Ð¶ÑĥĠ": 8052,
      "Ð¸ÑģÐ°ÑļÐ°Ġ": 8053,
      "zemljaĠ": 8054,
      "aeĠ": 8055,
      "ÐµÑĦÐ¸ÑĨÐ¸Ñĺ": 8056,
      "withĠ": 8057,
      "internetĠ": 8058,
      "cyĠ": 8059,
      "mehani": 8060,
      "Ð³ÑĢÐ°ÑĦ": 8061,
      "sniciĠ": 8062,
      "Gu": 8063,
      "uljaĠ": 8064,
      "ovlaÅ¡Äĩen": 8065,
      "kapitalaĠ": 8066,
      "ÐºÑļÐ¸Ð³Ð°Ġ": 8067,
      "ÑĥÐ±Ġ": 8068,
      "ovakoĠ": 8069,
      "kriti": 8070,
      "emĠ": 8071,
      "00": 8072,
      "Ð¿Ð¾ÑģÑĤÐ¸Ð³": 8073,
      "ÐĿÐ¾Ð²Ð¸Ġ": 8074,
      "Ð¸ÑıĠ": 8075,
      "Ð´Ð¸Ð·": 8076,
      "Ð¾Ð·ÐµĠ": 8077,
      "anijaĠ": 8078,
      "UzĠ": 8079,
      "omogu": 8080,
      "ÐºÐ²Ð°Ġ": 8081,
      "ÑĨÐ¸ÑĤ": 8082,
      "sanaĠ": 8083,
      "âĢ¡Ġ": 8084,
      "ÑģÑĤÑĥÐ´Ð¸ÑĺÐµĠ": 8085,
      "uÄī": 8086,
      "zivaĠ": 8087,
      "ÐºÐ¸Ð½": 8088,
      "vanred": 8089,
      "rioĠ": 8090,
      "Para": 8091,
      "komentari": 8092,
      "razmatra": 8093,
      "PriĠ": 8094,
      "terapijeĠ": 8095,
      "fazaĠ": 8096,
      "Ð¾Ð²Ð°Ð½Ð¾Ġ": 8097,
      "ÑĩÐµÑģÑĤ": 8098,
      "dolaraĠ": 8099,
      "Ð³ÑĢÑĥÐ¿Ð¸Ġ": 8100,
      "kategorijeĠ": 8101,
      "Ð¾ÑģÐµĠ": 8102,
      "ljivihĠ": 8103,
      "daliĠ": 8104,
      "ÑĢÑĥÐºÑĤÑĥÑĢ": 8105,
      "Ð°Ð»Ð½Ð¾ÑĺĠ": 8106,
      "bliz": 8107,
      "dinĠ": 8108,
      "Ð¿ÑĢÐ°ÐºÑģÐ¸Ġ": 8109,
      "Ð¿ÑĢÐ¸Ð¿ÑĢÐµÐ¼": 8110,
      "zahva": 8111,
      "supru": 8112,
      "atmo": 8113,
      "dovaĠ": 8114,
      "ÐĽĠ": 8115,
      "Ð¼Ð°ÐºÑģÐ¸Ð¼": 8116,
      "Ð°Ð²Ð°ÑĺÑĥÑĽÐ¸Ġ": 8117,
      "graniceĠ": 8118,
      "Ð²ÑĢÑħ": 8119,
      "kostiĠ": 8120,
      "pratiĠ": 8121,
      "DA": 8122,
      "ÑĥÑĺÑĥÑĽ": 8123,
      "ÉļÉľ": 8124,
      "Ð°ÑĩÐºÐ¸ÑħĠ": 8125,
      "direktorĠ": 8126,
      "llĠ": 8127,
      "ÑģÐ°Ð´ÑĢÐ¶Ð°ÑĺÐ°Ġ": 8128,
      "ÐĳÐ¾ÑĢ": 8129,
      "selaĠ": 8130,
      "Ð»Ð°ÑĪÑĽ": 8131,
      "Ð¿ÑĢÐ¸ÑĺÐ°ÑĤÐµÑĻ": 8132,
      "priÄįeĠ": 8133,
      "Ð°ÑĪÐ°Ġ": 8134,
      "ÐµÑĪÑĽ": 8135,
      "uspeÅ¡noĠ": 8136,
      "her": 8137,
      "Ð¡ÑĤÑĢ": 8138,
      "OviĠ": 8139,
      "zara": 8140,
      "izmen": 8141,
      "strujeĠ": 8142,
      "gleĠ": 8143,
      "ÐµÐ²ÑĥĠ": 8144,
      "desetihĠ": 8145,
      "jednostavnoĠ": 8146,
      "SluÅ¾b": 8147,
      "ÐµÐ¿Ð¸ÑģÐº": 8148,
      "Por": 8149,
      "zvu": 8150,
      "Ad": 8151,
      "zacijuĠ": 8152,
      "kontekstuĠ": 8153,
      "ÑĥÑĤÐ²ÑĢÐ´": 8154,
      "ÐµÐ´ÐµÑĢ": 8155,
      "avgu": 8156,
      "kvadra": 8157,
      "NaravnoĠ": 8158,
      "ÐķÐ»": 8159,
      "Ð¿ÑĢÐµÐ´Ð¼ÐµÑĤ": 8160,
      "Ð¿Ð¾ÐºÐ°Ð·ÑĥÑĺÑĥĠ": 8161,
      "ÑģÐ°Ð½": 8162,
      "Ð´Ð¾Ð±Ð°Ġ": 8163,
      "ventu": 8164,
      "Ð¿ÑĢÐ¸Ð·Ð½": 8165,
      "ÐµÐ½ÐµÑĢÐ³Ð¸ÑĺÐµĠ": 8166,
      "mnoĠ": 8167,
      "objaÅ¡njen": 8168,
      "ÑĢÐ°Ð±": 8169,
      "Ð¾Ð±ÑĻ": 8170,
      "dap": 8171,
      "odlukuĠ": 8172,
      "ljujuĠ": 8173,
      "stioĠ": 8174,
      "Ð¾Ð´ÑĢÐ¶Ð¸Ð²": 8175,
      "ÑļÐµÐ³Ð¾Ð²Ð¾Ġ": 8176,
      "aj": 8177,
      "Vred": 8178,
      "aninĠ": 8179,
      "Ð´Ð¸ÑĺÐ°Ð»": 8180,
      "slov": 8181,
      "kogni": 8182,
      "Ð½ÐµÐºÐ¸Ð¼Ġ": 8183,
      "voza": 8184,
      "ralneĠ": 8185,
      "naprav": 8186,
      "zaustav": 8187,
      "znogĠ": 8188,
      "Ð²Ð¸Ñĺ": 8189,
      "bavĠ": 8190,
      "ÑĢÐ°Ð´Ð¸Ð¾Ġ": 8191,
      "podrÅ¾": 8192,
      "ldĠ": 8193,
      "Ã¬": 8194,
      "Ð±ÑĥĠ": 8195,
      "ÑĤÐµÑĢÐ½": 8196,
      "veÅ¾": 8197,
      "druÅ¡tveneĠ": 8198,
      "brzineĠ": 8199,
      "govaĠ": 8200,
      "kontinui": 8201,
      "Ð´ÑĢÑĥÐ³Ð°Ñĩ": 8202,
      "onajĠ": 8203,
      "jugosl": 8204,
      "ÑĥÐ¿ÑĢÐ°Ð²ÐµĠ": 8205,
      "Ð°Ð±ÑĢ": 8206,
      "nijimĠ": 8207,
      "ÐŁÐ¾Ð²": 8208,
      "vaÅ¡eĠ": 8209,
      "Ð¿Ð¾ÑģÑĤÐ¾ÑĺÐ°ÑļÐµĠ": 8210,
      "ÐµÑĢÑĨÐµÐ³": 8211,
      "mana": 8212,
      "promo": 8213,
      "Ð¸ÑĽÑĥĠ": 8214,
      "druÅ¡tvuĠ": 8215,
      "konferen": 8216,
      "ï¿½ï¿½": 8217,
      "Ð¸Ð½Ð´Ð¸Ðº": 8218,
      "zainteres": 8219,
      "Har": 8220,
      "institucijaĠ": 8221,
      "spolja": 8222,
      "usva": 8223,
      "kritiÄį": 8224,
      "demĠ": 8225,
      "radio": 8226,
      "ulogaĠ": 8227,
      "kuÄĩiĠ": 8228,
      "ÑĺÑĥÐ³": 8229,
      "Ð¿Ð¾ÑĩÐµÑĤÐºÑĥĠ": 8230,
      "Ð¸ÑģÐ¿ÑĥÑļ": 8231,
      "bar": 8232,
      "Ð²Ð»Ð°Ñģ": 8233,
      "Ð³Ð²": 8234,
      "vanjimaĠ": 8235,
      "ekonomskeĠ": 8236,
      "materijalĠ": 8237,
      "diskri": 8238,
      "1985Ġ": 8239,
      "sinaĠ": 8240,
      "Ð½ÐµÐ¶": 8241,
      "taÄįnoĠ": 8242,
      "prodajeĠ": 8243,
      "kovimaĠ": 8244,
      "teljimaĠ": 8245,
      "povolj": 8246,
      "ÐĲÐ½ÑĤ": 8247,
      "tostiĠ": 8248,
      "testaĠ": 8249,
      "Ð¾Ð¿Ð¸ÑģĠ": 8250,
      "putovanjaĠ": 8251,
      "DS": 8252,
      "prakseĠ": 8253,
      "naÅ¡uĠ": 8254,
      "Ð¿ÑĢÐµÑĥÐ·": 8255,
      "fabri": 8256,
      "Miha": 8257,
      "Ð·Ð°Ð²Ð¸ÑģÐ½Ð¾ÑģÑĤÐ¸Ġ": 8258,
      "Ð¾Ð¼ÐµÑĤÑĢ": 8259,
      "proceneĠ": 8260,
      "ÊĤ": 8261,
      "ÑĢÐ°Ð·Ð¼": 8262,
      "Ð¿ÑĢÐ°Ð²ÑĥĠ": 8263,
      "sal": 8264,
      "Ð¡ÑĢÐ±Ð¸ÑĺÐ°Ġ": 8265,
      "dogaÄĳajaĠ": 8266,
      "primenaĠ": 8267,
      "prenosiĠ": 8268,
      "Ð¸Ð½Ð²ÐµÑģÑĤ": 8269,
      "Agen": 8270,
      "as": 8271,
      "odbi": 8272,
      "Ð¿ÑĢÐµÑĨÐ¸Ð·": 8273,
      "eteĠ": 8274,
      "ÑļÐ¸ÑħÐ¾Ð²Ð¾Ð³Ġ": 8275,
      "Ð¿Ð¾Ð·Ð¾ÑĢ": 8276,
      "metalaĠ": 8277,
      "ÐµÑħĠ": 8278,
      "bitnoĠ": 8279,
      "septembraĠ": 8280,
      "ÑģÐ¾Ð½": 8281,
      "tel": 8282,
      "tetomĠ": 8283,
      "Ð·Ð°ÑĤÐ²Ð¾ÑĢ": 8284,
      "ÐłÐĲ": 8285,
      "komunikacijeĠ": 8286,
      "TSĠ": 8287,
      "sad": 8288,
      "doÄĳeĠ": 8289,
      "PRI": 8290,
      "Ð¸ÑĢÐ°ÑļÑĥĠ": 8291,
      "ÐºÐ°ÑĢÐ°ÐºÑĤÐµÑĢÐ¸ÑģÑĤÐ¸ÐºÐµĠ": 8292,
      "kompozi": 8293,
      "populacijeĠ": 8294,
      "karĠ": 8295,
      "ÑģÐ²ÐµÑĤÑģÐºÐ¾Ð³Ġ": 8296,
      "podruÄįjuĠ": 8297,
      "proizvodeĠ": 8298,
      "Ð¿ÑĢÐ¸Ð»Ð°Ð³": 8299,
      "%).Ġ": 8300,
      "vladaĠ": 8301,
      "Ð½Ð°Ð·Ð¸Ð²Ð°Ġ": 8302,
      "ÑĢÐ°ÑģÑĤÐ°Ġ": 8303,
      "ÑĤÑĢÐ°Ð³": 8304,
      "ÐľÐ¸Ð½Ð¸ÑģÑĤÐ°ÑĢ": 8305,
      "DokĠ": 8306,
      "intenziv": 8307,
      "Ð¸Ð±ÑĢ": 8308,
      "njihovuĠ": 8309,
      "opremeĠ": 8310,
      "Ð²ÐµÐºÑĥĠ": 8311,
      "govoruĠ": 8312,
      "Ð³ÑĢÐµÑĪ": 8313,
      "Å¾ivotinjaĠ": 8314,
      "renoĠ": 8315,
      "Ð³Ð»ÑĥÐ¼": 8316,
      "stiÄįkogĠ": 8317,
      "rezultatimaĠ": 8318,
      "delomĠ": 8319,
      "Å¡iromĠ": 8320,
      "autor": 8321,
      "Ð¸Ð·Ð²ÐµÐ´": 8322,
      "Ð½ÐµÑĽÐµĠ": 8323,
      "odvo": 8324,
      "dakĠ": 8325,
      "Ð¸Ð·Ð±ÐµÐ³": 8326,
      "Ð°Ð½Ð°Ð»": 8327,
      "Ð¼ÑĥÑĪÐºÐ°ÑĢ": 8328,
      "canĠ": 8329,
      "ÑĥÐ¿ÑĢÐ°Ð²ÑĻÐ°ÑļÐ°Ġ": 8330,
      "Ð¸Ð½ÑģÐºÐ°Ġ": 8331,
      "Ð¼Ð°Ð»Ð¾Ġ": 8332,
      "osamĠ": 8333,
      "Ð½Ð¸Ð·": 8334,
      "ÐµÐ½ÑĤÑĥĠ": 8335,
      "Ex": 8336,
      "tskaĠ": 8337,
      "prom": 8338,
      "Ð¸ÑĺÐµÐ¼Ġ": 8339,
      "kapi": 8340,
      "ÐľÐ¾ÑĢ": 8341,
      "ingaĠ": 8342,
      "povi": 8343,
      "ÑģÐ²ÐµÑĤĠ": 8344,
      "Petr": 8345,
      "Ð¾Ð´Ð»ÑĥÐºÐµĠ": 8346,
      "ÑģÐºÐ¾ÑĢÐ¾Ġ": 8347,
      "iste": 8348,
      "Ð·Ð²Ġ": 8349,
      "É¢É¦": 8350,
      "ÐľÐ°ÐºÐµÐ´Ð¾Ð½": 8351,
      "ace": 8352,
      "vezuĠ": 8353,
      "Ð³Ð¾Ð´Ð¸Ð½ÑĥĠ": 8354,
      "Ð¿Ð¾ÑĺÐ°Ð²ÑĻ": 8355,
      "Ð½Ð¾": 8356,
      "Ð¸Ð¼Ð¾Ð²": 8357,
      "novoĠ": 8358,
      "Dal": 8359,
      "veÄįe": 8360,
      "jskuĠ": 8361,
      "queĠ": 8362,
      "francu": 8363,
      "VOĠ": 8364,
      "Ð³ÑĢÑĩ": 8365,
      "ÑĥÐ¿Ð¾ÑĤÑĢÐµÐ±ÐµĠ": 8366,
      "stavoveĠ": 8367,
      "Ð¾Ð¿Ð¸ÑģÐ°Ġ": 8368,
      "top": 8369,
      "republi": 8370,
      "uÄįenjaĠ": 8371,
      "izloÅ¾en": 8372,
      "UD": 8373,
      "Ð°ÑĩÐºÐ¾Ð¼Ġ": 8374,
      "strankeĠ": 8375,
      "dobaĠ": 8376,
      "ÑĥÐ»ÐµĠ": 8377,
      "ÑģÐ°Ð¾Ð±ÑĢÐ°ÑĽ": 8378,
      "ÑĢÑĥÐ´": 8379,
      "estĠ": 8380,
      "slaĠ": 8381,
      "putuĠ": 8382,
      "hin": 8383,
      "povrÅ¡inaĠ": 8384,
      "ÑĺÐµÐ´Ð½Ð°Ñĩ": 8385,
      "Ð´Ð¸Ð½Ð°Ð¼": 8386,
      "Ð²ÐµÐ½ÑĨÐ¸ÑĺÐµĠ": 8387,
      "jediniceĠ": 8388,
      "Ð¿Ð¾ÑĺÐ¼": 8389,
      "Ð¿ÑĢÐ²Ð¾Ð³Ġ": 8390,
      "CIĠ": 8391,
      "uku": 8392,
      "ÊĦ": 8393,
      "nikadĠ": 8394,
      "Äĳar": 8395,
      "Ð¿Ð¾Ð´ÑĢÑĥÑĩÑĺÐ°Ġ": 8396,
      "Kr": 8397,
      "Ð¸Ð·Ð½Ð¾ÑģÐ¸Ġ": 8398,
      "frak": 8399,
      "laborato": 8400,
      "Ð°ÑĢÐµĠ": 8401,
      "Ð½Ð¾Ð²Ð°Ġ": 8402,
      "Ð¸ÑĪĠ": 8403,
      "ispitivanjeĠ": 8404,
      "enti": 8405,
      "Å¡avanjaĠ": 8406,
      "morĠ": 8407,
      "hodĠ": 8408,
      "mladihĠ": 8409,
      "Ð¸ÑĺÐµÑĢ": 8410,
      "Ð¡ÑĤÐ¾Ñĺ": 8411,
      "É¨Êģ": 8412,
      "ÑĺÐµÐ´Ð¸Ð½ÑģÑĤÐ²": 8413,
      "spra": 8414,
      "odsu": 8415,
      "Ð±ÐµÐ·Ð±ÐµÐ´Ð½Ð¾ÑģÑĤÐ¸Ġ": 8416,
      "stvenoĠ": 8417,
      "ekonomskiĠ": 8418,
      "centruĠ": 8419,
      "prostor": 8420,
      "Ð¾Ð´Ð¸ÑĪ": 8421,
      "stiÄįuĠ": 8422,
      "ljenimĠ": 8423,
      "moÄĩ": 8424,
      "Ð°Ð²ÑĻÐ°ÑļÐµĠ": 8425,
      "ministarĠ": 8426,
      "tokĠ": 8427,
      "druÅ¡tvenihĠ": 8428,
      "istakaoĠ": 8429,
      "staloĠ": 8430,
      "ÑĢÐµÑĦÐ¾ÑĢÐ¼": 8431,
      "ÑģÑĤÐµÐ¿ÐµÐ½Ġ": 8432,
      "Ð°ÑĩÐºÐ¾ÑĺĠ": 8433,
      "Ð¿Ð¾Ð»Ð¸ÑĤÐ¸ÑĩÐºÐµĠ": 8434,
      "snaÅ¾": 8435,
      "pokrenu": 8436,
      "olĠ": 8437,
      "ÑĤÐ·Ð²Ġ": 8438,
      "perspek": 8439,
      "jkeĠ": 8440,
      "skupĠ": 8441,
      "meti": 8442,
      "otpo": 8443,
      "temperaturaĠ": 8444,
      "OveĠ": 8445,
      "akcijaĠ": 8446,
      "koman": 8447,
      "ÐīÑĥÐ±": 8448,
      "rasteĠ": 8449,
      "inostran": 8450,
      "Grad": 8451,
      "poÄįeoĠ": 8452,
      "ÐŀÐ»": 8453,
      "delovaĠ": 8454,
      "Ð·Ð°Ð¿ÑĢÐ°Ð²Ð¾Ġ": 8455,
      "ÑļÐ¾Ð¼Ġ": 8456,
      "doÄĩiĠ": 8457,
      "pogo": 8458,
      "poreÄĳenjuĠ": 8459,
      "Ã©Ġ": 8460,
      "poslediceĠ": 8461,
      "Ð¡Ð¿": 8462,
      "obaveÅ¡t": 8463,
      "Ð°ÑĤÐµÑĢ": 8464,
      "Ð¿ÑĢÐ°ÑĽ": 8465,
      "Ð¾Ð±Ð»Ð¸ÐºÑĥĠ": 8466,
      "Ð¼ÐµÑĤÐ¾Ð´ÐµĠ": 8467,
      "figu": 8468,
      "ÑĥÐ³ÑĢ": 8469,
      "Ð¸ÐºÑĤ": 8470,
      "Odlu": 8471,
      "Ð¿Ð¾ÑĤÐ¿Ð¸Ñģ": 8472,
      "Ð¸Ð³Ð¸Ð½": 8473,
      "istraÅ£i": 8474,
      "Ð¾ÑĤÑĢ": 8475,
      "ÐĵÐ»": 8476,
      "ÑĢÐ¸Ð·Ð¸ÐºÐ°Ġ": 8477,
      "Ð¾Ð±Ð¸ÑĩÐ°Ñĺ": 8478,
      "Ð½Ð¾Ð¿ÑĢÐ°Ð²": 8479,
      "ÑĺÐµÐ´Ð½Ð°Ðº": 8480,
      "propu": 8481,
      "plod": 8482,
      "Ð¸ÑģÐ°ÐºĠ": 8483,
      "ÑĺÐ°Ð²ÑĻÐ°Ġ": 8484,
      "ljatiĠ": 8485,
      "zadatakĠ": 8486,
      "Ð´Ð¸Ð²": 8487,
      "Ð¾Ð½Ð¾Ð¼Ġ": 8488,
      "Ð¸ÑĢÐµĠ": 8489,
      "Ð¾Ð´ÐµÑĻ": 8490,
      "RusijaĠ": 8491,
      "panĠ": 8492,
      "1984Ġ": 8493,
      "SrpskeĠ": 8494,
      "1981Ġ": 8495,
      "okup": 8496,
      "vaÄįaĠ": 8497,
      "podu": 8498,
      "Ð»Ð¾Ð²": 8499,
      "interv": 8500,
      "Å¾enihĠ": 8501,
      "ÑĦÐ¸Ð»Ð¼Ġ": 8502,
      "Doda": 8503,
      "Ð¼Ð¸ÐºÑĢ": 8504,
      "Ð¼Ð¾ÑĢÐ°ÑĺÑĥĠ": 8505,
      "zatiĠ": 8506,
      "glĠ": 8507,
      "jskoĠ": 8508,
      "fakultetĠ": 8509,
      "jiteĠ": 8510,
      "Ð½Ð°ÑĺÐ²ÐµÑĽÐ¸Ġ": 8511,
      "istogĠ": 8512,
      "nationalĠ": 8513,
      "Ð¾Ð²ÑĺÐµÑĤ": 8514,
      "Ð¿ÑĢÐµÑĢ": 8515,
      "ÐĴÑĥÐº": 8516,
      "Ð¿ÐµÐ²": 8517,
      "tehnologijaĠ": 8518,
      "ÑĥÑĤÐ¸ÑĩÐµĠ": 8519,
      "Meto": 8520,
      "Ð¸ÑģÑĤÐ¾Ð¼Ġ": 8521,
      "ÑĢÐ°Ð·Ġ": 8522,
      "Å¡enjuĠ": 8523,
      "takveĠ": 8524,
      "Ð°ÑģÐºÐ°Ġ": 8525,
      "ÑĢÐ¸Ð¼": 8526,
      "komponenteĠ": 8527,
      "linijeĠ": 8528,
      "Ð¸Ð²Ð°ÑļÐµÐ¼Ġ": 8529,
      "ÐĺÐĪ": 8530,
      "ÐµÐ³Ð·": 8531,
      "ÐĺÐ¼": 8532,
      "Sav": 8533,
      "radiliĠ": 8534,
      "nazivaĠ": 8535,
      "ÑģÐ°ÑĢĠ": 8536,
      "âĢķĠ": 8537,
      "ÐµÐ´Ð°Ġ": 8538,
      "znihĠ": 8539,
      "tranzi": 8540,
      "opÅ¡tineĠ": 8541,
      "kop": 8542,
      "poÄįelaĠ": 8543,
      "ÑļÐµÐ½Ġ": 8544,
      "skladi": 8545,
      "taÄįkeĠ": 8546,
      "Å¾emoĠ": 8547,
      "Ð´Ð¾Ð²Ð¾ÑĻÐ½Ð¾Ġ": 8548,
      "Ð²ÑĢÐ°ÑĤ": 8549,
      "ÑļÐ¸ÑħÐ¾Ð²Ġ": 8550,
      "lakÅ¡eĠ": 8551,
      "vinaĠ": 8552,
      "Fil": 8553,
      "ÑĦÐ¾ÑĤ": 8554,
      "celokup": 8555,
      "jugosloven": 8556,
      "Ð¡Ð¢": 8557,
      "linijaĠ": 8558,
      "odgovornostĠ": 8559,
      "ÑģÑĤÑĢÐ°Ð½Ð¸Ġ": 8560,
      "ÉªÉŁÉ": 8561,
      "ÑļÐµÐ³Ġ": 8562,
      "Ð²ÑĢÑĪÐ¸Ġ": 8563,
      "vremenoĠ": 8564,
      "Ð¾ÑģÐ¿Ð¾Ð´": 8565,
      "KoĠ": 8566,
      "Ð¾ÑĩÑĥÐ²": 8567,
      "ÑģÐ²ÐµÐ´Ð¾Ñĩ": 8568,
      "ÑħÑĥÐ¼": 8569,
      "Ð¾ÑģÐ½Ð¸Ð²": 8570,
      "idaĠ": 8571,
      "ÑĢÐµÑĽÐ¸Ġ": 8572,
      "sekven": 8573,
      "Ð¿Ð¾Ð½Ð°ÑĪÐ°ÑļÐ°Ġ": 8574,
      "strukturuĠ": 8575,
      "svimaĠ": 8576,
      "Ð½ÐµÐ¾Ð¿ÑħÐ¾Ð´Ð½Ð¾Ġ": 8577,
      "Uti": 8578,
      "teÅ¾eĠ": 8579,
      "protek": 8580,
      "Ð¾ÑĢÐ³Ð°Ð½Ð°Ġ": 8581,
      "funkcijuĠ": 8582,
      "Ð¿Ð¾ÑĤÑĢÐµÐ±Ð°Ġ": 8583,
      "ÑģÑĤÐ¸Ð»": 8584,
      "Ð¿Ð¾ÑĢÐµ": 8585,
      "odreÄĳeniĠ": 8586,
      "Ð·ÐµÐ¼ÑĻÐ¸ÑĪÑĤÐ°Ġ": 8587,
      "realiz": 8588,
      "Lj": 8589,
      "Val": 8590,
      "PredsednikĠ": 8591,
      "DrugiĠ": 8592,
      "jiÄĩĠ": 8593,
      "Glav": 8594,
      "Ov": 8595,
      "des": 8596,
      "uÄįin": 8597,
      "ÑļÐµÐ¼Ġ": 8598,
      "demokra": 8599,
      "JE": 8600,
      "uÄįeÅ¡ÄĩeĠ": 8601,
      "uklo": 8602,
      "Ð½ÐµÐ´Ð¾ÑģÑĤÐ°ÑĤ": 8603,
      "odluÄįi": 8604,
      "autoriĠ": 8605,
      "pritisakĠ": 8606,
      "Ð¼Ð¾Ð¼": 8607,
      "morfo": 8608,
      "Ð´Ð¾Ð½Ð¾ÑĪ": 8609,
      "ovacĠ": 8610,
      "ÑģÐ°Ð³Ð»ÐµÐ´": 8611,
      "Ð´Ð¾ÐºÑĤÐ¾ÑĢ": 8612,
      "temeĠ": 8613,
      "Sme": 8614,
      "zaÅ¡titiĠ": 8615,
      "Pravil": 8616,
      "ÑģÐ¸Ð³Ð½": 8617,
      "upotrebaĠ": 8618,
      "Ð°Ð²Ð³ÑĥÑģÑĤ": 8619,
      "priprem": 8620,
      "ÑĥÐ´Ð¸Ġ": 8621,
      "Ð²Ð¸Ð´ÐµÑĤÐ¸Ġ": 8622,
      "led": 8623,
      "dimenzi": 8624,
      "termin": 8625,
      "Slob": 8626,
      "soci": 8627,
      "cegov": 8628,
      "presu": 8629,
      "can": 8630,
      "larneĠ": 8631,
      "Ð¾Ð²Ð»Ð°ÑĪÑĽ": 8632,
      "suo": 8633,
      "Ð°Ð½Ð³Ð°Ð¶": 8634,
      "Ð³ÑĥÐ±Ð¸ÑĤ": 8635,
      "Â·Ġ": 8636,
      "ranimĠ": 8637,
      "sreÄĩ": 8638,
      "stv": 8639,
      "pouzdan": 8640,
      "miÅ¡ljenjaĠ": 8641,
      "ÑĺÐµÑģ": 8642,
      "Nacional": 8643,
      "eviden": 8644,
      "Nov": 8645,
      "Ð¿Ð¾ÑģÐ¼Ð°ÑĤÑĢ": 8646,
      "njegovomĠ": 8647,
      "ANJEĠ": 8648,
      "Ð¾Ð»Ð¾ÑĪÐºÐ¾Ð³Ġ": 8649,
      "apara": 8650,
      "tijeĠ": 8651,
      "zadrÅ¾": 8652,
      "mreÅ¾aĠ": 8653,
      "staleĠ": 8654,
      "vaÄįĠ": 8655,
      "DNKĠ": 8656,
      "Ð¸Ð²Ð°Ð»": 8657,
      "ostalimĠ": 8658,
      "iznena": 8659,
      "cnoĠ": 8660,
      "ÐºÐ¾Ð¼Ð°Ð½Ð´": 8661,
      "zamen": 8662,
      "stamb": 8663,
      "of": 8664,
      "trajeĠ": 8665,
      "poveÄĩanjaĠ": 8666,
      "letaĠ": 8667,
      "ÑģÐºÑĥÐ¿ÑĪÑĤ": 8668,
      "DPĠ": 8669,
      "Is": 8670,
      "1970Ġ": 8671,
      "Pit": 8672,
      "patri": 8673,
      "arajuĠ": 8674,
      "Ð¸ÑģÑĤÑĢÐ°Ð¶Ð¸Ð²Ð°ÑļÐµĠ": 8675,
      "Ð¿Ð°ÑĨÐ¸ÑĺÐµÐ½Ð°ÑĤÐ°Ġ": 8676,
      "naukaĠ": 8677,
      "orgĠ": 8678,
      "ÐµÐ·ÐµĠ": 8679,
      "otpor": 8680,
      "snaguĠ": 8681,
      "ato": 8682,
      "Ð´Ð¸ÑģÑĤÑĢÐ¸Ð±": 8683,
      "ÑĥÑĢĠ": 8684,
      "proÅ¡leĠ": 8685,
      "Ð½Ð¾ÑģÐ¸Ġ": 8686,
      "Å¡eneĠ": 8687,
      "uspehĠ": 8688,
      "Ð¬": 8689,
      "rokĠ": 8690,
      "KosovoĠ": 8691,
      "uÄįini": 8692,
      "Ð¸Ð·Ð°ÑĨÐ¸ÑĺÐ°Ġ": 8693,
      "regionuĠ": 8694,
      "PU": 8695,
      "1945Ġ": 8696,
      "beleĠ": 8697,
      "Ð·Ð±Ð¸ÑĢ": 8698,
      "portalaĠ": 8699,
      "resursaĠ": 8700,
      "loviÄĩĠ": 8701,
      "tijaĠ": 8702,
      "reni": 8703,
      "Å¾elj": 8704,
      "ÐĳÐ°ÑĢ": 8705,
      "um": 8706,
      "socijalneĠ": 8707,
      "Ð¿Ð¾ÑĪÑĤÐ¾Ġ": 8708,
      "njegovimĠ": 8709,
      "povr": 8710,
      "É¢É¡": 8711,
      "ÐĿÐĲ": 8712,
      "postaoĠ": 8713,
      "Ð¿ÑĢÐ¸Ð¼ÐµÑĢ": 8714,
      "niÄįkeĠ": 8715,
      "redi": 8716,
      "zla": 8717,
      "koliÄįinaĠ": 8718,
      "Ð¿Ð¾ÑĩÐµÑĤÐºÐ°Ġ": 8719,
      "Ð¿Ð¾Ð³Ð»Ð°Ð²ÑĻ": 8720,
      "Direk": 8721,
      "porodicaĠ": 8722,
      "ÑĢÐµĠ": 8723,
      "automob": 8724,
      "prikazĠ": 8725,
      "IstraÅ¾i": 8726,
      "reali": 8727,
      "jaÄį": 8728,
      "Ð¼Ð¸Ð½Ð¸Ð¼": 8729,
      "ishra": 8730,
      "Ð´Ð¸ÑĺÐ°Ð³": 8731,
      "ÐľÐ°Ñĺ": 8732,
      "ÑļÐ¸ÑħÐ¾Ð²Ð¸ÑħĠ": 8733,
      "Ð½Ð°Ð¿ÑĢ": 8734,
      "srpskomĠ": 8735,
      "Ð¼Ð°ÑĪ": 8736,
      "Ã§": 8737,
      "Ð¸ÑĺÐ°Ð»Ð½Ð¾Ġ": 8738,
      "naÅ¡aĠ": 8739,
      "Ð¼ÐµÐ´Ð¸Ñĺ": 8740,
      "traÅ¾iĠ": 8741,
      "Ð½Ð°ÐºÐ½Ð°Ð´": 8742,
      "Ð¿ÑĢÐ²Ð¾Ġ": 8743,
      "sluÅ¡": 8744,
      "roditeljaĠ": 8745,
      "ÐºÑĢÐ¸Ð·": 8746,
      "ralniĠ": 8747,
      "ciljevaĠ": 8748,
      "NoĠ": 8749,
      "Ð±ÑĥÐ´ÑĥÑĽÐ¸Ġ": 8750,
      "ÄįeÅ¡": 8751,
      "ÑĥÑĩÐµÑļÐ°Ġ": 8752,
      "BrojĠ": 8753,
      "naÅ¡imĠ": 8754,
      "Ã¦": 8755,
      "tipi": 8756,
      "majaĠ": 8757,
      "StogaĠ": 8758,
      "ÑļÐµÐ³Ð¾Ð²Ð¾Ð¼Ġ": 8759,
      "koordina": 8760,
      "Ð´ÐµÐ±": 8761,
      "papi": 8762,
      "celu": 8763,
      "struktur": 8764,
      "teorijeĠ": 8765,
      "ÑĩÐ»Ð°Ð½Ð°Ġ": 8766,
      "smanjenjaĠ": 8767,
      "kvanti": 8768,
      "njegovuĠ": 8769,
      "ÑļÐ¸ÑħÐ¾Ð²Ð°Ġ": 8770,
      "efikasnostiĠ": 8771,
      "Ð¾Ð¼Ð¾Ð³ÑĥÑĽÐ°Ð²Ð°Ġ": 8772,
      "ÐºÐ¾ÐµÑĦÐ¸ÑĨÐ¸Ñĺ": 8773,
      "Sara": 8774,
      "Dan": 8775,
      "ralĠ": 8776,
      "ÑģÐ²Ð°Ġ": 8777,
      "Ð¸ÑģÐ¸ÑĺÐµĠ": 8778,
      "pritiskaĠ": 8779,
      "herĠ": 8780,
      "olak": 8781,
      "IXĠ": 8782,
      "ljavanjeĠ": 8783,
      "pojavaĠ": 8784,
      "lokali": 8785,
      "porek": 8786,
      "tacijiĠ": 8787,
      "ciljemĠ": 8788,
      "ÑģÑĤĠ": 8789,
      "Ð²ÑĢÐµÐ¼ÐµÐ½ÑĥĠ": 8790,
      "ÑĦÐ¸Ð»Ð¾Ð·Ð¾ÑĦ": 8791,
      "ÑĥÑģÐ²Ð¾Ñĺ": 8792,
      "naukeĠ": 8793,
      "sameĠ": 8794,
      "Ð¿ÑĢÐ¾Ð³ÑĢÐ°Ð¼Ð°Ġ": 8795,
      "Ð¸Ð½ÑĦÐ¾ÑĢÐ¼Ð°ÑĨÐ¸ÑĺÐµĠ": 8796,
      "hodnoĠ": 8797,
      "savet": 8798,
      "izol": 8799,
      "edo": 8800,
      "potencija": 8801,
      "ÐºÐ¾Ð²": 8802,
      "Ð¿ÑĢÐ°Ð·": 8803,
      "kontra": 8804,
      "VojvodineĠ": 8805,
      "advo": 8806,
      "Ð·Ð½Ð°ÑĩÐ°ÑĺÐ½Ð°Ġ": 8807,
      "God": 8808,
      "Ot": 8809,
      "ostalogĠ": 8810,
      "Ð¸Ð¼ÐµÐ½Ð°Ġ": 8811,
      "jakĠ": 8812,
      "Ð¾Ð±ÑĥÑħÐ²Ð°ÑĤÐ°Ġ": 8813,
      "ilu": 8814,
      "znaÄīa": 8815,
      "zapoÅ¡": 8816,
      "JoÅ¡Ġ": 8817,
      "Bel": 8818,
      "brojneĠ": 8819,
      "dobijeniĠ": 8820,
      "njihovimĠ": 8821,
      "ÑĥÐ¾Ð¿ÑĪÑĤÐµĠ": 8822,
      "ÐµÐºÐ¾Ġ": 8823,
      "ukupnogĠ": 8824,
      "Ð¸ÑĩÐ°ÑĢÐ°Ġ": 8825,
      "Äĩer": 8826,
      "akcijeĠ": 8827,
      "Ð¿ÐµÑģÐ¼ÐµĠ": 8828,
      "Ð»ÐµÑĩ": 8829,
      "ponav": 8830,
      "Ð¼Ð¾ÑĽÐ¸Ġ": 8831,
      "deÅ¡avaĠ": 8832,
      "tvrdiĠ": 8833,
      "regionaĠ": 8834,
      "objaÅ¡njavaĠ": 8835,
      "ÑģÐ²ÑĢÑħ": 8836,
      "CiljĠ": 8837,
      "Ð¾ÑĢÐ¸ÑĺÐµÐ½ÑĤ": 8838,
      "nastu": 8839,
      "kompeten": 8840,
      "Ð´Ð°ÐºÐ»ÐµĠ": 8841,
      "projekt": 8842,
      "gal": 8843,
      "imamĠ": 8844,
      "1982Ġ": 8845,
      "Pore": 8846,
      "naÄĩiĠ": 8847,
      "dio": 8848,
      "Ð¿ÑĢÐ¸Ð¼Ð°ÑĢ": 8849,
      "njenogĠ": 8850,
      "Rad": 8851,
      "propa": 8852,
      "Ð½Ð°ÑģÑĤÑĥÐ¿": 8853,
      "dubo": 8854,
      "ÑģÑĤÑĥÐ´Ð¸ÑĺÐ°Ġ": 8855,
      "Vis": 8856,
      "vebĠ": 8857,
      "kamp": 8858,
      "stranihĠ": 8859,
      "É¢É¤": 8860,
      "ÑĺÐµÐ´Ð¸Ð½Ð¸ÑĨÐ°Ġ": 8861,
      "Ð¿Ð¾ÐºÑĢÐµÑĤ": 8862,
      "tehnikeĠ": 8863,
      "versi": 8864,
      "Ð¼Ð¸ÑĤ": 8865,
      "RepubliciĠ": 8866,
      "Ð¿ÑĢÐµÑĤÑħÐ¾Ð´Ð½Ð¾Ġ": 8867,
      "ÑĥÐ¿Ð¾ÑĤÑĢÐµÐ±ÑĻ": 8868,
      "Ð±Ð¾Ñĺ": 8869,
      "Drug": 8870,
      "Ð¿ÑĢÐ²Ð°Ġ": 8871,
      "ÄĳenjemĠ": 8872,
      "domaÄĩin": 8873,
      "ota": 8874,
      "Ð¾Ð²Ð°Ð½Ð¾Ð³Ġ": 8875,
      "ÑĩÐ»Ð°Ð½Ð¾Ð²Ð°Ġ": 8876,
      "Ð½aĠ": 8877,
      "Ð¾Ð¿ÑĤÐµÑĢ": 8878,
      "sezoneĠ": 8879,
      "ÑģÐ½Ð°Ð³Ð°Ġ": 8880,
      "procenatĠ": 8881,
      "ÑĩÐ¸ÑĺÐµĠ": 8882,
      "konzu": 8883,
      "interpre": 8884,
      "PAĠ": 8885,
      "argu": 8886,
      "Å¾eteĠ": 8887,
      "lama": 8888,
      "TU": 8889,
      "Ã±Ã²": 8890,
      "Ð°ÑģÐ»": 8891,
      "vodo": 8892,
      "Ð¸ÑģÑĤÐ¸ÑĩÐºÐ°Ġ": 8893,
      "kategori": 8894,
      "procenuĠ": 8895,
      "ÑĦÑĥÐ½ÐºÑĨÐ¸Ð¾Ð½Ð°Ð»": 8896,
      "prvihĠ": 8897,
      "adap": 8898,
      "Ð´Ð¸ÑĦ": 8899,
      "Ð´Ð¾Ð²Ð¾Ð´Ð¸Ġ": 8900,
      "Jel": 8901,
      "ambi": 8902,
      "niÄįkiĠ": 8903,
      "kol": 8904,
      "Ð¿ÑĢÐµÐ´Ð¼ÐµÑĤÐ°Ġ": 8905,
      "viÅ¡iĠ": 8906,
      "ÐºÑļÐ¸Ð³ÐµĠ": 8907,
      "eraĠ": 8908,
      "ÑĢÑĤĠ": 8909,
      "Ð¾Ð±ÐµÐ·Ð±ÐµÐ´": 8910,
      "sch": 8911,
      "retkoĠ": 8912,
      "COĠ": 8913,
      "Ð·Ð½Ð°ÑĤÐ½Ð¾Ġ": 8914,
      "Ð¼Ð°ÑĺÐ°Ġ": 8915,
      "Ð°Ð´Ð¼Ð¸Ð½Ð¸ÑģÑĤÑĢ": 8916,
      "ÐŀÑģÐ¸Ð¼Ġ": 8917,
      "ÐµÐ½Ð°ÑĤĠ": 8918,
      "Ð´Ð¾Ð¼Ð¸Ð½Ð°Ð½ÑĤ": 8919,
      "AnalizaĠ": 8920,
      "zaposlen": 8921,
      "ÐºÐ°Ð¿Ð°ÑĨ": 8922,
      "saradnjuĠ": 8923,
      "eventu": 8924,
      "asi": 8925,
      "mijaĠ": 8926,
      "ÐĹĠ": 8927,
      "Å¡ÄĩenĠ": 8928,
      "Dobi": 8929,
      "csĠ": 8930,
      "ÑħÐ¸Ð¿Ð¾ÑĤ": 8931,
      "ÐĺÐ»": 8932,
      "Ð´Ð¾Ð±Ð¸Ð¾Ġ": 8933,
      "reÅ¾i": 8934,
      "rukeĠ": 8935,
      "Ð·Ð°Ð²Ð¸ÑģÐ¸Ġ": 8936,
      "prevazi": 8937,
      "diskrimina": 8938,
      "Ð¾ÑģÑĤÑĢÐ°Ð½": 8939,
      "Ð½Ð°ÑģÐ»ÐµÑĴ": 8940,
      "ÑĢÐµÐ²Ð¾Ð»ÑĥÑĨ": 8941,
      "junaĠ": 8942,
      "aÐ²": 8943,
      "bibliote": 8944,
      "revi": 8945,
      "ÑĪÐºÐ¾Ð»Ð°Ġ": 8946,
      "spreÄį": 8947,
      "hri": 8948,
      "thi": 8949,
      "Ð³Ð»Ð°Ð²Ð½Ð¸Ġ": 8950,
      "idejeĠ": 8951,
      "rihĠ": 8952,
      "ÑģÑĤÐ²Ð°ÑĢÐ°Ð»": 8953,
      "Ð²Ð°Ñģ": 8954,
      "1000Ġ": 8955,
      "ÑĻÐ¸Ð²ÐµĠ": 8956,
      "slavĠ": 8957,
      "ÑĥÐ³Ð¾Ð²Ð¾ÑĢ": 8958,
      "110Ġ": 8959,
      "Ð¾Ð¿ÑĻ": 8960,
      "cenuĠ": 8961,
      "feraĠ": 8962,
      "graÄĳaniĠ": 8963,
      "ÐŀÐ½Ð°Ġ": 8964,
      "Pav": 8965,
      "imenaĠ": 8966,
      "mskaĠ": 8967,
      "BAĠ": 8968,
      "duÅ¾eĠ": 8969,
      "febru": 8970,
      "Ð·Ð°ÑħÑĤÐµÐ²": 8971,
      "ÐºÐ»Ð°ÑģÐ¸ÑĦÐ¸Ðº": 8972,
      "knu": 8973,
      "dobreĠ": 8974,
      "Ð½Ð°Ð½": 8975,
      "ÐµÐ½Ð¸ÑĺÐµĠ": 8976,
      "Ð¿Ð¾Ð¼Ð¾ÑĽÑĥĠ": 8977,
      "Ð³Ð¾Ð²Ð¾ÑĢĠ": 8978,
      "obavljaĠ": 8979,
      "uklan": 8980,
      "lig": 8981,
      "ÐĳÑĥÐ´": 8982,
      "ÑĢÐ°Ð´Ð¾Ð²Ð°Ġ": 8983,
      "fakultetaĠ": 8984,
      "Ð¿Ð¾Ð²ÑĢÑĪÐ¸Ð½ÐµĠ": 8985,
      "metaĠ": 8986,
      "postavljaĠ": 8987,
      "redu": 8988,
      "verovatno": 8989,
      "samomĠ": 8990,
      "muÅ¡kara": 8991,
      "spira": 8992,
      "ÐľÐ°Ð½": 8993,
      "Ð¼Ð°Ð½Ð°Ġ": 8994,
      "Ð²Ð»Ð°ÑģÑĤĠ": 8995,
      "izdva": 8996,
      "Ð½Ð°ÑĥÐºÐ°Ġ": 8997,
      "delimi": 8998,
      "pogreÅ¡": 8999,
      "XXĠ": 9000,
      "Å¡tamp": 9001,
      "studijiĠ": 9002,
      "ograd": 9003,
      "medic": 9004,
      "250Ġ": 9005,
      "EÑķ": 9006,
      "progla": 9007,
      "Ð²ÐµÑĢÐ¾Ð²Ð°ÑĤ": 9008,
      "manjuĠ": 9009,
      "novina": 9010,
      "Ð´Ð°Ð»": 9011,
      "GoreĠ": 9012,
      "valĠ": 9013,
      "Ð·ÐµÐ¼ÑĻÐ¸Ġ": 9014,
      "kapacitetaĠ": 9015,
      "ramĠ": 9016,
      "MU": 9017,
      "ÑģÐ¿ÑĢÐ¾Ð²ÐµÐ´": 9018,
      "ÐºÐ²Ð°Ð»Ð¸ÑĦÐ¸Ðº": 9019,
      "Ð¦Ġ": 9020,
      "Ð¿ÑĢÐ¾Ð±Ð»ÐµÐ¼": 9021,
      "UniverzitetaĠ": 9022,
      "Ð¾ÑģÐ½": 9023,
      "ÑħÑĢÐ¾Ð½": 9024,
      "ÑĢÐµÑĩÐ¸Ð¼Ð°Ġ": 9025,
      "efikasnostĠ": 9026,
      "ljiviĠ": 9027,
      "rusĠ": 9028,
      "Ð·Ð½Ð°ÑĩÐ°ÑĺÐ°Ð½Ġ": 9029,
      "Ð¿ÑĤ": 9030,
      "É¢Éľ": 9031,
      "planaĠ": 9032,
      "zitiĠ": 9033,
      "Å¾eni": 9034,
      "ispunj": 9035,
      "CE": 9036,
      "Ð°Ð´Ð¸Ġ": 9037,
      "ÑģÐ»Ð¸ÐºÐµĠ": 9038,
      "Ð¸ÑģÐºÐ°Ð·": 9039,
      "ÐĲÐº": 9040,
      "dodajeĠ": 9041,
      "sel": 9042,
      "ÐŁÐ»": 9043,
      "posla": 9044,
      "siÄĩĠ": 9045,
      "Ð¿Ð¾Ð²ÑĢÐ°ÑĤ": 9046,
      "oblastĠ": 9047,
      "Ð¿Ð¾ÑĤÐ¿ÑĥÐ½Ð¾ÑģÑĤÐ¸Ġ": 9048,
      "Ð¿ÑĢÐµÐ´Ð»Ð¾Ð¶": 9049,
      "ÑļÐ¸ÑħÐ¾Ð²Ð¾Ġ": 9050,
[...]
