{
  "version": "1.0",
  "truncation": null,
  "padding": null,
  "added_tokens": [
    {
      "id": 0,
      "content": "[PAD]",
      "single_word": false,
      "lstrip": false,
      "rstrip": false,
      "normalized": false,
      "special": true
    },
    {
      "id": 1,
      "content": "<uppe>",
      "single_word": false,
      "lstrip": false,
      "rstrip": false,
      "normalized": false,
      "special": true
    },
    {
      "id": 2,
      "content": "<capi>",
      "single_word": false,
      "lstrip": false,
      "rstrip": false,
      "normalized": false,
      "special": true
    },
    {
      "id": 3,
      "content": "<cend>",
      "single_word": false,
      "lstrip": false,
      "rstrip": false,
      "normalized": false,
      "special": true
    },
    {
      "id": 4,
      "content": "<csta>",
      "single_word": false,
      "lstrip": false,
      "rstrip": false,
      "normalized": false,
      "special": true
    }
  ],
  "normalizer": null,
  "pre_tokenizer": {
    "type": "ByteLevel",
    "add_prefix_space": false,
    "trim_offsets": true,
    "use_regex": true
  },
  "post_processor": null,
  "decoder": null,
  "model": {
    "type": "BPE",
    "dropout": null,
    "unk_token": null,
    "continuing_subword_prefix": null,
    "end_of_word_suffix": null,
    "fuse_unk": false,
    "byte_fallback": false,
    "ignore_merges": true,
    "vocab": {
      "[PAD]": 0,
      "<uppe>": 1,
      "<capi>": 2,
      "<cend>": 3,
      "<csta>": 4,
      "!": 5,
      "\"": 6,
      "#": 7,
      "$": 8,
      "%": 9,
      "&": 10,
      "'": 11,
      "(": 12,
      ")": 13,
      "*": 14,
      "+": 15,
      ",": 16,
      "-": 17,
      ".": 18,
      "/": 19,
      "0": 20,
      "1": 21,
      "2": 22,
      "3": 23,
      "4": 24,
      "5": 25,
      "6": 26,
      "7": 27,
      "8": 28,
      "9": 29,
      ":": 30,
      ";": 31,
      "<": 32,
      "=": 33,
      ">": 34,
      "?": 35,
      "@": 36,
      "A": 37,
      "B": 38,
      "C": 39,
      "D": 40,
      "E": 41,
      "F": 42,
      "G": 43,
      "H": 44,
      "I": 45,
      "J": 46,
      "K": 47,
      "L": 48,
      "M": 49,
      "N": 50,
      "O": 51,
      "P": 52,
      "Q": 53,
      "R": 54,
      "S": 55,
      "T": 56,
      "U": 57,
      "V": 58,
      "W": 59,
      "X": 60,
      "Y": 61,
      "Z": 62,
      "[": 63,
      "\\": 64,
      "]": 65,
      "^": 66,
      "_": 67,
      "`": 68,
      "a": 69,
      "b": 70,
      "c": 71,
      "d": 72,
      "e": 73,
      "f": 74,
      "g": 75,
      "h": 76,
      "i": 77,
      "j": 78,
      "k": 79,
      "l": 80,
      "m": 81,
      "n": 82,
      "o": 83,
      "p": 84,
      "q": 85,
      "r": 86,
      "s": 87,
      "t": 88,
      "u": 89,
      "v": 90,
      "w": 91,
      "x": 92,
      "y": 93,
      "z": 94,
      "{": 95,
      "|": 96,
      "}": 97,
      "~": 98,
      "¡": 99,
      "¢": 100,
      "£": 101,
      "¤": 102,
      "¥": 103,
      "¦": 104,
      "§": 105,
      "¨": 106,
      "©": 107,
      "ª": 108,
      "«": 109,
      "¬": 110,
      "®": 111,
      "¯": 112,
      "°": 113,
      "±": 114,
      "²": 115,
      "³": 116,
      "´": 117,
      "µ": 118,
      "¶": 119,
      "·": 120,
      "¸": 121,
      "¹": 122,
      "º": 123,
      "»": 124,
      "¼": 125,
      "½": 126,
      "¾": 127,
      "¿": 128,
      "À": 129,
      "Á": 130,
      "Â": 131,
      "Ã": 132,
      "Ä": 133,
      "Å": 134,
      "Æ": 135,
      "Ç": 136,
      "È": 137,
      "É": 138,
      "Ê": 139,
      "Ë": 140,
      "Ì": 141,
      "Í": 142,
      "Î": 143,
      "Ï": 144,
      "Ð": 145,
      "Ñ": 146,
      "Ò": 147,
      "Ó": 148,
      "Ô": 149,
      "Õ": 150,
      "Ö": 151,
      "×": 152,
      "Ø": 153,
      "Ù": 154,
      "Ú": 155,
      "Û": 156,
      "Ü": 157,
      "Ý": 158,
      "Þ": 159,
      "ß": 160,
      "à": 161,
      "á": 162,
      "â": 163,
      "ã": 164,
      "ä": 165,
      "å": 166,
      "æ": 167,
      "ç": 168,
      "è": 169,
      "é": 170,
      "ê": 171,
      "ë": 172,
      "ì": 173,
      "í": 174,
      "î": 175,
      "ï": 176,
      "ð": 177,
      "ñ": 178,
      "ò": 179,
      "ó": 180,
      "ô": 181,
      "õ": 182,
      "ö": 183,
      "÷": 184,
      "ø": 185,
      "ù": 186,
      "ú": 187,
      "û": 188,
      "ü": 189,
      "ý": 190,
      "þ": 191,
      "ÿ": 192,
      "Ā": 193,
      "ā": 194,
      "Ă": 195,
      "ă": 196,
      "Ą": 197,
      "ą": 198,
      "Ć": 199,
      "ć": 200,
      "Ĉ": 201,
      "ĉ": 202,
      "Ċ": 203,
      "ċ": 204,
      "Č": 205,
      "č": 206,
      "Ď": 207,
      "ď": 208,
      "Đ": 209,
      "đ": 210,
      "Ē": 211,
      "ē": 212,
      "Ĕ": 213,
      "ĕ": 214,
      "Ė": 215,
      "ė": 216,
      "Ę": 217,
      "ę": 218,
      "Ě": 219,
      "ě": 220,
      "Ĝ": 221,
      "ĝ": 222,
      "Ğ": 223,
      "ğ": 224,
      "Ġ": 225,
      "ġ": 226,
      "Ģ": 227,
      "ģ": 228,
      "Ĥ": 229,
      "ĥ": 230,
      "Ħ": 231,
      "ħ": 232,
      "Ĩ": 233,
      "ĩ": 234,
      "Ī": 235,
      "ī": 236,
      "Ĭ": 237,
      "ĭ": 238,
      "Į": 239,
      "į": 240,
      "İ": 241,
      "ı": 242,
      "Ĳ": 243,
      "ĳ": 244,
      "Ĵ": 245,
      "ĵ": 246,
      "Ķ": 247,
      "ķ": 248,
      "ĸ": 249,
      "Ĺ": 250,
      "ĺ": 251,
      "Ļ": 252,
      "ļ": 253,
      "Ľ": 254,
      "ľ": 255,
      "Ŀ": 256,
      "ŀ": 257,
      "Ł": 258,
      "ł": 259,
      "Ń": 260,
      "<c": 261,
      "pi": 262,
      "Ġs": 263,
      "api": 264,
      "<capi": 265,
      "Ġp": 266,
      "je": 267,
      "Ġi": 268,
      "na": 269,
      "st": 270,
      "ra": 271,
      "no": 272,
      "ni": 273,
      "ko": 274,
      "Ġo": 275,
      "Ġd": 276,
      "re": 277,
      "Ġu": 278,
      "Äį": 279,
      "ja": 280,
      "va": 281,
      "en": 282,
      "ma": 283,
      "li": 284,
      "ri": 285,
      "ti": 286,
      "ka": 287,
      "Å¡": 288,
      "ne": 289,
      "Ġpo": 290,
      "ta": 291,
      "la": 292,
      "Ġna": 293,
      "ro": 294,
      "ve": 295,
      "vi": 296,
      "vo": 297,
      "za": 298,
      "sta": 299,
      "ci": 300,
      "Ġje": 301,
      "te": 302,
      "Äĩ": 303,
      "Ġko": 304,
      "Ġm": 305,
      "Å¾": 306,
      "to": 307,
      "ju": 308,
      "Ġb": 309,
      "lo": 310,
      "ji": 311,
      "Ġa": 312,
      "Ġse": 313,
      "le": 314,
      "Ġza": 315,
      "di": 316,
      "Ġda": 317,
      "âĢ": 318,
      "da": 319,
      "Ġg": 320,
      "me": 321,
      "end": 322,
      "<csta": 323,
      "<cend": 324,
      "ru": 325,
      "ki": 326,
      "Ġsa": 327,
      "sti": 328,
      "nje": 329,
      "pe": 330,
      "Ġod": 331,
      "Ġ(": 332,
      "up": 333,
      "Ġne": 334,
      "Ġra": 335,
      "Ġk": 336,
      "zi": 337,
      "Ġka": 338,
      "Ġsu": 339,
      "Äĳ": 340,
      "po": 341,
      "ke": 342,
      "de": 343,
      "Ġdo": 344,
      "Ġpre": 345,
      "Ġiz": 346,
      "go": 347,
      "nja": 348,
      "Ġpro": 349,
      "tu": 350,
      "mo": 351,
      "Ġpri": 352,
      "Äįi": 353,
      "mi": 354,
      "uppe": 355,
      "<uppe": 356,
      "ga": 357,
      "si": 358,
      "Ġre": 359,
      "Ġmo": 360,
      "Ġbi": 361,
      "ku": 362,
      "sa": 363,
      "Ġ1": 364,
      "Ġe": 365,
      "nih": 366,
      "Ġt": 367,
      "nu": 368,
      "ĠâĢ": 369,
      "bi": 370,
      "Ġv": 371,
      "Ġz": 372,
      "ce": 373,
      "sko": 374,
      "Ġf": 375,
      "nog": 376,
      "Ġde": 377,
      "ca": 378,
      "se": 379,
      "ski": 380,
      "Ġve": 381,
      "Äįe": 382,
      "Ġob": 383,
      "Ġte": 384,
      "sto": 385,
      "Å¾i": 386,
      "Äįa": 387,
      "lu": 388,
      "Ġ2": 389,
      "ĠÅ¡": 390,
      "du": 391,
      "Ġma": 392,
      "pa": 393,
      "Ġto": 394,
      "lja": 395,
      "Ġme": 396,
      "nom": 397,
      "Å¾e": 398,
      "Ġni": 399,
      "Äĩe": 400,
      "Ġgo": 401,
      "Ġkoji": 402,
      "cija": 403,
      "do": 404,
      "lje": 405,
      "Ġin": 406,
      "Ġraz": 407,
      "gi": 408,
      "nosti": 409,
      "Ġh": 410,
      "nji": 411,
      "nim": 412,
      "men": 413,
      "ba": 414,
      "Ġkao": 415,
      "Ġpa": 416,
      "cije": 417,
      "or": 418,
      "Äĩi": 419,
      "Ġst": 420,
      "jo": 421,
      "Å¾a": 422,
      "tiv": 423,
      "Ġvi": 424,
      "ĠâĢŀ": 425,
      "Ġdru": 426,
      "gu": 427,
      "gra": 428,
      "be": 429,
      "Ġta": 430,
      "Ġsve": 431,
      "Ġmi": 432,
      "su": 433,
      "Å¡e": 434,
      ").": 435,
      "Ġsi": 436,
      "so": 437,
      "Ġsr": 438,
      "fi": 439,
      "red": 440,
      "Ġ20": 441,
      "Ġsta": 442,
      "bo": 443,
      "ske": 444,
      "Ġpra": 445,
      "sno": 446,
      "ho": 447,
      "viÄĩ": 448,
      "lju": 449,
      "zu": 450,
      "zo": 451,
      "Äĳu": 452,
      "Ġkon": 453,
      "Ġc": 454,
      "stav": 455,
      "nju": 456,
      "Ġdi": 457,
      "vanja": 458,
      "vanje": 459,
      "vu": 460,
      "nost": 461,
      "Ġno": 462,
      "ste": 463,
      "Äĳe": 464,
      "Ġzna": 465,
      "vr": 466,
      "Ġbe": 467,
      "Äĩa": 468,
      "âĢľ": 469,
      "Ġli": 470,
      "),": 471,
      "mu": 472,
      "ze": 473,
      "Ġpe": 474,
      "pu": 475,
      "Ġpred": 476,
      "kom": 477,
      "Ġkoje": 478,
      "Äįki": 479,
      "Ġ19": 480,
      "Ġis": 481,
      "Ġgodi": 482,
      "skog": 483,
      "Ġili": 484,
      "ĠÅ¡to": 485,
      "ene": 486,
      "tra": 487,
      "Å¡a": 488,
      "cio": 489,
      "nika": 490,
      "Ġpos": 491,
      "stra": 492,
      "Ġsvo": 493,
      "lji": 494,
      "pre": 495,
      "ĠâĢĵ": 496,
      "Ġima": 497,
      "Å¡i": 498,
      "Ġodno": 499,
      "lj": 500,
      "ge": 501,
      "Ġbo": 502,
      "Ġva": 503,
      "Ġpod": 504,
      "Ġja": 505,
      "Ġpi": 506,
      "lek": 507,
      "Ġba": 508,
      "Ġnje": 509,
      "Å¡t": 510,
      "ska": 511,
      "Ġus": 512,
      "skih": 513,
      "Ġvo": 514,
      "rÅ¾a": 515,
      "Ġgra": 516,
      "Ġti": 517,
      "nal": 518,
      "Ġku": 519,
      "zna": 520,
      "ĠÄįi": 521,
      "enja": 522,
      "fe": 523,
      "Ġso": 524,
      "rija": 525,
      "dni": 526,
      "ha": 527,
      "enje": 528,
      "Ġpot": 529,
      "Ġnaj": 530,
      "dno": 531,
      "Ġkri": 532,
      "Ñı": 533,
      "pra": 534,
      "Ġsrp": 535,
      "Ġmu": 536,
      "Ġdu": 537,
      "vom": 538,
      "ĠÄį": 539,
      "Ġsamo": 540,
      "ĠÅ¾i": 541,
      "reme": 542,
      "Äįko": 543,
      "ÂŃ": 544,
      "Ġan": 545,
      "Ġkoja": 546,
      "Ġnji": 547,
      "Ġtra": 548,
      "Ġstra": 549,
      "Ġrazli": 550,
      "Ġtre": 551,
      "Ġpoli": 552,
      "Ġgodine": 553,
      "Äĳa": 554,
      "tno": 555,
      "Ġnije": 556,
      "nije": 557,
      "loÅ¡": 558,
      "ĠÄįe": 559,
      "Ġinte": 560,
      "Ġpr": 561,
      "tro": 562,
      "vog": 563,
      "ven": 564,
      "Ġisto": 565,
      "Ġmogu": 566,
      "âĢĵ": 567,
      "Ġpu": 568,
      "Ġ3": 569,
      "Å¡ta": 570,
      "skom": 571,
      "noj": 572,
      "nali": 573,
      "hi": 574,
      "ĠmoÅ¾e": 575,
      "Ġro": 576,
      "Äįke": 577,
      "Ġ200": 578,
      "Ġvr": 579,
      "Ġosno": 580,
      "pri": 581,
      "vih": 582,
      "stva": 583,
      "Ġak": 584,
      "Ġistra": 585,
      "Ġ201": 586,
      "ciju": 587,
      "gle": 588,
      "vima": 589,
      "âĢĻ": 590,
      "âĢĿ": 591,
      "Ġn": 592,
      "stavlja": 593,
      "logi": 594,
      "Ġfi": 595,
      "on": 596,
      "Ġslu": 597,
      "nici": 598,
      "ogra": 599,
      "rije": 600,
      "Ġsrbi": 601,
      "Ġfa": 602,
      "Ġjed": 603,
      "Ġgla": 604,
      "Ġjo": 605,
      "liko": 606,
      "Ġtu": 607,
      "Äĩu": 608,
      "Ġali": 609,
      "Ġkra": 610,
      "man": 611,
      "Ġok": 612,
      "Ġjezi": 613,
      "meÄĳu": 614,
      "Ġbu": 615,
      "ĠÄĩe": 616,
      "Ġobra": 617,
      "Ġor": 618,
      "Äįu": 619,
      "lika": 620,
      "ĠdruÅ¡t": 621,
      "govo": 622,
      "cu": 623,
      "stup": 624,
      "Ġslo": 625,
      "stvo": 626,
      "Ġvla": 627,
      "pro": 628,
      "ĠistraÅ¾i": 629,
      "tim": 630,
      "iz": 631,
      "Ġbio": 632,
      "Ġtako": 633,
      "Ġbro": 634,
      "Ġru": 635,
      "vim": 636,
      "Å¡ti": 637,
      "nica": 638,
      "ltu": 639,
      "skim": 640,
      "bu": 641,
      "Ġot": 642,
      "Äįno": 643,
      "gla": 644,
      "van": 645,
      "nik": 646,
      "Ġcr": 647,
      "20": 648,
      "rak": 649,
      "he": 650,
      "Ġju": 651,
      "Ġle": 652,
      "Ġga": 653,
      "Ġze": 654,
      "Ġci": 655,
      "cional": 656,
      "Ġuz": 657,
      "Ġkori": 658,
      "slo": 659,
      "kon": 660,
      "hva": 661,
      "bra": 662,
      "Ġkom": 663,
      "vlja": 664,
      "Ġau": 665,
      "mena": 666,
      "kto": 667,
      "ciji": 668,
      "Ġorga": 669,
      "voj": 670,
      "jom": 671,
      "Ġla": 672,
      "al": 673,
      "dan": 674,
      "ĠÅ¾ivo": 675,
      "tre": 676,
      "Ġsva": 677,
      "Ġproce": 678,
      "juÄĩi": 679,
      "ĠdrÅ¾a": 680,
      "Ġop": 681,
      "sku": 682,
      "nda": 683,
      "ĠmeÄĳu": 684,
      "Ġnjiho": 685,
      "Ġpoliti": 686,
      "Ġ4": 687,
      "Ġpose": 688,
      "Ġgovo": 689,
      "vni": 690,
      "Ġdrugi": 691,
      "den": 692,
      "Ġsiste": 693,
      "Ġposto": 694,
      "Å¡te": 695,
      "Äįaj": 696,
      "ĠviÅ¡e": 697,
      "Ġkako": 698,
      "stu": 699,
      "Ġprema": 700,
      "Ġkultu": 701,
      "klju": 702,
      "Ġfor": 703,
      "for": 704,
      ");": 705,
      "Ġnau": 706,
      "sla": 707,
      "rod": 708,
      "Ġspo": 709,
      "Ġova": 710,
      "Ġlo": 711,
      "tni": 712,
      "Ġodre": 713,
      "Ġprime": 714,
      "19": 715,
      "lazi": 716,
      "ĠrazliÄįi": 717,
      "vara": 718,
      "kla": 719,
      "Ġlju": 720,
      "Ġgru": 721,
      "vali": 722,
      "matra": 723,
      "Ġnjego": 724,
      "ĠnaÄįi": 725,
      "kup": 726,
      "Ġkod": 727,
      "teri": 728,
      "Ġar": 729,
      "Ġpla": 730,
      "spo": 731,
      "ran": 732,
      "Ð¹": 733,
      "Ġvreme": 734,
      "Ġpove": 735,
      "vaju": 736,
      "skoj": 737,
      "Ġhi": 738,
      "Åł": 739,
      "vanju": 740,
      "ÄĨ": 741,
      "noviÄĩ": 742,
      "ĠveÄĩ": 743,
      "Ġorgani": 744,
      "Ġposle": 745,
      "teta": 746,
      "Ġzaje": 747,
      "tom": 748,
      "Ġ5": 749,
      "ng": 750,
      "Ġbilo": 751,
      "vno": 752,
      "ĠizmeÄĳu": 753,
      "ruk": 754,
      "Ġpita": 755,
      "lne": 756,
      "rio": 757,
      "Äįkog": 758,
      "Ġbeogra": 759,
      "sle": 760,
      "ver": 761,
      "Ġanali": 762,
      "00": 763,
      "nk": 764,
      "Ñĭ": 765,
      "Ġupo": 766,
      "Ġvred": 767,
      "Ġosta": 768,
      "Ġuti": 769,
      "Äįkih": 770,
      "nice": 771,
      "jedi": 772,
      "kaza": 773,
      "rom": 774,
      "Ġlek": 775,
      "fa": 776,
      "kre": 777,
      "Ġce": 778,
      "ĠuÄįe": 779,
      "spe": 780,
      "Ġsad": 781,
      "ÑĬ": 782,
      "lta": 783,
      "Å¡to": 784,
      "..": 785,
      "kti": 786,
      "Ġzem": 787,
      "stitu": 788,
      "ren": 789,
      "menu": 790,
      "rij": 791,
      "rt": 792,
      "Ġste": 793,
      "Äįne": 794,
      "tet": 795,
      "ÑĮ": 796,
      "met": 797,
      "Ġveli": 798,
      "sni": 799,
      "we": 800,
      "bli": 801,
      "ble": 802,
      "tak": 803,
      "Ġbez": 804,
      "Ġpredstavlja": 805,
      "Ġkada": 806,
      "Ġizra": 807,
      "Ġtreba": 808,
      "cen": 809,
      "joj": 810,
      "Ġon": 811,
      "in": 812,
      "vne": 813,
      "Ġmora": 814,
      "vlje": 815,
      "vodi": 816,
      "Ġauto": 817,
      "lno": 818,
      "Äįka": 819,
      "Ġfu": 820,
      "rmi": 821,
      "Ġdok": 822,
      "om": 823,
      "Ġnema": 824,
      "Ġzajedni": 825,
      "kra": 826,
      "Ġsto": 827,
      "tih": 828,
      "Ġrad": 829,
      "Ġpoja": 830,
      "rima": 831,
      "Ġbila": 832,
      "ĠÅ¾": 833,
      "Ġpret": 834,
      "tar": 835,
      "cima": 836,
      "Ġknji": 837,
      "njem": 838,
      "mati": 839,
      "Ġcrk": 840,
      "kazu": 841,
      "Ġoba": 842,
      "Ġmode": 843,
      "ĠÉ": 844,
      "Äĳi": 845,
      "Ġobrazo": 846,
      "Ġradi": 847,
      "Ġbroj": 848,
      "Ġek": 849,
      "log": 850,
      "Ġstu": 851,
      "Äįni": 852,
      "Ġispi": 853,
      "Ġnasta": 854,
      "Ġx": 855,
      "Ġmeto": 856,
      "Ñĸ": 857,
      "Ġdelo": 858,
      "liza": 859,
      "Ġbiti": 860,
      "bno": 861,
      "Ġsre": 862,
      "Ġca": 863,
      "Ġdobi": 864,
      "Ġ-": 865,
      "Ġdela": 866,
      "Ġkojima": 867,
      "Ġpotre": 868,
      "ĠznaÄįaj": 869,
      "Ġide": 870,
      "Ġ199": 871,
      "ĠznaÄį": 872,
      "Ġoko": 873,
      "pr": 874,
      "vreme": 875,
      "rti": 876,
      "niji": 877,
      "ksi": 878,
      "Ġdana": 879,
      "Ġodnosno": 880,
      "Ġdva": 881,
      "Ġjer": 882,
      "Ġ6": 883,
      "mene": 884,
      "vro": 885,
      "vod": 886,
      "kri": 887,
      "zulta": 888,
      ".,": 889,
      "bro": 890,
      "Ġoso": 891,
      "rodi": 892,
      "ĠÅ¾e": 893,
      "Ġproble": 894,
      "Ġstrane": 895,
      "Ġtek": 896,
      "Ġdr": 897,
      "âĢľ,": 898,
      "dra": 899,
      "vede": 900,
      "Ġaktiv": 901,
      "Ġokvi": 902,
      "kog": 903,
      "Ġsred": 904,
      "Ġ18": 905,
      "Ġspe": 906,
      "Ġmate": 907,
      "Ġjedi": 908,
      "Ġproiz": 909,
      "zova": 910,
      "Äįnih": 911,
      "bog": 912,
      "Ġim": 913,
      "op": 914,
      "menta": 915,
      "Ġgodina": 916,
      "Ġtri": 917,
      "ĠnaÄįin": 918,
      "Ġri": 919,
      "tek": 920,
      "Ġteo": 921,
      "fika": 922,
      "Ġand": 923,
      "Ġpojedi": 924,
      "ndar": 925,
      "lan": 926,
      "Ġkarak": 927,
      "ĠÄįa": 928,
      "Ġsam": 929,
      "ĠÅ¡i": 930,
      "vat": 931,
      "nima": 932,
      "denti": 933,
      "an": 934,
      "ĠistraÅ¾ivanja": 935,
      "klo": 936,
      "Ê¼": 937,
      "Ġuslo": 938,
      "11": 939,
      "ĠÅ¡ko": 940,
      "Ġos": 941,
      "Ġr": 942,
      "Ġveka": 943,
      "sli": 944,
      "Ġal": 945,
      "mina": 946,
      "Ġhe": 947,
      "Ġprosto": 948,
      "Ġobe": 949,
      "Ġinter": 950,
      "jem": 951,
      "koviÄĩ": 952,
      "ĠpoÄįe": 953,
      "Ġinstitu": 954,
      "lni": 955,
      "pisa": 956,
      "Ġjugo": 957,
      "Ġperio": 958,
      "zma": 959,
      "Ġnisu": 960,
      "loÅ¡ki": 961,
      "Ġpoda": 962,
      "Ġona": 963,
      "Ġutica": 964,
      "ruktu": 965,
      "tri": 966,
      "vati": 967,
      "ako": 968,
      "Ġrea": 969,
      "lnih": 970,
      "Ġupotre": 971,
      "Å¡Äĩe": 972,
      "Ġfo": 973,
      "Ġisti": 974,
      "od": 975,
      "forma": 976,
      "vnog": 977,
      "Ġglago": 978,
      "Ġsli": 979,
      "roz": 980,
      "ĠÅł": 981,
      "Ġge": 982,
      "ĠreÄįi": 983,
      "Ġbr": 984,
      "Ġevro": 985,
      "Ġupra": 986,
      "Ġdrugo": 987,
      "Ġsmo": 988,
      "Ġobli": 989,
      "Ġsti": 990,
      "vnih": 991,
      "enju": 992,
      "lÊ¼": 993,
      "Ġfe": 994,
      "tne": 995,
      "Ġfunk": 996,
      "Ġime": 997,
      "wa": 998,
      "Ġdruge": 999,
      "Ġtoga": 1000,
      "Ġizvo": 1001,
      "Ġrezulta": 1002,
      "Ġnego": 1003,
      "Ġrada": 1004,
      "Ġof": 1005,
      "Ġnivo": 1006,
      "tor": 1007,
      "Ġkre": 1008,
      "koliko": 1009,
      "ove": 1010,
      "slu": 1011,
      "ter": 1012,
      "Ġtokom": 1013,
      "Ġpore": 1014,
      "ova": 1015,
      "Ġosnovu": 1016,
      "Ġsla": 1017,
      "nija": 1018,
      "ĠdruÅ¡tve": 1019,
      "ĠÎ": 1020,
      "Ġha": 1021,
      "nova": 1022,
      "Ġtermi": 1023,
      "ch": 1024,
      "Ġ7": 1025,
      "ĠjoÅ¡": 1026,
      "Ġteh": 1027,
      "18": 1028,
      "Ġsrbije": 1029,
      "Ġsocija": 1030,
      "fo": 1031,
      "Ġtome": 1032,
      "ĠreÄį": 1033,
      "jek": 1034,
      "tima": 1035,
      "Ġjedan": 1036,
      "kova": 1037,
      "Ġposta": 1038,
      "vla": 1039,
      "Ġtr": 1040,
      "vnom": 1041,
      "lija": 1042,
      "ii": 1043,
      "govor": 1044,
      "Î½": 1045,
      "Ġrado": 1046,
      "tera": 1047,
      "Ġnad": 1048,
      "Ġsvoje": 1049,
      "Ġono": 1050,
      "lnog": 1051,
      "nta": 1052,
      "dne": 1053,
      "Ġpozi": 1054,
      "Ġnaro": 1055,
      "Ġobla": 1056,
      "pada": 1057,
      "Ġvoj": 1058,
      "Ġidenti": 1059,
      "10": 1060,
      "novi": 1061,
      "Ġove": 1062,
      "ns": 1063,
      "Ġorganiza": 1064,
      "Ġkroz": 1065,
      "ĠS": 1066,
      "ĠsluÄįa": 1067,
      "Äįkom": 1068,
      "Ġen": 1069,
      "loga": 1070,
      "Ġzbog": 1071,
      "Ġuni": 1072,
      "bor": 1073,
      "Ġpravo": 1074,
      "Äįkim": 1075,
      "pera": 1076,
      "Ġnepo": 1077,
      "cep": 1078,
      "Éļ": 1079,
      "tion": 1080,
      "ÏĦ": 1081,
      "tog": 1082,
      "zima": 1083,
      "Ġpomo": 1084,
      "tvr": 1085,
      "nt": 1086,
      "vre": 1087,
      "Ġobja": 1088,
      "stru": 1089,
      "gleda": 1090,
      "Ġki": 1091,
      "Ġkrivi": 1092,
      "stupa": 1093,
      "Äįna": 1094,
      "Ġstruktu": 1095,
      "Ġmuzi": 1096,
      "Ġovom": 1097,
      "Ġvrednosti": 1098,
      "rne": 1099,
      "Ġw": 1100,
      "Ġmar": 1101,
      "rno": 1102,
      "nasti": 1103,
      "Ġzako": 1104,
      "ten": 1105,
      "ĠI": 1106,
      "Ġbeograd": 1107,
      "lna": 1108,
      "Ġeko": 1109,
      "vija": 1110,
      "Ġobi": 1111,
      "nti": 1112,
      "Ġ/": 1113,
      "Ġet": 1114,
      "Ġimaju": 1115,
      "Ġho": 1116,
      "vao": 1117,
      "tivno": 1118,
      "fini": 1119,
      "ĠU": 1120,
      "vije": 1121,
      "rni": 1122,
      "nski": 1123,
      "Ġovog": 1124,
      "Ġuve": 1125,
      "Ġiza": 1126,
      "stvu": 1127,
      "Äįnog": 1128,
      "Ġsvet": 1129,
      "á½": 1130,
      "Ġ15": 1131,
      "sve": 1132,
      "manti": 1133,
      "Ġsrbiji": 1134,
      "ïĢ": 1135,
      "stve": 1136,
      "Ġtak": 1137,
      "Ġbili": 1138,
      "Ġsara": 1139,
      "dru": 1140,
      "Ġdeo": 1141,
      "lom": 1142,
      "tka": 1143,
      "Ġmaterija": 1144,
      "Ġneki": 1145,
      "Ġodnosu": 1146,
      "vani": 1147,
      "zira": 1148,
      "Å¡u": 1149,
      "Î±": 1150,
      "cijama": 1151,
      "Ġpolo": 1152,
      "Å¡nje": 1153,
      "tua": 1154,
      "ĠÅ¡ta": 1155,
      "Ġsmi": 1156,
      "dna": 1157,
      "Ġsmatra": 1158,
      "Î¿": 1159,
      "Ġ9": 1160,
      "vine": 1161,
      "Ġtradi": 1162,
      "Ġleksi": 1163,
      "Ġjedno": 1164,
      "ĠM": 1165,
      "vna": 1166,
      "Ġ8": 1167,
      "Ġkarakteri": 1168,
      "Ġpara": 1169,
      "Å¡ko": 1170,
      "âĢľ.": 1171,
      "hvata": 1172,
      "Ġl": 1173,
      "razu": 1174,
      "mogu": 1175,
      "Ġ10": 1176,
      "Ġrazvo": 1177,
      "Ġnacional": 1178,
      "Å¾no": 1179,
      "Ġjezika": 1180,
      "ranje": 1181,
      "Ġdija": 1182,
      "vana": 1183,
      "dom": 1184,
      "Ġsistema": 1185,
      "Å¾u": 1186,
      "Ġnazi": 1187,
      "tako": 1188,
      "Ġslobo": 1189,
      "Ġbra": 1190,
      "Ġmanasti": 1191,
      "gre": 1192,
      "Ġgde": 1193,
      "Ã©": 1194,
      "Ġunu": 1195,
      "Ġsv": 1196,
      "ĠmoguÄĩ": 1197,
      "Ġper": 1198,
      "Ġsle": 1199,
      "13": 1200,
      "Ġsvoji": 1201,
      "Ġkla": 1202,
      "Ġnastav": 1203,
      "Ġdece": 1204,
      "Ġfilo": 1205,
      "nosi": 1206,
      "kao": 1207,
      "Ġoni": 1208,
      "tiva": 1209,
      "volj": 1210,
      "rova": 1211,
      "Ġ16": 1212,
      "nata": 1213,
      "lima": 1214,
      "Ġokviru": 1215,
      "Ġprava": 1216,
      "Ġpopu": 1217,
      "Ġporodi": 1218,
      "12": 1219,
      "riji": 1220,
      "Ġbudu": 1221,
      "govara": 1222,
      "Ġcen": 1223,
      "ĠsadrÅ¾a": 1224,
      "nci": 1225,
      "Ġkontro": 1226,
      "dija": 1227,
      "ĠveÄĩi": 1228,
      "rs": 1229,
      "sloven": 1230,
      "tivne": 1231,
      "cijom": 1232,
      "Ġsredi": 1233,
      "Ġtaj": 1234,
      "Ġgene": 1235,
      "Ġoblasti": 1236,
      "ÉŁ": 1237,
      "Ġdve": 1238,
      "stavlje": 1239,
      "Ġtom": 1240,
      "kle": 1241,
      "Äĳenje": 1242,
      "san": 1243,
      "Ġ12": 1244,
      "ĠzaÅ¡ti": 1245,
      "Ġsave": 1246,
      "kazuje": 1247,
      "Ġele": 1248,
      "Ġ13": 1249,
      "Ġljudi": 1250,
      "Ġih": 1251,
      "bri": 1252,
      "15": 1253,
      "hu": 1254,
      "14": 1255,
      "ĠodreÄĳe": 1256,
      "vrÅ¡i": 1257,
      "Ġprisu": 1258,
      "Ġdefini": 1259,
      "Ġzapa": 1260,
      "Ġmla": 1261,
      "Ġsvoj": 1262,
      "Ġpravi": 1263,
      "vanjem": 1264,
      "ĠÄįu": 1265,
      "kat": 1266,
      "Ġprotiv": 1267,
      "Ġsup": 1268,
      "Ġkoju": 1269,
      "17": 1270,
      "Ñİ": 1271,
      "Ġ198": 1272,
      "É¢": 1273,
      "É¨": 1274,
      "Ġnakon": 1275,
      "16": 1276,
      "sne": 1277,
      "Ġkvali": 1278,
      "Ġcrkve": 1279,
      "ment": 1280,
      "Ġstva": 1281,
      "oma": 1282,
      "Ġzapo": 1283,
      "Ġovaj": 1284,
      "Ġodlu": 1285,
      "nogo": 1286,
      "Ġako": 1287,
      "rek": 1288,
      "ïĢ¤": 1289,
      "Å¡nja": 1290,
      "Ġgu": 1291,
      "Ġstru": 1292,
      "ĠsluÅ¾": 1293,
      "Ġjedna": 1294,
      "Ġpozna": 1295,
      "Ġaktivnosti": 1296,
      "listi": 1297,
      "Ġnalazi": 1298,
      "Ġradu": 1299,
      "Ġ17": 1300,
      "Ġviso": 1301,
      "Ġkontek": 1302,
      "rna": 1303,
      "qu": 1304,
      "Ġprili": 1305,
      "tna": 1306,
      "nske": 1307,
      "Ġpona": 1308,
      "Ġarhi": 1309,
      "ĠknjiÅ¾e": 1310,
      "ĠÄįove": 1311,
      "pli": 1312,
      "Ġuniver": 1313,
      "kro": 1314,
      "Ġprogra": 1315,
      "kul": 1316,
      "Ġsna": 1317,
      "ĠÄįla": 1318,
      "Ġveliki": 1319,
      "Ġsme": 1320,
      "nama": 1321,
      "njima": 1322,
      "...": 1323,
      "taka": 1324,
      "Ġtim": 1325,
      "ranja": 1326,
      "Ġnarod": 1327,
      "Ġformi": 1328,
      "Ġ14": 1329,
      "Ġizve": 1330,
      "Ġispita": 1331,
      "tio": 1332,
      "com": 1333,
      "Ġkomu": 1334,
      "kada": 1335,
      "Ġkr": 1336,
      "ĠgraÄĳa": 1337,
      "Ġone": 1338,
      "Ġodnosi": 1339,
      "Ġposebno": 1340,
      "Äįan": 1341,
      "Ġobu": 1342,
      "Ġloka": 1343,
      "nologi": 1344,
      "kako": 1345,
      "Ġpostoji": 1346,
      "Ġsin": 1347,
      "Ġzavi": 1348,
      "Ġrazu": 1349,
      "Ġkarakteristi": 1350,
      "Ġuo": 1351,
      "nogra": 1352,
      "Ġgrupa": 1353,
      "Ġdrugih": 1354,
      "Ġkojoj": 1355,
      "ĠtakoÄĳe": 1356,
      "Ġlekse": 1357,
      "vanoviÄĩ": 1358,
      "stava": 1359,
      "ĠistraÅ¾iva": 1360,
      "ar": 1361,
      "Å¡Äĩ": 1362,
      "mije": 1363,
      "Ġsrpske": 1364,
      "rske": 1365,
      "Äįnosti": 1366,
      "nskog": 1367,
      "len": 1368,
      "pis": 1369,
      "co": 1370,
      "Ġpokaza": 1371,
      "Ġstvara": 1372,
      "sio": 1373,
      "Ġdra": 1374,
      "Ġvezi": 1375,
      "Å¡nji": 1376,
      "Ġkoristi": 1377,
      "janje": 1378,
      "spi": 1379,
      "Ġozna": 1380,
      "Ġostva": 1381,
      "uze": 1382,
      "cij": 1383,
      "Ġovo": 1384,
      "vore": 1385,
      "Äįku": 1386,
      "nos": 1387,
      "Ġrazvoj": 1388,
      "Ġpreko": 1389,
      "vala": 1390,
      "Ġkome": 1391,
      "rma": 1392,
      "Ġulo": 1393,
      "Ġobave": 1394,
      "Ġintere": 1395,
      "vene": 1396,
      "Ġsvi": 1397,
      "kata": 1398,
      "sije": 1399,
      "Î¹": 1400,
      "ĠuÄįi": 1401,
      "jan": 1402,
      "tan": 1403,
      "Å¡ka": 1404,
      "Ġkompo": 1405,
      "Ġutvr": 1406,
      "Ġsavreme": 1407,
      "Äįkoj": 1408,
      "lÊ¼i": 1409,
      "dio": 1410,
      "tira": 1411,
      "viÅ¡e": 1412,
      "mom": 1413,
      "ĠÄįini": 1414,
      "Ġefe": 1415,
      "Ġuklju": 1416,
      "Ġstano": 1417,
      "laze": 1418,
      "Ġpretho": 1419,
      "Äĳenja": 1420,
      "gen": 1421,
      "Ġrepu": 1422,
      "raz": 1423,
      "Ñī": 1424,
      "Ġveoma": 1425,
      "Ġpostoje": 1426,
      "razume": 1427,
      "Ġvre": 1428,
      "Ġsvega": 1429,
      "Ġvlada": 1430,
      "Ġdvo": 1431,
      "Ġprimer": 1432,
      "ĠpoveÄĩa": 1433,
      "stan": 1434,
      "Ġthe": 1435,
      "Ġprofe": 1436,
      "tku": 1437,
      "Ġproizvod": 1438,
      "Ġgovori": 1439,
      "ĠÄįesto": 1440,
      "Ġspeci": 1441,
      "Ġose": 1442,
      "Äĳen": 1443,
      "oj": 1444,
      "lnim": 1445,
      "Ġpisa": 1446,
      "Ġzaklju": 1447,
      "Äįnim": 1448,
      "Äįenja": 1449,
      "zam": 1450,
      "Ġpis": 1451,
      "Ġevrop": 1452,
      "Ġparti": 1453,
      "ljivo": 1454,
      "Ġuspe": 1455,
      "Ġhri": 1456,
      "narod": 1457,
      "kav": 1458,
      "tropo": 1459,
      "ĠP": 1460,
      "Ġnas": 1461,
      "Ġsitua": 1462,
      "lka": 1463,
      "ĠrazliÄįitih": 1464,
      "Ġekonom": 1465,
      "Ġfilozo": 1466,
      "Ġpotvr": 1467,
      "Ġzah": 1468,
      "ĠÅ¾ivota": 1469,
      "Ġveza": 1470,
      "Ġsistem": 1471,
      "dite": 1472,
      "Ġnu": 1473,
      "Ġodgovara": 1474,
      "meni": 1475,
      "Ġpotpu": 1476,
      "tnih": 1477,
      "Ġov": 1478,
      "lnom": 1479,
      "âĢŀ": 1480,
      "Ġkoncep": 1481,
      "lije": 1482,
      "sob": 1483,
      "tora": 1484,
      "prema": 1485,
      "Ġpitanje": 1486,
      "uz": 1487,
      "Ġkad": 1488,
      "rta": 1489,
      "Å¡lje": 1490,
      "Å¡lo": 1491,
      "bora": 1492,
      "Ġnovi": 1493,
      "Ġkate": 1494,
      "nskih": 1495,
      "Ġsma": 1496,
      "vio": 1497,
      "Ġdoda": 1498,
      "Ġmeta": 1499,
      "ww": 1500,
      "tivni": 1501,
      "ĠÅ¡e": 1502,
      "Ġinforma": 1503,
      "Ġvu": 1504,
      "meÄĳutim": 1505,
      "Ġskup": 1506,
      "Ġvlasti": 1507,
      "Ġfakto": 1508,
      "Ġbeogradu": 1509,
      "Ġ197": 1510,
      "jima": 1511,
      "pak": 1512,
      "snosti": 1513,
      "cioni": 1514,
      "Ġsmislu": 1515,
      "isto": 1516,
      "tem": 1517,
      "Ġusta": 1518,
      "dese": 1519,
      "Ġfakul": 1520,
      "Ġkrimi": 1521,
      "plo": 1522,
      "ĠÂ": 1523,
      "Ġprepo": 1524,
      "Ġzahte": 1525,
      "tivi": 1526,
      "Ġindi": 1527,
      "Ġj": 1528,
      "Ġsrpskog": 1529,
      "ĠB": 1530,
      "Ġkriti": 1531,
      "Ġdanas": 1532,
      "Ġpodrazume": 1533,
      "ĠD": 1534,
      "ÏĤ": 1535,
      "rup": 1536,
      "ĠdrÅ¾ave": 1537,
      "Ġljud": 1538,
      "gli": 1539,
      "kazuju": 1540,
      "nÑĭ": 1541,
      "Ġnedo": 1542,
      "Ġzemlji": 1543,
      "Ġanti": 1544,
      "Ġposlo": 1545,
      "struk": 1546,
      "Ġomogu": 1547,
      "Ġuspo": 1548,
      "Ġodnosa": 1549,
      "Ġdelu": 1550,
      "Ġgrupe": 1551,
      "Ġpoj": 1552,
      "Ġgr": 1553,
      "Ġovih": 1554,
      "encija": 1555,
      "Ġsemanti": 1556,
      "Ġtrans": 1557,
      "nd": 1558,
      "Ġbude": 1559,
      "nicima": 1560,
      "ĠO": 1561,
      "janja": 1562,
      "ĠznaÄįenja": 1563,
      "ĠA": 1564,
      "tivnih": 1565,
      "lago": 1566,
      "vnim": 1567,
      "Ġdobro": 1568,
      "Ġmeri": 1569,
      "Ġmedi": 1570,
      "Äįava": 1571,
      "Å¡Äĩu": 1572,
      "lnosti": 1573,
      "ĠÄįita": 1574,
      "Ġvremena": 1575,
      "Ġposledi": 1576,
      "Ġdrugim": 1577,
      "Ġdemo": 1578,
      "Ġpride": 1579,
      "Ġsvih": 1580,
      "Ġobzi": 1581,
      "bele": 1582,
      "ss": 1583,
      "Ġpriro": 1584,
      "Ġjeziku": 1585,
      "Ġvide": 1586,
      "enta": 1587,
      "tt": 1588,
      "ĠnaÅ¡e": 1589,
      "22": 1590,
      "Ġtem": 1591,
      "Ġdopri": 1592,
      "Ġvra": 1593,
      "vnosti": 1594,
      "Å¡ke": 1595,
      "gije": 1596,
      "Ġsarad": 1597,
      "meta": 1598,
      "liti": 1599,
      "Ġnekoliko": 1600,
      "Ġslika": 1601,
      "Ġispo": 1602,
      "naj": 1603,
      "duk": 1604,
      "Ġposeb": 1605,
      "ĠvaÅ¾": 1606,
      "ĠsluÄįaju": 1607,
      "Ġrepubli": 1608,
      "kade": 1609,
      "nj": 1610,
      "vode": 1611,
      "meri": 1612,
      "Ġniko": 1613,
      "Ġgenera": 1614,
      "Ġnajve": 1615,
      "Ġskla": 1616,
      "Ïģ": 1617,
      "Ġstrate": 1618,
      "nan": 1619,
      "grani": 1620,
      "á¼": 1621,
      "Ġad": 1622,
      "sim": 1623,
      "ruÅ¾": 1624,
      "ĠneÅ¡to": 1625,
      "Ġdalje": 1626,
      "dije": 1627,
      "Ġnjih": 1628,
      "star": 1629,
      "sao": 1630,
      "Ġlu": 1631,
      "Ġstr": 1632,
      "mat": 1633,
      "Ġras": 1634,
      "Ġpokre": 1635,
      "Ġpomenu": 1636,
      "Ġpored": 1637,
      "Ġrazvoja": 1638,
      "Ġzi": 1639,
      "Ġspecifi": 1640,
      "Ġprvi": 1641,
      "Ġjugosla": 1642,
      "raju": 1643,
      "sna": 1644,
      "ĠÄĳ": 1645,
      "Ġode": 1646,
      "Ġregi": 1647,
      "Ġjezik": 1648,
      "ĠÅ¾ivot": 1649,
      "Ġsm": 1650,
      "Ġspro": 1651,
      "É¨É": 1652,
      "mini": 1653,
      "pisu": 1654,
      "Ġvode": 1655,
      "Ġmini": 1656,
      "Ġap": 1657,
      "viti": 1658,
      "ĠÃ": 1659,
      "Ġzdra": 1660,
      "Ġprocesa": 1661,
      "Ġneza": 1662,
      "Ġslede": 1663,
      "Ġmnogo": 1664,
      "gao": 1665,
      "Ġisku": 1666,
      "sima": 1667,
      "Ġsim": 1668,
      "Ġizda": 1669,
      "Ġtro": 1670,
      "Ġhra": 1671,
      "pred": 1672,
      "ĠdruÅ¡tva": 1673,
      "Å¡ki": 1674,
      "gar": 1675,
      "Ġperiodu": 1676,
      "Ġkomp": 1677,
      "ÉļÉ": 1678,
      "ĠÄįinje": 1679,
      "Ġrazume": 1680,
      "per": 1681,
      "ĠdrÅ¾ava": 1682,
      "rnog": 1683,
      "Äįnom": 1684,
      "Ġuvek": 1685,
      "ime": 1686,
      "Ġpogle": 1687,
      "feren": 1688,
      "Äįenje": 1689,
      "Äĳuje": 1690,
      "ts": 1691,
      "Ġdoma": 1692,
      "Ġistorij": 1693,
      "Ġveliko": 1694,
      "Å¡tva": 1695,
      "diti": 1696,
      "Ġposve": 1697,
      "ksa": 1698,
      "logije": 1699,
      "ture": 1700,
      "sam": 1701,
      "Ġpromene": 1702,
      "tori": 1703,
      "Ġrela": 1704,
      "pad": 1705,
      "21": 1706,
      "snije": 1707,
      "Äĳene": 1708,
      "Ġspre": 1709,
      "Ġnove": 1710,
      "Ġume": 1711,
      "rbi": 1712,
      "Ġprote": 1713,
      "Ġsvetog": 1714,
      "Ġproces": 1715,
      "gnu": 1716,
      "Ġdisku": 1717,
      "ĠponaÅ¡a": 1718,
      "zije": 1719,
      "tual": 1720,
      "ĠH": 1721,
      "Ġbor": 1722,
      "zbe": 1723,
      "viÄĩa": 1724,
      "Ġizo": 1725,
      "Ġrazliku": 1726,
      "Ġnega": 1727,
      "Îµ": 1728,
      "Ġsar": 1729,
      "Ġsvako": 1730,
      "Ġposmatra": 1731,
      "200": 1732,
      "sija": 1733,
      "Ġoblika": 1734,
      "Ġupu": 1735,
      "rvat": 1736,
      "kva": 1737,
      "Ġugla": 1738,
      "jske": 1739,
      "Å¡enje": 1740,
      "Ġdruga": 1741,
      "kama": 1742,
      "ĠznaÄįa": 1743,
      "Ġnavede": 1744,
      "Ġsvojim": 1745,
      "vina": 1746,
      "Ġdobije": 1747,
      "Ġ0": 1748,
      "Ġpoveza": 1749,
      "Ġpru": 1750,
      "ĠkoriÅ¡Äĩ": 1751,
      "Ġkulture": 1752,
      "Å¡enja": 1753,
      "23": 1754,
      "vra": 1755,
      "Ġzajednice": 1756,
      "Ġkojih": 1757,
      "zacije": 1758,
      "rnih": 1759,
      "stro": 1760,
      "liÄįi": 1761,
      "Ġtj": 1762,
      "Ġkatego": 1763,
      "menje": 1764,
      "Ġbli": 1765,
      "zbi": 1766,
      "Ġumet": 1767,
      "Ġruko": 1768,
      "Ġakade": 1769,
      "Ġtada": 1770,
      "Å¡Äĩa": 1771,
      "Ġsrpski": 1772,
      "Ġsub": 1773,
      "ona": 1774,
      "Ġposti": 1775,
      "gaÄĳa": 1776,
      "Ġzada": 1777,
      "ĠK": 1778,
      "Ġstandar": 1779,
      "Ġraspo": 1780,
      "ĠV": 1781,
      "tivnog": 1782,
      "menata": 1783,
      "Ġdis": 1784,
      "Ġforma": 1785,
      "Ġeks": 1786,
      "Ġneo": 1787,
      "Ġjednom": 1788,
      "Ġobrazovanja": 1789,
      "Ġaspe": 1790,
      "pla": 1791,
      "Ïĥ": 1792,
      "Ġpsi": 1793,
      "Ġmalo": 1794,
      "ĠznaÄįenje": 1795,
      "kta": 1796,
      "Ġsada": 1797,
      "ĠmeÄĳunarod": 1798,
      "Ġbri": 1799,
      "Ġjedne": 1800,
      "Ġdolazi": 1801,
      "lisa": 1802,
      "glo": 1803,
      "Ġprav": 1804,
      "Ġfizi": 1805,
      "opho": 1806,
      "lÑĮ": 1807,
      "Ġy": 1808,
      "Ġ,": 1809,
      "Ġdoku": 1810,
      "Ġistori": 1811,
      "Ġizd": 1812,
      "smo": 1813,
      "tivna": 1814,
      "br": 1815,
      "gro": 1816,
      "Ġbile": 1817,
      "Å¡ava": 1818,
      "zija": 1819,
      "renja": 1820,
      "som": 1821,
      "Ġpromena": 1822,
      "Ġ196": 1823,
      "ÄįeÅ¡Äĩe": 1824,
      "ĠT": 1825,
      "centra": 1826,
      "Ġmnog": 1827,
      "zuje": 1828,
      "voje": 1829,
      "Ġnivou": 1830,
      "Ġefika": 1831,
      "rÅ¾i": 1832,
      "Ġsvim": 1833,
      "vane": 1834,
      "Ġpretpo": 1835,
      "Ġpitanja": 1836,
      "Ġuniverzi": 1837,
      "blje": 1838,
      "ĠodrÅ¾a": 1839,
      "lacije": 1840,
      "Ġbre": 1841,
      "Ġjugosloven": 1842,
      "loÅ¡ke": 1843,
      "vremeno": 1844,
      "Ġiako": 1845,
      "Ġodgovor": 1846,
      "tko": 1847,
      "liÄĩ": 1848,
      "lnu": 1849,
      "Ġneu": 1850,
      "Ġepi": 1851,
      "Ġnapo": 1852,
      "Ġeu": 1853,
      "snost": 1854,
      "ĠmoguÄĩe": 1855,
      "Ġstefa": 1856,
      "Ġtempera": 1857,
      "ĠÄįak": 1858,
      "Ġmanje": 1859,
      "sred": 1860,
      "laga": 1861,
      "Ġvidu": 1862,
      "bina": 1863,
      "vor": 1864,
      "prav": 1865,
      "Ġpristup": 1866,
      "Ġjeste": 1867,
      "Å¾an": 1868,
      "mima": 1869,
      "Ġneko": 1870,
      "Ġtipa": 1871,
      "voda": 1872,
      "Ġneopho": 1873,
      "Ġelek": 1874,
      "Ġdoba": 1875,
      "tura": 1876,
      "Ġizvr": 1877,
      "oni": 1878,
      "Ġonda": 1879,
      "ruÄį": 1880,
      "Ġjednog": 1881,
      "Ġsanu": 1882,
      "tovo": 1883,
      "ĠznaÄįi": 1884,
      "Ġhila": 1885,
      "ĠmiÅ¡lje": 1886,
      "Äĳena": 1887,
      "Ġver": 1888,
      "ĠsluÅ¾be": 1889,
      "Ġpar": 1890,
      "vred": 1891,
      "th": 1892,
      "Ġsveta": 1893,
      "Ġprikaza": 1894,
      "Ġograni": 1895,
      "Ġglo": 1896,
      "pen": 1897,
      "dro": 1898,
      "lih": 1899,
      "ĠpovrÅ¡i": 1900,
      "Ġput": 1901,
      "Ġpodr": 1902,
      "Ġposled": 1903,
      "lim": 1904,
      "Ġmona": 1905,
      "es": 1906,
      "tnog": 1907,
      "Ġupravo": 1908,
      "Ġneke": 1909,
      "Ġpodrazumeva": 1910,
      "ima": 1911,
      "Ġtur": 1912,
      "Ġodnos": 1913,
      "ll": 1914,
      "Ġodgovo": 1915,
      "Ġmesto": 1916,
      "É¢É": 1917,
      "Ġvrsta": 1918,
      "Ġobezbe": 1919,
      "Ġnjima": 1920,
      "ĠdogaÄĳa": 1921,
      "mera": 1922,
      "Ġnavodi": 1923,
      "Ġsvr": 1924,
      "Ġpojedina": 1925,
      "ĠÄįemu": 1926,
      "ĠrazliÄįite": 1927,
      "ÉŁÉ": 1928,
      "nat": 1929,
      "Äįito": 1930,
      "Ġvrste": 1931,
      "Ġinterak": 1932,
      "Ġukup": 1933,
      "sre": 1934,
      "Ġit": 1935,
      "Ġmilo": 1936,
      "Ġ\"": 1937,
      "Ġsveti": 1938,
      "Å¾eni": 1939,
      "Ġunutra": 1940,
      "Ġpredu": 1941,
      "grad": 1942,
      "Ġzabele": 1943,
      "ĠpaÅ¾": 1944,
      "ĠpoloÅ¾a": 1945,
      "ĠC": 1946,
      "Ã¥": 1947,
      "25": 1948,
      "Ġkru": 1949,
      "Ġuticaj": 1950,
      "ĠL": 1951,
      "rori": 1952,
      "ur": 1953,
      "zni": 1954,
      "rot": 1955,
      "ljo": 1956,
      "Ġpodataka": 1957,
      "nov": 1958,
      "Ġprinci": 1959,
      "Ġpredstav": 1960,
      "menti": 1961,
      "um": 1962,
      "visti": 1963,
      "para": 1964,
      "jski": 1965,
      "Ġnasle": 1966,
      "Ġprilikom": 1967,
      "sor": 1968,
      "Ġpripada": 1969,
      "Äĩem": 1970,
      "logija": 1971,
      "Ġ194": 1972,
      "Ġboga": 1973,
      "hani": 1974,
      "âĢĿ,": 1975,
      "ĠÑ": 1976,
      "Ġoda": 1977,
      "dova": 1978,
      "Ġbogo": 1979,
      "Ġlitera": 1980,
      "Ġrata": 1981,
      "dnog": 1982,
      "Ġtvr": 1983,
      "is": 1984,
      "Ġkonkre": 1985,
      "telj": 1986,
      "Ġorganizova": 1987,
      "Ġnara": 1988,
      "Å¾en": 1989,
      "Ġfinan": 1990,
      "Ġprima": 1991,
      "jskog": 1992,
      "Ġrodite": 1993,
      "Ġtrebalo": 1994,
      "Ġspa": 1995,
      "Ġkar": 1996,
      "Ġglagol": 1997,
      "ĠmoguÄĩnosti": 1998,
      "les": 1999,
      "Ġnasi": 2000,
      "godi": 2001,
      "Äįiti": 2002,
      "Ġzatim": 2003,
      "Ġjavlja": 2004,
      "Ġvidi": 2005,
      "Å¡tu": 2006,
      "Ġvarija": 2007,
      "jeva": 2008,
      "ĠoÄįe": 2009,
      "Ġpotencija": 2010,
      "ali": 2011,
      "vesti": 2012,
      "50": 2013,
      "fu": 2014,
      "Ġpoku": 2015,
      "ty": 2016,
      "kr": 2017,
      "Ġkore": 2018,
      "Ġsop": 2019,
      "Ġkontekstu": 2020,
      "êĻ": 2021,
      "tke": 2022,
      "Ġcar": 2023,
      "Ġkomunika": 2024,
      "Ġgro": 2025,
      "jedna": 2026,
      "stri": 2027,
      "ĠpoÅ¡to": 2028,
      "kov": 2029,
      "Ġprou": 2030,
      "mere": 2031,
      "ĠrazliÄįitim": 2032,
      "tetu": 2033,
      "Ġbezbe": 2034,
      "Ãª": 2035,
      "Å¾da": 2036,
      "tkom": 2037,
      "Ġsvedo": 2038,
      "Ġuda": 2039,
      "takoÄĳe": 2040,
      "Ġstanovni": 2041,
      "Ġtran": 2042,
      "Ġsrpskom": 2043,
      "Ġá¼": 2044,
      "Ġplo": 2045,
      "Ã¡": 2046,
      "Ġopa": 2047,
      "tin": 2048,
      "Ġizuze": 2049,
      "ĠnajÄįeÅ¡Äĩe": 2050,
      "ĠreÄįe": 2051,
      "qa": 2052,
      "Äįnost": 2053,
      "Ġsko": 2054,
      "grafi": 2055,
      "kve": 2056,
      "Ġvid": 2057,
      "slika": 2058,
      "kovi": 2059,
      "wi": 2060,
      "Ġskladu": 2061,
      "lizacije": 2062,
      "Ġmanji": 2063,
      "Ġglagola": 2064,
      "Ġuglavnom": 2065,
      "obra": 2066,
      "Ġanaliza": 2067,
      "miÅ¡": 2068,
      "Ġsami": 2069,
      "Ġregu": 2070,
      "Ġpat": 2071,
      "Ġputa": 2072,
      "Ġvodi": 2073,
      "tisti": 2074,
      "Ġista": 2075,
      "nin": 2076,
      "line": 2077,
      "ĠG": 2078,
      "vlju": 2079,
      "Ġsvoju": 2080,
      "nie": 2081,
      "zanti": 2082,
      "Ġdemokra": 2083,
      "Ġteri": 2084,
      "vje": 2085,
      "30": 2086,
      "Ġpreva": 2087,
      "Ġitd": 2088,
      "Ġtradicional": 2089,
      "ÏĢ": 2090,
      "Ġbalka": 2091,
      "Ġ&": 2092,
      "drÅ¾a": 2093,
      "rnosti": 2094,
      "Äĩeg": 2095,
      "leÅ¾": 2096,
      "Ġmaj": 2097,
      "Ġhu": 2098,
      "ĠoseÄĩa": 2099,
      "str": 2100,
      "Ġjedin": 2101,
      "Ġekspe": 2102,
      "Ġpreda": 2103,
      "Ġgre": 2104,
      "Ġwe": 2105,
      "Ġsl": 2106,
      "Ġtrenu": 2107,
      "ĠâĢĻ": 2108,
      "Ġdrugog": 2109,
      "lina": 2110,
      "Ġministar": 2111,
      "Ġteme": 2112,
      "Ġpredstavljaju": 2113,
      "ĠopÅ¡te": 2114,
      "gija": 2115,
      "Ġcentra": 2116,
      "Ġeti": 2117,
      "Ġzemlje": 2118,
      "Ġhrvat": 2119,
      "Ġpsiho": 2120,
      "Äĩih": 2121,
      "ina": 2122,
      "tnim": 2123,
      "//": 2124,
      "Ġpitanju": 2125,
      "lini": 2126,
      "zne": 2127,
      "Ġosoba": 2128,
      "iako": 2129,
      "Ġklju": 2130,
      "vaja": 2131,
      "sova": 2132,
      "Ġanalize": 2133,
      "Ġfinansi": 2134,
      "Ġpostupa": 2135,
      "Ġsud": 2136,
      "ks": 2137,
      "rp": 2138,
      "Ġstatu": 2139,
      "jekta": 2140,
      "Ġstaro": 2141,
      "Ġkasnije": 2142,
      "Ġfran": 2143,
      "Ġmehani": 2144,
      "zom": 2145,
      "upo": 2146,
      "mana": 2147,
      "24": 2148,
      "titi": 2149,
      "Ġnagla": 2150,
      "pored": 2151,
      "Ġcilj": 2152,
      "Ġkor": 2153,
      "loÅ¡kog": 2154,
      "Ġdete": 2155,
      "tova": 2156,
      "gne": 2157,
      "nen": 2158,
      "nak": 2159,
      "gita": 2160,
      "Ġkonstruk": 2161,
      "Ġum": 2162,
      "Å¾enje": 2163,
      "Ġodra": 2164,
      "gled": 2165,
      "ĠmeÄĳutim": 2166,
      "Ġdugo": 2167,
      "Ġpostup": 2168,
      "im": 2169,
      "ttp": 2170,
      "Ġuslovima": 2171,
      "lita": 2172,
      "ĠnaÅ¡": 2173,
      "Ġovim": 2174,
      "Ġneka": 2175,
      "Ġsposob": 2176,
      "ĠuÄįenika": 2177,
      "Ġposla": 2178,
      "Ġterori": 2179,
      "Ġdomina": 2180,
      "Ġprak": 2181,
      "Ġnova": 2182,
      "Ġulogu": 2183,
      "Ġuzor": 2184,
      "Ġproblem": 2185,
      "Ġreak": 2186,
      "Ġcilje": 2187,
      "Ġke": 2188,
      "Ġkoncentra": 2189,
      "ĠjovanoviÄĩ": 2190,
      "Ġpode": 2191,
      "ĠpodruÄį": 2192,
      "vnu": 2193,
      "ĠkoliÄįi": 2194,
      "Å¡ao": 2195,
      "Ġam": 2196,
      "Ġ25": 2197,
      "Ġkoriste": 2198,
      "000": 2199,
      "ĠmoguÄĩnost": 2200,
      "://": 2201,
      "ĠkaÅ¾e": 2202,
      "klu": 2203,
      "ĠokruÅ¾": 2204,
      "ĠÅ¾en": 2205,
      "Ġmere": 2206,
      "Ġleksema": 2207,
      "Ġodnose": 2208,
      "Ġ11": 2209,
      "Ġbroja": 2210,
      "us": 2211,
      "Äįen": 2212,
      "Ġrepublike": 2213,
      "Ġtog": 2214,
      "ĠÅ¾ivoti": 2215,
      "Ġneposred": 2216,
      "á¿": 2217,
      "loviÄĩ": 2218,
      "Ġprvo": 2219,
      "Ġgloba": 2220,
      "Äĳeno": 2221,
      "Ġantropo": 2222,
      "Ġure": 2223,
      "Ġii": 2224,
      "Äįnu": 2225,
      "tere": 2226,
      "Ġzbor": 2227,
      "26": 2228,
      "Ġplani": 2229,
      "loÅ¡kih": 2230,
      "Ġpogledu": 2231,
      "Ġetni": 2232,
      "Ġobzirom": 2233,
      "ener": 2234,
      "Ġgori": 2235,
      "Ġetno": 2236,
      "Ġideo": 2237,
      "Ġnam": 2238,
      "njo": 2239,
      "niÑı": 2240,
      "rovatno": 2241,
      "Ġem": 2242,
      "Ġxvi": 2243,
      "Ġdone": 2244,
      "mija": 2245,
      "kt": 2246,
      "Ġ24": 2247,
      "Ġnjihove": 2248,
      "Ġunutar": 2249,
      "Ġvrlo": 2250,
      "Ġalek": 2251,
      "Ġnovo": 2252,
      "nike": 2253,
      "Ġcon": 2254,
      "Ġkapi": 2255,
      "ktor": 2256,
      "Ġpost": 2257,
      "Ġtuma": 2258,
      "Ġzo": 2259,
      "dima": 2260,
      "Ġbrez": 2261,
      "blja": 2262,
      "Å¾ena": 2263,
      "Ġanalizira": 2264,
      "lac": 2265,
      "Äįuna": 2266,
      "kar": 2267,
      "Ġzakon": 2268,
      "Ġpola": 2269,
      "cionali": 2270,
      "Ġklasi": 2271,
      "Ġprakti": 2272,
      "Ġopre": 2273,
      "ÄįiÄĩ": 2274,
      "Ġautori": 2275,
      "bera": 2276,
      "Ġvrednost": 2277,
      "dnih": 2278,
      "Ġjasno": 2279,
      "Ġukazuje": 2280,
      "Ġkorup": 2281,
      "nograf": 2282,
      "ĠN": 2283,
      "Ġbilj": 2284,
      "vidu": 2285,
      "cama": 2286,
      "ĠR": 2287,
      "Ġkojim": 2288,
      "Ġelektro": 2289,
      "au": 2290,
      "ĠÄįiji": 2291,
      "Ġoblik": 2292,
      "bela": 2293,
      "Ġusle": 2294,
      "Ġpostoja": 2295,
      "Ġ:": 2296,
      "Ġ30": 2297,
      "Ġrazmatra": 2298,
      "Ġzemlja": 2299,
      "socija": 2300,
      "Ġznanja": 2301,
      "Ġmigra": 2302,
      "risa": 2303,
      "Ġfeno": 2304,
      "Ġisklju": 2305,
      "sl": 2306,
      "Ġredo": 2307,
      "Ġizlo": 2308,
      "bine": 2309,
      "Ġispiti": 2310,
      "lnost": 2311,
      "ngvisti": 2312,
      "bom": 2313,
      "Ġprepozna": 2314,
      "Ġmesta": 2315,
      "nicama": 2316,
      "kuje": 2317,
      "Äĳuju": 2318,
      "Ġvan": 2319,
      "Ġovde": 2320,
      "Ġnov": 2321,
      "Ġkojem": 2322,
      "Ġoslo": 2323,
      "zacija": 2324,
      "snik": 2325,
      "ograf": 2326,
      "nad": 2327,
      "voljno": 2328,
      "Ġpotom": 2329,
      "Ġzado": 2330,
      "Ġsveto": 2331,
      "Ġdefinisa": 2332,
      "ĠnaroÄįito": 2333,
      "Ġfilozof": 2334,
      "Ġindu": 2335,
      "Ġterito": 2336,
      "ĠÏĦ": 2337,
      "kazi": 2338,
      "ĠJ": 2339,
      "Ġsmanje": 2340,
      "ĠpoÄįi": 2341,
      "dana": 2342,
      "ĠpomoÄĩ": 2343,
      "Äĳeni": 2344,
      "loÅ¡ka": 2345,
      "Ġwi": 2346,
      "qe": 2347,
      "nisti": 2348,
      "nicu": 2349,
      "bar": 2350,
      "Ġpomi": 2351,
      "Ġgrad": 2352,
      "Ġiko": 2353,
      "ĠÄĩelija": 2354,
      "nove": 2355,
      "27": 2356,
      "rani": 2357,
      "ĠÅ¡ire": 2358,
      "Ġnauka": 2359,
      "Ġstre": 2360,
      "Ġproblema": 2361,
      "Ġâ": 2362,
      "pozi": 2363,
      "Ġautor": 2364,
      "ĠÅ¾ena": 2365,
      "Ġco": 2366,
      "Ġ2008": 2367,
      "Ġsrba": 2368,
      "Ġdimen": 2369,
      "Ġeksperi": 2370,
      "Ġuna": 2371,
      "Ġrazvija": 2372,
      "Ġzavr": 2373,
      "graf": 2374,
      "Ġmisli": 2375,
      "29": 2376,
      "ban": 2377,
      "Ġmodel": 2378,
      "Ġmodela": 2379,
      "Ġzato": 2380,
      "Ġnjegovo": 2381,
      "Ġkraju": 2382,
      "Ġgle": 2383,
      "Ġprirod": 2384,
      "Ġprihva": 2385,
      "Ġzame": 2386,
      "ĠgraÄĳe": 2387,
      "Ġ2011": 2388,
      "turi": 2389,
      "Ġovoj": 2390,
      "tivnim": 2391,
      "Ġsvom": 2392,
      "Ġtrgo": 2393,
      "Ġï": 2394,
      "nde": 2395,
      "Ġnovih": 2396,
      "Ġshvata": 2397,
      "opÅ¡te": 2398,
      "Ġpravosla": 2399,
      "ĠsuÅ¡ti": 2400,
      "Äįar": 2401,
      "lnoj": 2402,
      "tski": 2403,
      "Ġdirek": 2404,
      "Ġdigita": 2405,
      "ĠteÅ¡ko": 2406,
      "Ġduho": 2407,
      "Ġnjega": 2408,
      "Å¡taj": 2409,
      "Ġproje": 2410,
      "tiri": 2411,
      "Ġzlo": 2412,
      "nio": 2413,
      "mar": 2414,
      "28": 2415,
      "Ġreli": 2416,
      "dnosti": 2417,
      "nska": 2418,
      "Ġkolek": 2419,
      "jskih": 2420,
      "ĠÄĳu": 2421,
      "Ġnjegove": 2422,
      "ple": 2423,
      "kih": 2424,
      "Ġorije": 2425,
      "Ġmestu": 2426,
      "Ġdeta": 2427,
      "Ġdobija": 2428,
      "formi": 2429,
      "Ġlica": 2430,
      "sional": 2431,
      "Ġobje": 2432,
      "Ġputem": 2433,
      "stavi": 2434,
      "Ġpriti": 2435,
      "Ġnaroda": 2436,
      "Ġmanastira": 2437,
      "Ġrezultati": 2438,
      "«É": 2439,
      "tanja": 2440,
      "riÄĩ": 2441,
      "Ġhttp": 2442,
      "Ġpet": 2443,
      "tue": 2444,
      "Ġtehnologi": 2445,
      "ĠÅ¡iro": 2446,
      "Ġmikro": 2447,
      "Ġ2007": 2448,
      "Ġbole": 2449,
      "lÊ¼e": 2450,
      "Ġorganizacije": 2451,
      "Ġpoput": 2452,
      "Ġener": 2453,
      "koj": 2454,
      "tije": 2455,
      "Ġobo": 2456,
      "Ġimo": 2457,
      "Ġgotovo": 2458,
      "kte": 2459,
      "Ġkrimina": 2460,
      "ĠopÅ¡ti": 2461,
      "ĠznaÄįajno": 2462,
      "Ġter": 2463,
      "Ġxi": 2464,
      "Ġzat": 2465,
      "Ġupravlja": 2466,
      "er": 2467,
      "laza": 2468,
      "vid": 2469,
      "Ġsazna": 2470,
      "Ġnorma": 2471,
      "ÑĹ": 2472,
      "bio": 2473,
      "mer": 2474,
      "posto": 2475,
      "Ġotpo": 2476,
      "rane": 2477,
      "laca": 2478,
      "upa": 2479,
      "Ġsvog": 2480,
      "Ġindividu": 2481,
      "Ġverovatno": 2482,
      "Ġcelo": 2483,
      "Ġzaposle": 2484,
      "rhi": 2485,
      "pravo": 2486,
      "Ġbibli": 2487,
      "tiÄĩ": 2488,
      "rijar": 2489,
      "volu": 2490,
      "Ġipak": 2491,
      "Ġzasno": 2492,
      "nskom": 2493,
      "Ġnauke": 2494,
      "Ġog": 2495,
      "Ġonih": 2496,
      "voji": 2497,
      "ld": 2498,
      "Ġispitanika": 2499,
      "Ġumetnosti": 2500,
      "bije": 2501,
      "Ġvremen": 2502,
      "lÑı": 2503,
      "tnosti": 2504,
      "lizova": 2505,
      "Ġzapi": 2506,
      "kaz": 2507,
      "lama": 2508,
      "Ġradova": 2509,
      "Ġpogo": 2510,
      "snih": 2511,
      "ĠâĢĺ": 2512,
      "Ġgovora": 2513,
      "Ġkompozi": 2514,
      "ĠukljuÄįu": 2515,
      "ĠâĢľ": 2516,
      "ber": 2517,
      "Ġpokazuje": 2518,
      "Ġodred": 2519,
      "Ġsvetu": 2520,
      "Äĳenju": 2521,
      "Ġosobe": 2522,
      "Ġkne": 2523,
      "Ã¨": 2524,
      "Ġpojmo": 2525,
      "lizma": 2526,
      "Ġuzro": 2527,
      "ih": 2528,
      "svim": 2529,
      "tina": 2530,
      "Ġkraj": 2531,
      "Å¡tvo": 2532,
      "rana": 2533,
      "Ġur": 2534,
      "lozi": 2535,
      "ved": 2536,
      "Äĳivanje": 2537,
      "Ġ23": 2538,
      "Ġranije": 2539,
      "teriju": 2540,
      "ovo": 2541,
      "uzima": 2542,
      "Ġzahva": 2543,
      "posle": 2544,
      "ĠmoÅ¾emo": 2545,
      "nijih": 2546,
      "Ġotkri": 2547,
      "Ġtret": 2548,
      "Å¾io": 2549,
      "Ġimao": 2550,
      "tinu": 2551,
      "sak": 2552,
      "ĠpokuÅ¡a": 2553,
      "ĠÄįlan": 2554,
      "ĠdruÅ¡tvene": 2555,
      "Ġstudija": 2556,
      "Ġ2012": 2557,
      "Ġinstituta": 2558,
      "Ġnase": 2559,
      "dar": 2560,
      "vÅ¡i": 2561,
      "44": 2562,
      "Ġpolitike": 2563,
      "snika": 2564,
      "kad": 2565,
      "dnik": 2566,
      "rsa": 2567,
      "Ġbar": 2568,
      "Ġidentiteta": 2569,
      "sten": 2570,
      "ĠdruÅ¡tvenih": 2571,
      "Ġfakultet": 2572,
      "Ġreci": 2573,
      "Ġpotrebno": 2574,
      "miÅ¡lja": 2575,
      "tnom": 2576,
      "Ġprija": 2577,
      "Ġpristupa": 2578,
      "Ġdakle": 2579,
      "dnici": 2580,
      "Ġprocesu": 2581,
      "Ġopisa": 2582,
      "Ġbele": 2583,
      "Ġmaterijala": 2584,
      "ob": 2585,
      "ĠoÄįi": 2586,
      "tica": 2587,
      "Ġformu": 2588,
      "vini": 2589,
      "stica": 2590,
      "Ġpono": 2591,
      "ĠÅ¾a": 2592,
      "Ġsebe": 2593,
      "Ġstatisti": 2594,
      "ografi": 2595,
      "Ġrizi": 2596,
      "Ġstruktura": 2597,
      "Ġkultura": 2598,
      "ĠÑı": 2599,
      "Ġukoliko": 2600,
      "ĠpruÅ¾a": 2601,
      "pisi": 2602,
      "Äĩen": 2603,
      "Ġdaje": 2604,
      "Äįak": 2605,
      "Ġ2006": 2606,
      "ĠÅ¾ive": 2607,
      "Ġposledica": 2608,
      "tske": 2609,
      "cipli": 2610,
      "mor": 2611,
      "Ġinten": 2612,
      "Å¾ava": 2613,
      "Ġ2013": 2614,
      "ĠprouÄįa": 2615,
      "Ġpredvi": 2616,
      "Ġ195": 2617,
      "kim": 2618,
      "gru": 2619,
      "Ġjednu": 2620,
      "Ġ2010": 2621,
      "ĠproÅ¡lo": 2622,
      "ĠdoÅ¾i": 2623,
      "Ġdeli": 2624,
      "Ġ2015": 2625,
      "jevima": 2626,
      "Ġ=": 2627,
      "stvom": 2628,
      "vori": 2629,
      "Ġpatrijar": 2630,
      "ĠnaÄįe": 2631,
      "Ġpotrebe": 2632,
      "Ġpokazuju": 2633,
      "lacija": 2634,
      "Ġkise": 2635,
      "il": 2636,
      "sk": 2637,
      "Ġmr": 2638,
      "Ġemi": 2639,
      "Ġovak": 2640,
      "zv": 2641,
      "cipa": 2642,
      "Ġfra": 2643,
      "Ġ.": 2644,
      "risti": 2645,
      "Ġdje": 2646,
      "zila": 2647,
      "Ġrazlike": 2648,
      "Ġmre": 2649,
      "ĠÄįetiri": 2650,
      "Ġprostor": 2651,
      "Ġkriminali": 2652,
      "Ġnajbo": 2653,
      "Ġ27": 2654,
      "Ġstvari": 2655,
      "Ġpotreba": 2656,
      "Ġhilandar": 2657,
      "Ġimala": 2658,
      "Ġsimbo": 2659,
      "npr": 2660,
      "zama": 2661,
      "Ġzakona": 2662,
      "Ġleksiko": 2663,
      "ĠsluÄįaj": 2664,
      "kultu": 2665,
      "Ġinstru": 2666,
      "Ġmetoda": 2667,
      "Ġproto": 2668,
      "ĠÅ¡kole": 2669,
      "nskim": 2670,
      "Ġosnova": 2671,
      "Ġtime": 2672,
      "Ġvelike": 2673,
      "ĠomoguÄĩa": 2674,
      "Ġblago": 2675,
      "mpa": 2676,
      "Ġusled": 2677,
      "dnom": 2678,
      "Êģ": 2679,
      "Ġmiha": 2680,
      "Ġmor": 2681,
      "Ġmil": 2682,
      "îĢ": 2683,
      "Ġ2016": 2684,
      "35": 2685,
      "jn": 2686,
      "njih": 2687,
      "Ġimati": 2688,
      "Ġperspe": 2689,
      "bru": 2690,
      "lova": 2691,
      "naime": 2692,
      "Ġimali": 2693,
      "âĢ¦": 2694,
      "ĠsadrÅ¾aj": 2695,
      ".)": 2696,
      "Ġsebi": 2697,
      "Ġmogao": 2698,
      "ili": 2699,
      "Ġgore": 2700,
      "Å¡iÄĩ": 2701,
      "Ġuspostavlja": 2702,
      "Ġnjegov": 2703,
      "ljenja": 2704,
      "Ġnedosta": 2705,
      "Äįara": 2706,
      "Ġdan": 2707,
      "Ġnosi": 2708,
      "Ġkolo": 2709,
      "Ġotvore": 2710,
      "stre": 2711,
      "Ġrazlika": 2712,
      "Ġ2014": 2713,
      "dago": 2714,
      "semanti": 2715,
      "ĠÅ¡a": 2716,
      "wu": 2717,
      "Ġfrancu": 2718,
      "niti": 2719,
      "Ġnaziva": 2720,
      "Ġukra": 2721,
      "var": 2722,
      "tur": 2723,
      "Ġsrpsko": 2724,
      "Ġigra": 2725,
      "Ġkriteriju": 2726,
      "Äĩim": 2727,
      "Ġ2005": 2728,
      "Ġteorij": 2729,
      "Î·": 2730,
      "Ġsasvim": 2731,
      "Ġstepen": 2732,
      "mir": 2733,
      "tivnom": 2734,
      "Ġgovorima": 2735,
      "ĠÅ¾ene": 2736,
      "Ġzema": 2737,
      "Ġsvojih": 2738,
      "Éª": 2739,
      "Ãĭ": 2740,
      "Å¡o": 2741,
      "ĠÄįine": 2742,
      "stuplje": 2743,
      "Ġreal": 2744,
      "Å¡li": 2745,
      "Ġprosve": 2746,
      "Ġgor": 2747,
      "Ġcrkva": 2748,
      "Ġtehno": 2749,
      "Ġopera": 2750,
      "ovaj": 2751,
      "Ġkoliko": 2752,
      "Ġ2009": 2753,
      "Ġprimene": 2754,
      "Ġsiro": 2755,
      "kli": 2756,
      "tr": 2757,
      "Ġkralje": 2758,
      "gor": 2759,
      "Ġbog": 2760,
      "Äįnoj": 2761,
      "Ġ2017": 2762,
      "Ġsklo": 2763,
      "Ġdina": 2764,
      "Ã£": 2765,
      "Ġvaspi": 2766,
      "Ġdove": 2767,
      "Ġ2004": 2768,
      "Ġnjegovog": 2769,
      "www": 2770,
      "Ġnovog": 2771,
      "Ġ2003": 2772,
      "Ġindust": 2773,
      "zvo": 2774,
      "Ġkak": 2775,
      "Ġmera": 2776,
      "Ġnjemu": 2777,
      "ĠzaÅ¡tite": 2778,
      "xi": 2779,
      "rov": 2780,
      "Ġprocen": 2781,
      "Ġobuhvata": 2782,
      "ĠuspeÅ¡": 2783,
      "Ġstav": 2784,
      "Ġkonsta": 2785,
      "Ġprostoru": 2786,
      "Ġizbe": 2787,
      "Å¡la": 2788,
      "Ġknjiga": 2789,
      "stveno": 2790,
      "tnu": 2791,
      "ĠduÅ¾i": 2792,
      "cene": 2793,
      "Ġana": 2794,
      "Ġkapita": 2795,
      "Ġmenja": 2796,
      "zuju": 2797,
      "Ġrazvoju": 2798,
      "Ġiznosi": 2799,
      "Äĩuje": 2800,
      "Ġsvaki": 2801,
      "Ġkomplek": 2802,
      "vila": 2803,
      "dam": 2804,
      "Ġkraja": 2805,
      "Å¾ene": 2806,
      "Ġcilju": 2807,
      "Ġnekim": 2808,
      "Ġmese": 2809,
      "Ġgospo": 2810,
      "Ġteksto": 2811,
      "ck": 2812,
      "Ġistovremeno": 2813,
      "Ġokolnosti": 2814,
      "riju": 2815,
      "Ġ50": 2816,
      "dina": 2817,
      "Ġperiod": 2818,
      "Ġple": 2819,
      "Ġnasto": 2820,
      "Ġspecija": 2821,
      "ĠnajviÅ¡e": 2822,
      "Ġmanastir": 2823,
      "nose": 2824,
      "Ġvizanti": 2825,
      "Ġtih": 2826,
      "ak": 2827,
      "Ġdrugom": 2828,
      "Ġtamo": 2829,
      "vica": 2830,
      "ĠsadrÅ¾i": 2831,
      "Ġpridev": 2832,
      "ĠsÑĬ": 2833,
      "Ġkriminal": 2834,
      "ĠistraÅ¾ivanje": 2835,
      "ot": 2836,
      "Î»": 2837,
      "Ġpedago": 2838,
      "Ġpredmet": 2839,
      "Ġdovodi": 2840,
      "ĠmaÄĳa": 2841,
      "ĠpolitiÄįke": 2842,
      "Ġ26": 2843,
      "Ġgri": 2844,
      "ĠÄįoveka": 2845,
      "Ġtru": 2846,
      "ĠnaÅ¡i": 2847,
      "Ġsvakodne": 2848,
      "Ġkata": 2849,
      "Ġkriminala": 2850,
      "Ġnalaze": 2851,
      "voÄĳenje": 2852,
      "zer": 2853,
      "dÅ¾": 2854,
      "zno": 2855,
      "ĠuopÅ¡te": 2856,
      "jih": 2857,
      "Ġlekseme": 2858,
      "Ġostvari": 2859,
      "nka": 2860,
      "pove": 2861,
      "Ġstanje": 2862,
      "Ġrezultat": 2863,
      "tnost": 2864,
      "politi": 2865,
      "Ġdopu": 2866,
      "Ïħ": 2867,
      "Äĩenja": 2868,
      "et": 2869,
      "ÃŃ": 2870,
      "rad": 2871,
      "Ġpredse": 2872,
      "Ġprakse": 2873,
      "Ġosu": 2874,
      "Ġher": 2875,
      "Ġintenzi": 2876,
      "Ġpraksi": 2877,
      "Ġgovor": 2878,
      "ĠstanovniÅ¡tva": 2879,
      "Ġnared": 2880,
      "Ġkompe": 2881,
      "Ġjugoslavije": 2882,
      "Ġprvog": 2883,
      "ĠÄįovek": 2884,
      "Ġodgovaraju": 2885,
      "Îº": 2886,
      "lit": 2887,
      "Ġpora": 2888,
      "Ġpisme": 2889,
      "nca": 2890,
      "dak": 2891,
      "Ġsocio": 2892,
      "Ġsloven": 2893,
      "tanje": 2894,
      "Ġovu": 2895,
      "ĠÅ¾rt": 2896,
      "Ġkomi": 2897,
      "Ġpolicij": 2898,
      "Ġmani": 2899,
      "Ġstari": 2900,
      "troviÄĩ": 2901,
      "):": 2902,
      "Ġsela": 2903,
      "Ġtzv": 2904,
      "Ġïĥ": 2905,
      "Ġstabi": 2906,
      "Ġpodi": 2907,
      "kula": 2908,
      "gni": 2909,
      "dnim": 2910,
      "Ġprostora": 2911,
      "34": 2912,
      "Ġsrbija": 2913,
      "Ġvladi": 2914,
      "ĠtrÅ¾i": 2915,
      "Ġnastavnika": 2916,
      "Äįnja": 2917,
      "zmu": 2918,
      "Ġpogla": 2919,
      "Ġizne": 2920,
      "Ġgramati": 2921,
      "Ġperioda": 2922,
      "tive": 2923,
      "Ġdes": 2924,
      "valo": 2925,
      "Ġpripad": 2926,
      "ĠduÅ¾": 2927,
      "Ġobjavlje": 2928,
      "Ġravno": 2929,
      "mbra": 2930,
      "39": 2931,
      "che": 2932,
      "Ġiii": 2933,
      "jedno": 2934,
      "Ġobavlja": 2935,
      "mje": 2936,
      "ĠÅ¡u": 2937,
      "nosa": 2938,
      "Ġprvom": 2939,
      "âĢķ": 2940,
      "Ġsfe": 2941,
      "Ġ2000": 2942,
      "nce": 2943,
      "Ġlingvisti": 2944,
      "Ġnezavi": 2945,
      "Ġprofesional": 2946,
      "Ġ2020": 2947,
      "Ġobrazovanje": 2948,
      "ÉŃ": 2949,
      "Äĩena": 2950,
      "Ġfunkcioni": 2951,
      "Ġgubi": 2952,
      "Ġosim": 2953,
      "Ġniti": 2954,
      "niju": 2955,
      "Å¡ku": 2956,
      "Ġ28": 2957,
      "Ġpopo": 2958,
      "Ġpolu": 2959,
      "Ġsuzbi": 2960,
      "Ġsigu": 2961,
      "Å¡en": 2962,
      "Ġameri": 2963,
      "Ġporodice": 2964,
      "Å£": 2965,
      "njenja": 2966,
      "mora": 2967,
      "Ġbilja": 2968,
      "Ġmladi": 2969,
      "Ġtela": 2970,
      "Ġrazloga": 2971,
      "tlji": 2972,
      "renje": 2973,
      "Ġznatno": 2974,
      "Ġpostavlja": 2975,
      "Å¾enja": 2976,
      "Ġnjegova": 2977,
      "Ġpotpuno": 2978,
      "dila": 2979,
      "zora": 2980,
      "stima": 2981,
      "Ġprizna": 2982,
      "Äįena": 2983,
      "Ġsvojoj": 2984,
      "Ġsuprot": 2985,
      "Ġprograma": 2986,
      "Ġsagleda": 2987,
      "gri": 2988,
      "cr": 2989,
      "Ġrazvije": 2990,
      "broj": 2991,
      "ĠbuduÄĩi": 2992,
      "Ġkoso": 2993,
      "Ġstudi": 2994,
      "Ġfilozofi": 2995,
      "Ġrezultata": 2996,
      "Ġgi": 2997,
      "Ġstrukture": 2998,
      "Ñīe": 2999,
      "Ġstavo": 3000,
      "ĠoÄįeki": 3001,
      "36": 3002,
      "199": 3003,
      "Ġtele": 3004,
      "ĠuÄįenja": 3005,
      "ĠhriÅ¡Äĩa": 3006,
      "37": 3007,
      "lega": 3008,
      "ljopri": 3009,
      "Ġintegra": 3010,
      "Ġnpr": 3011,
      "Ġlop": 3012,
      "Ġideja": 3013,
      "rnost": 3014,
      "Ġsrpskih": 3015,
      "snu": 3016,
      "Ġ2001": 3017,
      "ipak": 3018,
      "knu": 3019,
      "kuplja": 3020,
      "Ġpojava": 3021,
      "lti": 3022,
      "Ġsrpska": 3023,
      "ĠmoÅ¾da": 3024,
      "istra": 3025,
      "mani": 3026,
      "Ġtehni": 3027,
      "dili": 3028,
      "Ġsuko": 3029,
      "Ġpretpostav": 3030,
      "Ġstudije": 3031,
      "Ġodli": 3032,
      "Äįeni": 3033,
      "Ġvideti": 3034,
      "ĠdruÅ¡tvo": 3035,
      "ĠreÄįima": 3036,
      "Ġope": 3037,
      "ĠÄįega": 3038,
      "ĠsadrÅ¾aja": 3039,
      "upra": 3040,
      "Ġrumu": 3041,
      "ĠponaÅ¡anja": 3042,
      "dnoj": 3043,
      "pravda": 3044,
      "Ġav": 3045,
      "sen": 3046,
      "rati": 3047,
      "nÑı": 3048,
      "nema": 3049,
      "lata": 3050,
      "ĠreÄĩi": 3051,
      "cione": 3052,
      "Ġfon": 3053,
      "Ġkomponen": 3054,
      "Ġaktue": 3055,
      "vencije": 3056,
      "Ġautora": 3057,
      "Ġradio": 3058,
      "ĠdrugaÄįi": 3059,
      "Ġsrpskoj": 3060,
      "Å¡ena": 3061,
      "zen": 3062,
      "zdu": 3063,
      "Ġprona": 3064,
      "ĠreÅ¡a": 3065,
      "Ġprve": 3066,
      "Ġkoga": 3067,
      "Ġizgleda": 3068,
      "gore": 3069,
      "orÄĳe": 3070,
      "Ġmili": 3071,
      "Ġistorije": 3072,
      "govora": 3073,
      "Ġsopstve": 3074,
      "telja": 3075,
      "Ġveku": 3076,
      "Ġstrana": 3077,
      "Ġpopula": 3078,
      "Ġsredine": 3079,
      "Ġiste": 3080,
      "logiju": 3081,
      "Ġzajednica": 3082,
      "Ġemo": 3083,
      "Ġpodaci": 3084,
      "stom": 3085,
      "Ġispu": 3086,
      "ljno": 3087,
      "Ġkompeten": 3088,
      "Ġgranice": 3089,
      "ĠnaÄįina": 3090,
      "sva": 3091,
      "gom": 3092,
      "Äįavaju": 3093,
      "Ġmaksi": 3094,
      "Ġlogi": 3095,
      "ĠoÄįu": 3096,
      "Ġprodu": 3097,
      "Ġukazuju": 3098,
      "ljenje": 3099,
      "njoj": 3100,
      "naro": 3101,
      "Ġdostup": 3102,
      "Ġname": 3103,
      "vice": 3104,
      "Ġ2019": 3105,
      "Ġmetodo": 3106,
      "Ġzapravo": 3107,
      "Ġpreci": 3108,
      "Ġnjihovog": 3109,
      "ĠveliÄįi": 3110,
      "Ġizrazi": 3111,
      "rnim": 3112,
      "vaÅ¾": 3113,
      "Ġposlu": 3114,
      "viji": 3115,
      "ĠmoÄĩi": 3116,
      "ed": 3117,
      "46": 3118,
      "Ġterminologi": 3119,
      "Ġprose": 3120,
      "ljeni": 3121,
      "Å¾eno": 3122,
      "Ġhidro": 3123,
      "ndi": 3124,
      "Ġpl": 3125,
      "Ġpoljopri": 3126,
      "Ġfaktora": 3127,
      "jska": 3128,
      "laz": 3129,
      "Ġlibera": 3130,
      "Ġprirode": 3131,
      "ĠdruÅ¡tvu": 3132,
      "Äįaje": 3133,
      "vencija": 3134,
      "ĠznaÄįaja": 3135,
      "Ġpreduze": 3136,
      "Ġdese": 3137,
      "Ġknjige": 3138,
      "drugi": 3139,
      "Ñ£": 3140,
      "Ġzajedno": 3141,
      "Ġperspekti": 3142,
      "miju": 3143,
      "Ġrepre": 3144,
      "Ġtvor": 3145,
      "Ġaktivnost": 3146,
      "vet": 3147,
      "Ġsek": 3148,
      "33": 3149,
      "Ġuloga": 3150,
      "Ġkona": 3151,
      "ciona": 3152,
      "Ġodvija": 3153,
      "Ġvero": 3154,
      "Å¡njih": 3155,
      "kod": 3156,
      "Ġser": 3157,
      "ĠkoriÅ¡Äĩenje": 3158,
      "Ġizvede": 3159,
      "Ġpojam": 3160,
      "Ġprogram": 3161,
      "son": 3162,
      "Ġbroju": 3163,
      "ĠÅ¡kol": 3164,
      "ry": 3165,
      "vac": 3166,
      "ĠsaÄįu": 3167,
      "Ġsistemu": 3168,
      "rena": 3169,
      "Ġpodu": 3170,
      "Ġbazi": 3171,
      "Ġprivat": 3172,
      "Ġpav": 3173,
      "Ġ2002": 3174,
      "Ġurba": 3175,
      "Ġbora": 3176,
      "ĠodreÄĳene": 3177,
      "teti": 3178,
      "Ġprimen": 3179,
      "rnu": 3180,
      "Ġmuze": 3181,
      "Ġuniverziteta": 3182,
      "Ġorijenta": 3183,
      "Ġmoglo": 3184,
      "deset": 3185,
      "sanja": 3186,
      "lizam": 3187,
      "nÑĭh": 3188,
      "Ġnjihovih": 3189,
      "Ġunapre": 3190,
      "Ġosman": 3191,
      "Ġumetni": 3192,
      "ĠiskljuÄįi": 3193,
      "Ġimena": 3194,
      "tivnu": 3195,
      "vena": 3196,
      "ĠneÄĩe": 3197,
      "Ġzahteva": 3198,
      "ziju": 3199,
      "zor": 3200,
      "Ġsvakako": 3201,
      "gori": 3202,
      "ĠzemljiÅ¡ta": 3203,
      "Ġopisu": 3204,
      "tacije": 3205,
      "Ġsastav": 3206,
      "fikova": 3207,
      "nografi": 3208,
      "ĠvrÅ¡nja": 3209,
      "radi": 3210,
      "Ġmetode": 3211,
      "Ġetnograf": 3212,
      "Ġ29": 3213,
      "ĠraÄįuna": 3214,
      "sanje": 3215,
      "ori": 3216,
      "Ġbolje": 3217,
      "Ġuticaja": 3218,
      "ljima": 3219,
      "Ġprofi": 3220,
      "Ġproduk": 3221,
      "Ġporekla": 3222,
      "Ġzemljama": 3223,
      "ly": 3224,
      "ov": 3225,
      "Ġsum": 3226,
      "Ġzemalja": 3227,
      "Ġpotreb": 3228,
      "Ġpravila": 3229,
      "Ġinstitut": 3230,
      "bla": 3231,
      "lizacija": 3232,
      "Ġsmrti": 3233,
      "Ġnjihova": 3234,
      "Ġindividual": 3235,
      "vano": 3236,
      "ĠistiÄįe": 3237,
      "Ġinterpre": 3238,
      "Ġupotrebe": 3239,
      "Ġnede": 3240,
      "nsko": 3241,
      "Ġizgrad": 3242,
      "Ġfol": 3243,
      "Ġelemenata": 3244,
      "nakon": 3245,
      "Ġobliku": 3246,
      "tija": 3247,
      "jim": 3248,
      "vnoj": 3249,
      "38": 3250,
      "blika": 3251,
      "Ġmno": 3252,
      "Ġpojave": 3253,
      "Ġpojedinih": 3254,
      "ĠoÅ¡te": 3255,
      "deo": 3256,
      "noda": 3257,
      "Ġuzima": 3258,
      "Å¡tina": 3259,
      "Ġteorije": 3260,
      "ĠniÅ¡ta": 3261,
      "Ġpostavlje": 3262,
      "Ġpone": 3263,
      "Ġ40": 3264,
      "Ġnivoa": 3265,
      "Ġzavisi": 3266,
      "ktora": 3267,
      "Ġgl": 3268,
      "Ġresu": 3269,
      "lakto": 3270,
      "vili": 3271,
      "Ġas": 3272,
      "Ġvelikog": 3273,
      "vnost": 3274,
      "âĢĿ.": 3275,
      "Ġnapi": 3276,
      "tskog": 3277,
      "istraÅ¾i": 3278,
      "40": 3279,
      "Ġmogla": 3280,
      "ĪĴ": 3281,
      "Ġzbi": 3282,
      "Ġkora": 3283,
      "Ġzdrav": 3284,
      "zbog": 3285,
      "Ġtipo": 3286,
      "Ġevrope": 3287,
      "ĠÄĩu": 3288,
      "Ġvazdu": 3289,
      "Ġteksta": 3290,
      "Ġstanja": 3291,
      "Ġade": 3292,
      "ĠmuÅ¡ka": 3293,
      "Ġpada": 3294,
      "ĠvrÅ¡i": 3295,
      "Ġat": 3296,
      "pose": 3297,
      "Ġisko": 3298,
      "Ġovi": 3299,
      "Ġtekstu": 3300,
      "bre": 3301,
      "ĠreÅ¾i": 3302,
      "Ġfoku": 3303,
      "Ġprilago": 3304,
      "ĠliÄįnosti": 3305,
      "Ġkvalitet": 3306,
      "ct": 3307,
      "Ġsen": 3308,
      "Ġmogli": 3309,
      "Äĩenje": 3310,
      "ote": 3311,
      "tskih": 3312,
      "Ġpobo": 3313,
      "tuje": 3314,
      "Ġproteina": 3315,
      "em": 3316,
      "Ġgrada": 3317,
      "Ġmatemati": 3318,
      "Ġeksperimenta": 3319,
      "timi": 3320,
      "gr": 3321,
      "ranju": 3322,
      "srp": 3323,
      "mente": 3324,
      "ĠÄįime": 3325,
      "Ġseg": 3326,
      "ft": 3327,
      "nicija": 3328,
      "Ġuze": 3329,
      "znaÄįaj": 3330,
      "Ġcom": 3331,
      "osta": 3332,
      "Ġqu": 3333,
      "rezulta": 3334,
      "Ġkli": 3335,
      "Äįavanje": 3336,
      "Ġpripre": 3337,
      "Ġpredi": 3338,
      "Ġsasto": 3339,
      "Ġnj": 3340,
      "Ġveze": 3341,
      "levan": 3342,
      "sigu": 3343,
      "Ġagen": 3344,
      "logiji": 3345,
      "Ġizvora": 3346,
      "Ġtransforma": 3347,
      "pto": 3348,
      "ĠdoÅ¡lo": 3349,
      "stoga": 3350,
      "Ġizvor": 3351,
      "Ġzbornik": 3352,
      "Ġmedici": 3353,
      "Ġpoti": 3354,
      "Ġkarakteristike": 3355,
      "Ġmihai": 3356,
      "ara": 3357,
      "ÃĬ": 3358,
      "Ġrazno": 3359,
      "tabela": 3360,
      "Ġkojom": 3361,
      "slav": 3362,
      "Ġsusre": 3363,
      "Ġpredstavlje": 3364,
      "ĠgraÄĳana": 3365,
      "Ġusmere": 3366,
      ".).": 3367,
      "njeg": 3368,
      "Ġproi": 3369,
      "leksi": 3370,
      "onal": 3371,
      "veli": 3372,
      "Å¾iti": 3373,
      "loÅ¡kim": 3374,
      "Ġparticipa": 3375,
      "Ġpripa": 3376,
      "fici": 3377,
      "Ġodbra": 3378,
      "Ġxx": 3379,
      "dr": 3380,
      "Ġugro": 3381,
      "Ġpostaje": 3382,
      "Å¡kog": 3383,
      "Ġimenica": 3384,
      "Ġkvaliteta": 3385,
      "Ġpoma": 3386,
      "Ġdelovanja": 3387,
      "desetih": 3388,
      "Ġ21": 3389,
      "Ġpolitika": 3390,
      "Ġargu": 3391,
      "Ġdrugoj": 3392,
      "Ġinformacija": 3393,
      "ruje": 3394,
      "ograd": 3395,
      "nte": 3396,
      "Ġrastvo": 3397,
      "Ġpovra": 3398,
      "Ġsever": 3399,
      "mentima": 3400,
      "Ġgodini": 3401,
      "lena": 3402,
      "Ġeli": 3403,
      "Ġpak": 3404,
      "Ġplu": 3405,
      "Ġpredsta": 3406,
      "Ġobele": 3407,
      "Ġstanovi": 3408,
      "Ġhemi": 3409,
      "Ġtema": 3410,
      "Ġmusli": 3411,
      "ĠproÅ¡losti": 3412,
      "Ġnovom": 3413,
      ".âĢŀ": 3414,
      "sme": 3415,
      "janju": 3416,
      "ĠpoÄįetku": 3417,
      "Ġnjihov": 3418,
      "Ġreligi": 3419,
      "zÑĭ": 3420,
      "rusa": 3421,
      "Ġkorupcije": 3422,
      "ĠpriÄįa": 3423,
      "Ġkontinu": 3424,
      "Ġvasi": 3425,
      "Å¡njeg": 3426,
      "Ġprisustvo": 3427,
      "mit": 3428,
      "ĠpomoÄĩu": 3429,
      "nac": 3430,
      "Ġgovore": 3431,
      "vale": 3432,
      "Ġniz": 3433,
      "Ġengle": 3434,
      "Ġosam": 3435,
      "Ġzastuplje": 3436,
      "zenta": 3437,
      "Ġsor": 3438,
      "ĠÄįaso": 3439,
      "mlje": 3440,
      "sada": 3441,
      "zue": 3442,
      "Ġnasilja": 3443,
      "biÄįaje": 3444,
      "Ġjoj": 3445,
      "45": 3446,
      "vnika": 3447,
      "Ġdozvo": 3448,
      "ĠâĢĶ": 3449,
      "Ġosni": 3450,
      "manje": 3451,
      "Ġprove": 3452,
      "Ġnjihovo": 3453,
      "Ġmole": 3454,
      "Ġtip": 3455,
      "Ġtekst": 3456,
      "Ġneophodno": 3457,
      "31": 3458,
      "Äįeno": 3459,
      "hibi": 3460,
      "Å½": 3461,
      "Ġanga": 3462,
      "snog": 3463,
      "Ġska": 3464,
      "Ġnapra": 3465,
      "Ġdale": 3466,
      "chi": 3467,
      "Ġzavisnosti": 3468,
      "Ġ(âĢŀ": 3469,
      "Ġdovoljno": 3470,
      "Ġopravda": 3471,
      "dok": 3472,
      "Ġ2018": 3473,
      "ĠdomaÄĩi": 3474,
      "ny": 3475,
      "tÑĮ": 3476,
      "Ġubi": 3477,
      "viÄĩe": 3478,
      "beograd": 3479,
      "the": 3480,
      "Ġkato": 3481,
      "terna": 3482,
      "veni": 3483,
      "ĠseÄĩa": 3484,
      "Ġosnovi": 3485,
      "Ġinterakcije": 3486,
      "ĠpoÄįetkom": 3487,
      "gani": 3488,
      "loÅ¡ko": 3489,
      "rnom": 3490,
      "Ġskoro": 3491,
      "Ġori": 3492,
      "Ġnapu": 3493,
      "Ġsrednjo": 3494,
      "Ġevropske": 3495,
      "gova": 3496,
      "Ġgleda": 3497,
      "Ġota": 3498,
      "ktima": 3499,
      "Ġdiscipli": 3500,
      "niÄĩ": 3501,
      "Äįio": 3502,
      "Å¡tine": 3503,
      "Ġorganizacija": 3504,
      "ĠknjiÅ¾evnosti": 3505,
      "plici": 3506,
      "stupi": 3507,
      "Ġobrazovanju": 3508,
      "mske": 3509,
      "Ġita": 3510,
      "Ġgrani": 3511,
      "renu": 3512,
      "Ġlegi": 3513,
      "Ġslova": 3514,
      "ĠÅ¡kola": 3515,
      "mla": 3516,
      "Ġizbor": 3517,
      "Ġtoku": 3518,
      "Ġsino": 3519,
      "Ġproizvodnje": 3520,
      "osim": 3521,
      "Ġilu": 3522,
      "Ġnika": 3523,
      "tnoj": 3524,
      "Ġtipi": 3525,
      "mira": 3526,
      "Ġstrani": 3527,
      "kedo": 3528,
      "Ġzvani": 3529,
      "volja": 3530,
      "Ġsedam": 3531,
      "ĠproÅ¡i": 3532,
      "kuju": 3533,
      "Ġdeca": 3534,
      "ĠmiÅ¡ljenja": 3535,
      "Ġstatus": 3536,
      "ĠE": 3537,
      "Ġrelevan": 3538,
      "ĠutiÄįe": 3539,
      "anali": 3540,
      "ner": 3541,
      "Ġboja": 3542,
      "Ġzakonoda": 3543,
      "Ġoti": 3544,
      "ĠjuÅ¾": 3545,
      "ĠobiÄįno": 3546,
      "ris": 3547,
      "Äĩemo": 3548,
      "ĠznaÄįenju": 3549,
      "ĠÅ¡iri": 3550,
      "Ġseku": 3551,
      "Ġplanu": 3552,
      "Ġpostignu": 3553,
      "dnost": 3554,
      "fra": 3555,
      "rica": 3556,
      "Ġanalizu": 3557,
      "Ġstepe": 3558,
      "zisten": 3559,
      "dovi": 3560,
      "nacional": 3561,
      "Ġredu": 3562,
      "epi": 3563,
      "Ïī": 3564,
      "Ġobzir": 3565,
      "ĠstefanoviÄĩ": 3566,
      "Ġbolesti": 3567,
      "Ġsocijalisti": 3568,
      "Ġkontrole": 3569,
      "Ġstude": 3570,
      "Ġnacionalne": 3571,
      "ispi": 3572,
      "ĠkuÄĩe": 3573,
      "din": 3574,
      ".âĢľ": 3575,
      "dÅ¾i": 3576,
      "ĠkoriÅ¡Äĩe": 3577,
      "Ġdinami": 3578,
      "48": 3579,
      "Ã³": 3580,
      "ton": 3581,
      "32": 3582,
      "Ġpolicije": 3583,
      "ĠÎº": 3584,
      "vske": 3585,
      "ranih": 3586,
      "Ġpoe": 3587,
      "Ġgod": 3588,
      "Ã¿": 3589,
      "ĠboÅ¾i": 3590,
      "vlji": 3591,
      "meti": 3592,
      "Ġdevoj": 3593,
      "Äĳivanja": 3594,
      "teme": 3595,
      "ĠÅ¾ivotu": 3596,
      "Ġmuzike": 3597,
      "Ġrelativno": 3598,
      "Ġprojekta": 3599,
      "kupi": 3600,
      "ĠomoguÄĩava": 3601,
      "Ġdej": 3602,
      "Ġproblemati": 3603,
      "Ġregula": 3604,
      "lost": 3605,
      "198": 3606,
      "ĠpaÅ¾nju": 3607,
      "Ġfolklo": 3608,
      "Ġsredstva": 3609,
      "snim": 3610,
      "Î¼": 3611,
      "Äįuje": 3612,
      "Ġproda": 3613,
      "Ġstoga": 3614,
      "Ġcrkvi": 3615,
      "Ġinicija": 3616,
      "Ġisla": 3617,
      "ĠuÄįenje": 3618,
      "teh": 3619,
      "ĠsloÅ¾e": 3620,
      "Î³": 3621,
      "Ġpor": 3622,
      "ĠÅ¾ivotinja": 3623,
      "lin": 3624,
      "Ġciklu": 3625,
      "Ġizuzetno": 3626,
      "hro": 3627,
      "Ġnaslo": 3628,
      "ĠÄįije": 3629,
      "Ġinteresa": 3630,
      "Ġposlova": 3631,
      "eu": 3632,
      "ĠoznaÄįava": 3633,
      "Ġraspra": 3634,
      "rd": 3635,
      "ĠpolitiÄįkih": 3636,
      "Ġfunkcional": 3637,
      "rezultati": 3638,
      "47": 3639,
      "Ġvisi": 3640,
      "ĠÄįetvr": 3641,
      "Ġfoto": 3642,
      "Ġdoprine": 3643,
      "Ġnapre": 3644,
      "mentar": 3645,
      "Ġpredmeta": 3646,
      "Ġtermin": 3647,
      "Ġvremenu": 3648,
      "Ġvelika": 3649,
      "tivnosti": 3650,
      "Ġprimera": 3651,
      "Ġzla": 3652,
      "Ġinhibi": 3653,
      "ĠpomoÄĩi": 3654,
      "ministra": 3655,
      "ĠnauÄįni": 3656,
      "Ġobuhva": 3657,
      "aj": 3658,
      "vinu": 3659,
      "Ġmal": 3660,
      "Ġkrajem": 3661,
      "stitut": 3662,
      "Ġsvetskog": 3663,
      "el": 3664,
      "venu": 3665,
      "tions": 3666,
      "Ġiskustva": 3667,
      "tivnost": 3668,
      "ĠvaÅ¾no": 3669,
      "Ġkarakteristika": 3670,
      "Ġorganizovanog": 3671,
      "Ġnjegovom": 3672,
      "kos": 3673,
      "Å¡eno": 3674,
      "ĠÄįinjenica": 3675,
      "Ġmorfo": 3676,
      "nke": 3677,
      "Ġpotpunosti": 3678,
      "Ġogleda": 3679,
      "mode": 3680,
      "prija": 3681,
      "riti": 3682,
      "ĠznaÄįajan": 3683,
      "ĠpoloÅ¾aj": 3684,
      "Ġdro": 3685,
      "Ġpoto": 3686,
      "Ġobjek": 3687,
      "Äĩeno": 3688,
      "ĠmaÅ¡i": 3689,
      "Ġvelikoj": 3690,
      "Ġnovca": 3691,
      "stvene": 3692,
      "Ġosnovne": 3693,
      "Ġpreporu": 3694,
      "ĠsuÅ¡": 3695,
      "Ġfakulteta": 3696,
      "rG": 3697,
      "ĠnajvaÅ¾": 3698,
      "tivan": 3699,
      "Ġpredlo": 3700,
      "Ġvoda": 3701,
      "ĠÄĩemo": 3702,
      "treba": 3703,
      "ĠpoÄįetka": 3704,
      "jskom": 3705,
      "osno": 3706,
      "net": 3707,
      "Ġ100": 3708,
      "ĠteÅ¾i": 3709,
      "Ġsposobnosti": 3710,
      "60": 3711,
      "ler": 3712,
      "Ġmotiva": 3713,
      "Ġintelek": 3714,
      "fikacije": 3715,
      "ĠistraÅ¾ivanju": 3716,
      "Ġbibliote": 3717,
      "Ġzasni": 3718,
      "Ġspek": 3719,
      "Ġporeklo": 3720,
      "ĠmaÄĳar": 3721,
      "Ġ35": 3722,
      "Ġglasnik": 3723,
      "Ġmetohi": 3724,
      "\",": 3725,
      "ĠreÅ¡enja": 3726,
      "oba": 3727,
      "ĠreÄįni": 3728,
      "Ġproizvoda": 3729,
      "dri": 3730,
      "jedan": 3731,
      "ĠdoÅ¾ivlja": 3732,
      "Ġporu": 3733,
      "Ġpovr": 3734,
      "Ġstare": 3735,
      "Ġuslu": 3736,
      "Ġvlast": 3737,
      "Ġtermino": 3738,
      "Ġbezbednosti": 3739,
      "Ġukaza": 3740,
      "tivu": 3741,
      "Ġgrigo": 3742,
      "Ġhro": 3743,
      "Ġdubro": 3744,
      "Äįene": 3745,
      "ĠbiÄĩe": 3746,
      "Ġupotrebi": 3747,
      "jera": 3748,
      "Ġured": 3749,
      "Ġvizue": 3750,
      "cionih": 3751,
      "ĠiskljuÄįivo": 3752,
      "Ġsina": 3753,
      "ljiva": 3754,
      "Ġjuna": 3755,
      "jskim": 3756,
      "ĠuÄįestvo": 3757,
      "Ġodluka": 3758,
      "Ġapri": 3759,
      "ljive": 3760,
      "Ġforme": 3761,
      "Ġoprede": 3762,
      "zaciju": 3763,
      "lizaciju": 3764,
      "tila": 3765,
      "Ġkategorija": 3766,
      "Ġgovoru": 3767,
      "Ġvlade": 3768,
      "ĠizvrÅ¡i": 3769,
      "Ġvezu": 3770,
      "Ġgranica": 3771,
      "Ġprojek": 3772,
      "Ġeg": 3773,
      "Ġidentitet": 3774,
      "Ġmle": 3775,
      "Ġistom": 3776,
      "zan": 3777,
      "dap": 3778,
      "Ġedu": 3779,
      "Ġsocijalne": 3780,
      "stvima": 3781,
      "Ġispitiva": 3782,
      "Ġnekih": 3783,
      "ista": 3784,
      "struktu": 3785,
      "kove": 3786,
      "Ġkola": 3787,
      "Ġderi": 3788,
      "grada": 3789,
      "Ġovla": 3790,
      "lov": 3791,
      "Ġopse": 3792,
      "Ġoblici": 3793,
      "Ġmene": 3794,
      "Ġnekog": 3795,
      "ĠomoguÄĩi": 3796,
      "smi": 3797,
      "vajuÄĩi": 3798,
      "veko": 3799,
      "Ġjevre": 3800,
      "Ġsig": 3801,
      "Ġuvi": 3802,
      "Ġsagovor": 3803,
      "hodno": 3804,
      "Ġgrupi": 3805,
      "Ġpraz": 3806,
      "Ġdelom": 3807,
      "Ġosobine": 3808,
      "ces": 3809,
      "Ġvredno": 3810,
      "kaÅ¾e": 3811,
      "nes": 3812,
      "Ġotvara": 3813,
      "koji": 3814,
      "lica": 3815,
      "Ġsamosta": 3816,
      "njom": 3817,
      ".),": 3818,
      "Ġozbi": 3819,
      "deÄĩi": 3820,
      "Ġobzira": 3821,
      "tru": 3822,
      "ĠÈ": 3823,
      "Ġkoman": 3824,
      "Ġdosta": 3825,
      "Ġposred": 3826,
      "Ġinstitucija": 3827,
      "ĠodgovarajuÄĩi": 3828,
      "Ġakademi": 3829,
      "Ġsvakog": 3830,
      "70": 3831,
      "Ġispra": 3832,
      "Ġekstra": 3833,
      "Ġcari": 3834,
      "rali": 3835,
      "Ġprva": 3836,
      "Ġarhe": 3837,
      "zmi": 3838,
      "ĠzadrÅ¾a": 3839,
      "Ġprihvata": 3840,
      "Ġmase": 3841,
      "Ġmoraju": 3842,
      "Ġvisoko": 3843,
      "ĠuÅ¾i": 3844,
      "Ġnepre": 3845,
      "Ġmulti": 3846,
      "Ġnjegovih": 3847,
      "Ġnaziv": 3848,
      "Ġuse": 3849,
      "ĠduÅ¡a": 3850,
      "loÅ¡kom": 3851,
      "Ġosnovnih": 3852,
      "Ġgeo": 3853,
      "Ġljudima": 3854,
      "Ġefekat": 3855,
      "ljena": 3856,
      "Ġprimenom": 3857,
      "Ġfunkcija": 3858,
      "rka": 3859,
      "Ġuloge": 3860,
      "Ġstrategije": 3861,
      "Ġsep": 3862,
      "ĠÄĩeli": 3863,
      "dnika": 3864,
      "ono": 3865,
      "Ġnavode": 3866,
      "Ġ190": 3867,
      "Ġnjen": 3868,
      "Ġspolj": 3869,
      "ĠistraÅ¾ivanjima": 3870,
      "Ġadministra": 3871,
      "balka": 3872,
      "Ġboje": 3873,
      "koviÄĩa": 3874,
      "ĠzaÅ¡titu": 3875,
      "ĠizveÅ¡ta": 3876,
      "Ã¢": 3877,
      "der": 3878,
      "41": 3879,
      "HH": 3880,
      "ac": 3881,
      "êĻĭ": 3882,
      "Ġstanju": 3883,
      "ĠÏĢ": 3884,
      "niku": 3885,
      "rijski": 3886,
      "Ġup": 3887,
      "ljujuÄĩi": 3888,
      "ĠÄįija": 3889,
      "Ġ1999": 3890,
      "Ġpobolj": 3891,
      "kvi": 3892,
      "nau": 3893,
      "Ġref": 3894,
      "Ġnekada": 3895,
      "Ġlaza": 3896,
      "Ġspome": 3897,
      "Ġ'": 3898,
      "jiÄĩ": 3899,
      "Ġ22": 3900,
      "Ġpostojanje": 3901,
      "Ġslike": 3902,
      "Ġprethodno": 3903,
      "ĠÅ¾ele": 3904,
      "losti": 3905,
      "Ġuslova": 3906,
      "Ġizazo": 3907,
      "rac": 3908,
      "roviÄĩ": 3909,
      "Ġkoe": 3910,
      "skop": 3911,
      "Ġnjoj": 3912,
      "Ġlako": 3913,
      "Ġgaje": 3914,
      "Ġinformacije": 3915,
      "Ġroditelja": 3916,
      "Ġprivred": 3917,
      "Ġmakedo": 3918,
      "Ġkarakter": 3919,
      "Ġherce": 3920,
      "Ġposedu": 3921,
      "ĠutiÄįu": 3922,
      "Å¾be": 3923,
      "Ġzao": 3924,
      "Ġbrzi": 3925,
      "Ġhristo": 3926,
      "ĠangaÅ¾": 3927,
      "ĠZ": 3928,
      "Å¾ila": 3929,
      "Ġnjene": 3930,
      "Ġkompa": 3931,
      "Ġtemperature": 3932,
      "Ġsamog": 3933,
      "Ġprven": 3934,
      "Ġuzra": 3935,
      "ĠsluÄįajevima": 3936,
      "ron": 3937,
      "dig": 3938,
      "rea": 3939,
      "Ġupotreba": 3940,
      "ĠviÅ¡i": 3941,
      "dnu": 3942,
      "sc": 3943,
      "ssi": 3944,
      "ĠÄįlanova": 3945,
      "Ġug": 3946,
      "teo": 3947,
      "Ġodma": 3948,
      "Ġ,,": 3949,
      "Ġoslobo": 3950,
      "jeviÄĩ": 3951,
      "Ġostr": 3952,
      "Ġpriz": 3953,
      "Ġizdvaja": 3954,
      "laÅ¾e": 3955,
      "Ġudru": 3956,
      "Ġenzima": 3957,
      "49": 3958,
      "vri": 3959,
      "Ġprocedu": 3960,
      "Î¯": 3961,
      "Ġkogni": 3962,
      "Ġkulturne": 3963,
      "Ġtemat": 3964,
      "Ġsamim": 3965,
      "Äĩoj": 3966,
      "ĠkriviÄįnog": 3967,
      "jemo": 3968,
      "Ġprinos": 3969,
      "bur": 3970,
      "rbici": 3971,
      "Ġponovo": 3972,
      "Ġpribli": 3973,
      "Ġjovana": 3974,
      "Ġaj": 3975,
      "Ġprefi": 3976,
      "Ġjednostav": 3977,
      "mno": 3978,
      "dela": 3979,
      "Ġupotreblja": 3980,
      "Ġsaradnje": 3981,
      "lio": 3982,
      "Ġdiplo": 3983,
      "ĠreÄįnika": 3984,
      "Ġdne": 3985,
      "Ġpobe": 3986,
      "ĠveÄĩe": 3987,
      "fek": 3988,
      "53": 3989,
      "ut": 3990,
      "Ġsp": 3991,
      "Ġmati": 3992,
      "Ġistorija": 3993,
      "Ġspolja": 3994,
      "ms": 3995,
      "Ġusa": 3996,
      "Ġokto": 3997,
      "Ġostali": 3998,
      "Ġsredstava": 3999,
      "tnika": 4000,
      "Ġsagore": 4001,
      "Ġcivi": 4002,
      "cena": 4003,
      "Ġteorija": 4004,
      "uzda": 4005,
      "rin": 4006,
      "samo": 4007,
      "Ġbeograda": 4008,
      "ĠÅ¡tampa": 4009,
      "ĠÑızÑĭ": 4010,
      "ĠF": 4011,
      "Ġpoz": 4012,
      "poÅ¡to": 4013,
      "Ġtend": 4014,
      "cal": 4015,
      "hom": 4016,
      "dakle": 4017,
      "Ġseo": 4018,
      "Ġizja": 4019,
      "Ġsimboli": 4020,
      "klanja": 4021,
      "ĠuobiÄįaje": 4022,
      "Ġjedino": 4023,
      "Ġarhitek": 4024,
      "Ġjednoj": 4025,
      "ĠpolitiÄįki": 4026,
      "jno": 4027,
      "Ġsk": 4028,
      "Ġeste": 4029,
      "Ġneposredno": 4030,
      "Ġprimenje": 4031,
      "Ġjavnosti": 4032,
      "Ġnajpre": 4033,
      "veÄĩi": 4034,
      "Ġdati": 4035,
      "Ġapo": 4036,
      "siju": 4037,
      "Ġsuo": 4038,
      "Ġ60": 4039,
      "Ġherbici": 4040,
      "Ġkrei": 4041,
      "Ġaku": 4042,
      "Ġkontak": 4043,
      "ĠÅ¾ivi": 4044,
      "Ġupozna": 4045,
      "Ġponu": 4046,
      "Ġnaz": 4047,
      "vljena": 4048,
      "Ġpojma": 4049,
      "Ġshva": 4050,
      "100": 4051,
      "gde": 4052,
      "tokom": 4053,
      "kiÄĩ": 4054,
      "Ġsvakom": 4055,
      "strui": 4056,
      "ben": 4057,
      "nara": 4058,
      "Ġizvan": 4059,
      "Ġstro": 4060,
      "ĠnadleÅ¾": 4061,
      "Ġbogorodi": 4062,
      "Ġtretira": 4063,
      "Ġradni": 4064,
      "Ġlice": 4065,
      "âĢĻ,": 4066,
      "ĠdruÅ¡tvenog": 4067,
      "nite": 4068,
      "Ġprije": 4069,
      "Ġprimenu": 4070,
      "Å¾ili": 4071,
      "Ġglavni": 4072,
      "kljuÄįne": 4073,
      "Ġpripadaju": 4074,
      "dovima": 4075,
      "ljiv": 4076,
      "Ġpokreta": 4077,
      "mona": 4078,
      "han": 4079,
      "Ġzabra": 4080,
      "Ġrepro": 4081,
      "Ġalterna": 4082,
      "Ġbiljaka": 4083,
      "Ġulja": 4084,
      "Ġporeme": 4085,
      "Ġdono": 4086,
      "ĠuÄįestvu": 4087,
      "55": 4088,
      "ĠmoÄĩ": 4089,
      "ĠkriviÄįno": 4090,
      "Ġnesta": 4091,
      "Ġmotivi": 4092,
      "Ġhilanda": 4093,
      "Ġliteraturi": 4094,
      "Ġsama": 4095,
      "ĠreÄįnik": 4096,
      "90": 4097,
      "Ġopo": 4098,
      "mentu": 4099,
      "ster": 4100,
      "Ġizraz": 4101,
      "ĠobeleÅ¾": 4102,
      "vama": 4103,
      "Ġbismo": 4104,
      "Ġslici": 4105,
      "Ġtermina": 4106,
      "Ġtoj": 4107,
      "ljivost": 4108,
      "fiko": 4109,
      "ĠdruÅ¡tveno": 4110,
      "Ġstrategija": 4111,
      "Ġseptem": 4112,
      "Ġuteme": 4113,
      "Ġzadu": 4114,
      "Ġklima": 4115,
      "ĠdogaÄĳaja": 4116,
      "Ġprimeri": 4117,
      "vski": 4118,
      "Ġroda": 4119,
      "Ġpismenosti": 4120,
      "stiÄįke": 4121,
      "pod": 4122,
      "nijim": 4123,
      "Äįenju": 4124,
      "juju": 4125,
      "Ġjavnog": 4126,
      "Ġuslovi": 4127,
      "Ġkorpu": 4128,
      "ÑĬl": 4129,
      "Ġcelokup": 4130,
      "Ã½": 4131,
      "Ġjovan": 4132,
      "Ġostalih": 4133,
      "Ġparadig": 4134,
      "Ġjavljaju": 4135,
      "Ġsemena": 4136,
      "ficije": 4137,
      "Ġistoriju": 4138,
      "Ġprideva": 4139,
      "Ġsufi": 4140,
      "Ġkrize": 4141,
      "ĠpodrÅ¾a": 4142,
      "Ġideje": 4143,
      "ht": 4144,
      "zato": 4145,
      "Ġdonosi": 4146,
      "Ġstil": 4147,
      "Ã°": 4148,
      "ÄĮ": 4149,
      "rao": 4150,
      "reÄį": 4151,
      "Ġmali": 4152,
      "put": 4153,
      "Ġpubli": 4154,
      "Ġdiskur": 4155,
      "78": 4156,
      "dove": 4157,
      "intere": 4158,
      "ĠÎ¼": 4159,
      "tsÑı": 4160,
      "at": 4161,
      "jezi": 4162,
      "Ġtakav": 4163,
      "Ġupore": 4164,
      "Ġ1995": 4165,
      "ljen": 4166,
      "mnji": 4167,
      "dis": 4168,
      "Ġprilog": 4169,
      "jedinje": 4170,
      "Ġnat": 4171,
      "jum": 4172,
      "Ġex": 4173,
      "Ġizabra": 4174,
      "Ġdrago": 4175,
      "Ġmanife": 4176,
      "jevi": 4177,
      "nala": 4178,
      "Ġdelimi": 4179,
      "cy": 4180,
      "ovi": 4181,
      "Ġkontinui": 4182,
      "Ġnastave": 4183,
      "Ġnovim": 4184,
      "Ġgodinu": 4185,
      "Î¿Î½": 4186,
      "Ġslikar": 4187,
      "tili": 4188,
      "bili": 4189,
      "prvi": 4190,
      "eko": 4191,
      "Å¡no": 4192,
      "Ġpart": 4193,
      "Ġcm": 4194,
      "Ġmoderni": 4195,
      "naÄįe": 4196,
      "Ġglu": 4197,
      "Ġkoncept": 4198,
      "Ġrazumevanje": 4199,
      "Ġodrasli": 4200,
      "Ġprikuplja": 4201,
      "ĠnaÅ¡eg": 4202,
      "Ġtrenutku": 4203,
      "Ġura": 4204,
      "valu": 4205,
      "Ġdaju": 4206,
      "ĠznaÄįajne": 4207,
      "Ġterorizma": 4208,
      "rina": 4209,
      "Ġdominant": 4210,
      "Ġdubo": 4211,
      "Ġonaj": 4212,
      "Ġizaz": 4213,
      "gene": 4214,
      "res": 4215,
      "Ġtopo": 4216,
      "69": 4217,
      "reni": 4218,
      "Ġpodatke": 4219,
      "Ġreali": 4220,
      "Ġuniverza": 4221,
      "Ġarheo": 4222,
      "rano": 4223,
      "nimi": 4224,
      "Ġnere": 4225,
      "ĠveÄĩa": 4226,
      "Ġtoliko": 4227,
      "Ġevropi": 4228,
      "Ġnekom": 4229,
      "sama": 4230,
      "Ġ45": 4231,
      "Ġradnje": 4232,
      "nar": 4233,
      "Ġtub": 4234,
      "jana": 4235,
      "Äĳenih": 4236,
      "Ġinost": 4237,
      "zy": 4238,
      "fera": 4239,
      "Ġjedinica": 4240,
      "ĠsledeÄĩe": 4241,
      "kl": 4242,
      "Å¡eviÄĩ": 4243,
      "Ġnjihovu": 4244,
      "Ġnes": 4245,
      "Ġglagoli": 4246,
      "vremene": 4247,
      "ĠobjaÅ¡nje": 4248,
      "Ġekspre": 4249,
      "Ġzagre": 4250,
      "Ġsrpskim": 4251,
      "lazak": 4252,
      "Ġbugar": 4253,
      "Ġnjegovu": 4254,
      "ĠÅ¾u": 4255,
      "Ġuniverzitet": 4256,
      "hra": 4257,
      "Ġsmatraju": 4258,
      "Ġkapa": 4259,
      "ĠpiÅ¡e": 4260,
      "Ġosnovni": 4261,
      "Ġdaleko": 4262,
      "laska": 4263,
      "Ġrevolu": 4264,
      "hoda": 4265,
      "Ġrezultate": 4266,
      "Ġspi": 4267,
      "Ġprete": 4268,
      "tui": 4269,
      "Ġreda": 4270,
      "Ġstoji": 4271,
      "Ġslobode": 4272,
      "njuje": 4273,
      "Ġintelektual": 4274,
      "eng": 4275,
      "Ġpodstica": 4276,
      "Ġokru": 4277,
      "ĠbuduÄĩ": 4278,
      "ferencija": 4279,
      "Ġblo": 4280,
      "evro": 4281,
      "Ġby": 4282,
      "Ġekono": 4283,
      "ĠÄĳorÄĳe": 4284,
      "Ġdl": 4285,
      "Ġubr": 4286,
      "kida": 4287,
      "dera": 4288,
      "Ġpale": 4289,
      "ĠÉ©": 4290,
      "Ġfaktor": 4291,
      "Ġtranspo": 4292,
      "Ġfrek": 4293,
      "Ġpojavlju": 4294,
      "Ġtehnologija": 4295,
      "Ġsubje": 4296,
      "isti": 4297,
      "Ġdalji": 4298,
      "Ġsubjek": 4299,
      "ĠukljuÄįujuÄĩi": 4300,
      "Ġopet": 4301,
      "kvat": 4302,
      "Ġsuve": 4303,
      "ÄįeviÄĩ": 4304,
      "Ġprvoj": 4305,
      "ĠpoboljÅ¡a": 4306,
      "Ġune": 4307,
      "Ġizbo": 4308,
      "Ġ2021": 4309,
      "rke": 4310,
      "Ġrije": 4311,
      "Ġkorova": 4312,
      "ĠbiÄĩa": 4313,
      "Ġdise": 4314,
      "cionog": 4315,
      "Ġimalo": 4316,
      "Ġkulturnog": 4317,
      "hy": 4318,
      "kne": 4319,
      "njen": 4320,
      "ek": 4321,
      "ĠÄĳe": 4322,
      "Ġsamom": 4323,
      "Ġizgu": 4324,
      "Ġocen": 4325,
      "cipi": 4326,
      "Ġodu": 4327,
      "Ġmada": 4328,
      "slanja": 4329,
      "Ġ1997": 4330,
      "ĠodreÄĳenih": 4331,
      "Ġkoncentracije": 4332,
      "Ġsekundar": 4333,
      "Ġprvenstveno": 4334,
      "Ġupi": 4335,
      "ĠukljuÄįi": 4336,
      "Äįari": 4337,
      "Ġokvir": 4338,
      "tvo": 4339,
      "Ġdosti": 4340,
      "sandar": 4341,
      "Ġnor": 4342,
      "Ġanaliti": 4343,
      "ĠÅ¡koli": 4344,
      "ĠveÄĩina": 4345,
      "ĠnajveÄĩi": 4346,
      "ĠstatistiÄįki": 4347,
      "qi": 4348,
      "ukoliko": 4349,
      "Ġopi": 4350,
      "voÄĳa": 4351,
      "Ġaust": 4352,
      "68": 4353,
      "Ġrat": 4354,
      "ĠmeÅ¡a": 4355,
      "Ġdirektno": 4356,
      "Ġado": 4357,
      "Ġsame": 4358,
      "bija": 4359,
      "Ġosobina": 4360,
      "Ġsituacije": 4361,
      "am": 4362,
      "Äįina": 4363,
      "Ġsy": 4364,
      "Ġpolju": 4365,
      "ziji": 4366,
      "Ġ1996": 4367,
      "Ġzamenica": 4368,
      "Ïĩ": 4369,
      "Ġnarodne": 4370,
      "ĠpodrÅ¡ku": 4371,
      "ea": 4372,
      "tov": 4373,
      "Ġven": 4374,
      "Ġfigu": 4375,
      "Ġsvake": 4376,
      "nÑĸ": 4377,
      "Ġmitropo": 4378,
      "sm": 4379,
      "telji": 4380,
      "Ġnastava": 4381,
      "Ġnjihovim": 4382,
      "Ġarhiepi": 4383,
      "É§": 4384,
      "Ġupotrebu": 4385,
      "Ġxix": 4386,
      "Ġzaposlenih": 4387,
      "42": 4388,
      "Ġ37": 4389,
      "Ġfil": 4390,
      "ÑĬr": 4391,
      "Ġpje": 4392,
      "let": 4393,
      "Ġmila": 4394,
      "Ġhipo": 4395,
      "ĠobiÄįa": 4396,
      "ĠizraÅ¾a": 4397,
      "Ġkretanja": 4398,
      "Ġdimenzija": 4399,
      "Ġdetalj": 4400,
      "Å¾nja": 4401,
      "sobno": 4402,
      "Ġhomo": 4403,
      "rem": 4404,
      "Ġpolja": 4405,
      "sani": 4406,
      "Ġtabe": 4407,
      "Äĩeni": 4408,
      "Ġavgu": 4409,
      "svi": 4410,
      "Ġpromeni": 4411,
      "Ġkulturnih": 4412,
      "logy": 4413,
      "Ġfunkcije": 4414,
      "ĠodluÄįi": 4415,
      "ĠsemantiÄįki": 4416,
      "Ġkategorije": 4417,
      "tip": 4418,
      "ted": 4419,
      "Ġstavlja": 4420,
      "Ġosnove": 4421,
      "sma": 4422,
      "Ġdeteta": 4423,
      "Ġvari": 4424,
      "Ġostalog": 4425,
      "metri": 4426,
      "Ġsituacija": 4427,
      "ĠpodruÄįju": 4428,
      "Ġari": 4429,
      "Ġnepri": 4430,
      "ĠproÅ¡": 4431,
      "siste": 4432,
      "Ġmir": 4433,
      "Ġministarstva": 4434,
      "juje": 4435,
      "miÄĩ": 4436,
      "misli": 4437,
      "Ġiznad": 4438,
      "ljene": 4439,
      "organi": 4440,
      "Ġsvete": 4441,
      "Ġpraksa": 4442,
      "vlada": 4443,
      "Ġpolovine": 4444,
      "Ġispolja": 4445,
      "Ġsuse": 4446,
      "Ġnaselja": 4447,
      "Ġekonomske": 4448,
      "ĠÄįvr": 4449,
      "Ġnjihovom": 4450,
      "Ġ1998": 4451,
      "ciÑı": 4452,
      "Ġputo": 4453,
      "Ġdelova": 4454,
      "Ġkontekst": 4455,
      "Ġustav": 4456,
      "gov": 4457,
      "Ġvida": 4458,
      "ĠÄĩelije": 4459,
      "ĠuÄįini": 4460,
      "Ġwa": 4461,
      "rala": 4462,
      "Ġnaru": 4463,
      "Ġanalizi": 4464,
      "lli": 4465,
      "vin": 4466,
      "Ġadap": 4467,
      "Ġprese": 4468,
      "Ġroma": 4469,
      "ĠpodrÅ¡ke": 4470,
      "lice": 4471,
      "Ġac": 4472,
      "Å¡tava": 4473,
      "Ġzajednici": 4474,
      "krip": 4475,
      "fikacija": 4476,
      "Ġimenice": 4477,
      "Ġzadatak": 4478,
      "Ġsastoji": 4479,
      "43": 4480,
      "Ġgc": 4481,
      "zem": 4482,
      "Ġ38": 4483,
      "Ġrim": 4484,
      "ĠdoÄĳe": 4485,
      "ĠnaÅ¡em": 4486,
      "jednako": 4487,
      "por": 4488,
      "Ġpolisemanti": 4489,
      "Ġorgana": 4490,
      "ĠÉ¢": 4491,
      "Ġ//": 4492,
      "05": 4493,
      "Ġispod": 4494,
      "jni": 4495,
      "reti": 4496,
      "zel": 4497,
      "Ġnjenog": 4498,
      "Ġpokazala": 4499,
      "Ġtemperatura": 4500,
      "it": 4501,
      "Ġjavne": 4502,
      "Ġaleksan": 4503,
      "ĠÎºÎ±": 4504,
      "Âµ": 4505,
      "Ġsredini": 4506,
      "Ġdani": 4507,
      "Äįeski": 4508,
      "jne": 4509,
      "Ġspada": 4510,
      "lak": 4511,
      "Ġ*": 4512,
      "Ġpoza": 4513,
      "gena": 4514,
      "Ġosvr": 4515,
      "jsko": 4516,
      "Ġkup": 4517,
      "Ġrazre": 4518,
      "Å¡avanja": 4519,
      "jer": 4520,
      "tara": 4521,
      "vile": 4522,
      "Ġnepro": 4523,
      "Ġmono": 4524,
      "ĠkuÄĩa": 4525,
      "hod": 4526,
      "Ġstudenata": 4527,
      "reo": 4528,
      "Ġrade": 4529,
      "Ġpropisa": 4530,
      "Ġrasta": 4531,
      "Äįavanja": 4532,
      "Ġstvarnosti": 4533,
      "Ġekonomski": 4534,
      "Ġperspektive": 4535,
      "57": 4536,
      "ÏĮ": 4537,
      "loge": 4538,
      "Ġaposto": 4539,
      "dre": 4540,
      "siji": 4541,
      "Ġdije": 4542,
      "Ġgrupu": 4543,
      "Ġdijalek": 4544,
      "Ġdecenija": 4545,
      "Ġumesto": 4546,
      "Ġ39": 4547,
      "Ġkulturi": 4548,
      "ĠkriviÄįnih": 4549,
      "Ġmoj": 4550,
      "bila": 4551,
      "habi": 4552,
      "iii": 4553,
      "ĠÑį": 4554,
      "Ġnacionali": 4555,
      "Ġostaje": 4556,
      "Ġstuden": 4557,
      "Å¡kol": 4558,
      "ĠsluÅ¾bi": 4559,
      "ĠÅ¡est": 4560,
      "Ġkole": 4561,
      "pozna": 4562,
      "giju": 4563,
      "grade": 4564,
      "Ġtakve": 4565,
      "lici": 4566,
      "mova": 4567,
      "Ġoptere": 4568,
      "toj": 4569,
      "sis": 4570,
      "ĠnauÄįno": 4571,
      "Ġsintak": 4572,
      "58": 4573,
      "stiÄĩ": 4574,
      "Ġistog": 4575,
      "Ġoksi": 4576,
      "ĠodreÄĳen": 4577,
      "ljivosti": 4578,
      "cilj": 4579,
      "Ġodsu": 4580,
      "Ġmlade": 4581,
      "sorp": 4582,
      "Ġempi": 4583,
      "Ġetnografskog": 4584,
      "Ġnjegovim": 4585,
      "stribu": 4586,
      "one": 4587,
      "tosti": 4588,
      "vedene": 4589,
      "tete": 4590,
      "ĠpolitiÄįkog": 4591,
      "Ġdokumenta": 4592,
      "jev": 4593,
      "Ġonoga": 4594,
      "Ġobjekata": 4595,
      "hri": 4596,
      "jzi": 4597,
      "Ġpol": 4598,
      "Ġmenta": 4599,
      "Ġsagla": 4600,
      "Ġdire": 4601,
      "Ġvojvodi": 4602,
      "Ġpregled": 4603,
      "Ġcve": 4604,
      "Ġposledice": 4605,
      "Äįnjaka": 4606,
      "vosti": 4607,
      "Ġteren": 4608,
      "Ġkojeg": 4609,
      "Ġbakte": 4610,
      "konstruk": 4611,
      "Ġodluke": 4612,
      "Ġsno": 4613,
      "movi": 4614,
      "Ġmedija": 4615,
      "Ġhla": 4616,
      "Ġeuro": 4617,
      "Ġodgovora": 4618,
      "Ġteritoriji": 4619,
      "ps": 4620,
      "vaÄįa": 4621,
      "Ġfre": 4622,
      "Äĩima": 4623,
      "Ġsrbiju": 4624,
      "Ġnacionalnih": 4625,
      "Ġispitanici": 4626,
      "Å¡kih": 4627,
      "Ġpostupak": 4628,
      "ĠpopoviÄĩ": 4629,
      "meto": 4630,
      "ĠponaÅ¡anje": 4631,
      "ction": 4632,
      "Ġkontra": 4633,
      "Ġpodacima": 4634,
      "Ġnikola": 4635,
      "Ġsmrt": 4636,
      "Ġprevazi": 4637,
      "Ġ...": 4638,
      "Ġneprija": 4639,
      "Ġmodi": 4640,
      "Ġbal": 4641,
      "Ġtvorbe": 4642,
      "stepe": 4643,
      "ljeno": 4644,
      "Ġoptu": 4645,
      "Ġpreven": 4646,
      "Ġsvesti": 4647,
      "Ġxviii": 4648,
      "jerarhi": 4649,
      "ĠporemeÄĩa": 4650,
      "zda": 4651,
      "rene": 4652,
      "Ġuvo": 4653,
      "Ġizme": 4654,
      "nomen": 4655,
      "Ġselo": 4656,
      "pom": 4657,
      "ĠreÅ¡enje": 4658,
      "klapa": 4659,
      "Ġljudskih": 4660,
      "Ġkti": 4661,
      "îĢĸ": 4662,
      "Ġopis": 4663,
      "Î¿Ïħ": 4664,
      "Ġnju": 4665,
      "niko": 4666,
      "telÑĮ": 4667,
      "baci": 4668,
      "Ġ36": 4669,
      "Ġrobo": 4670,
      "Ġmaterijal": 4671,
      "ĠodreÄĳeni": 4672,
      "Ġborbe": 4673,
      "Ġkomunikacije": 4674,
      "Ġpoljoprivred": 4675,
      "ĠÄĩ": 4676,
      "ĠPod": 4677,
      "tes": 4678,
      "tional": 4679,
      "ĠpoloÅ¾aja": 4680,
      "bs": 4681,
      "cien": 4682,
      "Ġzara": 4683,
      "Ġneku": 4684,
      "nuo": 4685,
      "Ġpetro": 4686,
      "Ġsovje": 4687,
      "ĠuÄįeÅ¡Äĩe": 4688,
      "Ġpogre": 4689,
      "Ġkva": 4690,
      "Ġmonografi": 4691,
      "ĠnaÅ¡oj": 4692,
      "zida": 4693,
      "Ġprimena": 4694,
      "slov": 4695,
      "Ġpojedinim": 4696,
      "Ġalba": 4697,
      "Ġsposobnost": 4698,
      "Ġreakcije": 4699,
      "Ġuzo": 4700,
      "Ġfazi": 4701,
      "Ġintereso": 4702,
      "Ġjugoslaviji": 4703,
      "Ġsrednjoveko": 4704,
      "tika": 4705,
      "lekat": 4706,
      "ĠkuÄĩi": 4707,
      "Ġadoles": 4708,
      "oca": 4709,
      "Ġdobra": 4710,
      "Ġdimit": 4711,
      "Ġgeograf": 4712,
      "á½¸": 4713,
      "ĠzakljuÄįiti": 4714,
      "Ġmnogi": 4715,
      "Ġprimje": 4716,
      "rijske": 4717,
      "Ġporodica": 4718,
      "snoj": 4719,
      "Ġvelikih": 4720,
      "Ġnikada": 4721,
      "Ġprati": 4722,
      "Ġnacionalnog": 4723,
      "est": 4724,
      "vju": 4725,
      "ĠÑĸ": 4726,
      "Ġuza": 4727,
      "Ġnai": 4728,
      "Ġmelo": 4729,
      "Ġobrade": 4730,
      "Ġostale": 4731,
      "Ġteritorija": 4732,
      "dbe": 4733,
      "Î¸": 4734,
      "ĠmiÅ¡ljenje": 4735,
      "Ġispitivanja": 4736,
      "sual": 4737,
      "Ġimeni": 4738,
      "vka": 4739,
      "Ġtoplo": 4740,
      "Ġvelikim": 4741,
      "Ġenergije": 4742,
      "Ġpreuze": 4743,
      "Ġprimi": 4744,
      "Ġzvu": 4745,
      "Ġdespo": 4746,
      "ĠâĪĴ": 4747,
      "lt": 4748,
      "Ġote": 4749,
      "Å¡ne": 4750,
      "ĠnajznaÄįaj": 4751,
      "ĠdrÅ¾avi": 4752,
      "Ġapstra": 4753,
      "oz": 4754,
      "Ġzave": 4755,
      "Ġdose": 4756,
      "Ġreb": 4757,
      "Ġreferen": 4758,
      "vanti": 4759,
      "Ġovoga": 4760,
      "Ġnavedenih": 4761,
      "01": 4762,
      "logu": 4763,
      "des": 4764,
      "Ġmaja": 4765,
      "bama": 4766,
      "Ġdrugu": 4767,
      "Ġparale": 4768,
      "76": 4769,
      "mÑĸ": 4770,
      "tki": 4771,
      "Ġprirodi": 4772,
      "ser": 4773,
      "Ġkombina": 4774,
      "Î¿ÏĤ": 4775,
      "habilita": 4776,
      "Ġkoor": 4777,
      "ljenih": 4778,
      "ĠsnaÅ¾": 4779,
      "ĠpovrÅ¡ine": 4780,
      "Â»": 4781,
      "Ġsank": 4782,
      "Ġcentar": 4783,
      "ĠsledeÄĩi": 4784,
      "Î´": 4785,
      "Ġneiz": 4786,
      "pol": 4787,
      "Ġmaksima": 4788,
      "Ġkapaci": 4789,
      ".âĢĿ": 4790,
      "toni": 4791,
      "Ġpato": 4792,
      "Ġgrafi": 4793,
      "solu": 4794,
      "fizi": 4795,
      "Ġknjizi": 4796,
      "Ġradika": 4797,
      "ninstitut": 4798,
      "Ġciljem": 4799,
      "vodom": 4800,
      "miÅ¡lje": 4801,
      "Ġbrzo": 4802,
      "balkaninstitut": 4803,
      "mos": 4804,
      "Ġvek": 4805,
      "Ġcara": 4806,
      "Ġdoprinos": 4807,
      "cha": 4808,
      "Ġuro": 4809,
      "Ġ1991": 4810,
      "Ġinstitucije": 4811,
      "Ġoblicima": 4812,
      "Ġsinte": 4813,
      "Ġá¼Ģ": 4814,
      "Ġkoro": 4815,
      "Ġobliko": 4816,
      "Ġmatri": 4817,
      "valen": 4818,
      "govori": 4819,
      "Ġmetafo": 4820,
      "%,": 4821,
      "kg": 4822,
      "Ġnano": 4823,
      "vost": 4824,
      "Ġmje": 4825,
      "Ġprocene": 4826,
      "ginal": 4827,
      "Ġkralja": 4828,
      "ĠjuÅ¾no": 4829,
      "Ġkriminalisti": 4830,
      "ls": 4831,
      "os": 4832,
      "Ġpoklo": 4833,
      "ana": 4834,
      "Ġizgra": 4835,
      "sin": 4836,
      "Ġplan": 4837,
      "Ġjedini": 4838,
      "Ġhar": 4839,
      "Ġiskaza": 4840,
      "Ġiskustvo": 4841,
      "snici": 4842,
      "Ġpovla": 4843,
      "verzi": 4844,
      "Ġsrednje": 4845,
      "Ġkaraktera": 4846,
      "Ġprosvete": 4847,
      "Ġepo": 4848,
      "Ġ189": 4849,
      "Å¡njim": 4850,
      "Ġtretmana": 4851,
      "Ġodse": 4852,
      "Ġpredstava": 4853,
      "Ġvodo": 4854,
      "Ġtranzi": 4855,
      "ĠokruÅ¾enju": 4856,
      "Ġogl": 4857,
      "Ġïĥ°": 4858,
      "Ġkosova": 4859,
      "Ġlinija": 4860,
      "ĠrazliÄįiti": 4861,
      "ĠdruÅ¡tveni": 4862,
      "ad": 4863,
      "Ġzase": 4864,
      "ĠkoliÄįine": 4865,
      "lik": 4866,
      "njena": 4867,
      "ĠbaÅ¡": 4868,
      "Ġnemaju": 4869,
      "Ġoblast": 4870,
      "80": 4871,
      "snom": 4872,
      "ĠnauÄįnih": 4873,
      "Ġdelatnosti": 4874,
      "Ġuticajem": 4875,
      "Ġposao": 4876,
      "tost": 4877,
      "mula": 4878,
      "ĠuÄįenici": 4879,
      "Ġsadr": 4880,
      "rn": 4881,
      "ĠâĢ¦": 4882,
      "Ġinstitucional": 4883,
      "Ġpredstave": 4884,
      "75": 4885,
      "Äĩene": 4886,
      "âĢĴ": 4887,
      "Ġkonf": 4888,
      "Ġhijerarhi": 4889,
      "Ġinterpreta": 4890,
      "Ġjesu": 4891,
      "Ġpande": 4892,
      "Ġproblemi": 4893,
      "Ġsprovede": 4894,
      "evrop": 4895,
      "taj": 4896,
      "ceni": 4897,
      "Ġkuku": 4898,
      "Ġljuba": 4899,
      "Ġautono": 4900,
      "Ġosobi": 4901,
      "Ġuslove": 4902,
      "Ġstvarala": 4903,
      "Ġugar": 4904,
      "Ġprinosa": 4905,
      "ĠdrÅ¾avne": 4906,
      "Ġpripadnika": 4907,
      "ÅĤ": 4908,
      "Ġpredme": 4909,
      "Å¡tvu": 4910,
      "Ġcelini": 4911,
      "Ġdodatno": 4912,
      "ĠunutraÅ¡": 4913,
      "Ġsiroma": 4914,
      "Ġupr": 4915,
      "dim": 4916,
      "Ġdjela": 4917,
      "dje": 4918,
      "linu": 4919,
      "Ġpouzda": 4920,
      "Ġjedinice": 4921,
      "Ġkontrolu": 4922,
      "Ġun": 4923,
      "staviti": 4924,
      "Ġjanu": 4925,
      "Ġjavnih": 4926,
      "Ġfunkciji": 4927,
      "Ġtradicije": 4928,
      "Ġposlednjih": 4929,
      "ĠsvedoÄįi": 4930,
      "lle": 4931,
      "vata": 4932,
      "uzro": 4933,
      "Ġsinta": 4934,
      "Ġpotro": 4935,
      "Ġoblike": 4936,
      "ap": 4937,
      "É«É": 4938,
      "Ġigu": 4939,
      "Ġnama": 4940,
      "Ġhibri": 4941,
      "Ġsvojstva": 4942,
      "Ġgoriva": 4943,
      "ĠtehnoloÅ¡kog": 4944,
      "Ġhercego": 4945,
      "Å¾avanje": 4946,
      "Ġbavi": 4947,
      "Ġdiserta": 4948,
      "Ġopozi": 4949,
      "Ġizu": 4950,
      "Ġlepo": 4951,
      "Ġgeno": 4952,
      "ĠoznaÄįavaju": 4953,
      "Ġpokri": 4954,
      "Ġcu": 4955,
      "ĠodreÄĳuje": 4956,
      "ĠznaÄįenjem": 4957,
      "Ġïĥ¯": 4958,
      "Ġodraslih": 4959,
      "diÄĩ": 4960,
      "Ġkara": 4961,
      "Ġmolit": 4962,
      "ĠzapoÄįe": 4963,
      "Ġfrag": 4964,
      "Ġ+": 4965,
      "Ġsrod": 4966,
      "Ġmg": 4967,
      "Ġizlaga": 4968,
      "lizaciji": 4969,
      "ĠdruÅ¡tvenim": 4970,
      "Ġporodici": 4971,
      "Ġsaznanja": 4972,
      "ĠÅ¾rtve": 4973,
      "lla": 4974,
      "Ġpresu": 4975,
      "Ġsit": 4976,
      "ĠpetroviÄĩ": 4977,
      "Ġslobodan": 4978,
      "janoviÄĩ": 4979,
      "Ġmaso": 4980,
      "67": 4981,
      "Ġimenu": 4982,
      "Ġperi": 4983,
      "ĠmeÄĳusobno": 4984,
      "Ġ1990": 4985,
      "ksida": 4986,
      "Ġistoriji": 4987,
      "Ġslabo": 4988,
      "Ġborbi": 4989,
      "rci": 4990,
      "Ġsavremene": 4991,
      "ÄįiÄĩe": 4992,
      "gan": 4993,
      "seÄĩa": 4994,
      "ĠsliÄįno": 4995,
      "Ġstica": 4996,
      "Ġdoprinosi": 4997,
      "ĠzahvaljujuÄĩi": 4998,
      "ĠzaÅ¡to": 4999,
      "Ġpreno": 5000,
      "Ġintervju": 5001,
      "ĠÎ´": 5002,
      "Ġodabra": 5003,
      "vskog": 5004,
      "Äįnika": 5005,
      "Å¡kom": 5006,
      "Ġrevi": 5007,
      "Å¾elj": 5008,
      "ĠtiÄįe": 5009,
      "Ġlabora": 5010,
      "ĠobaveÅ¡taj": 5011,
      "ĠÂ«": 5012,
      "Ġistaknu": 5013,
      "Ġseme": 5014,
      "Ġsava": 5015,
      "Ġpresto": 5016,
      "sana": 5017,
      "Ġevi": 5018,
      "Ġmito": 5019,
      "Ġvrstu": 5020,
      "ĠÄįlana": 5021,
      "Ġprofesor": 5022,
      "Ġkarije": 5023,
      "Ġmine": 5024,
      "ĠtraÅ¾i": 5025,
      "Î¬": 5026,
      "Ġzauzima": 5027,
      "Ġzaista": 5028,
      "ĠrazmiÅ¡lja": 5029,
      "budu": 5030,
      "slava": 5031,
      "stanak": 5032,
      "Ġsoci": 5033,
      "Ġodnosima": 5034,
      "Ġpostupku": 5035,
      "ĠpodruÄįja": 5036,
      "Ġpominje": 5037,
      "Ġrehabilita": 5038,
      "sanu": 5039,
      "Ġtesti": 5040,
      "ĠnaÄįine": 5041,
      "Ġprobleme": 5042,
      "odre": 5043,
      "Ġnajbolje": 5044,
      "Ġstariji": 5045,
      "Ġpredra": 5046,
      "Ġponavlja": 5047,
      "ÎŃ": 5048,
      "lar": 5049,
      "Ġdao": 5050,
      "Ġmisao": 5051,
      "Ġkur": 5052,
      "Ġveliku": 5053,
      "blji": 5054,
      "zmom": 5055,
      "Ġdokaza": 5056,
      "Ġprate": 5057,
      "vrede": 5058,
      "Ġmnoge": 5059,
      "Ġkoeficije": 5060,
      "nstva": 5061,
      "Ġpreo": 5062,
      "hemi": 5063,
      "Ġnastao": 5064,
      "Ġefikasnost": 5065,
      "cs": 5066,
      "tska": 5067,
      "Ġznanje": 5068,
      "Ġtehnologije": 5069,
      "Ġraznovr": 5070,
      "Ġotac": 5071,
      "Ġpritiska": 5072,
      "%)": 5073,
      "Ġodi": 5074,
      "Ġjedni": 5075,
      "ĠznaÄįajna": 5076,
      "ei": 5077,
      "Ġunije": 5078,
      "ĠniÅ¾i": 5079,
      "Å¡ten": 5080,
      "Ġoptima": 5081,
      "Ġrizika": 5082,
      "zaciji": 5083,
      "Ġdode": 5084,
      "Äįani": 5085,
      "Ġvoka": 5086,
      "Ġstrukturi": 5087,
      "Ġinova": 5088,
      "silji": 5089,
      "Ġber": 5090,
      "Ġdiskursa": 5091,
      "Ġeduka": 5092,
      "vnik": 5093,
      "Ġizbora": 5094,
      "Ġprvih": 5095,
      "Ġodmah": 5096,
      "jsku": 5097,
      "sr": 5098,
      "ĠÄįeÅ¡Äĩe": 5099,
      "Ġsvaka": 5100,
      "Ġnastavi": 5101,
      "Ġmnogim": 5102,
      "Ġgodinama": 5103,
      "Ġpojedinca": 5104,
      "oci": 5105,
      "ĠÄĳa": 5106,
      "Äįaka": 5107,
      "Ġefekata": 5108,
      "ĠpoveÄĩanje": 5109,
      "Ġeksplo": 5110,
      "njama": 5111,
      "Ġeven": 5112,
      "Ġsila": 5113,
      "Ġnajmanje": 5114,
      "ĠobjaÅ¡nja": 5115,
      "ÏĥÏĦ": 5116,
      "Ġintui": 5117,
      "65": 5118,
      "Ġnog": 5119,
      "ĠÄĩi": 5120,
      "noÅ¡Äĩu": 5121,
      "cii": 5122,
      "ĠmeÄĳusob": 5123,
      "Ġregional": 5124,
      "dva": 5125,
      "Ġmiro": 5126,
      "Ġpravcu": 5127,
      "Ġoca": 5128,
      "riÅ¡e": 5129,
      "leta": 5130,
      "Ġnemogu": 5131,
      "pan": 5132,
      "Ġmilu": 5133,
      "Ġimamo": 5134,
      "Ġjedinjenja": 5135,
      "Ġxvii": 5136,
      "Ġselu": 5137,
      "Ġovako": 5138,
      "Ġljubi": 5139,
      "Ġvelikom": 5140,
      "Ġrs": 5141,
      "komu": 5142,
      "zanje": 5143,
      "Ġkvanti": 5144,
      "Ġflu": 5145,
      "Ġder": 5146,
      "Ġstole": 5147,
      "Ġuma": 5148,
      "ĠpreÅ¾i": 5149,
      "Ġpublika": 5150,
      "Ġobraza": 5151,
      "Ġcrkvu": 5152,
      "Ġpercep": 5153,
      "Ġleksikograf": 5154,
      "tskim": 5155,
      "timo": 5156,
      "tada": 5157,
      "menom": 5158,
      "Ġpotrebu": 5159,
      "kna": 5160,
      "Ġprera": 5161,
      "Ġzu": 5162,
      "bez": 5163,
      "Ġosnovna": 5164,
      "Ġ1994": 5165,
      "á½¶": 5166,
      "Ġministarstvo": 5167,
      "socijalisti": 5168,
      "Ġpatrijarha": 5169,
      "Ġoslanja": 5170,
      "Ġprilika": 5171,
      "Ġstrukturu": 5172,
      "Ġbezbedno": 5173,
      "Ġsmanjenje": 5174,
      "vide": 5175,
      "Ġmm": 5176,
      "Ġala": 5177,
      "rum": 5178,
      "dor": 5179,
      "her": 5180,
      "Ġdecenije": 5181,
      "ĠodreÄĳenim": 5182,
      "raca": 5183,
      "zar": 5184,
      "Ġsuge": 5185,
      "gana": 5186,
      "ĠmeÄĳunaro": 5187,
      "Ġadekvat": 5188,
      "54": 5189,
      "Ġvol": 5190,
      "ĠÅ¾ivotne": 5191,
      "Ġ70": 5192,
      "Ġizazi": 5193,
      "Ġgradu": 5194,
      "Ġpute": 5195,
      "Ġupravljanja": 5196,
      "ÄĻ": 5197,
      "Å¡eni": 5198,
      "nijeg": 5199,
      "Å¡avanje": 5200,
      "Ñıt": 5201,
      "Ġsporazu": 5202,
      "Ġobjasni": 5203,
      "Ġtakva": 5204,
      "ĠzakljuÄįak": 5205,
      "jskoj": 5206,
      "kona": 5207,
      "lovi": 5208,
      "Ġdal": 5209,
      "ĠodrÅ¾i": 5210,
      "Ġobre": 5211,
      "tivnoj": 5212,
      "Ġnepozna": 5213,
      "Ġtabeli": 5214,
      "Ġsintag": 5215,
      "dÅ¾e": 5216,
      "Ġprikaz": 5217,
      "vljen": 5218,
      "ĠÅ¡kolu": 5219,
      "Ġaktivnostima": 5220,
      "metara": 5221,
      "Ġsprem": 5222,
      "Ġokolnostima": 5223,
      "87": 5224,
      "Ġsg": 5225,
      "prostra": 5226,
      "Ġelementi": 5227,
      "Ġsnage": 5228,
      "Ġsaradnju": 5229,
      "Å¾ne": 5230,
      "Ġaktivi": 5231,
      "que": 5232,
      "Ġá¼Ĳ": 5233,
      "tine": 5234,
      "Ġkonku": 5235,
      "gledno": 5236,
      "Ġizvori": 5237,
      "ĠstanoviÅ¡ta": 5238,
      "59": 5239,
      "njim": 5240,
      "nc": 5241,
      "Ġora": 5242,
      "Ġasi": 5243,
      "Ġniza": 5244,
      "Ġtabela": 5245,
      "Ġsvojevr": 5246,
      "Ġsnaga": 5247,
      "Ġstvaranje": 5248,
      "Ġdominan": 5249,
      "Ġjerusa": 5250,
      "Ġzaslu": 5251,
      "Ġtole": 5252,
      "Ġdijalekat": 5253,
      "Ġnjegovoj": 5254,
      "kovima": 5255,
      "Ġradnog": 5256,
      "ĠuspeÅ¡no": 5257,
      "52": 5258,
      "Ã¼": 5259,
      "pora": 5260,
      "Ġprirodnih": 5261,
      "66": 5262,
      "Ġbave": 5263,
      "Ġobaveza": 5264,
      "Ġzamenice": 5265,
      "jna": 5266,
      "Äįita": 5267,
      "nuti": 5268,
      "Ġzvo": 5269,
      "Ġmarta": 5270,
      "ĠseÄĩanja": 5271,
      "Äįine": 5272,
      "Ġmakro": 5273,
      "Ġ1989": 5274,
      "as": 5275,
      "Ġá½": 5276,
      "Ġonim": 5277,
      "liji": 5278,
      "Ġproizvodi": 5279,
      "Ġbrat": 5280,
      "Ġpokazali": 5281,
      "Ġaspekta": 5282,
      "Ġpotencijal": 5283,
      "terija": 5284,
      "Ġmen": 5285,
      "Î¿á¿": 5286,
      "Ġstepena": 5287,
      "kvo": 5288,
      "Ġuzora": 5289,
      "vawe": 5290,
      "Ġpome": 5291,
      "uprot": 5292,
      "Ġrefor": 5293,
      "Ġvje": 5294,
      "Ġstan": 5295,
      "ger": 5296,
      "Ġgaso": 5297,
      "Ġproizvodnju": 5298,
      "Ġhuma": 5299,
      "ĠinaÄįe": 5300,
      "nic": 5301,
      "Ġrast": 5302,
      "Ġobjekta": 5303,
      "Ġpostao": 5304,
      "Ġdobijenih": 5305,
      "jam": 5306,
      "sled": 5307,
      "Ġkoristiti": 5308,
      "Ġzadovolj": 5309,
      "fer": 5310,
      "Ġprimeru": 5311,
      "ĠvraÄĩa": 5312,
      "Ġtvrd": 5313,
      "Ġuzorka": 5314,
      "Ġzameni": 5315,
      "Ġsagorevanja": 5316,
      "71": 5317,
      "sci": 5318,
      "Ġprof": 5319,
      "Ġdelovanje": 5320,
      "Ġsavremenog": 5321,
      "nÑĭe": 5322,
      "Ġkukuru": 5323,
      "kteri": 5324,
      "ria": 5325,
      "skopi": 5326,
      "loÅ¡ku": 5327,
      "Ġzakonodav": 5328,
      "nskoj": 5329,
      "ĠvÑĬ": 5330,
      "Ġdeve": 5331,
      "Ġsolu": 5332,
      "Ġzemlju": 5333,
      "Ġmanastiru": 5334,
      "Ġkomunisti": 5335,
      "Ġnave": 5336,
      "Ġretko": 5337,
      "ĠvaÅ¾an": 5338,
      "Ġizraza": 5339,
      "ĠdefiniÅ¡e": 5340,
      "Ġjednako": 5341,
      "Ġprene": 5342,
      "mila": 5343,
      "Ġnisam": 5344,
      "ĠsoÄįi": 5345,
      "Äĩuju": 5346,
      "ĠporeÄĳenju": 5347,
      "Ġskupa": 5348,
      "Ġaleksandar": 5349,
      "Ġkrsta": 5350,
      "Ġsavremenom": 5351,
      "56": 5352,
      "Nj": 5353,
      "ĠpoÅ¾a": 5354,
      "Ġokup": 5355,
      "ĠzapaÅ¾a": 5356,
      "upotre": 5357,
      "Ġprvobi": 5358,
      "Ġuprkos": 5359,
      "smatra": 5360,
      "slova": 5361,
      "hrvat": 5362,
      "zad": 5363,
      "ĠduÅ¡e": 5364,
      "Ġosl": 5365,
      "Ġodgovori": 5366,
      "odno": 5367,
      "reno": 5368,
      "Ġbran": 5369,
      "Ġrecep": 5370,
      "nuta": 5371,
      "Ġstalno": 5372,
      "Ġimple": 5373,
      "Ġ90": 5374,
      "99": 5375,
      "Ġ<": 5376,
      "Ġvalja": 5377,
      "slobo": 5378,
      "Ġfunkciju": 5379,
      "Ġreproduk": 5380,
      "ĠdelimiÄįno": 5381,
      "shodno": 5382,
      "krimina": 5383,
      "Ġmladih": 5384,
      "Ġsje": 5385,
      "jali": 5386,
      "kato": 5387,
      "tel": 5388,
      "Å¾ni": 5389,
      "Äįili": 5390,
      "siti": 5391,
      "Ġmodeli": 5392,
      "Ġistorijski": 5393,
      "Ġhrvatske": 5394,
      "Ġreprezenta": 5395,
      "ume": 5396,
      "Ġnaime": 5397,
      "Äįin": 5398,
      "siÄĩ": 5399,
      "Ġmale": 5400,
      "ĠnuÅ¾no": 5401,
      "gh": 5402,
      "Ġdv": 5403,
      "Ġnesu": 5404,
      "Ġnarodnog": 5405,
      "mski": 5406,
      "Ġazo": 5407,
      "Ġtki": 5408,
      "Ġrazlikuju": 5409,
      "Ġdetermi": 5410,
      "tskom": 5411,
      "Ġselek": 5412,
      "Ġkazne": 5413,
      "Å¾enih": 5414,
      "Ġpolovini": 5415,
      "ĠknjiÅ¾evnog": 5416,
      "ĠistraÅ¾ivaÄįa": 5417,
      "Å¡ene": 5418,
      "Ġdomenu": 5419,
      "Ġvrednos": 5420,
      "Ġbrojne": 5421,
      "Ġkonteksta": 5422,
      "Ġgeneracije": 5423,
      "72": 5424,
      "Ġevalu": 5425,
      "ĠsluÅ¾i": 5426,
      "Ġneutra": 5427,
      "Ġprincipa": 5428,
      "ĠokruÅ¾enja": 5429,
      "%.": 5430,
      "Äįinje": 5431,
      "garske": 5432,
      "ĠnaÄįinu": 5433,
      "ï£": 5434,
      "Ġseve": 5435,
      "Ġsun": 5436,
      "ĠÅ¡uma": 5437,
      "Äįla": 5438,
      "vanih": 5439,
      "skopa": 5440,
      "Ġinvesti": 5441,
      "ĠtaÄįke": 5442,
      "Ġdistribu": 5443,
      "Ġfabri": 5444,
      "Ġsmanji": 5445,
      "Äĩom": 5446,
      "Ġsuda": 5447,
      "Ġvrije": 5448,
      "Ġ80": 5449,
      "Ġgrupama": 5450,
      "Ma": 5451,
      "cc": 5452,
      "lajn": 5453,
      "Ġdosada": 5454,
      "Ġprezen": 5455,
      "Ġposeban": 5456,
      "ĠÅ¾eli": 5457,
      "ĠmeÄĳunarodne": 5458,
      "É¡": 5459,
      "Ġminima": 5460,
      "Ġjavno": 5461,
      "Ġanto": 5462,
      "Ġprizren": 5463,
      "Ġtenden": 5464,
      "jao": 5465,
      "vaÄį": 5466,
      "galakto": 5467,
      "Ġtelo": 5468,
      "sora": 5469,
      "Ġlon": 5470,
      "Ġmodelu": 5471,
      "Ġustanova": 5472,
      "Ġlaborato": 5473,
      "jala": 5474,
      "gove": 5475,
      "tenti": 5476,
      "ĠupuÄĩuje": 5477,
      "Ġparla": 5478,
      "Ġpavle": 5479,
      "val": 5480,
      "Ġ1992": 5481,
      "Ġoblastima": 5482,
      "Ġstvaranja": 5483,
      "Ġhrane": 5484,
      "Ġstefana": 5485,
      "77": 5486,
      "Ġneforma": 5487,
      "tuju": 5488,
      "Ġbiv": 5489,
      "Ġrazlog": 5490,
      "Ġmile": 5491,
      "Ġintegri": 5492,
      "Ġjugoslovenske": 5493,
      "Ġzadovolja": 5494,
      "mino": 5495,
      "Ġsloboda": 5496,
      "ĠÄįlanovi": 5497,
      "Ġprincipi": 5498,
      "Ġpojmova": 5499,
      "mr": 5500,
      "tle": 5501,
      "Ġnada": 5502,
      "Ġzanim": 5503,
      "demo": 5504,
      "Ġnjenih": 5505,
      "ĠdrÅ¾avama": 5506,
      "Ġpogled": 5507,
      "tnik": 5508,
      "dimo": 5509,
      "Ġkratko": 5510,
      "ĠsluÄįajeva": 5511,
      "Ñīi": 5512,
      "Ġeventual": 5513,
      "ĠnaÄĩi": 5514,
      "rovi": 5515,
      "tovanje": 5516,
      "Ġstudenti": 5517,
      "Ġlokali": 5518,
      "Å¾na": 5519,
      "obi": 5520,
      "ÄĲ": 5521,
      "stog": 5522,
      "zori": 5523,
      "Ġvisok": 5524,
      "Ġstanovnika": 5525,
      "Ġdeset": 5526,
      "Ġzasniva": 5527,
      "Ġsaj": 5528,
      "Ġdecu": 5529,
      "Ġstvore": 5530,
      "Ġpopulacije": 5531,
      "liÅ¡e": 5532,
      "Å¡ni": 5533,
      "Ġlak": 5534,
      "Ġorganizaciji": 5535,
      "Ġleksika": 5536,
      "ĠzavrÅ¡e": 5537,
      "Ġseksual": 5538,
      "Ġdobri": 5539,
      "Ġmol": 5540,
      "sati": 5541,
      "Ġsvojom": 5542,
      "Ġpravilu": 5543,
      "ĠpoÄįinje": 5544,
      "nsku": 5545,
      "srbi": 5546,
      "Ġsmet": 5547,
      "novo": 5548,
      "ting": 5549,
      "Ġnera": 5550,
      "ĠveÄįe": 5551,
      "Ġnosio": 5552,
      "Ġsoli": 5553,
      "ĠpoÄįetak": 5554,
      "Ġsituacijama": 5555,
      "Ġciljeva": 5556,
      "Ġzatvore": 5557,
      "sisti": 5558,
      "cem": 5559,
      "Å¾em": 5560,
      "Ġkonstitu": 5561,
      "Ġkonzer": 5562,
      "fikaciju": 5563,
      "Ġkoncepta": 5564,
      "Ġvazduha": 5565,
      "\".": 5566,
      "Ġuklanja": 5567,
      "Ġpostav": 5568,
      "ĠbÑĬl": 5569,
      "Ġzra": 5570,
      "gradu": 5571,
      "Ġkomuni": 5572,
      "ĠÂ·": 5573,
      "Ġpolje": 5574,
      "ĠzavrÅ¡i": 5575,
      "rijskih": 5576,
      "ĠzaÅ¡titi": 5577,
      "Ġfotografi": 5578,
      "Ġoksida": 5579,
      "ÑĶ": 5580,
      "ĠX": 5581,
      "tero": 5582,
      "Ġpomenuti": 5583,
      "Ġzdravlje": 5584,
      "61": 5585,
      "Ġostalim": 5586,
      "ine": 5587,
      "vora": 5588,
      "loka": 5589,
      "sane": 5590,
      "Ġnjeno": 5591,
      "Ġoktobra": 5592,
      "oko": 5593,
      "Ġdosto": 5594,
      "Ġprocesi": 5595,
      "ĠmiÅ¡ljenju": 5596,
      "Ġkomponente": 5597,
      "Ġjest": 5598,
      "poli": 5599,
      "Ġpromen": 5600,
      "Ġstrada": 5601,
      "Ġcito": 5602,
      "Ġpovezi": 5603,
      "Ġinstrumenta": 5604,
      "ĠreÄįniku": 5605,
      "79": 5606,
      "stven": 5607,
      "Ġpan": 5608,
      "ĠÉŀ": 5609,
      "Ġefikasnosti": 5610,
      "zanja": 5611,
      "Ġmobi": 5612,
      "Ġzakoni": 5613,
      "Ġrukovodi": 5614,
      "ĠreÄįeno": 5615,
      "Ġpristupi": 5616,
      "hari": 5617,
      "ĠodreÄĳena": 5618,
      "Ġprevazila": 5619,
      "ĠnaÅ¡ih": 5620,
      "Ġkape": 5621,
      "Ġnajvi": 5622,
      "Ġxiv": 5623,
      "82": 5624,
      "pti": 5625,
      "ĠuÄįesnika": 5626,
      "ĠznaÄįen": 5627,
      "ĠnasleÄĳe": 5628,
      "51": 5629,
      "É¬": 5630,
      "Ġski": 5631,
      "Äįeva": 5632,
      "gram": 5633,
      "Ġozbilj": 5634,
      "Ġil": 5635,
      "ĠdeÅ¡ava": 5636,
      "Ġkonstrui": 5637,
      "Ġakce": 5638,
      "Ġmarsilji": 5639,
      "Ġbiljke": 5640,
      "ker": 5641,
      "Ġgledi": 5642,
      "Ġscien": 5643,
      "Ġred": 5644,
      "geni": 5645,
      "hat": 5646,
      "Ġkulturno": 5647,
      "ĠÉ§": 5648,
      "Ġvrednostima": 5649,
      "73": 5650,
      "Ġuva": 5651,
      "Ġagre": 5652,
      "Ġbitno": 5653,
      "Å¾ivo": 5654,
      "Ġvalje": 5655,
      "ĠnauÄįnog": 5656,
      "Ġdrve": 5657,
      "Ġimu": 5658,
      "tiji": 5659,
      "Ġizvorima": 5660,
      "Ġakademije": 5661,
      "Äī": 5662,
      "ranjem": 5663,
      "Ġpotra": 5664,
      "Ġnamenje": 5665,
      "org": 5666,
      "ĠÄįesti": 5667,
      "Ġbrojem": 5668,
      "Ġkorist": 5669,
      "Ġpojavu": 5670,
      "Ġkrea": 5671,
      "Ġformiranje": 5672,
      "ĠmnoÅ¾i": 5673,
      "sp": 5674,
      "Ġiv": 5675,
      "Å¡na": 5676,
      "rus": 5677,
      "Ġsvetom": 5678,
      "ide": 5679,
      "oli": 5680,
      "pisima": 5681,
      "Ġpostepe": 5682,
      "Äįini": 5683,
      "Ġsvoja": 5684,
      "Ġfaze": 5685,
      "Ġlati": 5686,
      "ĠÄįinjenicu": 5687,
      "Ġrecikla": 5688,
      "gno": 5689,
      "kor": 5690,
      "Ġpovodom": 5691,
      "ĠâĢ¢": 5692,
      "Ġkombi": 5693,
      "Ġdoktor": 5694,
      "ĠtreÄĩi": 5695,
      "Ġhisto": 5696,
      "Ġimeno": 5697,
      "Ġkadmiju": 5698,
      ".:": 5699,
      "Ã¤": 5700,
      "jeg": 5701,
      "Ġuto": 5702,
      "Ġnapa": 5703,
      "Ġkomenta": 5704,
      "Ġeta": 5705,
      "Ġinsta": 5706,
      "Å¾avanja": 5707,
      "Ġlinije": 5708,
      "Ġpojedine": 5709,
      "Ġistica": 5710,
      "ĠistiÄįu": 5711,
      "Ġsupro": 5712,
      "Ġgovoriti": 5713,
      "Ġsituaciji": 5714,
      "ĠpovrÅ¡ina": 5715,
      "Ġopisuje": 5716,
      "bl": 5717,
      "tus": 5718,
      "Å¡avaju": 5719,
      "ĠÄįinjenice": 5720,
      "drugim": 5721,
      "vawa": 5722,
      "Ġprevo": 5723,
      "Äįima": 5724,
      "Ġnjihovi": 5725,
      "Ġpromenama": 5726,
      "Ġkosovu": 5727,
      "Ġgrigorije": 5728,
      "Ġuzoraka": 5729,
      "74": 5730,
      "nina": 5731,
      "tana": 5732,
      "moviÄĩ": 5733,
      "Ġrod": 5734,
      "rakteri": 5735,
      "Ġokvira": 5736,
      "Ġsaveta": 5737,
      "Ġapsolu": 5738,
      "Ġdimenzije": 5739,
      "ĠÅ¾an": 5740,
      "Ġkol": 5741,
      "njiho": 5742,
      "Ġmira": 5743,
      "Ġpija": 5744,
      "ĠÅ¡kolo": 5745,
      "Ġpostaju": 5746,
      "Ġzapadno": 5747,
      "ĠkoliÄįina": 5748,
      "Ġhttps": 5749,
      "Ġpredsednik": 5750,
      "Ġseptembra": 5751,
      "ou": 5752,
      "É¥": 5753,
      "Ġprave": 5754,
      "Ġmuziko": 5755,
      "Ġjedinstve": 5756,
      "Î¿á¿¦": 5757,
      "63": 5758,
      "con": 5759,
      "Ġsile": 5760,
      "Ġpravosu": 5761,
      "Ġwith": 5762,
      "kori": 5763,
      "biti": 5764,
      "Å¾avaju": 5765,
      "Ġkupi": 5766,
      "Ġdobio": 5767,
      "ĠÄįuva": 5768,
      "Ġpoznato": 5769,
      "Ġprikazani": 5770,
      "Ġpostupka": 5771,
      "Ġispitivanje": 5772,
      "tribu": 5773,
      "Ġvladaju": 5774,
      "Ġrazlikuje": 5775,
      "Ġinde": 5776,
      "joviÄĩ": 5777,
      "Ġsvetih": 5778,
      "Ġimale": 5779,
      "Ġzdravstve": 5780,
      "Ġusluga": 5781,
      "Ġosigu": 5782,
      "kava": 5783,
      "njenje": 5784,
      "moÅ¾e": 5785,
      "Ġpravu": 5786,
      "Ġnapomenu": 5787,
      "Ġprojekto": 5788,
      "Ġtesta": 5789,
      "Ġnjena": 5790,
      "Ġsigurno": 5791,
      "Ġsintaksi": 5792,
      "mbar": 5793,
      "Ġpitanjima": 5794,
      "Ġimp": 5795,
      "ĠmreÅ¾a": 5796,
      "Ġfokusi": 5797,
      "ispiti": 5798,
      "Äįnik": 5799,
      "Ġagro": 5800,
      "ĠsluÅ¡a": 5801,
      "Ġobraz": 5802,
      "Ġkulturu": 5803,
      "ĠÂµ": 5804,
      "Ġposlednje": 5805,
      "bene": 5806,
      "rski": 5807,
      "ĠÇ": 5808,
      "Ġsedi": 5809,
      "Ġrazdo": 5810,
      "Ġcrne": 5811,
      "Ġelement": 5812,
      "Ġdragu": 5813,
      "Ġvideo": 5814,
      "ĠnasleÄĳa": 5815,
      "Ġponekad": 5816,
      "jeve": 5817,
      "Ġhor": 5818,
      "Ġsliku": 5819,
      "Ġuprave": 5820,
      "Ġvaspita": 5821,
      "Ġsmatrati": 5822,
      "Ġstefan": 5823,
      "ĠnaÅ¡im": 5824,
      "Ġimi": 5825,
      "Ġpromenu": 5826,
      "Ġvrhu": 5827,
      "ĠrazliÄįita": 5828,
      "ĠuÄįesta": 5829,
      "Ġpodatak": 5830,
      "ĠmuziÄįke": 5831,
      "Ġfilozofije": 5832,
      "dine": 5833,
      "Äįesko": 5834,
      "Ġ33": 5835,
      "Ġprimeni": 5836,
      "Ġukupno": 5837,
      "Ġkoncentracija": 5838,
      "ĠÅ¾ivotinje": 5839,
      "ĠukljuÄįuje": 5840,
      "upravo": 5841,
      "phi": 5842,
      "noÐ¹": 5843,
      "redo": 5844,
      "Ġbol": 5845,
      "Ġradovi": 5846,
      "rizo": 5847,
      "Ġpuno": 5848,
      "Ġvremenom": 5849,
      "Ġlokalne": 5850,
      "Ġvrata": 5851,
      "Ġmolekula": 5852,
      "gmati": 5853,
      "Ġran": 5854,
      "Ġkulturni": 5855,
      "Ġlogo": 5856,
      "ĠÎ±": 5857,
      "Ġsaradnja": 5858,
      "Ġposebne": 5859,
      "Ġizdvoji": 5860,
      "Ġleksikografi": 5861,
      "Ġaprila": 5862,
      "obu": 5863,
      "tetima": 5864,
      "Ġml": 5865,
      "dama": 5866,
      "Äįica": 5867,
      "baÄĳa": 5868,
      "ĠÅ¡irom": 5869,
      "Ġnacionalni": 5870,
      "Ġdeluje": 5871,
      "64": 5872,
      "83": 5873,
      "rado": 5874,
      "Ġrezisten": 5875,
      "Ġ31": 5876,
      "Ġzakonom": 5877,
      "ĠprilagoÄĳa": 5878,
      "Ġnaju": 5879,
      "Ġkupo": 5880,
      "Ġnajsta": 5881,
      "ĠkoriÅ¡Äĩenja": 5882,
      "Ġpojedinaca": 5883,
      "ĠÄĳorÄĳeviÄĩ": 5884,
      "ĠÐ¹": 5885,
      "Ġostavlja": 5886,
      "Ġpropa": 5887,
      "Ġprouzro": 5888,
      "Ġraspolo": 5889,
      "ruju": 5890,
      "stiti": 5891,
      "Ġinfra": 5892,
      "Ġcha": 5893,
      "Ġrodo": 5894,
      "Ġradovima": 5895,
      "Ġustano": 5896,
      "Ġnasilje": 5897,
      "Ġtransformacije": 5898,
      "Ġfrekven": 5899,
      "ds": 5900,
      "mbe": 5901,
      "sh": 5902,
      "Â°": 5903,
      "Ġkat": 5904,
      "Ġborbu": 5905,
      "Ġkompetencija": 5906,
      "Ñ¡": 5907,
      "ĠÍ": 5908,
      "mato": 5909,
      "Å¡enju": 5910,
      "Ġrezu": 5911,
      "Ġglas": 5912,
      "inte": 5913,
      "Ġxv": 5914,
      "ĠÂ°": 5915,
      "Ġdiskurs": 5916,
      "Ġemp": 5917,
      "Ġevalua": 5918,
      "naca": 5919,
      "rama": 5920,
      "Ġzanema": 5921,
      "Ġdovode": 5922,
      "ĠveÅ¡ta": 5923,
      "kraji": 5924,
      "Ġfebru": 5925,
      "Ġtakvih": 5926,
      "Ġnikole": 5927,
      "Ġblizi": 5928,
      "ï£¿": 5929,
      "glu": 5930,
      "Ġopu": 5931,
      "Ġugovora": 5932,
      "like": 5933,
      "Ġzabora": 5934,
      "njeno": 5935,
      "Ġostala": 5936,
      "Ġrje": 5937,
      "03": 5938,
      "torima": 5939,
      "Ġpam": 5940,
      "Ġ2022": 5941,
      "Ġpostala": 5942,
      "Ġkvalita": 5943,
      "88": 5944,
      "Ġkonce": 5945,
      "Ġorganizo": 5946,
      "Ġonlajn": 5947,
      "êĻ¿": 5948,
      "zme": 5949,
      "Å¡njem": 5950,
      "Ġtvore": 5951,
      "ĠsveÅ¡te": 5952,
      "Ġmilan": 5953,
      "ĠjaÄįa": 5954,
      "ĠunutraÅ¡njih": 5955,
      "ekonom": 5956,
      "ae": 5957,
      "Ġserbi": 5958,
      "Ġbes": 5959,
      "Ġsocijalnih": 5960,
      "Ġdobijeni": 5961,
      "ĠoÅ¡t": 5962,
      "turu": 5963,
      "kreta": 5964,
      "centri": 5965,
      "Ġ1993": 5966,
      "Ġnastavnici": 5967,
      "ml": 5968,
      "Ġuvod": 5969,
      "zapa": 5970,
      "Ġdosle": 5971,
      "ĠveÄĩu": 5972,
      "stoj": 5973,
      "Ġkonven": 5974,
      "Ġsobom": 5975,
      "ĠÉ«É": 5976,
      "Ġtehnike": 5977,
      "Ġproizvodnji": 5978,
      "Ġkomple": 5979,
      "Ġaspekt": 5980,
      "Ġliterature": 5981,
      "Ġcarstva": 5982,
      "Ġpritisak": 5983,
      "ĠnaÄįela": 5984,
      "ÏĨ": 5985,
      "tovi": 5986,
      "Ġzaintere": 5987,
      "Ġpreuzima": 5988,
      "Ġdizel": 5989,
      "Ġupotreblje": 5990,
      "62": 5991,
      "dini": 5992,
      "dara": 5993,
      "poviÄĩ": 5994,
      "Ġpravne": 5995,
      "Ġsvoga": 5996,
      "ĠveÄĩoj": 5997,
      "Ġradom": 5998,
      "Ġvojne": 5999,
      "Ġnegativnih": 6000,
      "ĠreÅ¾ima": 6001,
      "prvo": 6002,
      "Ġfenomen": 6003,
      "Ġ1986": 6004,
      "urnal": 6005,
      "Ġresursa": 6006,
      "Ñį": 6007,
      "stiÄįki": 6008,
      "Ġracional": 6009,
      "Ġzrna": 6010,
      "pav": 6011,
      "ĠÄįo": 6012,
      "Å¡tanja": 6013,
      "Ġdelovi": 6014,
      "Ġimpera": 6015,
      "ĠprouÄįavanja": 6016,
      "Ġizbegli": 6017,
      "cho": 6018,
      "Ġpavla": 6019,
      "Ġpredstavi": 6020,
      "ljivi": 6021,
      "Ġjako": 6022,
      "Ġusme": 6023,
      "Ġantio": 6024,
      "Ġjednim": 6025,
      "ĠjeziÄįke": 6026,
      "Ġfaktori": 6027,
      "Ġfenomena": 6028,
      "Ġislam": 6029,
      "TH": 6030,
      "zga": 6031,
      "tiÄįki": 6032,
      "Ġef": 6033,
      "pravi": 6034,
      "faÅ¡i": 6035,
      "Ġsledi": 6036,
      "Ġpokazalo": 6037,
      "Ġparce": 6038,
      "ĠbuduÄĩnosti": 6039,
      "89": 6040,
      "Ġonog": 6041,
      "ĠraÄĳa": 6042,
      "Äįana": 6043,
      "Ġmenad": 6044,
      "Ġtvrdi": 6045,
      "Ġeviden": 6046,
      "Ġsaobra": 6047,
      "Ġkg": 6048,
      "Ġusvoje": 6049,
      "Ġizrade": 6050,
      "sluÅ¾be": 6051,
      "Ġsavez": 6052,
      "Ġrasprostra": 6053,
      "autor": 6054,
      "Ġkneza": 6055,
      "ografija": 6056,
      "Ġprenosi": 6057,
      "Ġgradi": 6058,
      "ĠnaglaÅ¡ava": 6059,
      "Äįnije": 6060,
      "Ġterenu": 6061,
      "Ġpari": 6062,
      "govoru": 6063,
      "Ġuzme": 6064,
      "ĠdrÅ¾avnih": 6065,
      "Ġnesumnji": 6066,
      "81": 6067,
      "Ġsamoupra": 6068,
      "rijskog": 6069,
      "druga": 6070,
      "Ġdvoji": 6071,
      "Ġpotrebama": 6072,
      "par": 6073,
      "Ġles": 6074,
      "Ġpostojanja": 6075,
      "Ġelemente": 6076,
      "Ġizdvoje": 6077,
      "kqu": 6078,
      "tsko": 6079,
      "rovat": 6080,
      "Ġasocija": 6081,
      "Ġevolu": 6082,
      "Ġvar": 6083,
      "ĠpotvrÄĳuje": 6084,
      "ĠveliÄįine": 6085,
      "Ġjelena": 6086,
      "Ġzanima": 6087,
      "Ġbakteri": 6088,
      "vedese": 6089,
      "Ġraspore": 6090,
      "ĠsvedoÄįe": 6091,
      "ĠoslobaÄĳa": 6092,
      "tpu": 6093,
      "tike": 6094,
      "Ġnemo": 6095,
      "Ġmotora": 6096,
      "ĠsluÅ¾benika": 6097,
      "mice": 6098,
      "ĠvÑĭ": 6099,
      "Ġtemu": 6100,
      "menji": 6101,
      "Ġljude": 6102,
      "Ġarhite": 6103,
      "Ġprincip": 6104,
      "Ġshvatanja": 6105,
      "Ġenerge": 6106,
      "Ġkapitalisti": 6107,
      "ring": 6108,
      "ĠnaÅ¡a": 6109,
      "Ġnakna": 6110,
      "stiÄįkih": 6111,
      "peri": 6112,
      "Ġtala": 6113,
      "ĠkuÄĩu": 6114,
      "Ġporetka": 6115,
      "Ġdvostru": 6116,
      "Ġnovembra": 6117,
      "ĠuÄįestvuju": 6118,
      "lingvisti": 6119,
      "Ġprepara": 6120,
      "Ġpreobra": 6121,
      "Ġizvodi": 6122,
      "Ġdelima": 6123,
      "Ġpolise": 6124,
      "vljeno": 6125,
      "Ġnastaje": 6126,
      "Å¾uje": 6127,
      "buduÄĩi": 6128,
      "sje": 6129,
      "Ġspisa": 6130,
      "Ġnapada": 6131,
      "Ġzapre": 6132,
      "Ġmerenja": 6133,
      "Ġsvaku": 6134,
      "Ġ1985": 6135,
      "ĠpraktiÄįno": 6136,
      "Ka": 6137,
      "elek": 6138,
      "ol": 6139,
      "Ġlj": 6140,
      "novima": 6141,
      "tacija": 6142,
      "ĠpolitiÄįka": 6143,
      "Ġkonstrukcije": 6144,
      "Ġpravoslavne": 6145,
      "discipli": 6146,
      "kru": 6147,
      "Ġuvid": 6148,
      "Ġglasa": 6149,
      "Ġkriminaliteta": 6150,
      "posebno": 6151,
      "Ġpresta": 6152,
      "Ġobim": 6153,
      "Ġparametara": 6154,
      "ĠuÄįinio": 6155,
      "stanka": 6156,
      "Ġpismo": 6157,
      "Ġpretpostavlja": 6158,
      "Ġciklusa": 6159,
      "85": 6160,
      "ĠoruÅ¾": 6161,
      "zara": 6162,
      "Ġdomini": 6163,
      "ĠveÅ¡tina": 6164,
      "ĠliÄįne": 6165,
      "Ġvlasni": 6166,
      "Ġprimerima": 6167,
      "Ġnaravno": 6168,
      "Ġrecimo": 6169,
      "Ġizbega": 6170,
      "Ġemocional": 6171,
      "mp": 6172,
      "Ġselja": 6173,
      "Äįila": 6174,
      "Ġdia": 6175,
      "Ġjosi": 6176,
      "slovenski": 6177,
      "ec": 6178,
      "Ġsvu": 6179,
      "Ġizvi": 6180,
      "Ġstarije": 6181,
      "Ġbanat": 6182,
      "antropo": 6183,
      "Ġmanifesta": 6184,
      "ini": 6185,
      "Ġospo": 6186,
      "govi": 6187,
      "Ġpesme": 6188,
      "Ġprocesima": 6189,
      "Ġnazivom": 6190,
      "ovde": 6191,
      "Ġtoleran": 6192,
      "dvo": 6193,
      "Ġvezuje": 6194,
      "Ġmetod": 6195,
      "Ġprotoko": 6196,
      "ÊģÉŁ": 6197,
      "ĠproÅ¡log": 6198,
      "ĠpH": 6199,
      "ruÅ¾a": 6200,
      "Ġedi": 6201,
      "Ġtam": 6202,
      "Ġgeor": 6203,
      "Ġvojske": 6204,
      "Ġposlove": 6205,
      "Ġodgovornosti": 6206,
      "Ġfilozofski": 6207,
      "danas": 6208,
      "Ġusavr": 6209,
      "Ġmorala": 6210,
      "Ġsprovodi": 6211,
      "ĠmeÄĳunarodnim": 6212,
      "Ġuzrasta": 6213,
      "ĠÃ©": 6214,
      "Ġdk": 6215,
      "Ġratu": 6216,
      "Ġes": 6217,
      "Ġnovu": 6218,
      "Ġsredstvo": 6219,
      "Ġprimarno": 6220,
      "Ġsulta": 6221,
      "ĠimajuÄĩi": 6222,
      "Ġkriza": 6223,
      "Ġslovena": 6224,
      "noviÄĩa": 6225,
      "vljeviÄĩ": 6226,
      "ĠnemaÄįke": 6227,
      "ĠÉ¨": 6228,
      "Ġjugoisto": 6229,
      "Ġfraze": 6230,
      "Ġpen": 6231,
      "Ġpriori": 6232,
      "Äįenih": 6233,
      "feri": 6234,
      "Ġ32": 6235,
      "ĠpolitiÄįkim": 6236,
      "nÑĭÐ¹": 6237,
      "Ġtrgovine": 6238,
      "Ġogrom": 6239,
      "pl": 6240,
      "rnoj": 6241,
      "tho": 6242,
      "Ġî": 6243,
      "Ġsed": 6244,
      "Ġkakav": 6245,
      "Ġznam": 6246,
      "Å¡tanje": 6247,
      "Ġfami": 6248,
      "ĠÃ¥": 6249,
      "sÑı": 6250,
      "Ġrezo": 6251,
      "Ġtvo": 6252,
      "Ġindika": 6253,
      "Ġposebna": 6254,
      "Ġinterakcija": 6255,
      "Ġsopstvene": 6256,
      "termi": 6257,
      "Ġara": 6258,
      "Ġano": 6259,
      "stim": 6260,
      "Ġnik": 6261,
      "Ġautenti": 6262,
      "Ġstereo": 6263,
      "Ġmuzika": 6264,
      "Ġprisutna": 6265,
      "ĠpoveÄĩava": 6266,
      "Ġprojekat": 6267,
      "Ġorijenti": 6268,
      "ĠduÅ¾nosti": 6269,
      "onu": 6270,
      "Ìģ": 6271,
      "Ġonima": 6272,
      "Ġselima": 6273,
      "Ġsaop": 6274,
      "Ġer": 6275,
      "Ġdevedese": 6276,
      "Ġcor": 6277,
      "ĠpeÄĩ": 6278,
      "ĠtreÄĩe": 6279,
      "Ġgalakto": 6280,
      "ÉļÉ§": 6281,
      "Ġpravde": 6282,
      "tali": 6283,
      "Ġsur": 6284,
      "Ġsrpsku": 6285,
      "Ġputu": 6286,
      "Ġideal": 6287,
      "Ġokvirima": 6288,
      "Ġ1988": 6289,
      "Ġjugoslavija": 6290,
      "ĠpredviÄĳa": 6291,
      "Ġnedostatak": 6292,
      "redi": 6293,
      "Ġpobu": 6294,
      "dnicima": 6295,
      "Ġrezultatima": 6296,
      "Ġkretanje": 6297,
      "Ġkine": 6298,
      "Ġstandarda": 6299,
      "Ġreakcija": 6300,
      "ĠkonaÄįno": 6301,
      "Ñ¥": 6302,
      "ÄįiÄĩa": 6303,
      "Äĩenih": 6304,
      "Äĳenog": 6305,
      "Äĳivanju": 6306,
      "Ġodeljenja": 6307,
      "ĠograniÄįenja": 6308,
      "ĠÅ¡iroko": 6309,
      "ticaj": 6310,
      "Ġatmos": 6311,
      "Ba": 6312,
      "Ġujedno": 6313,
      "Ġdolaze": 6314,
      "Ġmestima": 6315,
      "Ġnose": 6316,
      "Ġbur": 6317,
      "Ġrealizova": 6318,
      "Ġkomer": 6319,
      "Ġrepublici": 6320,
      "Ġdobar": 6321,
      "zbor": 6322,
      "Ġpriprema": 6323,
      "Ġhr": 6324,
      "Ġpravni": 6325,
      "Ġnormi": 6326,
      "Ġbiodi": 6327,
      "Ġruke": 6328,
      "Ġpozicije": 6329,
      "Ġeksplici": 6330,
      "Ġzone": 6331,
      "Ġdobijaju": 6332,
      "liÅ¡u": 6333,
      "Ġmra": 6334,
      "Ġnem": 6335,
      "moni": 6336,
      "min": 6337,
      "ses": 6338,
      "ljivih": 6339,
      "ĠÅ¾iv": 6340,
      "Ġnazivi": 6341,
      "Ġsukoba": 6342,
      "ĠoÅ¡teÄĩenja": 6343,
      "Ġresur": 6344,
      "Ã¶": 6345,
      "ranog": 6346,
      "Ġnavedene": 6347,
      "Ġrezi": 6348,
      "Ġdelovima": 6349,
      "ĠvaÅ¾na": 6350,
      "Ġpripadnici": 6351,
      "86": 6352,
      "HO": 6353,
      "cke": 6354,
      "uo": 6355,
      "Ġpogleda": 6356,
      "Ġodvoje": 6357,
      "Ġbih": 6358,
      "sad": 6359,
      "Ġinformi": 6360,
      "Ġvinogra": 6361,
      "Ġpodsta": 6362,
      "Ġvrsti": 6363,
      "Ġitalija": 6364,
      "Ġavgusta": 6365,
      "id": 6366,
      "vska": 6367,
      "Ġdatu": 6368,
      "Ġprinu": 6369,
      "stova": 6370,
      "Ġobrazovnih": 6371,
      "Ġkomponenti": 6372,
      "ĠpreteÅ¾no": 6373,
      "fr": 6374,
      "grisa": 6375,
      "jnih": 6376,
      "Ġsubo": 6377,
      "bilnost": 6378,
      "Ġkriterijuma": 6379,
      "vanu": 6380,
      "manu": 6381,
      "Ġpacije": 6382,
      "Ġjavni": 6383,
      "Ġfaza": 6384,
      "Ġleksike": 6385,
      "Ġmnogih": 6386,
      "ĠodgovarajuÄĩe": 6387,
      "âĪĴ": 6388,
      "Ġkal": 6389,
      "Ġgora": 6390,
      "Ġstara": 6391,
      "Ġtehnika": 6392,
      "Ġostvaruje": 6393,
      "Ġmajka": 6394,
      "Ġkiselina": 6395,
      "Ġodlike": 6396,
      "ĠdrugaÄįije": 6397,
      "ĠstoleÄĩa": 6398,
      "Ġpripove": 6399,
      "Ġnomina": 6400,
      "Ġanalizom": 6401,
      "Ġistim": 6402,
      "Ġvisoke": 6403,
      "Ġformiranja": 6404,
      "Ġrepublika": 6405,
      "Ġsimpto": 6406,
      "Ġpreciz": 6407,
      "vari": 6408,
      "kan": 6409,
      "Ġraste": 6410,
      "Ġdiza": 6411,
      "Ġnjim": 6412,
      "Ġgrup": 6413,
      "Ġdobili": 6414,
      "Ġsvrsta": 6415,
      "Ġsuprotstavlja": 6416,
      "ĠkoriÅ¡Äĩenjem": 6417,
      "Ġkomercija": 6418,
      "Ġkorak": 6419,
      "Ġato": 6420,
      "Ġprepre": 6421,
      "Ġdrugima": 6422,
      "ĠÉŃ": 6423,
      "Ġsinteti": 6424,
      "Ġpisma": 6425,
      "Ġpostsocijalisti": 6426,
      "ĠsuÅ¡tinski": 6427,
      "Ġuspostavljanje": 6428,
      "Ġravnopra": 6429,
      "Ġsferi": 6430,
      "obave": 6431,
      "Ġapstrak": 6432,
      "lili": 6433,
      "tam": 6434,
      "Ġdele": 6435,
      "ĠanÄĳe": 6436,
      "Ġprocese": 6437,
      "ĠuveÄĩa": 6438,
      "ĠÄĳur": 6439,
      "uÄįe": 6440,
      "ĠdoÄĩi": 6441,
      "Ġprosla": 6442,
      "Ġprazni": 6443,
      "Ġradnika": 6444,
      "Ġinterna": 6445,
      "ĠkoriÅ¡Äĩen": 6446,
      "Ġroditelji": 6447,
      "Ġocenji": 6448,
      "un": 6449,
      "Ġkro": 6450,
      "Ġsuper": 6451,
      "Ġmore": 6452,
      "ĠpeÄĩi": 6453,
      "ĠgraÄĳi": 6454,
      "Ġrukovod": 6455,
      "Ġopasnosti": 6456,
      "psi": 6457,
      "Ġise": 6458,
      "Ġaf": 6459,
      "ĠmiloÅ¡": 6460,
      "Ġnjenom": 6461,
      "Ġplana": 6462,
      "Ġaktivno": 6463,
      "Ġimplici": 6464,
      "Ġsavremenih": 6465,
      "Ġakadem": 6466,
      "Ġzadovo": 6467,
      "rku": 6468,
      "Ġpapi": 6469,
      "Å¾enosti": 6470,
      "Ġlista": 6471,
      "Ġvrho": 6472,
      "Ġoptimi": 6473,
      "ĠplaÄĩa": 6474,
      "Ġandri": 6475,
      "Ġvladavine": 6476,
      "ĠmeÄĳunarodnog": 6477,
      "Ġ1941": 6478,
      "pd": 6479,
      "Ġrezer": 6480,
      "ĠdrÅ¾avni": 6481,
      "ĠnauÄįne": 6482,
      "Ġteodo": 6483,
      "Ġteoriji": 6484,
      "Ġfedera": 6485,
      "ĠuoÄįava": 6486,
      "Ġizdanja": 6487,
      "vajanje": 6488,
      "Ġprole": 6489,
      "Ġreduk": 6490,
      "Ġnjegovi": 6491,
      "Ġelektri": 6492,
      "Ġpojavljuje": 6493,
      "ĠsadrÅ¾e": 6494,
      "cova": 6495,
      "stvi": 6496,
      "Å¾nih": 6497,
      "Ġprikup": 6498,
      "gari": 6499,
      "Å¾iÄĩ": 6500,
      "Ġmala": 6501,
      "pati": 6502,
      "Ġuskla": 6503,
      "Ġparame": 6504,
      "Ġpomenutih": 6505,
      "ĠpodrÅ¡ka": 6506,
      "Ġmeseca": 6507,
      "Ġkono": 6508,
      "pova": 6509,
      "bilo": 6510,
      "Ġ1968": 6511,
      "%),": 6512,
      "sch": 6513,
      "ĠiÅ¡": 6514,
      "tetom": 6515,
      "Ġbla": 6516,
      "ÄĳorÄĳe": 6517,
      "mio": 6518,
      "Ġnastala": 6519,
      "Ġumetnost": 6520,
      "ĠpojedinaÄįnih": 6521,
      "Ġoriginal": 6522,
      "Ġadolescen": 6523,
      "ee": 6524,
      "ĠÅ¡o": 6525,
      "Ġinsisti": 6526,
      "ĠdruÅ¡tava": 6527,
      "Ġaktera": 6528,
      "rtava": 6529,
      "Ġvanred": 6530,
      "Ġbakterija": 6531,
      "galaktozida": 6532,
      "Ġujedinje": 6533,
      "mail": 6534,
      "Ġdata": 6535,
      "Ġmom": 6536,
      "sem": 6537,
      "Ġvege": 6538,
      "Ġpodne": 6539,
      "Ġbrojnim": 6540,
      "prva": 6541,
      "Ġdijabe": 6542,
      "Ġpokret": 6543,
      "ĠpaÅ¾nja": 6544,
      "ĠstanovniÅ¡tvo": 6545,
      "dÅ¾be": 6546,
      "Ġvladimir": 6547,
      "Ġsuzbijanje": 6548,
      "Ġizrazito": 6549,
      "ao": 6550,
      "novog": 6551,
      "Ġoli": 6552,
      "Ġcy": 6553,
      "Ġplat": 6554,
      "Ġekstre": 6555,
      "Ġobjavlji": 6556,
      "Ġklase": 6557,
      "ĠodreÄĳenog": 6558,
      "Ġreflek": 6559,
      "cki": 6560,
      "Ġspra": 6561,
      "Ġotu": 6562,
      "Ġolak": 6563,
      "Ġzaga": 6564,
      "stio": 6565,
      "Ġtakvim": 6566,
      "Ġdecembra": 6567,
      "Ġdobijene": 6568,
      "Ġmusliman": 6569,
      "Ġgeomet": 6570,
      "ĠuvoÄĳenje": 6571,
      "Å¾enju": 6572,
      "Ġ(:": 6573,
      "Ġgavri": 6574,
      "Ġzajednicu": 6575,
      "ĠÉ¤": 6576,
      "Ġrazum": 6577,
      "Ġstresa": 6578,
      "Å¾o": 6579,
      "Ġtere": 6580,
      "pisuje": 6581,
      "Ġprocenu": 6582,
      "fon": 6583,
      "ir": 6584,
      "lon": 6585,
      "Ġupotrebom": 6586,
      "ĠspecifiÄįnosti": 6587,
      "stroje": 6588,
      "bje": 6589,
      "opera": 6590,
      "Ġskra": 6591,
      "Ġgk": 6592,
      "Ġdif": 6593,
      "Ġduna": 6594,
      "Ġproblemima": 6595,
      "ĠpreduzeÄĩa": 6596,
      "Å¡lja": 6597,
      "ÄĩeviÄĩ": 6598,
      "enjem": 6599,
      "Ġaktiva": 6600,
      "Ġnauci": 6601,
      "lazeÄĩi": 6602,
      "ĠopÅ¡teg": 6603,
      "Ġstavova": 6604,
      "Ġnaci": 6605,
      "veno": 6606,
      "ĠuÄįenicima": 6607,
      "Ġintervencije": 6608,
      "Ġpozitivno": 6609,
      "Î±Î¹": 6610,
      "Ġsupstan": 6611,
      "ĠmreÅ¾e": 6612,
      "Ġidu": 6613,
      "vanog": 6614,
      "keta": 6615,
      "Ġpolitici": 6616,
      "ĠpolitiÄįkom": 6617,
      "Ġnastanka": 6618,
      "Ġrsanu": 6619,
      "vremen": 6620,
      "Ġljudske": 6621,
      "Ġakademija": 6622,
      "ĠreÄįenice": 6623,
      "ĠoseÄĩanja": 6624,
      "Ġapara": 6625,
      "pola": 6626,
      "Ġdovesti": 6627,
      "Ġpetra": 6628,
      "ĠÄįestica": 6629,
      "Ġnjihovoj": 6630,
      "Ġbogat": 6631,
      "Ġkonstanti": 6632,
      "Ġgb": 6633,
      "poÄįe": 6634,
      "Ġmateri": 6635,
      "Ġ34": 6636,
      "Ġobrazovne": 6637,
      "Ġdelatnost": 6638,
      "Ġbrani": 6639,
      "Ġuzorku": 6640,
      "ĠjovanoviÄĩa": 6641,
      "Ġsvetogor": 6642,
      "vqa": 6643,
      "Ġpolj": 6644,
      "Ġnajo": 6645,
      "Ġkali": 6646,
      "Ġbil": 6647,
      "Äįem": 6648,
      "Ġsvest": 6649,
      "Å¡an": 6650,
      "Ġduha": 6651,
      "Ġlje": 6652,
      "Ġulazi": 6653,
      "voÄĳenja": 6654,
      "Ġtka": 6655,
      "ĠgodiÅ¡nje": 6656,
      "ĠvaÅ¾i": 6657,
      "glago": 6658,
      "Ġmetodom": 6659,
      "Ġzdravlja": 6660,
      "Ġmonasi": 6661,
      "Ġpraksu": 6662,
      "Ġorijentacija": 6663,
      "Ġmihailo": 6664,
      "Ġaleksandra": 6665,
      "ida": 6666,
      "ĠdÅ¾a": 6667,
      "Å¡Äĩi": 6668,
      "cida": 6669,
      "Ġpredo": 6670,
      "Ġrekonstruk": 6671,
      "Ġkontrola": 6672,
      "ĠpoveÄĩanja": 6673,
      "Ġzahtev": 6674,
      "Ġpriroda": 6675,
      "Ġprikazan": 6676,
      "Ġmetohije": 6677,
      "ent": 6678,
      "Ġprista": 6679,
      "Äįavanju": 6680,
      "jovanoviÄĩ": 6681,
      "Ġ49": 6682,
      "Ġhorizo": 6683,
      "ĠkarakteriÅ¡e": 6684,
      "Ñīo": 6685,
      "Ġustanovi": 6686,
      "Ġzadataka": 6687,
      "Ġbrita": 6688,
      "Ġobjekat": 6689,
      "Ġkonzerva": 6690,
      "Äħ": 6691,
      "Ġpote": 6692,
      "Ġnastavlja": 6693,
      "ĠtaÄįno": 6694,
      "Ġvozila": 6695,
      "Ġpolitiku": 6696,
      "Ġsavremenim": 6697,
      "Ġmuzeja": 6698,
      "Ġpotrebna": 6699,
      "reviÄĩ": 6700,
      "Ġtv": 6701,
      "Ġpala": 6702,
      "joÅ¡": 6703,
      "boga": 6704,
      "Ġvas": 6705,
      "Ġjula": 6706,
      "vljene": 6707,
      "ĠdrÅ¾i": 6708,
      "ĠobiÄįaj": 6709,
      "stavljena": 6710,
      "Ġzaposleni": 6711,
      "izo": 6712,
      "tipi": 6713,
      "Ġnane": 6714,
      "toviÄĩ": 6715,
      "Ġravni": 6716,
      "ĠodreÄĳenom": 6717,
      "Ġhrvatskoj": 6718,
      "ĠpatrijarÅ¡i": 6719,
      "bni": 6720,
      "Ġdoc": 6721,
      "Ġprezi": 6722,
      "Ġinklu": 6723,
      "Ġpade": 6724,
      "ĠposveÄĩen": 6725,
      "Ġstandardi": 6726,
      "nstvo": 6727,
      "pH": 6728,
      "Ãº": 6729,
      "Ġpole": 6730,
      "Ġpolazi": 6731,
      "Ġpun": 6732,
      "á½Ĳ": 6733,
      "Ġformira": 6734,
      "Ġsavremeni": 6735,
      "imajuÄĩi": 6736,
      "Ġvarijan": 6737,
      "Ġpredsednika": 6738,
      "ĠÎºÎ±á½¶": 6739,
      "Ġube": 6740,
      "Ġzau": 6741,
      "Ġdola": 6742,
      "Ġtito": 6743,
      "Ġutisak": 6744,
      "Ġstvar": 6745,
      "Ġzida": 6746,
      "Ġtroji": 6747,
      "Ġhipote": 6748,
      "Ġnena": 6749,
      "bini": 6750,
      "Ġvita": 6751,
      "Ġmin": 6752,
      "Ġkongre": 6753,
      "ĠtiÄįu": 6754,
      "gledi": 6755,
      "Ġobras": 6756,
      "Ġprimere": 6757,
      "Ġrealizacije": 6758,
      "Ġgeni": 6759,
      "Ġkreta": 6760,
      "Ġslobodno": 6761,
      "Ġdokumenata": 6762,
      "ĠduÅ¾ine": 6763,
      "Ġpadavina": 6764,
      "Î²": 6765,
      "Ġnao": 6766,
      "Ġzastupa": 6767,
      "ĠraÄįu": 6768,
      "Ġkonferen": 6769,
      "Ġdvadese": 6770,
      "Ġkonstrukcija": 6771,
      "Ġshvatanje": 6772,
      "Ġpalesti": 6773,
      "Ġakcenat": 6774,
      "Ġopada": 6775,
      "jugo": 6776,
      "dilo": 6777,
      "zin": 6778,
      "Ġmoje": 6779,
      "Ġjavnom": 6780,
      "ĠduÅ¾e": 6781,
      "ĠprouÄįavanje": 6782,
      "vca": 6783,
      "É¤": 6784,
      "Ġdecom": 6785,
      "ĠveÅ¡tine": 6786,
      "jora": 6787,
      "ĠboÅ¾an": 6788,
      "Ġruku": 6789,
      "Ġgaran": 6790,
      "Ġosve": 6791,
      "ĠknjiÅ¾evnost": 6792,
      "Ġljudska": 6793,
      "ĠudÅ¾be": 6794,
      "vek": 6795,
      "stiÄįe": 6796,
      "Ġfrom": 6797,
      "don": 6798,
      "ĠdrÅ¾avnog": 6799,
      "Ġ1987": 6800,
      "ĠÏĦá¿": 6801,
      "Ġnajbolji": 6802,
      "Ġelite": 6803,
      "Ã±": 6804,
      "Äįove": 6805,
      "malo": 6806,
      "leni": 6807,
      "Ġtok": 6808,
      "Ġrom": 6809,
      "Ñīa": 6810,
      "Ġsvrhu": 6811,
      "Ġstatusa": 6812,
      "Ġsmanjenja": 6813,
      "Ġupravljanje": 6814,
      "Ġtekstova": 6815,
      "Ġarhitekto": 6816,
      "uni": 6817,
      "ĠÄįin": 6818,
      "ral": 6819,
      "rili": 6820,
      "Ġjez": 6821,
      "Ġae": 6822,
      "Ġodstupa": 6823,
      "milo": 6824,
      "Ġstvori": 6825,
      "Ġinterne": 6826,
      "Ġodgovornost": 6827,
      "ĠpaÅ¾nje": 6828,
      "ĠreÅ¡avanje": 6829,
      "Ġuku": 6830,
      "Ġmeni": 6831,
      "ĠsluÅ¾e": 6832,
      "Ġsistemati": 6833,
      "ĠÅ¡kolama": 6834,
      "Ġpokazao": 6835,
      "Ġhrani": 6836,
      "ĠkljuÄįnih": 6837,
      "Ġterapi": 6838,
      "Ġpoglavlju": 6839,
      "Ġnare": 6840,
      "Ġsabor": 6841,
      "njavanja": 6842,
      "sahari": 6843,
      "Å¾enog": 6844,
      "Ġmije": 6845,
      "Ġling": 6846,
      "Ġisho": 6847,
      "Ġnemanji": 6848,
      "Ġglagolskih": 6849,
      "disciplina": 6850,
      "Ġskre": 6851,
      "rove": 6852,
      "veo": 6853,
      "cation": 6854,
      "Ġinvali": 6855,
      "Ġrazvi": 6856,
      "Ġrazgovor": 6857,
      "Ġcrkava": 6858,
      "Ġsaraje": 6859,
      "Ġevropskih": 6860,
      "É¢É§": 6861,
      "Ñµ": 6862,
      "jama": 6863,
      "Ġafi": 6864,
      "Ġgim": 6865,
      "Ġprogla": 6866,
      "ĠutvrÄĳeno": 6867,
      "Ġredovno": 6868,
      "Ġpostepeno": 6869,
      "ding": 6870,
      "dem": 6871,
      "Ġdovolj": 6872,
      "sano": 6873,
      "ĠbeÅ¡e": 6874,
      "ĠduÄįiÄĩe": 6875,
      "inter": 6876,
      "Ġvuka": 6877,
      "Ġprirodno": 6878,
      "Ġprevashodno": 6879,
      "Ġimovine": 6880,
      "Ġtretman": 6881,
      "ito": 6882,
      "Ġmemo": 6883,
      "Ġsvemu": 6884,
      "Ġsime": 6885,
      "Ġispred": 6886,
      "cionim": 6887,
      "Î±Î½": 6888,
      "Ġefekti": 6889,
      "Ġsaradnji": 6890,
      "ĠsprovoÄĳenje": 6891,
      "É¨ÉĿ": 6892,
      "Ġnezavisno": 6893,
      "Ġporeklom": 6894,
      "Ġsvije": 6895,
      "Ġut": 6896,
      "Ġkano": 6897,
      "Ġpromo": 6898,
      "Ġese": 6899,
      "Ġpravnog": 6900,
      "Ġwor": 6901,
      "Ġefek": 6902,
      "Ġpostojala": 6903,
      "Ġfond": 6904,
      "videti": 6905,
      "etsÑı": 6906,
      "Ġul": 6907,
      "vajanja": 6908,
      "Ġdat": 6909,
      "Ġsan": 6910,
      "Ġdeci": 6911,
      "Ġkonzu": 6912,
      "Ġintegrisa": 6913,
      "ĠdruÅ¡tvima": 6914,
      "ÑĬt": 6915,
      "ĠzajedniÄįki": 6916,
      "Ġnastaju": 6917,
      "Ġsnagu": 6918,
      "cijske": 6919,
      "Ġravnote": 6920,
      "Ġinostran": 6921,
      "vÑı": 6922,
      "Ġivana": 6923,
      "mak": 6924,
      "til": 6925,
      "tome": 6926,
      "Ġab": 6927,
      "ĠÄįlanica": 6928,
      "Ġpovezana": 6929,
      "Ġrizik": 6930,
      "ĠuÄį": 6931,
      "Ġkotor": 6932,
      "ĠleÅ¾i": 6933,
      "ĠzaÅ¡tita": 6934,
      "Ġsituaciju": 6935,
      "ĠtroÅ¡ko": 6936,
      "Ġkorela": 6937,
      "istraÅ¾iva": 6938,
      "Ġspomenika": 6939,
      "Ġodigra": 6940,
      "izu": 6941,
      "Ġpokraji": 6942,
      "minu": 6943,
      "Ġman": 6944,
      "Ġbogu": 6945,
      "Ġcare": 6946,
      "rtika": 6947,
      "Ġslobodu": 6948,
      "Å¡kim": 6949,
      "Ġfonda": 6950,
      "blju": 6951,
      "gnosti": 6952,
      "Å¡nih": 6953,
      "Ġkomo": 6954,
      "Ġprivla": 6955,
      "Ġpravom": 6956,
      "ĠfaÅ¡i": 6957,
      "Ġarse": 6958,
      "ĠznaÄįajnu": 6959,
      "Ġdijaloga": 6960,
      "Ġsvje": 6961,
      "Ġtemelj": 6962,
      "ĠmaÄĳarskoj": 6963,
      "ĠsaobraÄĩa": 6964,
      "cz": 6965,
      "Ġraznih": 6966,
      "Ġvije": 6967,
      "Å¡eva": 6968,
      "Ġakcen": 6969,
      "Ġceo": 6970,
      "Ġmoralno": 6971,
      "Ġobaveze": 6972,
      "Ġposebnim": 6973,
      "Ġluka": 6974,
      "Ġpomenute": 6975,
      "Ġizosta": 6976,
      "analiza": 6977,
      "Ġdevedesetih": 6978,
      "gl": 6979,
      "nomi": 6980,
      "Ġnar": 6981,
      "Ġgg": 6982,
      "nijem": 6983,
      "vljeni": 6984,
      "ĠproizvoÄĳa": 6985,
      "Ġfer": 6986,
      "Ġpredstavnici": 6987,
      "Ġinfrastruktu": 6988,
      "95": 6989,
      "Ġukr": 6990,
      "tama": 6991,
      "zakon": 6992,
      "mete": 6993,
      "Ġkrup": 6994,
      "Ġstava": 6995,
      "Ġbazira": 6996,
      "Ġtraga": 6997,
      "Ġprocenat": 6998,
      "Ġtakvog": 6999,
      "ĠveÄĩini": 7000,
      "ĠdogaÄĳaj": 7001,
      "ĠtumaÄįenje": 7002,
      "ĠoÄįigledno": 7003,
      "Ġposeduje": 7004,
      "Ġkonkuren": 7005,
      "84": 7006,
      "rskih": 7007,
      "Ġske": 7008,
      "rila": 7009,
      "Ġish": 7010,
      "Ġostao": 7011,
      "vljenje": 7012,
      "Ġobjavio": 7013,
      "ĠspecifiÄįne": 7014,
      "Ġpredstavnika": 7015,
      "Ġurbane": 7016,
      "nia": 7017,
      "Ġsand": 7018,
      "ĠdoÅ¡li": 7019,
      "ĠinÅ¾enje": 7020,
      "prili": 7021,
      "Äįuju": 7022,
      "Ġmlado": 7023,
      "Ġprirodu": 7024,
      "jd": 7025,
      "ukup": 7026,
      "Ġnamera": 7027,
      "Ġmogle": 7028,
      "Ġdesi": 7029,
      "vrsta": 7030,
      "ĠpredÅ¡kol": 7031,
      "Ġbrojnih": 7032,
      "Ġekvi": 7033,
      "Ġstimu": 7034,
      "Ġprisustvu": 7035,
      "Ġprilike": 7036,
      "Ġekonomskih": 7037,
      "Ġvuk": 7038,
      "Ġrazumevanja": 7039,
      "Ġokuplja": 7040,
      "Ġpriva": 7041,
      "Ġredak": 7042,
      "ĠpaÅ¡nja": 7043,
      "Ġlega": 7044,
      "ĠÅ¾enama": 7045,
      "ĠmeÄĳunarodnih": 7046,
      "Ġupotrebljava": 7047,
      "Ġtransport": 7048,
      "Ġnorme": 7049,
      "91": 7050,
      "Ġskri": 7051,
      "zana": 7052,
      "Ġnismo": 7053,
      "Ġch": 7054,
      "ĠodreÄĳivanje": 7055,
      "wem": 7056,
      "Ġokolini": 7057,
      "Ġfakultetu": 7058,
      "Ġodbora": 7059,
      "Ġprivile": 7060,
      "dobije": 7061,
      "Ġusmera": 7062,
      "Ġstranih": 7063,
      "Ġenzi": 7064,
      "Ġlokalnih": 7065,
      "Ġpsihi": 7066,
      "Ġmonaha": 7067,
      "dene": 7068,
      "koni": 7069,
      "bilnosti": 7070,
      "Ġnjenu": 7071,
      "Ġnjenim": 7072,
      "noviÄĩe": 7073,
      "ĠkriviÄįna": 7074,
      "Ġnarodnih": 7075,
      "Ġefekte": 7076,
      "Ġdisciplina": 7077,
      "Ha": 7078,
      "karakteri": 7079,
      "Ġpoznat": 7080,
      "ĠknjiÅ¾evno": 7081,
      "Ġkritike": 7082,
      "Ġpovezanost": 7083,
      "ĠodrÅ¾avanje": 7084,
      "ĠbeleÅ¾i": 7085,
      "ĠtrÅ¾iÅ¡tu": 7086,
      "ĠmuÅ¡karaca": 7087,
      "uzi": 7088,
      "Å¡nog": 7089,
      "njak": 7090,
      "ĠveÄĩeg": 7091,
      "ĠÄįast": 7092,
      "ĠÎµ": 7093,
      "Ġistorijske": 7094,
      "ÎµÎ¹": 7095,
      "Ġtradicionalne": 7096,
      "Ġintegracije": 7097,
      "ie": 7098,
      "tvor": 7099,
      "tipa": 7100,
      "ĠkÄĩe": 7101,
      "Ġevnu": 7102,
      "Ġobno": 7103,
      "ĠtaÄįka": 7104,
      "ĠpraÄĩenje": 7105,
      "Ġlist": 7106,
      "ĠviÅ¡estru": 7107,
      "Ġsredstvima": 7108,
      "zovane": 7109,
      "Ġsmanjuje": 7110,
      "Ġsamih": 7111,
      "Ġrastvora": 7112,
      "sÑĮ": 7113,
      "dalje": 7114,
      "Ġvse": 7115,
      "Ġrazgovora": 7116,
      "zovan": 7117,
      "Å¡tenja": 7118,
      "gledu": 7119,
      "vredi": 7120,
      "Ġtradiciji": 7121,
      "ĠveÄĩim": 7122,
      "Ġljudskog": 7123,
      "Ġdostojan": 7124,
      "KO": 7125,
      "gG": 7126,
      "Ġpozori": 7127,
      "Å¾nje": 7128,
      "Ġprednost": 7129,
      "Ġprvim": 7130,
      "ĠsluÄįaja": 7131,
      "Ġprisutan": 7132,
      "Ġpoznati": 7133,
      "Ġknez": 7134,
      "tve": 7135,
      "Ġistu": 7136,
      "Å¡koviÄĩ": 7137,
      "Ġsadu": 7138,
      "Ġpreki": 7139,
      "njaka": 7140,
      "Ġfro": 7141,
      "Ġflo": 7142,
      "ĠÎ¿": 7143,
      "...)": 7144,
      "Ġekonomskog": 7145,
      "Ġnedovoljno": 7146,
      "ĠpovrÅ¡ini": 7147,
      "Ġinteresovanja": 7148,
      "Ġdimitrije": 7149,
      "wor": 7150,
      "kora": 7151,
      "Ġkosti": 7152,
      "Ġkance": 7153,
      "savljeviÄĩ": 7154,
      "sel": 7155,
      "Äĩenog": 7156,
      "ciono": 7157,
      "govore": 7158,
      "Ġarti": 7159,
      "Ġposmatrati": 7160,
      "ĠkoriÅ¡Äĩena": 7161,
      "Ġdijete": 7162,
      "zbornik": 7163,
      "92": 7164,
      "98": 7165,
      "xvi": 7166,
      "Ã¦": 7167,
      "nas": 7168,
      "libera": 7169,
      "site": 7170,
      "saka": 7171,
      "Ġzve": 7172,
      "proble": 7173,
      "Ġceline": 7174,
      "Ġizradu": 7175,
      "Ġprostorima": 7176,
      "Ġpriliku": 7177,
      "Ġprincipu": 7178,
      "ĠoseÄĩaj": 7179,
      "Ġfinansira": 7180,
      "Ġkatastro": 7181,
      "Ġiskori": 7182,
      "ĠpotiÄįe": 7183,
      "Ġmetafori": 7184,
      "Ġpandemije": 7185,
      "Ġblizini": 7186,
      "stvenu": 7187,
      "time": 7188,
      "Ġatribu": 7189,
      "diju": 7190,
      "Ġkle": 7191,
      "lus": 7192,
      "Ġritua": 7193,
      "Ġsmisao": 7194,
      "Ġ1977": 7195,
      "ĠantifaÅ¡i": 7196,
      "bna": 7197,
      "wo": 7198,
      "Ġnamet": 7199,
      "Ġizre": 7200,
      "Ġpasi": 7201,
      "Ġbana": 7202,
      "Ġxiii": 7203,
      "ĠÅ¾elja": 7204,
      "Ġ180": 7205,
      "Ġprogrami": 7206,
      "Ġnegativne": 7207,
      "Ġdugoro": 7208,
      "ĠobeleÅ¾ja": 7209,
      "ff": 7210,
      "mnog": 7211,
      "Ġvaku": 7212,
      "Ġduh": 7213,
      "vanÄĳe": 7214,
      "ĠzajedniÄįke": 7215,
      "Ġpoznata": 7216,
      "Ġturci": 7217,
      "ĠunutraÅ¡nje": 7218,
      "ĠÅ¡irem": 7219,
      "ografije": 7220,
      "Ġemisije": 7221,
      "ĠÇĢ": 7222,
      "Ġuklo": 7223,
      "Ġkog": 7224,
      "Ġcla": 7225,
      "îĢŃ": 7226,
      "Ġadekva": 7227,
      "Ġkoordina": 7228,
      "raka": 7229,
      "pore": 7230,
      "Ġkompara": 7231,
      "Ġnarodu": 7232,
      "Ġumr": 7233,
      "Ġnovac": 7234,
      "Ġsumnje": 7235,
      "Ġktitor": 7236,
      "Ġnesumnjivo": 7237,
      "emo": 7238,
      "Ġnesigu": 7239,
      "Ġkan": 7240,
      "poda": 7241,
      "Ġprosti": 7242,
      "Ġbosni": 7243,
      "Ġobradi": 7244,
      "ĠÅ¾elje": 7245,
      "Ġritual": 7246,
      "Ġuslov": 7247,
      "Ġpretpostaviti": 7248,
      "Ġregulisa": 7249,
      "Ġvaspitanja": 7250,
      "Ġpripadnosti": 7251,
      "ĠangaÅ¾o": 7252,
      "Ġnastavak": 7253,
      "II": 7254,
      "ÈĮ": 7255,
      "Éľ": 7256,
      "Ġsnima": 7257,
      "stanci": 7258,
      "Ġjero": 7259,
      "Ġzoni": 7260,
      "Äįenog": 7261,
      "dov": 7262,
      "Ġprednosti": 7263,
      "Ġokupa": 7264,
      "Ġkorisnika": 7265,
      "Ġsrednjeg": 7266,
      "Ġposebnu": 7267,
      "Ġnavedeni": 7268,
      "Ġbalkana": 7269,
      "Ġetike": 7270,
      "Ġambi": 7271,
      "ĠkneÅ¾e": 7272,
      "Ġsrpskohrvat": 7273,
      "Ġlegitimi": 7274,
      "Ġherbicida": 7275,
      "naravno": 7276,
      "Ġfrazeo": 7277,
      "rska": 7278,
      "Ġudeo": 7279,
      "jati": 7280,
      "vici": 7281,
      "Ġdate": 7282,
      "kin": 7283,
      "ljan": 7284,
      "ĠkreÄĩe": 7285,
      "cijski": 7286,
      "Ġopasnost": 7287,
      "ĠÈ¾": 7288,
      "Ġimplementa": 7289,
      "Ġula": 7290,
      "Ġkolega": 7291,
      "Ġmagne": 7292,
      "rijska": 7293,
      "ĠsliÄįnosti": 7294,
      "Ġpozicija": 7295,
      "ĠstruÄįnja": 7296,
      "Ġdemon": 7297,
      "Ġdemokratije": 7298,
      "kultura": 7299,
      "Ġpismenost": 7300,
      "znog": 7301,
      "kara": 7302,
      "Ġveri": 7303,
      "Ġmitro": 7304,
      "sov": 7305,
      "Ġ43": 7306,
      "Ġrazmatranja": 7307,
      "Ġpraznika": 7308,
      "Ġgasovoda": 7309,
      "iH": 7310,
      "kcije": 7311,
      "ya": 7312,
      "ĠÏĥ": 7313,
      "Ġukazi": 7314,
      "vaj": 7315,
      "neki": 7316,
      "Ġalata": 7317,
      "Ġklu": 7318,
      "doda": 7319,
      "Ġznak": 7320,
      "Ġtraje": 7321,
      "Ġfos": 7322,
      "Ġtradicija": 7323,
      "ĠgraÄĳani": 7324,
      "Å¡Äĩenja": 7325,
      "ĠpoloÅ¾aju": 7326,
      "love": 7327,
      "Ġneve": 7328,
      "Ġpacova": 7329,
      "Ġvir": 7330,
      "Äĳenim": 7331,
      "Å¡tima": 7332,
      "Ġsistemima": 7333,
      "ĠÎ²": 7334,
      "Ġpisao": 7335,
      "laganja": 7336,
      "Ġbogorodice": 7337,
      "ena": 7338,
      "Ġare": 7339,
      "stiÄįkog": 7340,
      "Ġmasa": 7341,
      "Ġpravima": 7342,
      "Ġotpu": 7343,
      "ĠsliÄįan": 7344,
      "ĠÅ¡tam": 7345,
      "ĠglediÅ¡ta": 7346,
      "GB": 7347,
      "ire": 7348,
      "Ġomla": 7349,
      "tiÄĩa": 7350,
      "Ġben": 7351,
      "mon": 7352,
      "Ġbije": 7353,
      "njuju": 7354,
      "Ġrazliko": 7355,
      "Ġslove": 7356,
      "Ġsaradnika": 7357,
      "matski": 7358,
      "Ġukupnog": 7359,
      "êĻģ": 7360,
      "dba": 7361,
      "uza": 7362,
      "Î®": 7363,
      "Ñ§": 7364,
      "Ġoc": 7365,
      "âĢĶ": 7366,
      "Ġnespo": 7367,
      "Ġtoma": 7368,
      "ĠniÅ¾e": 7369,
      "Ġpredlog": 7370,
      "Ġvolje": 7371,
      "Ġstoje": 7372,
      "Ġhetero": 7373,
      "Ġsaradnici": 7374,
      "Ġprisustva": 7375,
      "Ġnarodna": 7376,
      "Ġepiste": 7377,
      "Ġteritorije": 7378,
      "Ġvremenski": 7379,
      "mn": 7380,
      "stara": 7381,
      "binu": 7382,
      "Ġtest": 7383,
      "Ġnosa": 7384,
      "É¨Éľ": 7385,
      "jka": 7386,
      "rskog": 7387,
      "Ġed": 7388,
      "Ġsport": 7389,
      "Ġcele": 7390,
      "Ġzapadne": 7391,
      "Ġdiskrimina": 7392,
      "Ġmanjina": 7393,
      "Ġstudiji": 7394,
      "Ġodbrane": 7395,
      "gna": 7396,
      "hen": 7397,
      "Ġusi": 7398,
      "veÄĩ": 7399,
      "Äįinja": 7400,
      "sed": 7401,
      "Ġinfek": 7402,
      "ĠliÄįno": 7403,
      "Ġbata": 7404,
      "Ġpovezuje": 7405,
      "Ġintervencija": 7406,
      "Ġuniversi": 7407,
      "ĠpostojeÄĩih": 7408,
      "Ġneuro": 7409,
      "Ġbezbednost": 7410,
      "Ġfilozofskog": 7411,
      "Ġdigitalne": 7412,
      "Ġuzorak": 7413,
      "rovatnije": 7414,
      "eo": 7415,
      "riÅ¡u": 7416,
      "Ġzove": 7417,
      "Ġbel": 7418,
      "Ġpesama": 7419,
      "Ġglavnih": 7420,
      "Ġovakav": 7421,
      "Ġsocijalni": 7422,
      "Ġostvare": 7423,
      "ĠznaÄįaju": 7424,
      "Ġideologije": 7425,
      "Ġpostmode": 7426,
      "ĠzaduÅ¾": 7427,
      "vci": 7428,
      "Ġskupi": 7429,
      "Ġpriloga": 7430,
      "sek": 7431,
      "Ġinf": 7432,
      "ĠobraÄĩa": 7433,
      "2016": 7434,
      "Ġdvadeset": 7435,
      "Ġdrza": 7436,
      "Ġnavedeno": 7437,
      "Ġmeseci": 7438,
      "Ġizgradnje": 7439,
      "Äįice": 7440,
      "ĠÄįisto": 7441,
      "Ġperiodi": 7442,
      "ĠkreÄįnjaka": 7443,
      "Ġformalno": 7444,
      "Ġodabi": 7445,
      "Ta": 7446,
      "Ġpse": 7447,
      "Ġnazna": 7448,
      "toru": 7449,
      "Ġodlika": 7450,
      "Ġprire": 7451,
      "gina": 7452,
      "sul": 7453,
      "Ġgradova": 7454,
      "Ġlet": 7455,
      "ĠÉ«": 7456,
      "istovremeno": 7457,
      "Ġustanove": 7458,
      "ĠHM": 7459,
      "ĠtumaÄįenja": 7460,
      "Ġkiseline": 7461,
      "Ġprimenji": 7462,
      "Ġprefiksa": 7463,
      "Ġubrza": 7464,
      "ĠlakÅ¡e": 7465,
      "ras": 7466,
      "Ġonu": 7467,
      "telje": 7468,
      "menzi": 7469,
      "Ġstar": 7470,
      "2017": 7471,
      "ĠdruÅ¡tvena": 7472,
      "á½°": 7473,
      "nenta": 7474,
      "Ġposu": 7475,
      "Ġprilo": 7476,
      "Ġepa": 7477,
      "ĠdrÅ¾avu": 7478,
      "Ġsistemi": 7479,
      "Ġteoriju": 7480,
      "Ġpoziciju": 7481,
      "Ġenti": 7482,
      "Î±ÏĦ": 7483,
      "ĠveÄĩine": 7484,
      "Äĳenjem": 7485,
      "ĠpriliÄįno": 7486,
      "Ġkarakteristikama": 7487,
      "Ġsvakoj": 7488,
      "Ġmonarhi": 7489,
      "Ġnarativa": 7490,
      "Ġnekad": 7491,
      "Ġdetaljno": 7492,
      "Ġodredbe": 7493,
      "Ġpodignu": 7494,
      "Ġpretpostavke": 7495,
      "dy": 7496,
      "ep": 7497,
      "tnije": 7498,
      "venog": 7499,
      "Ġbolji": 7500,
      "Ġjan": 7501,
      "vedeni": 7502,
      "Å¡koj": 7503,
      "êĻĹ": 7504,
      "Ġdroga": 7505,
      "Ġprojektu": 7506,
      "znih": 7507,
      "mada": 7508,
      "Ġdile": 7509,
      "loÅ¡koj": 7510,
      "âĢĻ),": 7511,
      "Ġjezicima": 7512,
      "Ġpodrazumevaju": 7513,
      "Ġkomunikacija": 7514,
      "Ġmajsto": 7515,
      "Ġkapitala": 7516,
      "Ġuzeti": 7517,
      "kliti": 7518,
      "ljom": 7519,
      "ltira": 7520,
      "nicom": 7521,
      "nem": 7522,
      "Ġpovolj": 7523,
      "minal": 7524,
      "Ġkonver": 7525,
      "funk": 7526,
      "Ġikona": 7527,
      "Ġstudijama": 7528,
      "ĠduÅ¾ina": 7529,
      "Ġtipova": 7530,
      "Ġilustra": 7531,
      "knji": 7532,
      "ĠdoÅ¡ao": 7533,
      "Ġparo": 7534,
      "Ġchi": 7535,
      "ĠduÄįiÄĩ": 7536,
      "Ġ48": 7537,
      "Ġtermini": 7538,
      "ĠmlaÄĳi": 7539,
      "Ġsmer": 7540,
      "ĠposveÄĩena": 7541,
      "ĠzabeleÅ¾ena": 7542,
      "ĠureÄĳa": 7543,
      "Ġmanipu": 7544,
      "ĠveliÄįina": 7545,
      "ĠÈĭ": 7546,
      "ĠudruÅ¾enja": 7547,
      "katoli": 7548,
      "cia": 7549,
      "Ġdar": 7550,
      "Ġdobre": 7551,
      "boli": 7552,
      "Ġsoje": 7553,
      "Ġsofi": 7554,
      "primer": 7555,
      "Å¡tini": 7556,
      "ĠSi": 7557,
      "svet": 7558,
      "Ġtakvo": 7559,
      "ĠpotvrÄĳuju": 7560,
      "obrazo": 7561,
      "ĠetniÄįke": 7562,
      "ĠpokuÅ¡aj": 7563,
      "Ġugovor": 7564,
      "ĠpriÄįe": 7565,
      "sanih": 7566,
      "ĠÅ¡an": 7567,
      "Ġtrajanja": 7568,
      "Ġodrediti": 7569,
      "Ġdobiti": 7570,
      "Ġsredinom": 7571,
      "ĠvaÅ¾nosti": 7572,
      "hroni": 7573,
      "Ġhilandaru": 7574,
      "Ġkonfli": 7575,
      "Ġoz": 7576,
      "tiÄįke": 7577,
      "Ġizmenje": 7578,
      "ĠÅ¡t": 7579,
      "Ġmedu": 7580,
      "Ġvina": 7581,
      "Ġline": 7582,
      "Ġispla": 7583,
      "ges": 7584,
      "Ġkul": 7585,
      "Ġistrage": 7586,
      "Ġglasi": 7587,
      "Ġmarke": 7588,
      "cira": 7589,
      "Ġzapada": 7590,
      "ĠdoÅ¡la": 7591,
      "Ġpropu": 7592,
      "Ġprikazi": 7593,
      "Ġvertika": 7594,
      "Ġmagi": 7595,
      "Ġduhu": 7596,
      "postoje": 7597,
      "istraÅ¾ivanje": 7598,
      "Ġbiblioteke": 7599,
      "Ġsnim": 7600,
      "Ġofici": 7601,
      "Å¡le": 7602,
      "leti": 7603,
      "Ġpeva": 7604,
      "Ġrus": 7605,
      "Ġ42": 7606,
      "ĠpoÄįeo": 7607,
      "ĠprouÄįava": 7608,
      "Ġmihaila": 7609,
      "ĠobjaÅ¡njava": 7610,
      "Ġvrednosnih": 7611,
      "Ġpridru": 7612,
      "ktori": 7613,
      "ĠnauÄįna": 7614,
      "Ġdobila": 7615,
      "Ġonoma": 7616,
      "Ġadsorp": 7617,
      "Ġprijatelj": 7618,
      "Ġdjelo": 7619,
      "Ġopisuju": 7620,
      "Ġmatice": 7621,
      "xa": 7622,
      "Ġino": 7623,
      "ĠdlÑı": 7624,
      "lis": 7625,
      "Ġkot": 7626,
      "Ġsavi": 7627,
      "Ġkasni": 7628,
      "kulu": 7629,
      "Ġ120": 7630,
      "Ġfleksi": 7631,
      "Ġstani": 7632,
      "juÄĩih": 7633,
      "Ñĭh": 7634,
      "Ñĸv": 7635,
      "Ġpojedini": 7636,
      "ĠÎ³": 7637,
      "Ġsocijalno": 7638,
      "Ġhodo": 7639,
      "Ġkritika": 7640,
      "ĠkoriÅ¡Äĩeni": 7641,
      "Ã³w": 7642,
      "nikoliÄĩ": 7643,
      "cro": 7644,
      "vru": 7645,
      "xR": 7646,
      "njeni": 7647,
      "ĠkÑĬ": 7648,
      "Ġprelazi": 7649,
      "Ġrazd": 7650,
      "Ġpapa": 7651,
      "Ġnajma": 7652,
      "Ġanke": 7653,
      "Ġsocijalizma": 7654,
      "Ġvojni": 7655,
      "sveti": 7656,
      "Ġnalazio": 7657,
      "Ġnekoj": 7658,
      "Ġprocedura": 7659,
      "Ġjanuara": 7660,
      "Ġsvima": 7661,
      "Ġupisa": 7662,
      "Ġnapred": 7663,
      "Ġprevodi": 7664,
      "Ġliko": 7665,
      "Ġtimo": 7666,
      "Ġproceni": 7667,
      "Ġplasti": 7668,
      "ĠnikoliÄĩ": 7669,
      "ĠobezbeÄĳuje": 7670,
      "Ġzasnovana": 7671,
      "Ġpoglavlje": 7672,
      "ÏīÎ½": 7673,
      "Ġkandi": 7674,
      "Ġgradite": 7675,
      "Ġgranicama": 7676,
      "Ġcilja": 7677,
      "Ġhidra": 7678,
      "Ġmoderne": 7679,
      "Ġgena": 7680,
      "Ġ150": 7681,
      "stavljen": 7682,
      "Ġdefinicije": 7683,
      "Ġzloupotre": 7684,
      "Ġbarto": 7685,
      "ĠsandÅ¾a": 7686,
      "96": 7687,
      "etni": 7688,
      "ys": 7689,
      "Å¡nju": 7690,
      "ĠneÄįi": 7691,
      "ĠznaÄįe": 7692,
      "Ġbelo": 7693,
      "ĠliÄįnost": 7694,
      "Ġbosne": 7695,
      "Ġstranu": 7696,
      "Ġkralj": 7697,
      "Ġprocena": 7698,
      "Ġdefinicija": 7699,
      "ÏĥÎ¹": 7700,
      "Ġjugoslovenskog": 7701,
      "94": 7702,
      "dÅ¾a": 7703,
      "vsko": 7704,
      "znu": 7705,
      "Ġneda": 7706,
      "Ġvesti": 7707,
      "Ġobred": 7708,
      "Ġtol": 7709,
      "Ġdie": 7710,
      "Ġfili": 7711,
      "Ġovakve": 7712,
      "tniji": 7713,
      "Ġonemogu": 7714,
      "Ġdoprinose": 7715,
      "Ġdiskre": 7716,
      "Ġkriterijum": 7717,
      "ĠPodgG": 7718,
      "ram": 7719,
      "voja": 7720,
      "tona": 7721,
      "Ġrazra": 7722,
      "Ġhz": 7723,
      "pret": 7724,
      "Ġpir": 7725,
      "ĠizraÄįuna": 7726,
      "ĠnemaÄįkoj": 7727,
      "Ġparado": 7728,
      "Ã¥e": 7729,
      "Ġkonkretne": 7730,
      "Ġzasnovan": 7731,
      "Ġkriminalne": 7732,
      "Ġdaljinu": 7733,
      "Ġodsustvo": 7734,
      "93": 7735,
      "Ġ%": 7736,
      "Ġizi": 7737,
      "Ġotno": 7738,
      "Ġnekro": 7739,
      "Ġrastva": 7740,
      "Ġdekla": 7741,
      "Ġmari": 7742,
      "Ġglavne": 7743,
      "Ġturske": 7744,
      "ĠdruÅ¡tvenu": 7745,
      "Ġcrte": 7746,
      "Ġiznena": 7747,
      "Ġsagovornika": 7748,
      "Ġîĥ": 7749,
      "ispo": 7750,
      "Ġspu": 7751,
      "voren": 7752,
      "toro": 7753,
      "petroviÄĩ": 7754,
      "Ġkalu": 7755,
      "Ġprezenta": 7756,
      "ĠÅ¡te": 7757,
      "Ġdiferencija": 7758,
      "Ġkrila": 7759,
      "ÑĸÐ¹": 7760,
      "Ġsvetlu": 7761,
      "Ġsuzbijanju": 7762,
      "Ġmatematike": 7763,
      "srpski": 7764,
      "smisle": 7765,
      "Å¡njo": 7766,
      "ĠneÄįe": 7767,
      "dere": 7768,
      "deli": 7769,
      "ĠreÅ¡i": 7770,
      "Ġlan": 7771,
      "Ġ46": 7772,
      "ĠSrG": 7773,
      "ĠmarkoviÄĩ": 7774,
      "Ġsredinu": 7775,
      "Ġnalazimo": 7776,
      "Ġdeluju": 7777,
      "Ġpreduzima": 7778,
      "morfo": 7779,
      "Ġstarih": 7780,
      "Ġportre": 7781,
      "Ġegzi": 7782,
      "Je": 7783,
      "eto": 7784,
      "Ġizdu": 7785,
      "ĠÅ¾enskog": 7786,
      "Ġparticipacija": 7787,
      "obuhva": 7788,
      "vit": 7789,
      "Ġkova": 7790,
      "toksi": 7791,
      "Ġnejednako": 7792,
      "Ġkakva": 7793,
      "Ġdomena": 7794,
      "Ġhran": 7795,
      "Ġotvori": 7796,
      "Ġposeda": 7797,
      "Ġhilja": 7798,
      "Ġradne": 7799,
      "ĠÄįitav": 7800,
      "Ġistorijskih": 7801,
      "Ġsubjekta": 7802,
      "Ġdre": 7803,
      "Ġneod": 7804,
      "Ġrastu": 7805,
      "Å¾enim": 7806,
      "Ġnikad": 7807,
      "Ġhan": 7808,
      "rijskim": 7809,
      "Ġistini": 7810,
      "Ġstila": 7811,
      "Ġporedak": 7812,
      "Ġfizio": 7813,
      "Ġparticipacije": 7814,
      "Ġargumenta": 7815,
      "Ġdejstvo": 7816,
      "Ġhilandara": 7817,
      "Ġprizrensko": 7818,
      "oce": 7819,
      "uma": 7820,
      "Ġrabo": 7821,
      "ljava": 7822,
      "Ġstrah": 7823,
      "Ġ41": 7824,
      "Ġnadzor": 7825,
      "Ġonome": 7826,
      "godine": 7827,
      "Ġglobalnom": 7828,
      "âĢķ,": 7829,
      "Ġstavove": 7830,
      "Ġnaslovom": 7831,
      "ĠHMGB": 7832,
      "Ġigre": 7833,
      "Ġpoha": 7834,
      "Ġnavi": 7835,
      "zahva": 7836,
      "zapad": 7837,
      "ljenju": 7838,
      "Ġstranke": 7839,
      "ĠjeziÄįkih": 7840,
      "Ġlakto": 7841,
      "Ġopsta": 7842,
      "drago": 7843,
      "Ġbrata": 7844,
      "Ġodluku": 7845,
      "ĠistraÅ¾ivaÄįi": 7846,
      "Ġposebnog": 7847,
      "Ġbriga": 7848,
      "Ġbiljnih": 7849,
      "Ġkraljevine": 7850,
      "Ġsorte": 7851,
      "ĠdomaÄĩin": 7852,
      "tehni": 7853,
      "Ġposredstvom": 7854,
      "rava": 7855,
      "Ġgli": 7856,
      "ziti": 7857,
      "sanju": 7858,
      "Ġnovije": 7859,
      "vrÅ¡e": 7860,
      "Ġbioma": 7861,
      "spira": 7862,
      "Ġinteres": 7863,
      "Ġwiho": 7864,
      "Ġdigitalnih": 7865,
      "grupa": 7866,
      "Ġsfere": 7867,
      "stina": 7868,
      "Ġruskom": 7869,
      "Ġdijagnosti": 7870,
      "Ġizdanje": 7871,
      "Ġepide": 7872,
      "ĠsvedoÄįan": 7873,
      "Ġfenola": 7874,
      "ĠpoÄįiva": 7875,
      "Ġdvd": 7876,
      "zde": 7877,
      "Å¼": 7878,
      "Äįo": 7879,
      "zacijom": 7880,
      "boj": 7881,
      "Ġakcije": 7882,
      "Ġrukama": 7883,
      "vljenja": 7884,
      "Ġinternet": 7885,
      "ĠradovanoviÄĩ": 7886,
      "vremenu": 7887,
      "Ġimobi": 7888,
      "Ġprimenjuju": 7889,
      "Ġreforme": 7890,
      "Ġkukuruza": 7891,
      "ĠbivÅ¡e": 7892,
      "ĠhodoÄįa": 7893,
      "Ġsat": 7894,
      "Ġdokazi": 7895,
      "Ġveteri": 7896,
      "Ġgoran": 7897,
      "Ġvam": 7898,
      "Ġpodgori": 7899,
      "Ġruskog": 7900,
      "Ġvisokim": 7901,
      "Ġutvrditi": 7902,
      "Ġdaljem": 7903,
      "Ġ1945": 7904,
      "Ġbalkanu": 7905,
      "Ġmigranata": 7906,
      "ĠPodrG": 7907,
      "Ġnac": 7908,
      "Ġsektora": 7909,
      "Ġklini": 7910,
      "ĠÅ¡pa": 7911,
      "graÄĳa": 7912,
      "fil": 7913,
      "Ġnovine": 7914,
      "Ġbeli": 7915,
      "ĠliÄįnih": 7916,
      "Ġrobe": 7917,
      "Ġosnov": 7918,
      "Ġostalo": 7919,
      "tarstvo": 7920,
      "ĠdruÅ¡tvenom": 7921,
      "á½·": 7922,
      "Ġnalazila": 7923,
      "É¢É¦": 7924,
      "Ġsvrhe": 7925,
      "Ġformulisa": 7926,
      "Ġsevero": 7927,
      "mt": 7928,
      "zavi": 7929,
      "gara": 7930,
      "Ġcri": 7931,
      "Ġjezikom": 7932,
      "Ġ44": 7933,
      "Ġzajednicama": 7934,
      "Ġslavi": 7935,
      "Ġnegativno": 7936,
      "ĠhidroÄįa": 7937,
      "dn": 7938,
      "lene": 7939,
      "Ġnaja": 7940,
      "doviÄĩ": 7941,
      "Ġbaj": 7942,
      "Ġglave": 7943,
      "Ñĭe": 7944,
      "Ġmaterije": 7945,
      "Ġmargi": 7946,
      "Ġsmatrao": 7947,
      "Ġvezane": 7948,
      "Ġmalolje": 7949,
      "Ġjedinki": 7950,
      "Ġstarog": 7951,
      "blo": 7952,
      "unu": 7953,
      "êŀ": 7954,
      "Ġmarija": 7955,
      "ĠpodseÄĩa": 7956,
      "Ġpolicija": 7957,
      "ĠloÅ¡e": 7958,
      "ĠsreÄĩe": 7959,
      "Ġrimo": 7960,
      "Ġuticati": 7961,
      "Ġsvetlosti": 7962,
      "Å¾uju": 7963,
      "brizga": 7964,
      "Ġefikasno": 7965,
      "Ġroditelj": 7966,
      "Ġunapred": 7967,
      "Ġpartner": 7968,
      "Ġsocial": 7969,
      "ĠnajviÅ¡i": 7970,
      "Ġekvivalen": 7971,
      "êŀĮ": 7972,
      "hn": 7973,
      "sv": 7974,
      "ligen": 7975,
      "âĢ¢": 7976,
      "njene": 7977,
      "Ġkazi": 7978,
      "Ġvere": 7979,
      "Ġimam": 7980,
      "Å¡ina": 7981,
      "Ġbaro": 7982,
      "Ġvodu": 7983,
      "Ġcrkvene": 7984,
      "zovani": 7985,
      "Ġkorupcija": 7986,
      "ĠÄĩelijama": 7987,
      "Ġukraji": 7988,
      "Ġkompetencije": 7989,
      "Ġposeduju": 7990,
      "Ġjednostavno": 7991,
      "Ġspadaju": 7992,
      "Ġsnopa": 7993,
      "Ġkvantita": 7994,
      "97": 7995,
      "lnik": 7996,
      "Ġprevod": 7997,
      "gosahari": 7998,
      "Ġela": 7999,
      "Ġeman": 8000,
      "Ġpesma": 8001,
      "Ġkragu": 8002,
      "protiv": 8003,
      "Ġdelove": 8004,
      "Ġtrpe": 8005,
      "É¢Êģ": 8006,
      "ĠokruÅ¾enje": 8007,
      "¶Î½": 8008,
      "Ġsfr": 8009,
      "liki": 8010,
      "Ġnacija": 8011,
      "Ġcf": 8012,
      "ĠodreÄĳuju": 8013,
      "Ġonto": 8014,
      "Ġnastale": 8015,
      "Ġhrista": 8016,
      "Ġstarosti": 8017,
      "upotreba": 8018,
      "ĠetniÄįkog": 8019,
      "Ġkompleksa": 8020,
      "Ġrefleksi": 8021,
      "Lj": 8022,
      "ph": 8023,
      "wn": 8024,
      "ĠpÅ¡e": 8025,
      "Ġpovu": 8026,
      "Ġkalen": 8027,
      "ĠpromiÅ¡lja": 8028,
      "moÄĩ": 8029,
      "Ġlitur": 8030,
      "Ġposedo": 8031,
      "Ġbrojni": 8032,
      "Ġhaj": 8033,
      "Ġrazvijaju": 8034,
      "Ġstepenu": 8035,
      "ĠpavloviÄĩ": 8036,
      "ĠvrÅ¡njaÄįke": 8037,
      "ranim": 8038,
      "liju": 8039,
      "tore": 8040,
      "Ġkonta": 8041,
      "Ġpejora": 8042,
      "Ġjabu": 8043,
      "Ġusvoji": 8044,
      "Å¡tena": 8045,
      "Ġautonom": 8046,
      "Ġknjigu": 8047,
      "ĠmuziÄįkog": 8048,
      "Ġcrkveno": 8049,
      "ĠvaÅ¾ne": 8050,
      "Ġodeljenje": 8051,
      "Ġborba": 8052,
      "Ġuput": 8053,
      "ĠistaÄĩi": 8054,
      "Ġdonekle": 8055,
      "ĠtermÑĸ": 8056,
      "Ġmetohiji": 8057,
      "Ġdubrova": 8058,
      "ĠodgovarajuÄĩih": 8059,
      "Ġizdvajaju": 8060,
      "ovim": 8061,
      "spa": 8062,
      "Ġazi": 8063,
      "Ġjaja": 8064,
      "ktoru": 8065,
      "Ġ75": 8066,
      "ĠleksiÄįko": 8067,
      "Ġproizvodnja": 8068,
      "ĠÑĶ": 8069,
      "Ġkomisije": 8070,
      "Ġpojavljuju": 8071,
      "rme": 8072,
      "Ġsne": 8073,
      "tinj": 8074,
      "Ġmembra": 8075,
      "Ġusvaja": 8076,
      "Ġidentifiko": 8077,
      "ĠgraÄĳevi": 8078,
      "iM": 8079,
      "Ġund": 8080,
      "vanim": 8081,
      "tat": 8082,
      "Ġnacije": 8083,
      "stiÄįka": 8084,
      "Ġrazmo": 8085,
      "Ġpasu": 8086,
      "Ġpazara": 8087,
      "Ġisc": 8088,
      "Ġpodjednako": 8089,
      "Ġnajpo": 8090,
      "Ġsavet": 8091,
      "Ġosetlji": 8092,
      "Ġnajverovatnije": 8093,
      "Ġneuspe": 8094,
      "posled": 8095,
      "ĠÉ©Éª": 8096,
      "rice": 8097,
      "ĠpoÅ¡tu": 8098,
      "Ġkaza": 8099,
      "Ġmakar": 8100,
      "Ġtoka": 8101,
      "fikuje": 8102,
      "Ġprvu": 8103,
      "Ġinterven": 8104,
      "Ġmuzici": 8105,
      "Ġkompju": 8106,
      "2009": 8107,
      "Ġvidimo": 8108,
      "Ġfunkcionisanje": 8109,
      "Ġmiliona": 8110,
      "Ġsamostalno": 8111,
      "Ġpozaj": 8112,
      "ia": 8113,
      "Ġpogi": 8114,
      "teli": 8115,
      "Ġmrt": 8116,
      "Ġane": 8117,
      "ĠteÅ¾e": 8118,
      "Ġtemati": 8119,
      "Ġlik": 8120,
      "Ġjona": 8121,
      "speci": 8122,
      "ĠstruÄįnjaka": 8123,
      "Ġvezana": 8124,
      "ĠzabeleÅ¾en": 8125,
      "Ġgrob": 8126,
      "ĠreÄįenica": 8127,
      "Ġsignal": 8128,
      "genera": 8129,
      "sy": 8130,
      "Êĥ": 8131,
      "rami": 8132,
      "Å¡njoj": 8133,
      "Å¾du": 8134,
      "Ġbru": 8135,
      "pojedi": 8136,
      "Ġmodu": 8137,
      "nut": 8138,
      "ĠsveÄįa": 8139,
      "Ġkonvencije": 8140,
      "Ġpojavi": 8141,
      "ĠsliÄįne": 8142,
      "Ġidentifikova": 8143,
      "ĠpostojeÄĩe": 8144,
      "ssr": 8145,
      "Ġverba": 8146,
      "Ġotpornosti": 8147,
      "Ġuspostavljanja": 8148,
      "Ġprimenjuje": 8149,
      "Ġend": 8150,
      "Ġivan": 8151,
      "nila": 8152,
      "ĠuÄįenju": 8153,
      "gradi": 8154,
      "filo": 8155,
      "ljuje": 8156,
      "ĠroÄĳenja": 8157,
      "prosto": 8158,
      "Ġ55": 8159,
      "Ġobrazovnim": 8160,
      "Ġsocijalnog": 8161,
      "Ġprisutni": 8162,
      "Ġstrategi": 8163,
      "ĠÑızÑĭka": 8164,
      "Ġeksploa": 8165,
      "diji": 8166,
      "ĠÅ¡tet": 8167,
      "ĠÅ¡tete": 8168,
      "Ġpare": 8169,
      "ĠÄįeka": 8170,
      "ĠÅ¾rtava": 8171,
      "Ġelementa": 8172,
      "Ġulozi": 8173,
      "ĠzakljuÄįuje": 8174,
      "Ġ1979": 8175,
      "Ġlegitim": 8176,
      "Ġubrzo": 8177,
      "Ġapostola": 8178,
      "laÅ¾u": 8179,
      "Ġkolu": 8180,
      "Ġsem": 8181,
      "skata": 8182,
      "Ġsoft": 8183,
      "Ġosvet": 8184,
      "Ġarhiv": 8185,
      "Ġstvaranju": 8186,
      "Ġpotencijala": 8187,
      "Ġgubitak": 8188,
      "Ġscena": 8189,
      "dele": 8190,
      "defini": 8191,
      "Ġep": 8192,
      "car": 8193,
      "Ġlicu": 8194,
      "Ġpodlo": 8195,
      "Ġnauku": 8196,
      "ĠpoÄįela": 8197,
      "Ġprofesora": 8198,
      "ĠÃł": 8199,
      "Ġblisko": 8200,
      "laganje": 8201,
      "Ġsvetoj": 8202,
      "ĠstanoviÅ¡te": 8203,
      "Ġdisertacija": 8204,
      "ade": 8205,
      "Å¾ba": 8206,
      "Å¾nost": 8207,
      "Ġmoja": 8208,
      "biÄĩ": 8209,
      "Ġnarodni": 8210,
      "Ġ1972": 8211,
      "Å¡enjem": 8212,
      "Ġpovezani": 8213,
      "ĠizvrÅ¡ena": 8214,
      "Ġmehanizama": 8215,
      "Ġprojekata": 8216,
      "ĠpruÅ¾aju": 8217,
      "ĠpostignuÄĩa": 8218,
      "Ġnapomenuti": 8219,
      "cka": 8220,
      "uticaj": 8221,
      "tata": 8222,
      "Ġzaba": 8223,
      "stink": 8224,
      "Ġpripra": 8225,
      "Ġpad": 8226,
      "Å¡tenje": 8227,
      "Ġtakoz": 8228,
      "2014": 8229,
      "forman": 8230,
      "vladi": 8231,
      "Ġevropskog": 8232,
      "Ġvrati": 8233,
      "ĠpodruÄįje": 8234,
      "Ġautoritar": 8235,
      "Ġzapisi": 8236,
      "Ġpogotovo": 8237,
      "Ġfunkcionisanja": 8238,
      "Ġispunja": 8239,
      "ĠreciklaÅ¾e": 8240,
      "Ġokon": 8241,
      "Å¾de": 8242,
      "merno": 8243,
      "upr": 8244,
      "Ġnek": 8245,
      "Ġpravno": 8246,
      "Ġiska": 8247,
      "Ñıta": 8248,
      "Ġistoj": 8249,
      "190": 8250,
      "ĠznaÄįajnih": 8251,
      "anti": 8252,
      "ntan": 8253,
      "á½´": 8254,
      "ĠvaÅ¾nu": 8255,
      "Ġmnogobroj": 8256,
      "Ġmehanizam": 8257,
      "Ġplanine": 8258,
      "Ġprofila": 8259,
      "Ġapopto": 8260,
      "ĠuÄįestvuje": 8261,
      "Ġfebruara": 8262,
      "ele": 8263,
      "Ġnom": 8264,
      "Ġsasta": 8265,
      "ĠâĢĿ": 8266,
      "Ġvez": 8267,
      "ĠliÄįni": 8268,
      "Ñĸd": 8269,
      "ĠkriviÄįnom": 8270,
      "ĠodreÄĳeno": 8271,
      "Ġkomponenta": 8272,
      "Ġhumani": 8273,
      "ĠproÅ¡lost": 8274,
      "ĠduÅ¾nost": 8275,
      "Ġsmetnjama": 8276,
      "oligosahari": 8277,
      "ksom": 8278,
      "taciju": 8279,
      "Ġnavo": 8280,
      "tove": 8281,
      "Ġkakve": 8282,
      "Ġizlazi": 8283,
      "Ġiskazi": 8284,
      "Ġpotpisa": 8285,
      "ĠizraÅ¾ava": 8286,
      "Ġmorao": 8287,
      "Ġimenom": 8288,
      "Ġnadle": 8289,
      "Ġovome": 8290,
      "Ġpisac": 8291,
      "Ġsinonim": 8292,
      "Ġnikak": 8293,
      "Ġvojvodine": 8294,
      "Äįovek": 8295,
      "bliko": 8296,
      "Ġsekre": 8297,
      "Ġveru": 8298,
      "parti": 8299,
      "Ġpranja": 8300,
      "cionom": 8301,
      "Ġvodom": 8302,
      "heren": 8303,
      "Î¹Îº": 8304,
      "Ġrazumevanju": 8305,
      "ĠzabeleÅ¾eno": 8306,
      "Ġetimo": 8307,
      "Ġuzrok": 8308,
      "Ġtkiva": 8309,
      "maka": 8310,
      "vera": 8311,
      "ĠjevanÄĳe": 8312,
      "Ġrazne": 8313,
      "Ġ51": 8314,
      "Ġteoreti": 8315,
      "Ġkontrolisa": 8316,
      "Ġutvrdi": 8317,
      "Ġpridevi": 8318,
      "ĠangaÅ¾ova": 8319,
      "Ġdiskursu": 8320,
      "ĠmeÄĳunarodni": 8321,
      "jza": 8322,
      "Ġnaba": 8323,
      "seli": 8324,
      "Ġokre": 8325,
      "Ġgasova": 8326,
      "Ġnivoima": 8327,
      "ĠreÄįnici": 8328,
      "Ġdijalog": 8329,
      "ĠvaÅ¾nost": 8330,
      "Ġgeneracija": 8331,
      "ĠdomaÄĩih": 8332,
      "Ġtemperaturi": 8333,
      "Ġobezbedi": 8334,
      "Ġtekstovima": 8335,
      "Ġporast": 8336,
      "ÉŃÉ": 8337,
      "Ġsuzbijanja": 8338,
      "Ġiskoristi": 8339,
      "Ġosamdesetih": 8340,
      "demokra": 8341,
      "Ġrezultira": 8342,
      "prilikom": 8343,
      "Ġuli": 8344,
      "vanom": 8345,
      "Ġnaza": 8346,
      "dora": 8347,
      "Ġpetar": 8348,
      "Ġcrnoj": 8349,
      "ĠpolitiÄįku": 8350,
      "Ġideju": 8351,
      "Ġprethodnih": 8352,
      "Ġnasuprot": 8353,
      "isp": 8354,
      "Ġikone": 8355,
      "ĠomoguÄĩavaju": 8356,
      "ĠodreÄĳenu": 8357,
      "ĠSiG": 8358,
      "Ġcije": 8359,
      "navlja": 8360,
      "Ġkorek": 8361,
      "Ġizmena": 8362,
      "Ġpropor": 8363,
      "ĠreÅ¡e": 8364,
      "Å¾ima": 8365,
      "Ġinteligen": 8366,
      "slovi": 8367,
      "Ġ65": 8368,
      "Ġfemini": 8369,
      "Ġslave": 8370,
      "Ġslobodana": 8371,
      "Ġkvalifika": 8372,
      "Ġodgovore": 8373,
      "Ġmajke": 8374,
      "Ġpolicijske": 8375,
      "ĠtrÅ¾iÅ¡ta": 8376,
      "Ġusmerena": 8377,
      "gend": 8378,
      "Ġprikazuje": 8379,
      "Ġpere": 8380,
      "Ġduga": 8381,
      "ĠvrÅ¡e": 8382,
      "âĢĻ.": 8383,
      "Ġcit": 8384,
      "Ġaustro": 8385,
      "razliÄįi": 8386,
      "Ġoset": 8387,
      "Ġnudi": 8388,
      "Ġskladi": 8389,
      "Ġneophodna": 8390,
      "ĠkoliÄįinu": 8391,
      "Ja": 8392,
      "bz": 8393,
      "vnici": 8394,
      "nae": 8395,
      "stencija": 8396,
      "ĠpoÅ¾e": 8397,
      "juÅ¾no": 8398,
      "ĠbÑĭ": 8399,
      "Ġdala": 8400,
      "ĠÄįet": 8401,
      "ĠzajedniÄįkog": 8402,
      "Ġ1980": 8403,
      "Ġhrama": 8404,
      "Ġglagolski": 8405,
      "Ġserb": 8406,
      "Ġtoplote": 8407,
      "Ġkonstitui": 8408,
      "ZK": 8409,
      "oso": 8410,
      "Ġpoka": 8411,
      "ĠpokaÅ¾e": 8412,
      "Ġjef": 8413,
      "Ġdovede": 8414,
      "Ġpregleda": 8415,
      "Ġreke": 8416,
      "Ġrekao": 8417,
      "nula": 8418,
      "duje": 8419,
      "ĠbeÄįu": 8420,
      "fora": 8421,
      "Ġmuziku": 8422,
      "Ġprikazana": 8423,
      "Ġpostupaka": 8424,
      "veliki": 8425,
      "ĠpolisemantiÄįnih": 8426,
      "Ïį": 8427,
      "ĠakÄįi": 8428,
      "Ġglavnog": 8429,
      "Ġsvojstvo": 8430,
      "Ġpovezane": 8431,
      "Ġrukopisa": 8432,
      "Ġukupne": 8433,
      "Ġpodele": 8434,
      "Ġtrgovi": 8435,
      "Ġurednik": 8436,
      "Ġeurope": 8437,
      "udo": 8438,
      "Ġnav": 8439,
      "vela": 8440,
      "Ġale": 8441,
      "Ġkamen": 8442,
      "sala": 8443,
      "dovolj": 8444,
      "ĠÄįto": 8445,
      "stavljanje": 8446,
      "Ġslovar": 8447,
      "ĠÉ¬": 8448,
      "ĠopaÅ¾a": 8449,
      "Ġotvoreno": 8450,
      "Ġmuslimana": 8451,
      "Ġislamske": 8452,
      "Ã½ch": 8453,
      "Ġperife": 8454,
      "Ġobrazaca": 8455,
      "Ġopisi": 8456,
      "rine": 8457,
      "dol": 8458,
      "Ġtipu": 8459,
      "Ġosnovnim": 8460,
      "Ġnastavni": 8461,
      "Ġ1984": 8462,
      "Ġprethodne": 8463,
      "Ġskop": 8464,
      "ĠobiÄįaja": 8465,
      "nÃ©": 8466,
      "Äįnici": 8467,
      "Ġporo": 8468,
      "dia": 8469,
      "Ġnew": 8470,
      "Ġnebe": 8471,
      "Ġ110": 8472,
      "Ġtova": 8473,
      "Ġdio": 8474,
      "likacije": 8475,
      "Ġproizvode": 8476,
      "Ġzakonu": 8477,
      "Ġkonceptua": 8478,
      "ĠpoÅ¡tovanje": 8479,
      "Ġdugotra": 8480,
      "autori": 8481,
      "Ġvremenskom": 8482,
      "ĠÅ¾ar": 8483,
      "Ġteorijski": 8484,
      "ĠjuÅ¾nosloven": 8485,
      "ngi": 8486,
      "ĠobÑīe": 8487,
      "ĠtemiÅ¡": 8488,
      "ĠÅ¡ved": 8489,
      "Ġgradovima": 8490,
      "ĠistoÄįno": 8491,
      "Å¡teni": 8492,
      "Ġmarksi": 8493,
      "Ġnacionalnom": 8494,
      "Ġsaveza": 8495,
      "Ġ1981": 8496,
      "Ġdragi": 8497,
      "ĠsemantiÄįke": 8498,
      "Ġmanjine": 8499,
      "Ġstabilnost": 8500,
      "ija": 8501,
      "Ġsssr": 8502,
      "rika": 8503,
      "Ġpodo": 8504,
      "ĠpoÅ¾elj": 8505,
      "Ġvene": 8506,
      "Ġinva": 8507,
      "Ġpravnih": 8508,
      "ĠtraÅ¾e": 8509,
      "Ġpotrebi": 8510,
      "Ġvisokog": 8511,
      "Ġkoristili": 8512,
      "ÉŁÉ§": 8513,
      "Ġfrancuske": 8514,
      "Ġsastavu": 8515,
      "Ġispitivanih": 8516,
      "Ġfigura": 8517,
      "jnog": 8518,
      "Ġdnk": 8519,
      "pet": 8520,
      "Ġstupa": 8521,
      "fila": 8522,
      "ĠmoguÄĩa": 8523,
      "prisu": 8524,
      "Ġjournal": 8525,
      "Ġposlera": 8526,
      "Ġhero": 8527,
      "Ġdobara": 8528,
      "Ġzbornika": 8529,
      "ĠprouÄįavanju": 8530,
      "Ġovakvih": 8531,
      "Ġpedagoga": 8532,
      "Ġdeskrip": 8533,
      "ĠreÅ¡avanja": 8534,
      "ĠÄįasopisa": 8535,
      "Ġpartne": 8536,
      "Ġinkluzi": 8537,
      "bne": 8538,
      "ĠdÅ¾": 8539,
      "tati": 8540,
      "Ġgvo": 8541,
      "Ġpreispiti": 8542,
      "goni": 8543,
      "Ġbiro": 8544,
      "Ġputova": 8545,
      "Ġnp": 8546,
      "Ġsocijalna": 8547,
      "Ġ95": 8548,
      "Ġpokazano": 8549,
      "Ġistorijskog": 8550,
      "ĠÏĦá½¸": 8551,
      "ĠsuÅ¡tini": 8552,
      "Ġgubitka": 8553,
      "Ġprecizno": 8554,
      "Ġvasilije": 8555,
      "strova": 8556,
      "med": 8557,
      "Ġvikti": 8558,
      "ljivim": 8559,
      "Ġglaso": 8560,
      "ĠleksiÄįki": 8561,
      "Ġnazivaju": 8562,
      "Ġcentru": 8563,
      "Ġkontroli": 8564,
      "Ġ1971": 8565,
      "Ġmedijima": 8566,
      "Ġosobenosti": 8567,
      "Ġjerusalim": 8568,
      "cÅ½": 8569,
      "juma": 8570,
      "lop": 8571,
      "Ġsani": 8572,
      "Ġdefi": 8573,
      "Äįeskih": 8574,
      "ĠboÅ¾a": 8575,
      "Ġtitu": 8576,
      "Ġkralji": 8577,
      "ĠdanaÅ¡nje": 8578,
      "Î·ÏĤ": 8579,
      "ĠnameÄĩe": 8580,
      "Ġdiscipline": 8581,
      "Ġkandida": 8582,
      "dt": 8583,
      "efika": 8584,
      "nku": 8585,
      "ul": 8586,
      "Ġsra": 8587,
      "kija": 8588,
      "Ġodbor": 8589,
      "Ġnegde": 8590,
      "Ġizmene": 8591,
      "miji": 8592,
      "Ġgove": 8593,
      "Ġstraha": 8594,
      "Ġkulturnim": 8595,
      "Ġljubo": 8596,
      "Ġ500": 8597,
      "Ġkredi": 8598,
      "Ġevropska": 8599,
      "Ġpotvrda": 8600,
      "ĠBiH": 8601,
      "ĠzemljiÅ¡tu": 8602,
      "Ġsmr": 8603,
      "Ġprirodne": 8604,
      "Ġrealizuje": 8605,
      "usta": 8606,
      "Ġkosmo": 8607,
      "tovanja": 8608,
      "Ġsamu": 8609,
      "Ġsakuplja": 8610,
      "Ġdetek": 8611,
      "Ġobrnu": 8612,
      "Ġsrbima": 8613,
      "2010": 8614,
      "Ġonako": 8615,
      "Ġ1978": 8616,
      "Ġljudsko": 8617,
      "ĠmladenoviÄĩ": 8618,
      "Ġpripoveda": 8619,
      "ANj": 8620,
      "Ġaori": 8621,
      "Ġreformi": 8622,
      "Ġbiva": 8623,
      "Ġmalim": 8624,
      "Ġgoru": 8625,
      "ljem": 8626,
      "Ġ300": 8627,
      "Ġosnovnog": 8628,
      "Ġakt": 8629,
      "Ġtumora": 8630,
      "Ġpojedinci": 8631,
      "Ġinstitucijama": 8632,
      "ĠkaÅ¾em": 8633,
      "Ġgospod": 8634,
      "Ġpredsedni": 8635,
      "Ġduboko": 8636,
      "Ġekonomije": 8637,
      "Ġpredrag": 8638,
      "Â·": 8639,
      "ĨÏĤ": 8640,
      "jere": 8641,
      "Ġilega": 8642,
      "napo": 8643,
      "Ġuvodi": 8644,
      "ĠukaÅ¾e": 8645,
      "Ġkovi": 8646,
      "Ġizgled": 8647,
      "Ġev": 8648,
      "Ġispa": 8649,
      "ĠÄįelu": 8650,
      "Ġsluha": 8651,
      "Ġokrenu": 8652,
      "Ġperso": 8653,
      "Ġcrkvenih": 8654,
      "ĠknjiÅ¾evni": 8655,
      "Ġprethodnom": 8656,
      "Ġvladara": 8657,
      "É¨É¦": 8658,
      "Ġaspekata": 8659,
      "Ġpredavanja": 8660,
      "Ġpodela": 8661,
      "Ġsastavni": 8662,
      "Ġdejstva": 8663,
      "klÑİ": 8664,
      "Ġepohe": 8665,
      "É«É¤": 8666,
      "Me": 8667,
      "hr": 8668,
      "vcu": 8669,
      "Ãł": 8670,
      "Ñŀ": 8671,
      "Å¡kova": 8672,
      "landar": 8673,
      "zanim": 8674,
      "Ġturi": 8675,
      "ĠnauÄįnim": 8676,
      "Ġpredstavljala": 8677,
      "Ġelementima": 8678,
      "É¨Êģ": 8679,
      "Ġvuko": 8680,
      "Ġnavedenim": 8681,
      "Ġamba": 8682,
      "Ġmigracije": 8683,
      "Ġdefinisanje": 8684,
      "ĠoÄįuvanje": 8685,
      "Ġpomaga": 8686,
      "Ġbrzine": 8687,
      "engl": 8688,
      "Ġarhiepiskop": 8689,
      "ĠoptereÄĩenja": 8690,
      "Ġobjasniti": 8691,
      "ĠbÑĬlgar": 8692,
      "ĠraspoloÅ¾i": 8693,
      "Ġeparhi": 8694,
      "by": 8695,
      "bde": 8696,
      "vizi": 8697,
      "Ġzanat": 8698,
      "Ġprogre": 8699,
      "Ġdelega": 8700,
      "Ġrazgovara": 8701,
      "Ġdug": 8702,
      "alÑĮ": 8703,
      "Ġradnih": 8704,
      "Ġsredina": 8705,
      "Ġ1970": 8706,
      "Ġaspekti": 8707,
      "Ġ1969": 8708,
      "ĠopÅ¡tine": 8709,
      "Ġsklopu": 8710,
      "Ġtekstovi": 8711,
      "Ġkupu": 8712,
      "gt": 8713,
      "ncima": 8714,
      "Ġpop": 8715,
      "Ġodbaci": 8716,
      "Ġpriklju": 8717,
      "Ġdeba": 8718,
      "Ġvoji": 8719,
      "Ġ52": 8720,
      "Ġcelina": 8721,
      "ĠizvoÄĳenja": 8722,
      "Ġradove": 8723,
      "arhi": 8724,
      "Ġnaslika": 8725,
      "Ġdokument": 8726,
      "Ġdovelo": 8727,
      "Ġfokus": 8728,
      "osnovni": 8729,
      "ZKiM": 8730,
      "Ġ;": 8731,
      "Ġubrizga": 8732,
      "Ġnesa": 8733,
      "Ġklija": 8734,
      "ĠkaÅ¾u": 8735,
      "Ġevno": 8736,
      "ljana": 8737,
      "Ġraznim": 8738,
      "Ġakteri": 8739,
      "kupa": 8740,
      "Ġmarko": 8741,
      "ïĢŃ": 8742,
      "Ġuspeh": 8743,
      "ĠograniÄįen": 8744,
      "ĠukljuÄįuju": 8745,
      "Ġstavovi": 8746,
      "rik": 8747,
      "âĢĺ": 8748,
      "Ġdokaz": 8749,
      "Ġmotiv": 8750,
      "Ġelita": 8751,
      "ĠmeÅ¡o": 8752,
      "Ġrazmene": 8753,
      "Ġjavnim": 8754,
      "dnike": 8755,
      "2018": 8756,
      "Ġrealizaciju": 8757,
      "Ġidentifikacije": 8758,
      "ĠmuziÄįki": 8759,
      "ments": 8760,
      "Ġnarodnim": 8761,
      "ĠuoÄįiti": 8762,
      "Ġindirek": 8763,
      "Ġudalje": 8764,
      "ĠJZKiM": 8765,
      "Ġnepreki": 8766,
      "Ġupotrebljavaju": 8767,
      "Ġrevolucije": 8768,
      "Ġsunco": 8769,
      "Ġgimna": 8770,
      "%).": 8771,
      "phy": 8772,
      "Ġsastava": 8773,
      "ĠsudeÄĩi": 8774,
      "Äĳo": 8775,
      "Ġdom": 8776,
      "Ġdonose": 8777,
      "moÅ¾da": 8778,
      "Ġsveobuhva": 8779,
      "Ġznaju": 8780,
      "Ġglavna": 8781,
      "Ġposete": 8782,
      "spek": 8783,
      "Ġmoralne": 8784,
      "ĠÎ¸": 8785,
      "Ġgovorimo": 8786,
      "Ġnukle": 8787,
      "ĠkritiÄįki": 8788,
      "Ġstrogo": 8789,
      "Ġkancela": 8790,
      "ĠhidroÄįaÄĳi": 8791,
      "lia": 8792,
      "zai": 8793,
      "teru": 8794,
      "Ġizjedna": 8795,
      "Äįilo": 8796,
      "Ġinse": 8797,
      "bal": 8798,
      "bacu": 8799,
      "ĠboÅ¾": 8800,
      "proce": 8801,
      "Ġlesko": 8802,
      "Ġstopa": 8803,
      "Ġkrivic": 8804,
      "Ġnovina": 8805,
      "Ġprotein": 8806,
      "Ġaspekte": 8807,
      "Ġmigracija": 8808,
      "ĠÅ¡irenje": 8809,
      "Ġodlikuje": 8810,
      "Ġnapredo": 8811,
      "veÄĩina": 8812,
      "konaÄįno": 8813,
      "ĠÄĳurÄĳe": 8814,
      "mata": 8815,
      "lat": 8816,
      "Ġdali": 8817,
      "poja": 8818,
      "sion": 8819,
      "Ġdepo": 8820,
      "ljuju": 8821,
      "Ġobradu": 8822,
      "ĠdrÅ¾avlja": 8823,
      "ĠstojanoviÄĩ": 8824,
      "Ġtradiciju": 8825,
      "Ġregiona": 8826,
      "Ġdemokrati": 8827,
      "Ġmerenje": 8828,
      "ĠetniÄįkih": 8829,
      "Ġarhitekture": 8830,
      "JI": 8831,
      "mda": 8832,
      "zatim": 8833,
      "tovati": 8834,
      "Ġrase": 8835,
      "Ġdoka": 8836,
      "gura": 8837,
      "Å¡tvom": 8838,
      "Ġcelu": 8839,
      "Ġnastanak": 8840,
      "Ġtimss": 8841,
      "Ġpartije": 8842,
      "2004": 8843,
      "Ġjugoslovenskih": 8844,
      "ĠkljuÄįne": 8845,
      "ĠnemoguÄĩe": 8846,
      "ĠpreÅ¾ivlja": 8847,
      "Ġrimokatoli": 8848,
      "Å¥": 8849,
      "Ġonom": 8850,
      "rela": 8851,
      "Ġpromovi": 8852,
      "2011": 8853,
      "2021": 8854,
      "Ġpostane": 8855,
      "Ġrukopis": 8856,
      "Ġneobi": 8857,
      "Ġimovi": 8858,
      "Ġkakvo": 8859,
      "ssion": 8860,
      "Ġdimitrija": 8861,
      "lp": 8862,
      "ĠÄĲ": 8863,
      "Ġzamisli": 8864,
      "Ġdans": 8865,
      "Ġdodi": 8866,
      "Ġprenos": 8867,
      "Ġmoze": 8868,
      "Ġnikako": 8869,
      "Ġminuta": 8870,
      "strate": 8871,
      "Ġgranici": 8872,
      "Ġruski": 8873,
      "Ġcelog": 8874,
      "Ġpoziva": 8875,
      "Ġobima": 8876,
      "Ġ1974": 8877,
      "Ġposledicu": 8878,
      "Ġnavedenog": 8879,
      "Ġorijentacije": 8880,
      "Ġsignala": 8881,
      "Ġhercegovine": 8882,
      "ibi": 8883,
      "koje": 8884,
      "koja": 8885,
      "Ġpou": 8886,
      "Ġmn": 8887,
      "Ġprida": 8888,
      "Ġmos": 8889,
      "Äįenim": 8890,
      "Å¾im": 8891,
      "har": 8892,
      "Ġsamoj": 8893,
      "ktom": 8894,
      "ĠÅ¾upa": 8895,
      "tiraju": 8896,
      "Ġpretpostavka": 8897,
      "Ġboravka": 8898,
      "ĠmenadÅ¾": 8899,
      "Ġohri": 8900,
      "vol": 8901,
      "Ġdevet": 8902,
      "Ġmer": 8903,
      "Ġvirusa": 8904,
      "2013": 8905,
      "ĠÉĭ": 8906,
      "Î¿Î¹": 8907,
      "ĠdefiniÅ¡u": 8908,
      "ĠpluÄĩa": 8909,
      "ĠsocijalistiÄįkog": 8910,
      "alek": 8911,
      "vaca": 8912,
      "vidi": 8913,
      "Ġprivrede": 8914,
      "ĠpeÅ¡a": 8915,
      "Ġpredmeti": 8916,
      "Ġuzne": 8917,
      "fan": 8918,
      "Ġradnji": 8919,
      "Ġxxi": 8920,
      "zovana": 8921,
      "Ġorganizaciju": 8922,
      "Ġwww": 8923,
      "Î±Ïģ": 8924,
      "Ġprethodnog": 8925,
      "Ġosnovama": 8926,
      "Ġpripadnost": 8927,
      "Ġneretko": 8928,
      "ĠobjaÅ¡njenje": 8929,
      "ĠpohaÄĳa": 8930,
      "ite": 8931,
      "kvali": 8932,
      "Ġnih": 8933,
      "nastav": 8934,
      "ning": 8935,
      "Ġnape": 8936,
      "sara": 8937,
      "fekat": 8938,
      "Ġplato": 8939,
      "Ġistih": 8940,
      "Ġnarodno": 8941,
      "Ġprisutne": 8942,
      "ĠutvrÄĳivanje": 8943,
      "Ġpisanja": 8944,
      "ĠzemljiÅ¡te": 8945,
      "Ġkategori": 8946,
      "Ġpristupu": 8947,
      "ĠunapreÄĳenje": 8948,
      "Ġdevojke": 8949,
      "Ġkompanije": 8950,
      "ĠnadleÅ¾nosti": 8951,
      "Ġemancipa": 8952,
      "ari": 8953,
      "Ġoce": 8954,
      "Ġkonja": 8955,
      "Ġbrak": 8956,
      "Ġrano": 8957,
      "Ġdomen": 8958,
      "Ġthat": 8959,
      "Ġobnovi": 8960,
      "stovi": 8961,
      "Ġhh": 8962,
      "Ġvaro": 8963,
      "Å¡taju": 8964,
      "Ġrusiji": 8965,
      "Ġ47": 8966,
      "Ġostaju": 8967,
      "ovakav": 8968,
      "arch": 8969,
      "Ġobjekti": 8970,
      "Ġnajboga": 8971,
      "Ġindustrije": 8972,
      "Ġmaksimu": 8973,
      "Ġuseva": 8974,
      "Ġuzajam": 8975,
      "iv": 8976,
      "Ġq": 8977,
      "Ġoja": 8978,
      "Ġubla": 8979,
      "vanjima": 8980,
      "enti": 8981,
      "pela": 8982,
      "2015": 8983,
      "Ġkulturna": 8984,
      "Ġcena": 8985,
      "Ġrealizaciji": 8986,
      "Ġ72": 8987,
      "Ġtakvi": 8988,
      "drugo": 8989,
      "Ġmetafizi": 8990,
      "ĠpostiÅ¾e": 8991,
      "Ġdokumentima": 8992,
      "Ġsvrlji": 8993,
      "Ġprocenjuju": 8994,
      "Ġmenjaju": 8995,
      "voljan": 8996,
      "Ġimigra": 8997,
      "Ġuniversity": 8998,
      "ÅĽ": 8999,
      "Ġupa": 9000,
      "Ġkoli": 9001,
      "Ġmanja": 9002,
      "Ġkonvencija": 9003,
      "hidro": 9004,
      "2000": 9005,
      "Ġlekovi": 9006,
      "dant": 9007,
      "Ġsistemom": 9008,
      "Ġ54": 9009,
      "Ġglagole": 9010,
      "ĠpoveÄĩanjem": 9011,
      "istraÅ¾ivanja": 9012,
      "ĠmuÅ¡kar": 9013,
      "Ġusluge": 9014,
      "Ġsufiksa": 9015,
      "Ġprouzrokova": 9016,
      "xe": 9017,
      "liÄĩa": 9018,
      "tiÄįkih": 9019,
      "tela": 9020,
      "Ġkwi": 9021,
      "Ġdomenti": 9022,
      "Ġprela": 9023,
      "ĠreÄĳe": 9024,
      "nuli": 9025,
      "Ġarhan": 9026,
      "ĠobeÄĩa": 9027,
      "Ġpoziciji": 9028,
      "Ġsvetske": 9029,
      "godiÅ¡nji": 9030,
      "Ġuzroka": 9031,
      "Ġhrono": 9032,
      "ĠrijeÄįi": 9033,
      "Ġobrazlo": 9034,
      "lc": 9035,
      "rva": 9036,
      "ĠdÅ¾e": 9037,
      "Ġnaji": 9038,
      "zaklju": 9039,
      "stih": 9040,
      "zio": 9041,
      "Ġprora": 9042,
      "bil": 9043,
      "Ġzn": 9044,
      "izmeÄĳu": 9045,
      "spon": 9046,
      "Ġ57": 9047,
      "Ġprogramima": 9048,
      "ĠgraÄĳanima": 9049,
      "Ġprikazane": 9050,
      "ÉŁÉŀ": 9051,
      "ĠmiloÅ¡e": 9052,
      "Ġzapisa": 9053,
      "Ġpostavljen": 9054,
      "__": 9055,
      "ĠÊģÉŁ": 9056,
      "Ġocene": 9057,
      "materija": 9058,
      "lila": 9059,
      "Ġsaz": 9060,
      "Ġdob": 9061,
      "mica": 9062,
      "sila": 9063,
      "Ġrecen": 9064,
      "Ġel": 9065,
      "Ġinven": 9066,
      "Ġrazlozi": 9067,
      "Ġnjom": 9068,
      "ĠizraÅ¾e": 9069,
      "Ġnastavku": 9070,
      "É¨Éª": 9071,
      "Ġposmatrano": 9072,
      "Ġposlednji": 9073,
      "Ġpojedinac": 9074,
      "ĠizloÅ¾eni": 9075,
      "ĠteÅ¡koÄĩa": 9076,
      "Ġkompozicije": 9077,
      "Ġperspektiva": 9078,
      "Ġdalma": 9079,
      "Ġdosledno": 9080,
      "Ġantioksida": 9081,
      "Ġrastvara": 9082,
      "iza": 9083,
      "pt": 9084,
      "Éŀ": 9085,
      "Ġukida": 9086,
      "Ġkoito": 9087,
      "pomenu": 9088,
      "Ġprez": 9089,
      "Ġmalih": 9090,
      "ĠmeÅ¾du": 9091,
      "tradi": 9092,
      "Ñıh": 9093,
      "Ġosnovno": 9094,
      "ÑĸÑĹ": 9095,
      "Ġparametri": 9096,
      "Ġslobodnog": 9097,
      "Ġkonceptual": 9098,
      "2008": 9099,
      "Ġkarbo": 9100,
      "Ġtermo": 9101,
      "postoji": 9102,
      "Ġkadmijuma": 9103,
      "Ġiscrp": 9104,
      "Ġika": 9105,
      "stv": 9106,
      "Ġpostroje": 9107,
      "ĠnaÅ¡u": 9108,
      "Å¾nim": 9109,
      "Ġprolazi": 9110,
      "ĠveÄĩem": 9111,
      "2012": 9112,
      "Ġfunda": 9113,
      "Ġxii": 9114,
      "ksima": 9115,
      "Ġstiho": 9116,
      "Ġstvaraju": 9117,
      "Ġevropskim": 9118,
      "Ġkatedra": 9119,
      "Ġaristo": 9120,
      "Ġrobota": 9121,
      "Ġprincipima": 9122,
      "galaktozidaze": 9123,
      "Ġhorizonta": 9124,
      "rxR": 9125,
      "nili": 9126,
      "Ġporta": 9127,
      "Ġneraz": 9128,
      "Ġneodre": 9129,
      "Ġsimu": 9130,
      "Äĳenom": 9131,
      "Ġtren": 9132,
      "ĠtreÄĩeg": 9133,
      "Ġglava": 9134,
      "Ġtakvom": 9135,
      "ĠÅ¡eÄĩe": 9136,
      "ÉļÉľ": 9137,
      "Ġ1966": 9138,
      "Ġdovela": 9139,
      "rovski": 9140,
      "Ġobjavljen": 9141,
      "Ġizvedena": 9142,
      "Ġopsegu": 9143,
      "ĠviÅ¡im": 9144,
      "srbija": 9145,
      "Ġinternational": 9146,
      "menzional": 9147,
      "Ġonomasti": 9148,
      "cenje": 9149,
      "ocima": 9150,
      "Ġ)": 9151,
      "Å¡nim": 9152,
      "Ġodob": 9153,
      "Ġprevla": 9154,
      "Ġprotek": 9155,
      "mine": 9156,
      "Ġslovo": 9157,
      "Ġpozitivne": 9158,
      "Ġklasa": 9159,
      "Ġinterese": 9160,
      "Ġ1973": 9161,
      "ĠÂº": 9162,
      "Ġumro": 9163,
      "dokna": 9164,
      "Ġspektra": 9165,
      "ĠodgovarajuÄĩim": 9166,
      "Ġscience": 9167,
      "eno": 9168,
      "tsku": 9169,
      "pio": 9170,
      "Ġnavod": 9171,
      "Ġsezo": 9172,
      "Ġdato": 9173,
      "mici": 9174,
      "Äįane": 9175,
      "ljud": 9176,
      "Ġistoka": 9177,
      "ĠistoÄįne": 9178,
      "Ġosnovnom": 9179,
      "Ġns": 9180,
      "ĠrazliÄįitog": 9181,
      "Ġmetoh": 9182,
      "Ġ130": 9183,
      "Ġsupru": 9184,
      "Ġkrvi": 9185,
      "Ġbogoslu": 9186,
      "Ġstres": 9187,
      "Ġsekven": 9188,
      "Ġprocedure": 9189,
      "pdf": 9190,
      "Ġdocnije": 9191,
      "Ġolta": 9192,
      "Ġumu": 9193,
      "Ġnastupa": 9194,
      "vorio": 9195,
      "Ġzad": 9196,
      "Ġea": 9197,
      "cer": 9198,
      "Ġtera": 9199,
      "Ġintra": 9200,
      "2020": 9201,
      "Ġlatin": 9202,
      "Ġ53": 9203,
      "Ġmetoha": 9204,
      "Ġidea": 9205,
      "110": 9206,
      "Ġistina": 9207,
[...]
