{
  "version": "1.0",
  "truncation": null,
  "padding": null,
  "added_tokens": [
    {
      "id": 0,
      "content": "[PAD]",
      "single_word": false,
      "lstrip": false,
      "rstrip": false,
      "normalized": false,
      "special": true
    },
    {
      "id": 1,
      "content": "<uppe>",
      "single_word": false,
      "lstrip": false,
      "rstrip": false,
      "normalized": false,
      "special": true
    },
    {
      "id": 2,
      "content": "<capi>",
      "single_word": false,
      "lstrip": false,
      "rstrip": false,
      "normalized": false,
      "special": true
    },
    {
      "id": 3,
      "content": "<cend>",
      "single_word": false,
      "lstrip": false,
      "rstrip": false,
      "normalized": false,
      "special": true
    },
    {
      "id": 4,
      "content": "<csta>",
      "single_word": false,
      "lstrip": false,
      "rstrip": false,
      "normalized": false,
      "special": true
    }
  ],
  "normalizer": null,
  "pre_tokenizer": {
    "type": "ByteLevel",
    "add_prefix_space": false,
    "trim_offsets": true,
    "use_regex": true
  },
  "post_processor": null,
  "decoder": null,
  "model": {
    "type": "BPE",
    "dropout": null,
    "unk_token": null,
    "continuing_subword_prefix": null,
    "end_of_word_suffix": null,
    "fuse_unk": false,
    "byte_fallback": false,
    "ignore_merges": true,
    "vocab": {
      "[PAD]": 0,
      "<uppe>": 1,
      "<capi>": 2,
      "<cend>": 3,
      "<csta>": 4,
      "!": 5,
      "\"": 6,
      "#": 7,
      "$": 8,
      "%": 9,
      "&": 10,
      "'": 11,
      "(": 12,
      ")": 13,
      "*": 14,
      "+": 15,
      ",": 16,
      "-": 17,
      ".": 18,
      "/": 19,
      "0": 20,
      "1": 21,
      "2": 22,
      "3": 23,
      "4": 24,
      "5": 25,
      "6": 26,
      "7": 27,
      "8": 28,
      "9": 29,
      ":": 30,
      ";": 31,
      "<": 32,
      "=": 33,
      ">": 34,
      "?": 35,
      "@": 36,
      "A": 37,
      "B": 38,
      "C": 39,
      "D": 40,
      "E": 41,
      "F": 42,
      "G": 43,
      "H": 44,
      "I": 45,
      "J": 46,
      "K": 47,
      "L": 48,
      "M": 49,
      "N": 50,
      "O": 51,
      "P": 52,
      "Q": 53,
      "R": 54,
      "S": 55,
      "T": 56,
      "U": 57,
      "V": 58,
      "W": 59,
      "X": 60,
      "Y": 61,
      "Z": 62,
      "[": 63,
      "\\": 64,
      "]": 65,
      "^": 66,
      "_": 67,
      "`": 68,
      "a": 69,
      "b": 70,
      "c": 71,
      "d": 72,
      "e": 73,
      "f": 74,
      "g": 75,
      "h": 76,
      "i": 77,
      "j": 78,
      "k": 79,
      "l": 80,
      "m": 81,
      "n": 82,
      "o": 83,
      "p": 84,
      "q": 85,
      "r": 86,
      "s": 87,
      "t": 88,
      "u": 89,
      "v": 90,
      "w": 91,
      "x": 92,
      "y": 93,
      "z": 94,
      "{": 95,
      "|": 96,
      "}": 97,
      "~": 98,
      "¡": 99,
      "¢": 100,
      "£": 101,
      "¤": 102,
      "¥": 103,
      "¦": 104,
      "§": 105,
      "¨": 106,
      "©": 107,
      "ª": 108,
      "«": 109,
      "¬": 110,
      "®": 111,
      "¯": 112,
      "°": 113,
      "±": 114,
      "²": 115,
      "³": 116,
      "´": 117,
      "µ": 118,
      "¶": 119,
      "·": 120,
      "¸": 121,
      "¹": 122,
      "º": 123,
      "»": 124,
      "¼": 125,
      "½": 126,
      "¾": 127,
      "¿": 128,
      "À": 129,
      "Á": 130,
      "Â": 131,
      "Ã": 132,
      "Ä": 133,
      "Å": 134,
      "Æ": 135,
      "Ç": 136,
      "È": 137,
      "É": 138,
      "Ê": 139,
      "Ë": 140,
      "Ì": 141,
      "Í": 142,
      "Î": 143,
      "Ï": 144,
      "Ð": 145,
      "Ñ": 146,
      "Ò": 147,
      "Ó": 148,
      "Ô": 149,
      "Õ": 150,
      "Ö": 151,
      "×": 152,
      "Ø": 153,
      "Ù": 154,
      "Ú": 155,
      "Û": 156,
      "Ü": 157,
      "Ý": 158,
      "Þ": 159,
      "ß": 160,
      "à": 161,
      "á": 162,
      "â": 163,
      "ã": 164,
      "ä": 165,
      "å": 166,
      "æ": 167,
      "ç": 168,
      "è": 169,
      "é": 170,
      "ê": 171,
      "ë": 172,
      "ì": 173,
      "í": 174,
      "î": 175,
      "ï": 176,
      "ð": 177,
      "ñ": 178,
      "ò": 179,
      "ó": 180,
      "ô": 181,
      "õ": 182,
      "ö": 183,
      "÷": 184,
      "ø": 185,
      "ù": 186,
      "ú": 187,
      "û": 188,
      "ü": 189,
      "ý": 190,
      "þ": 191,
      "ÿ": 192,
      "Ā": 193,
      "ā": 194,
      "Ă": 195,
      "ă": 196,
      "Ą": 197,
      "ą": 198,
      "Ć": 199,
      "ć": 200,
      "Ĉ": 201,
      "ĉ": 202,
      "Ċ": 203,
      "ċ": 204,
      "Č": 205,
      "č": 206,
      "Ď": 207,
      "ď": 208,
      "Đ": 209,
      "đ": 210,
      "Ē": 211,
      "ē": 212,
      "Ĕ": 213,
      "ĕ": 214,
      "Ė": 215,
      "ė": 216,
      "Ę": 217,
      "ę": 218,
      "Ě": 219,
      "ě": 220,
      "Ĝ": 221,
      "ĝ": 222,
      "Ğ": 223,
      "ğ": 224,
      "Ġ": 225,
      "ġ": 226,
      "Ģ": 227,
      "ģ": 228,
      "Ĥ": 229,
      "ĥ": 230,
      "Ħ": 231,
      "ħ": 232,
      "Ĩ": 233,
      "ĩ": 234,
      "Ī": 235,
      "ī": 236,
      "Ĭ": 237,
      "ĭ": 238,
      "Į": 239,
      "į": 240,
      "İ": 241,
      "ı": 242,
      "Ĳ": 243,
      "ĳ": 244,
      "Ĵ": 245,
      "ĵ": 246,
      "Ķ": 247,
      "ķ": 248,
      "ĸ": 249,
      "Ĺ": 250,
      "ĺ": 251,
      "Ļ": 252,
      "ļ": 253,
      "Ľ": 254,
      "ľ": 255,
      "Ŀ": 256,
      "ŀ": 257,
      "Ł": 258,
      "ł": 259,
      "Ń": 260,
      "<c": 261,
      "pi": 262,
      "Ġs": 263,
      "api": 264,
      "<capi": 265,
      "Ġp": 266,
      "je": 267,
      "Ġi": 268,
      "na": 269,
      "ra": 270,
      "ko": 271,
      "st": 272,
      "no": 273,
      "ni": 274,
      "Ġo": 275,
      "Ġd": 276,
      "re": 277,
      "Ġu": 278,
      "Äį": 279,
      "ja": 280,
      "va": 281,
      "ti": 282,
      "Å¡": 283,
      "ne": 284,
      "ka": 285,
      "ri": 286,
      "ma": 287,
      "li": 288,
      "Ġpo": 289,
      "ta": 290,
      "la": 291,
      "ve": 292,
      "Ġna": 293,
      "ro": 294,
      "vi": 295,
      "vo": 296,
      "te": 297,
      "Ġje": 298,
      "me": 299,
      "za": 300,
      "ci": 301,
      "Ġb": 302,
      "Äĩ": 303,
      "Ġko": 304,
      "lo": 305,
      "Å¾": 306,
      "to": 307,
      "ju": 308,
      "Ġse": 309,
      "ji": 310,
      "mo": 311,
      "le": 312,
      "Ġa": 313,
      "âĢ": 314,
      "di": 315,
      "Ġda": 316,
      "Ġza": 317,
      "Ġg": 318,
      "nje": 319,
      "da": 320,
      "sta": 321,
      "ru": 322,
      "pe": 323,
      "ki": 324,
      "Ġsa": 325,
      "sti": 326,
      "en": 327,
      "Ġ(": 328,
      "Ġne": 329,
      "up": 330,
      "mi": 331,
      "Ġod": 332,
      "Ġka": 333,
      "Ġra": 334,
      "zi": 335,
      "po": 336,
      "de": 337,
      "Ġk": 338,
      "ke": 339,
      "Ġpre": 340,
      "Äĳ": 341,
      "Ġsu": 342,
      "Ġiz": 343,
      "Ġdo": 344,
      "tu": 345,
      "go": 346,
      "Ġpri": 347,
      "nja": 348,
      "Ġpro": 349,
      "Ġbi": 350,
      "ĠâĢ": 351,
      "Äįi": 352,
      "uppe": 353,
      "<uppe": 354,
      "nu": 355,
      "ga": 356,
      "Ġre": 357,
      "Ġmo": 358,
      "si": 359,
      "ku": 360,
      "sa": 361,
      "Äįe": 362,
      "Ġe": 363,
      "Ġz": 364,
      "ce": 365,
      "bi": 366,
      "Ġv": 367,
      "Ġf": 368,
      "Ġde": 369,
      "nih": 370,
      "Ġ1": 371,
      "ca": 372,
      "sko": 373,
      "Ġt": 374,
      "se": 375,
      "Ġve": 376,
      "ĠÅ¡": 377,
      "nog": 378,
      "Ġte": 379,
      "ski": 380,
      "Äįa": 381,
      "lu": 382,
      "Ġob": 383,
      "sto": 384,
      "Ġto": 385,
      "Å¾i": 386,
      "lja": 387,
      "Å¾e": 388,
      "Äĩe": 389,
      "du": 390,
      "Ġni": 391,
      "pa": 392,
      "Ġma": 393,
      "Ġme": 394,
      "mu": 395,
      "Ġ2": 396,
      "Ġpa": 397,
      "Ġgo": 398,
      "do": 399,
      "lje": 400,
      "Ġkoji": 401,
      "cija": 402,
      "nom": 403,
      "Ġraz": 404,
      "gi": 405,
      "Ġin": 406,
      "nosti": 407,
      "ba": 408,
      "Äĩi": 409,
      "nji": 410,
      "jo": 411,
      "Ġkao": 412,
      "end": 413,
      "<csta": 414,
      "<cend": 415,
      "or": 416,
      "nim": 417,
      "Ġvi": 418,
      "be": 419,
      "Ġh": 420,
      "Ġta": 421,
      "Å¡e": 422,
      "cije": 423,
      ").": 424,
      "gu": 425,
      "tiv": 426,
      "Ġst": 427,
      "ĠâĢŀ": 428,
      "Ġdru": 429,
      "so": 430,
      "Å¾a": 431,
      "su": 432,
      "fi": 433,
      "Ġsi": 434,
      "vr": 435,
      "gra": 436,
      "Ġsta": 437,
      "Ġmi": 438,
      "ÂŃ": 439,
      "bo": 440,
      "Ġbe": 441,
      "Ġc": 442,
      "viÄĩ": 443,
      "red": 444,
      "Äĳe": 445,
      "Ġsve": 446,
      "Ġkon": 447,
      "zu": 448,
      "lju": 449,
      "nost": 450,
      "ĠâĢĵ": 451,
      "Ġ20": 452,
      "vu": 453,
      "Ġdi": 454,
      "Ġsr": 455,
      "),": 456,
      "nju": 457,
      "zo": 458,
      "sno": 459,
      "ske": 460,
      "Ġm": 461,
      "ho": 462,
      "Äĳu": 463,
      "Ġzna": 464,
      "pu": 465,
      "Ġpra": 466,
      "Ġli": 467,
      "ĠÅ¡to": 468,
      "stav": 469,
      "vanje": 470,
      "Ġno": 471,
      "Ġpe": 472,
      "ste": 473,
      "Ġ19": 474,
      "Ġis": 475,
      "vanja": 476,
      "âĢľ": 477,
      "Äĩa": 478,
      "Ġja": 479,
      "Ġkoje": 480,
      "ze": 481,
      "Ġpred": 482,
      "kom": 483,
      "Ġbo": 484,
      "Ġili": 485,
      "lji": 486,
      "Äįki": 487,
      "cio": 488,
      "Ġima": 489,
      "Å¡a": 490,
      "Å¡i": 491,
      "tra": 492,
      "skog": 493,
      "lj": 494,
      "men": 495,
      "ge": 496,
      "Ġva": 497,
      "pre": 498,
      "Ġti": 499,
      "Ġgodi": 500,
      "Ġba": 501,
      "Ġvo": 502,
      "Ġsvo": 503,
      "nika": 504,
      "Ġku": 505,
      "Ġpos": 506,
      "Ġmu": 507,
      "Ġle": 508,
      "Ġnje": 509,
      "Ġpod": 510,
      "ska": 511,
      "Ġso": 512,
      "stra": 513,
      "ĠÄį": 514,
      "rija": 515,
      "fe": 516,
      "Å¡t": 517,
      "Ġodno": 518,
      "Ġpi": 519,
      "Ġsamo": 520,
      "Ġus": 521,
      "âĢĻ": 522,
      "skih": 523,
      "zna": 524,
      "Ġjed": 525,
      "ĠÄįi": 526,
      "Ġgra": 527,
      "pra": 528,
      "nal": 529,
      "rÅ¾a": 530,
      "Ġnaj": 531,
      "tre": 532,
      "noj": 533,
      "vom": 534,
      "reme": 535,
      "Ġkoja": 536,
      "Ġinte": 537,
      "Ġgla": 538,
      "Ġnji": 539,
      "Ġjezi": 540,
      "loÅ¡": 541,
      "Ġtra": 542,
      "Ġvr": 543,
      "Äįko": 544,
      "Ġnije": 545,
      "ĠÅ¾i": 546,
      "Ġdu": 547,
      "pri": 548,
      "ha": 549,
      "Ġrazli": 550,
      "dni": 551,
      "nti": 552,
      "Ġro": 553,
      "Å¡ta": 554,
      "liti": 555,
      "ĠÄįe": 556,
      "Ġpu": 557,
      "Ġtre": 558,
      "Ġmogu": 559,
      "Ġsrp": 560,
      "nije": 561,
      "Ġfi": 562,
      "enja": 563,
      "ven": 564,
      "Ġpr": 565,
      "Ġru": 566,
      "Ġprime": 567,
      "ĠmoÅ¾e": 568,
      "skom": 569,
      "vog": 570,
      "Ġga": 571,
      "Ġosno": 572,
      "cu": 573,
      "Ġstra": 574,
      "ksi": 575,
      "bu": 576,
      "Ġbu": 577,
      "Ġslo": 578,
      "rije": 579,
      "nt": 580,
      "ĠÅ": 581,
      "Ġtu": 582,
      "Äĩu": 583,
      "logi": 584,
      "ciju": 585,
      "Äĳa": 586,
      "Ġtako": 587,
      "gle": 588,
      "âĢĵ": 589,
      "iz": 590,
      "vih": 591,
      "stva": 592,
      "Ġ200": 593,
      "nica": 594,
      "Ġ-": 595,
      "nd": 596,
      "Ġ3": 597,
      "stavlja": 598,
      "ogra": 599,
      "Ġisto": 600,
      "Äįke": 601,
      "liko": 602,
      "vor": 603,
      "Ġ201": 604,
      "he": 605,
      "Ġali": 606,
      "Ġbro": 607,
      "Å¡ti": 608,
      "Ġak": 609,
      "vima": 610,
      "Ġgodine": 611,
      "Ġbio": 612,
      "ÅĴ": 613,
      "tno": 614,
      "gla": 615,
      "Ġkra": 616,
      "Ġvla": 617,
      "Ġsrbi": 618,
      "on": 619,
      "Ġslu": 620,
      "Å¡te": 621,
      "Äįu": 622,
      "Ġuz": 623,
      "Ġistra": 624,
      "dno": 625,
      "ĠdruÅ¡t": 626,
      "pro": 627,
      "voj": 628,
      "ÄĨ": 629,
      "lika": 630,
      "hi": 631,
      "Ġfa": 632,
      "Ġsva": 633,
      "Ġcr": 634,
      "Ã¨": 635,
      "Ġze": 636,
      "vim": 637,
      "tim": 638,
      "ltu": 639,
      "Ġkri": 640,
      "nik": 641,
      "Ġjo": 642,
      "lek": 643,
      "Ġla": 644,
      "tro": 645,
      "ĠÄĩe": 646,
      "stup": 647,
      "stvo": 648,
      "nali": 649,
      "skim": 650,
      "meÄĳu": 651,
      "20": 652,
      "Ġau": 653,
      "slo": 654,
      "Ġpoliti": 655,
      "Ġnau": 656,
      "nici": 657,
      "Ġnjego": 658,
      "Ġju": 659,
      "Ġkom": 660,
      "ĠistraÅ¾i": 661,
      "hva": 662,
      "Ġova": 663,
      "Ġkako": 664,
      "al": 665,
      "Ġge": 666,
      "mena": 667,
      "nta": 668,
      "Äįno": 669,
      "ciji": 670,
      "Ġop": 671,
      "Ġobra": 672,
      "rak": 673,
      "Ġok": 674,
      "Ġci": 675,
      "vlja": 676,
      "jom": 677,
      "bra": 678,
      "dan": 679,
      "matra": 680,
      "Ãª": 681,
      "Ġor": 682,
      "Ġot": 683,
      "Ġon": 684,
      "Ġprema": 685,
      "cional": 686,
      "njem": 687,
      "Ġpla": 688,
      "Ġkori": 689,
      "ver": 690,
      "Ġfor": 691,
      "ruk": 692,
      "rod": 693,
      "sku": 694,
      "Ġlo": 695,
      "Ġlju": 696,
      "stu": 697,
      "ĠviÅ¡e": 698,
      "kon": 699,
      "âĢĿ": 700,
      "Ġkod": 701,
      "juÄĩi": 702,
      "ĠÅ¾ivo": 703,
      "Ġdrugi": 704,
      "Éļ": 705,
      "Ġgovo": 706,
      "Ġnjiho": 707,
      "klju": 708,
      "bli": 709,
      "Äįaj": 710,
      "sla": 711,
      "É¢": 712,
      "Å¡to": 713,
      "teri": 714,
      "Ġupo": 715,
      "vara": 716,
      "ĠmeÄĳu": 717,
      "vni": 718,
      "Ġkultu": 719,
      "Ġ4": 720,
      "Ġbilo": 721,
      "Ġodre": 722,
      "den": 723,
      "nice": 724,
      "ran": 725,
      "Ġposto": 726,
      "..": 727,
      "met": 728,
      "for": 729,
      "Ġpot": 730,
      "tom": 731,
      "Ġfu": 732,
      "nk": 733,
      "van": 734,
      "Ġpose": 735,
      "vali": 736,
      "tor": 737,
      "lazi": 738,
      "Ġspo": 739,
      "Ġbez": 740,
      "Ġsk": 741,
      "Ġproce": 742,
      "Ñı": 743,
      "kaza": 744,
      "cijal": 745,
      "Ġpita": 746,
      "teta": 747,
      "ĠrazliÄįi": 748,
      "ĠÉ": 749,
      "Ġdr": 750,
      "Ġdok": 751,
      "vno": 752,
      "Ġorga": 753,
      "Ġsiste": 754,
      "Ġgru": 755,
      "vaju": 756,
      "Ġvreme": 757,
      "ĠdrÅ¾a": 758,
      "ĠnaÄįi": 759,
      "ĠÅ¾": 760,
      "noviÄĩ": 761,
      "Ġsad": 762,
      "Ġn": 763,
      "Ġnema": 764,
      "Ġce": 765,
      "ĠveÄĩ": 766,
      "jedi": 767,
      "tet": 768,
      "Ġosta": 769,
      "we": 770,
      "kra": 771,
      "tar": 772,
      "Äįkog": 773,
      "Ġuti": 774,
      "spo": 775,
      "ng": 776,
      "Ġzem": 777,
      "Ġrad": 778,
      "rom": 779,
      "Ġar": 780,
      "vati": 781,
      "mati": 782,
      "skoj": 783,
      "ble": 784,
      "stitu": 785,
      "19": 786,
      "Ġide": 787,
      "Ñĭ": 788,
      "Äįka": 789,
      "Ġsto": 790,
      "Ġizra": 791,
      "rio": 792,
      "koviÄĩ": 793,
      "Äįkih": 794,
      "vanju": 795,
      "sle": 796,
      "Ġposle": 797,
      "spe": 798,
      "Ġpove": 799,
      "Ġpredstavlja": 800,
      "ÑĮ": 801,
      "Ġime": 802,
      "jek": 803,
      "vodi": 804,
      "ĠizmeÄĳu": 805,
      "Ġvred": 806,
      "joj": 807,
      "ĠÅĵ": 808,
      "vlje": 809,
      "lta": 810,
      "sni": 811,
      "Ġradi": 812,
      "Ġbiti": 813,
      "Ġveli": 814,
      "Ġtreba": 815,
      "Ġ199": 816,
      "Ġkada": 817,
      "ĠÅ¾e": 818,
      "ter": 819,
      "Ġ5": 820,
      "kazu": 821,
      "ĠuÄįe": 822,
      "Ġbeogra": 823,
      "Ġpret": 824,
      "vreme": 825,
      "Ġek": 826,
      "co": 827,
      "rti": 828,
      "Äįne": 829,
      "vede": 830,
      "log": 831,
      "Ġ/": 832,
      "Ġanali": 833,
      "Ġim": 834,
      "dar": 835,
      "Ġodgo": 836,
      "Ġhe": 837,
      "Ġglago": 838,
      "kre": 839,
      "Ġbroj": 840,
      "rt": 841,
      "Å¡Äĩe": 842,
      "Ġispi": 843,
      ".,": 844,
      "ren": 845,
      "ĠÄįa": 846,
      "ali": 847,
      "Ġzaje": 848,
      "Ġbila": 849,
      "Ġmate": 850,
      "tek": 851,
      "Ġpoja": 852,
      "Ġal": 853,
      "in": 854,
      "tak": 855,
      "ÉŁ": 856,
      "redi": 857,
      "Ġinter": 858,
      "É¨": 859,
      "00": 860,
      "cen": 861,
      "Ġsmo": 862,
      "pr": 863,
      "rij": 864,
      "Ġoko": 865,
      "niji": 866,
      "Äĳi": 867,
      "bno": 868,
      "rima": 869,
      "Ġupotre": 870,
      "Ġoso": 871,
      "Ġona": 872,
      "Ġjedi": 873,
      "lne": 874,
      "niza": 875,
      "Ġtri": 876,
      "ĠÅ¡i": 877,
      "Ġknji": 878,
      "tih": 879,
      "Ġnasta": 880,
      "vod": 881,
      "Ġkarak": 882,
      "Ġmode": 883,
      "vne": 884,
      "kog": 885,
      "ĠdruÅ¡tve": 886,
      "bro": 887,
      "Ġri": 888,
      "Ġhi": 889,
      "ĠreÄį": 890,
      "fika": 891,
      "rek": 892,
      "Ġproiz": 893,
      "Ġobli": 894,
      "cima": 895,
      "ove": 896,
      "Ġdva": 897,
      "Ġmora": 898,
      "lno": 899,
      "slu": 900,
      "zulta": 901,
      "Ġprosto": 902,
      "op": 903,
      "bog": 904,
      "Ġkojima": 905,
      "Ġodnosno": 906,
      "ĠznaÄįaj": 907,
      "nima": 908,
      "tri": 909,
      "Ġste": 910,
      "Ġtek": 911,
      "É¢É": 912,
      "wa": 913,
      "âĢľ,": 914,
      "Ġproble": 915,
      "Ġgodina": 916,
      "kri": 917,
      ");": 918,
      "Ġfunk": 919,
      "Ġteo": 920,
      "Ġmuzi": 921,
      "loÅ¡ki": 922,
      "Ġpotre": 923,
      "mina": 924,
      "Ġsla": 925,
      "Ġsam": 926,
      "Ġjer": 927,
      "Ġdana": 928,
      "kve": 929,
      "Ġand": 930,
      "kti": 931,
      "man": 932,
      "lan": 933,
      "fa": 934,
      "Ġdela": 935,
      "ruktu": 936,
      "Ġdobi": 937,
      "Ġpojedi": 938,
      "Ġ6": 939,
      "Ġet": 940,
      "tori": 941,
      "ĠI": 942,
      "bor": 943,
      "od": 944,
      "Ġper": 945,
      "Ġsli": 946,
      "Ġoba": 947,
      "Ġuslo": 948,
      "Ġzajedni": 949,
      "lom": 950,
      "Ġdrugo": 951,
      "Ġisti": 952,
      "Ġpoda": 953,
      "Ġnego": 954,
      "ĠÅł": 955,
      "Ġkla": 956,
      "fo": 957,
      "vije": 958,
      "Ġr": 959,
      "Ġutica": 960,
      "ako": 961,
      "kup": 962,
      "Ġono": 963,
      "Ġstu": 964,
      "ĠnaÄįin": 965,
      "denti": 966,
      "Ġki": 967,
      "Ġinstitu": 968,
      "Ġupra": 969,
      "tora": 970,
      "Ġtoga": 971,
      "Ġsred": 972,
      "zova": 973,
      "loga": 974,
      "sve": 975,
      "Ġpozi": 976,
      "Ġneko": 977,
      "Ġaktiv": 978,
      "ĠU": 979,
      "Ġrezulta": 980,
      "Ġobe": 981,
      "rati": 982,
      "Äįnih": 983,
      "Ġvu": 984,
      "ĠjoÅ¡": 985,
      "Ġspe": 986,
      "jem": 987,
      "Ġsmi": 988,
      "Åł": 989,
      "Ġkre": 990,
      "ĠistraÅ¾ivanja": 991,
      "Ġfilo": 992,
      "Ġstrane": 993,
      "forma": 994,
      "ĠÄįu": 995,
      "ĠÅ¡ko": 996,
      "Äįni": 997,
      "Ġjezika": 998,
      "menta": 999,
      "roz": 1000,
      "Ã¦": 1001,
      "ĠÅ¡ta": 1002,
      "tera": 1003,
      "Ġokvi": 1004,
      "sli": 1005,
      "Ġove": 1006,
      "Ġgu": 1007,
      "Ġobja": 1008,
      "nija": 1009,
      "Ġjedan": 1010,
      "Ġposta": 1011,
      "ns": 1012,
      "Ġrado": 1013,
      "Ġmaterija": 1014,
      "menu": 1015,
      "ĠreÄįi": 1016,
      "Ġosnovu": 1017,
      "Ġtome": 1018,
      "Ġsrbije": 1019,
      "Ġdruge": 1020,
      "Å¡u": 1021,
      "pada": 1022,
      "vat": 1023,
      "rno": 1024,
      "pisa": 1025,
      "Ġca": 1026,
      "ĠodreÄĳe": 1027,
      "Ġcen": 1028,
      "qu": 1029,
      "Ġha": 1030,
      "Ġbr": 1031,
      "Ġfe": 1032,
      "Ġho": 1033,
      "dra": 1034,
      "rodi": 1035,
      "Ð¹": 1036,
      "dne": 1037,
      "Ġfo": 1038,
      "Ġ18": 1039,
      "ĠpoÄįe": 1040,
      "Ġperio": 1041,
      "rne": 1042,
      "10": 1043,
      "Ġmeto": 1044,
      "vija": 1045,
      "kla": 1046,
      "mira": 1047,
      "vnog": 1048,
      "Ġteh": 1049,
      "Ġof": 1050,
      "Ġpara": 1051,
      "vao": 1052,
      "Ġdelo": 1053,
      "Ġtr": 1054,
      "cep": 1055,
      "Ġovom": 1056,
      "stve": 1057,
      "Ġsti": 1058,
      "Ġnisu": 1059,
      "Ġdija": 1060,
      "manti": 1061,
      "vro": 1062,
      "Å¾no": 1063,
      "enju": 1064,
      "tima": 1065,
      "Ġzbog": 1066,
      "É¨É": 1067,
      "Ġl": 1068,
      "Ġuni": 1069,
      "Ġiza": 1070,
      "Ġtaj": 1071,
      "Ġstruktu": 1072,
      "Å¾u": 1073,
      "Äįenja": 1074,
      "Ġmla": 1075,
      "Ġsmatra": 1076,
      "Äįkim": 1077,
      "Äįkom": 1078,
      "Ġeko": 1079,
      "Ġsvoje": 1080,
      "Ġpopu": 1081,
      "ÉļÉ": 1082,
      "kat": 1083,
      "ĠsluÄįa": 1084,
      "Ġkarakteri": 1085,
      "Ġnaro": 1086,
      "gre": 1087,
      "Ġovog": 1088,
      "vrÅ¡i": 1089,
      "Ġneki": 1090,
      "gleda": 1091,
      "kova": 1092,
      "ova": 1093,
      "Ġuve": 1094,
      "Ç¤": 1095,
      "Å¡nje": 1096,
      "nova": 1097,
      "nci": 1098,
      "Ġidenti": 1099,
      "Ġ7": 1100,
      "Ġnepo": 1101,
      "kle": 1102,
      "ĠznaÄįe": 1103,
      "Ġx": 1104,
      "vnom": 1105,
      "stru": 1106,
      "Ġnivo": 1107,
      "tvr": 1108,
      "ch": 1109,
      "Ç¤Ç¤": 1110,
      "tne": 1111,
      "sloven": 1112,
      "vnih": 1113,
      "Ġvrednosti": 1114,
      "Ġjugo": 1115,
      "Ġan": 1116,
      "rs": 1117,
      "Ġ198": 1118,
      "zma": 1119,
      "liza": 1120,
      "Å¡ko": 1121,
      "dna": 1122,
      "Ġobla": 1123,
      "ĠveÄĩi": 1124,
      "Ġsvr": 1125,
      "Äįnog": 1126,
      "Ġgene": 1127,
      "rni": 1128,
      "Ġkroz": 1129,
      "Ġobrazo": 1130,
      "Ġobi": 1131,
      "dru": 1132,
      "Ġsvet": 1133,
      "tivno": 1134,
      "Ġako": 1135,
      "Ġvoj": 1136,
      "rna": 1137,
      "ĠM": 1138,
      "ndar": 1139,
      "tka": 1140,
      "fini": 1141,
      "ĠâĢĺ": 1142,
      "lni": 1143,
      "Ġodnosu": 1144,
      "stupa": 1145,
      "Ġele": 1146,
      "nski": 1147,
      "novi": 1148,
      "Ġsredi": 1149,
      "hvata": 1150,
      "Ġleksi": 1151,
      "Ġsle": 1152,
      "dom": 1153,
      "Ġstva": 1154,
      "Ġtokom": 1155,
      "Äįna": 1156,
      "Ġbra": 1157,
      "Ġtom": 1158,
      "mogu": 1159,
      "18": 1160,
      "lnih": 1161,
      "bri": 1162,
      "Ġrazvo": 1163,
      "smo": 1164,
      "lija": 1165,
      "Ġrada": 1166,
      "vla": 1167,
      "ĠsadrÅ¾a": 1168,
      "wi": 1169,
      "Ġ8": 1170,
      "pera": 1171,
      "Ġen": 1172,
      "kazuje": 1173,
      "Ġdeo": 1174,
      "Ġpona": 1175,
      "ĠzaÅ¡ti": 1176,
      "Ġljudi": 1177,
      "Ġevro": 1178,
      "tivne": 1179,
      "Ġter": 1180,
      "Ġmar": 1181,
      "Ġimaju": 1182,
      "kva": 1183,
      "Ġbudu": 1184,
      "lna": 1185,
      "Ġveka": 1186,
      "ten": 1187,
      "tako": 1188,
      "Ġnu": 1189,
      "Ã¥": 1190,
      "nske": 1191,
      "Ġdemo": 1192,
      "lnog": 1193,
      "Ġpomo": 1194,
      "kao": 1195,
      "...": 1196,
      "cijama": 1197,
      "Ġplo": 1198,
      "tion": 1199,
      "tiva": 1200,
      "ljo": 1201,
      "rova": 1202,
      "zira": 1203,
      "struk": 1204,
      "ĠÄįove": 1205,
      "Ġzemlji": 1206,
      "Ġparti": 1207,
      "Ġovaj": 1208,
      "Ġstru": 1209,
      "per": 1210,
      "Ġbeograd": 1211,
      "volj": 1212,
      "cijom": 1213,
      "ona": 1214,
      "nogo": 1215,
      "11": 1216,
      "Äįan": 1217,
      "Ġloka": 1218,
      "dija": 1219,
      "Ġsvoj": 1220,
      "Ġkoju": 1221,
      "Ġ15": 1222,
      "razu": 1223,
      "Ġbili": 1224,
      "âĢľ.": 1225,
      "Ġoni": 1226,
      "Ġkomu": 1227,
      "Ġ10": 1228,
      "ĠÎ": 1229,
      "stvu": 1230,
      "Ġgde": 1231,
      "Å¡ka": 1232,
      "Ġrazu": 1233,
      "Ġsrbiji": 1234,
      "mene": 1235,
      "Ġizvo": 1236,
      "Ġsavreme": 1237,
      "ÉŁÉ": 1238,
      "nosi": 1239,
      "zima": 1240,
      "vna": 1241,
      "tni": 1242,
      "sne": 1243,
      "ii": 1244,
      "ĠsÃª": 1245,
      "om": 1246,
      "Ġ9": 1247,
      "qa": 1248,
      "Ġsvi": 1249,
      "kako": 1250,
      "Ġumet": 1251,
      "Ġorganiza": 1252,
      "Ġsup": 1253,
      "kro": 1254,
      "Ġjedna": 1255,
      "Ġsara": 1256,
      "taka": 1257,
      "Ġtradi": 1258,
      "Ġprisu": 1259,
      "Ġkvali": 1260,
      "riti": 1261,
      "Ġnacional": 1262,
      "Ġslobo": 1263,
      "Ġsvoji": 1264,
      "14": 1265,
      "ĠmoguÄĩ": 1266,
      "ĠtakoÄĳe": 1267,
      "Ġkompo": 1268,
      "rsa": 1269,
      "logije": 1270,
      "Ġdve": 1271,
      "ĠneÅ¡to": 1272,
      "pli": 1273,
      "verzi": 1274,
      "Ġzako": 1275,
      "Ġdece": 1276,
      "Ġpravi": 1277,
      "an": 1278,
      "Ġovo": 1279,
      "Ġsocijal": 1280,
      "vore": 1281,
      "Ġpokaza": 1282,
      "Ġniko": 1283,
      "Ġfilozo": 1284,
      "tua": 1285,
      "Ñŀ": 1286,
      "Ġkr": 1287,
      "stavlje": 1288,
      "Ġsemanti": 1289,
      "Ġlu": 1290,
      "Ġviso": 1291,
      "Ġproizvod": 1292,
      "13": 1293,
      "Ġras": 1294,
      "mat": 1295,
      "Ġnad": 1296,
      "ment": 1297,
      "Ġnakon": 1298,
      "Ġstvara": 1299,
      "Ġpotvr": 1300,
      "Ġdefini": 1301,
      "Ġone": 1302,
      "Ã°": 1303,
      "Ġnarod": 1304,
      "âĢŀ": 1305,
      "oma": 1306,
      "vanjem": 1307,
      "ljivo": 1308,
      "Ġposebno": 1309,
      "Ġzavi": 1310,
      "Ġindi": 1311,
      "Ġkarakteristi": 1312,
      "Ġih": 1313,
      "Ġostva": 1314,
      "viti": 1315,
      "Ġpravo": 1316,
      "Äįiti": 1317,
      "Ġoblasti": 1318,
      "Ġsna": 1319,
      "gen": 1320,
      "12": 1321,
      "kse": 1322,
      "ĠÄįla": 1323,
      "Ġmeta": 1324,
      "Ġcrkve": 1325,
      "Ġjedno": 1326,
      "Ġkate": 1327,
      "njima": 1328,
      "logija": 1329,
      "Ġobu": 1330,
      "ĠS": 1331,
      "Ġuo": 1332,
      "15": 1333,
      "Ġsave": 1334,
      "Ġizve": 1335,
      "ar": 1336,
      "Ġ16": 1337,
      "Ġpreko": 1338,
      "Ã©": 1339,
      "ranje": 1340,
      "Ġkojoj": 1341,
      "Ġokviru": 1342,
      "Ġradu": 1343,
      "Ġkontek": 1344,
      "Å¾be": 1345,
      "Ġunu": 1346,
      "Ġjezik": 1347,
      "tan": 1348,
      "Ġnazi": 1349,
      "Ġjeziku": 1350,
      "Ġpozna": 1351,
      "Äįku": 1352,
      "16": 1353,
      "Ġnas": 1354,
      "Ġtak": 1355,
      "Ġprava": 1356,
      "tna": 1357,
      "Ġkad": 1358,
      "Ã£": 1359,
      "Ġkome": 1360,
      "ĠÅ¡e": 1361,
      "Ġpolo": 1362,
      "kada": 1363,
      "Ġrazvoj": 1364,
      "viÅ¡e": 1365,
      "Ġprogra": 1366,
      "vred": 1367,
      "nte": 1368,
      "Ġnovi": 1369,
      "hu": 1370,
      "vre": 1371,
      "kul": 1372,
      "Ġad": 1373,
      "Ġdrugih": 1374,
      "Ġov": 1375,
      "Ġtim": 1376,
      "Ġos": 1377,
      "gli": 1378,
      "uz": 1379,
      "stava": 1380,
      "Ġnase": 1381,
      "Ġ197": 1382,
      "Ġkoncep": 1383,
      "Ġsme": 1384,
      "vana": 1385,
      "Ġodlu": 1386,
      "jan": 1387,
      "Ġzaklju": 1388,
      "cioni": 1389,
      "raz": 1390,
      "telj": 1391,
      "Å¡nji": 1392,
      "uze": 1393,
      "Ġpostoji": 1394,
      "Ġinforma": 1395,
      "Ġvezi": 1396,
      "pla": 1397,
      "Ġnastav": 1398,
      "klo": 1399,
      "lka": 1400,
      "Ġprili": 1401,
      "bora": 1402,
      "Ġvarija": 1403,
      "Î½": 1404,
      "ĠÄįini": 1405,
      "Ġintere": 1406,
      "Ġsmislu": 1407,
      "nskog": 1408,
      "Å¡lo": 1409,
      "com": 1410,
      "Ġnalazi": 1411,
      "Ġkoristi": 1412,
      "vani": 1413,
      "17": 1414,
      "zen": 1415,
      "vala": 1416,
      "nzi": 1417,
      "Ġnavede": 1418,
      "Ġsistema": 1419,
      "Ġuklju": 1420,
      "Ġrepu": 1421,
      "Ġveliki": 1422,
      "Ġpotpu": 1423,
      "Ġstano": 1424,
      "Ġvode": 1425,
      "Ġispo": 1426,
      "nj": 1427,
      "laze": 1428,
      "vine": 1429,
      "niÄĩ": 1430,
      "sao": 1431,
      "Ġmedi": 1432,
      "Ġregi": 1433,
      "Ġvrsta": 1434,
      "Ġbogo": 1435,
      "Ġkatego": 1436,
      "Éª": 1437,
      "ner": 1438,
      "Ġporodi": 1439,
      "meni": 1440,
      "mije": 1441,
      "Ġdobro": 1442,
      "diti": 1443,
      "ĠA": 1444,
      "Ġveoma": 1445,
      "ÏĦ": 1446,
      "Ġutvr": 1447,
      "Ġpitanje": 1448,
      "Ġsitua": 1449,
      "Äįkoj": 1450,
      "Ġglagol": 1451,
      "Äįnim": 1452,
      "kata": 1453,
      "Ġsub": 1454,
      "is": 1455,
      "riji": 1456,
      "Ġkru": 1457,
      "Ġpretho": 1458,
      "ĠnaÅ¡e": 1459,
      "bina": 1460,
      "Ġdemokra": 1461,
      "Ġ13": 1462,
      "Ġprimer": 1463,
      "ĠistraÅ¾iva": 1464,
      "pis": 1465,
      "Ġispita": 1466,
      "Î±": 1467,
      "janje": 1468,
      "Ġaktivnosti": 1469,
      "pak": 1470,
      "rta": 1471,
      "govo": 1472,
      "Ġeks": 1473,
      "Ġusta": 1474,
      "Ġkonstruk": 1475,
      "Ġgr": 1476,
      "sob": 1477,
      "naj": 1478,
      "Äĳenje": 1479,
      "snosti": 1480,
      "Ġvlada": 1481,
      "tku": 1482,
      "Ġver": 1483,
      "vio": 1484,
      "Ġpostoje": 1485,
      "tog": 1486,
      "Ġreali": 1487,
      "gar": 1488,
      "Äįnosti": 1489,
      "fek": 1490,
      "tem": 1491,
      "stro": 1492,
      "Ġdoma": 1493,
      "ĠuÄįi": 1494,
      "Ġkriti": 1495,
      "tt": 1496,
      "Ġformira": 1497,
      "mom": 1498,
      "Ġ17": 1499,
      "ksa": 1500,
      "Ġprotiv": 1501,
      "pad": 1502,
      "Å¡lje": 1503,
      "Ġ*": 1504,
      "Äĳenja": 1505,
      "Ġpoj": 1506,
      "prema": 1507,
      "Ġdoda": 1508,
      "ĠknjiÅ¾e": 1509,
      "Ġode": 1510,
      "tivnih": 1511,
      "Ġpriro": 1512,
      "Ġzi": 1513,
      "Ġzapo": 1514,
      "Ġnedo": 1515,
      "Ġtehno": 1516,
      "vje": 1517,
      "Ġposmatra": 1518,
      "Ġ\"": 1519,
      "Ġulo": 1520,
      "narod": 1521,
      "ĠpovrÅ¡i": 1522,
      "ĠÂ": 1523,
      "sna": 1524,
      "kade": 1525,
      "ligi": 1526,
      "Ġanti": 1527,
      "Ġvidi": 1528,
      "Ġbude": 1529,
      "Ġvre": 1530,
      "razume": 1531,
      "Ġobzi": 1532,
      "Äĳen": 1533,
      "Ġljud": 1534,
      "Ġdrugim": 1535,
      "«É": 1536,
      "Å¡o": 1537,
      "Ġsvega": 1538,
      "tira": 1539,
      "ww": 1540,
      "Ġvlasti": 1541,
      "Ġdra": 1542,
      "Ġzdra": 1543,
      "Ġdanas": 1544,
      "Ġodnosi": 1545,
      "kazuju": 1546,
      "Ġskup": 1547,
      "Î¿": 1548,
      "Ġozna": 1549,
      "Ġuspe": 1550,
      "Ġveza": 1551,
      "Ġkontro": 1552,
      "Ġizda": 1553,
      "Å¡Äĩu": 1554,
      "Ġsada": 1555,
      "kav": 1556,
      "Ġ,": 1557,
      "Ġnajve": 1558,
      "Ġbilj": 1559,
      "Ġ:": 1560,
      "Ġmalo": 1561,
      "lnosti": 1562,
      "Ġgi": 1563,
      "Ġtipa": 1564,
      "Ġnes": 1565,
      "nata": 1566,
      "Ġtrans": 1567,
      "Ġomogu": 1568,
      "Ġose": 1569,
      "rma": 1570,
      "tivni": 1571,
      "nos": 1572,
      "ljopri": 1573,
      "feren": 1574,
      "ĠÅ¾ivota": 1575,
      "Ġsko": 1576,
      "vac": 1577,
      "plo": 1578,
      "Ġtem": 1579,
      "san": 1580,
      "onal": 1581,
      "Ġsma": 1582,
      "Ġnosi": 1583,
      "dese": 1584,
      "Å¾an": 1585,
      "ĠrazliÄįitih": 1586,
      "Ġpretpo": 1587,
      "Ġprepo": 1588,
      "lima": 1589,
      "Ġthe": 1590,
      "ĠponaÅ¡a": 1591,
      "á½": 1592,
      "nuti": 1593,
      "ĠpoveÄĩa": 1594,
      "Ġovih": 1595,
      "Ġdalje": 1596,
      "mini": 1597,
      "Ġfakul": 1598,
      "Ġgovori": 1599,
      "Ġ12": 1600,
      "Ġgrupa": 1601,
      "nama": 1602,
      "Ġoblika": 1603,
      "Ġdelu": 1604,
      "Ġsvih": 1605,
      "Ñİ": 1606,
      "ĠâĢĻ": 1607,
      "glo": 1608,
      "ĠÄįesto": 1609,
      "Ġodgovara": 1610,
      "ĠvaÅ¾": 1611,
      "Ġpoljopri": 1612,
      "govor": 1613,
      "Ġstr": 1614,
      "pred": 1615,
      "ĠÅ¾ivot": 1616,
      "grani": 1617,
      "Ġbile": 1618,
      "Ġzah": 1619,
      "gro": 1620,
      "Ġorgani": 1621,
      "Ġmnogo": 1622,
      "janja": 1623,
      "Ġ14": 1624,
      "Ġvide": 1625,
      "Ġkomunika": 1626,
      "ime": 1627,
      "oni": 1628,
      "voje": 1629,
      "koliko": 1630,
      "rot": 1631,
      "Ġgrupe": 1632,
      "Ġspeci": 1633,
      "Ġpored": 1634,
      "Ġizo": 1635,
      "Ġdruga": 1636,
      "Ġslede": 1637,
      "tivna": 1638,
      "Ġonda": 1639,
      "Ġneo": 1640,
      "sim": 1641,
      "Ġhra": 1642,
      "Ġuspo": 1643,
      "tual": 1644,
      "lago": 1645,
      "Ġtj": 1646,
      "Ġsrpskog": 1647,
      "ĠÄįita": 1648,
      "jske": 1649,
      "Ġneu": 1650,
      "gao": 1651,
      "Ġpopula": 1652,
      "Ġpoli": 1653,
      "Ġpokre": 1654,
      "Ġakade": 1655,
      "dio": 1656,
      "Ġbibli": 1657,
      "Ġvremena": 1658,
      "Ġauto": 1659,
      "Ġsek": 1660,
      "Ġsre": 1661,
      "ĠÅ¡u": 1662,
      "vnosti": 1663,
      "Ġnekoliko": 1664,
      "Ġrazliku": 1665,
      "Êģ": 1666,
      "jima": 1667,
      "Å¡nja": 1668,
      "Ġjeste": 1669,
      "Ġrazvoja": 1670,
      "Ġsistem": 1671,
      "Ġpore": 1672,
      "Ġsrpske": 1673,
      "Ġbeogradu": 1674,
      "ĠsluÄįaju": 1675,
      "Ġap": 1676,
      "Ġbilja": 1677,
      "22": 1678,
      "meÄĳutim": 1679,
      "Ġprofe": 1680,
      "isto": 1681,
      "nskih": 1682,
      "ts": 1683,
      "listi": 1684,
      "Ġprvi": 1685,
      "nicima": 1686,
      "Ġneza": 1687,
      "Ġuvek": 1688,
      "ak": 1689,
      "Ġrepubli": 1690,
      "Ġrela": 1691,
      "Ġsvako": 1692,
      "Ġpogle": 1693,
      "Ġnapo": 1694,
      "som": 1695,
      "meta": 1696,
      "Å¡tva": 1697,
      "Ġodgovor": 1698,
      "Ġpodrazume": 1699,
      "Äįava": 1700,
      "Ġkrivi": 1701,
      "zuje": 1702,
      "lnim": 1703,
      "zam": 1704,
      "ĠB": 1705,
      "Ġtvr": 1706,
      "loÅ¡ke": 1707,
      "Ġreligi": 1708,
      "Ġarhi": 1709,
      "Ġposve": 1710,
      "tko": 1711,
      "visti": 1712,
      "Ġsar": 1713,
      "Ġprinci": 1714,
      "Ġsl": 1715,
      "nka": 1716,
      "lnom": 1717,
      "Ġizd": 1718,
      "Ġtoj": 1719,
      "sr": 1720,
      "ĠdruÅ¡tva": 1721,
      "ÉŃ": 1722,
      "Ġupu": 1723,
      "tetu": 1724,
      "br": 1725,
      "viÄĩa": 1726,
      "Ġvrste": 1727,
      "Ġzahte": 1728,
      "Ġbli": 1729,
      "200": 1730,
      "nar": 1731,
      "Ġgovora": 1732,
      "Ġkore": 1733,
      "vode": 1734,
      "dije": 1735,
      "Äĳuje": 1736,
      "Ġrazume": 1737,
      "star": 1738,
      "Ġsim": 1739,
      "es": 1740,
      "ĠreÄįe": 1741,
      "Ġgovor": 1742,
      "Ġfizi": 1743,
      "sije": 1744,
      "Ġpoten": 1745,
      "vnim": 1746,
      "ranja": 1747,
      "kr": 1748,
      "Ġraspo": 1749,
      "Ġobave": 1750,
      "lina": 1751,
      "Ġpar": 1752,
      "ĠgraÄĳa": 1753,
      "fije": 1754,
      "Ġporek": 1755,
      "ĠÄįinje": 1756,
      "Ġglagola": 1757,
      "stri": 1758,
      "ture": 1759,
      "Ġekonom": 1760,
      "Ġher": 1761,
      "mere": 1762,
      "bar": 1763,
      "Ġ196": 1764,
      "rÅ¾i": 1765,
      "Ġpru": 1766,
      "ĠznaÄįa": 1767,
      "sam": 1768,
      "Ġposeb": 1769,
      "Ġdopri": 1770,
      "Ġpodru": 1771,
      "menata": 1772,
      "Ġupravo": 1773,
      "Å¾en": 1774,
      "Ġposledi": 1775,
      "Ġple": 1776,
      "Ġpodataka": 1777,
      "raju": 1778,
      "Ġbezbe": 1779,
      "ple": 1780,
      "Ġpripada": 1781,
      "ĠÄĳ": 1782,
      "Ġisku": 1783,
      "ĠkaÅ¾e": 1784,
      "Ġspecifi": 1785,
      "titi": 1786,
      "Ġskla": 1787,
      "ĠÄįak": 1788,
      "kih": 1789,
      "vale": 1790,
      "Ġcentra": 1791,
      "riÅ¡": 1792,
      "lije": 1793,
      "tnih": 1794,
      "Ġpomenu": 1795,
      "ks": 1796,
      "Ġpitanja": 1797,
      "ĠdrÅ¾ave": 1798,
      "Ġnove": 1799,
      "Ġfak": 1800,
      "Ġpride": 1801,
      "snije": 1802,
      "Ġevrop": 1803,
      "Ġveliko": 1804,
      "Ġstandar": 1805,
      "Ġkulture": 1806,
      "godi": 1807,
      "tura": 1808,
      "Ġugla": 1809,
      "Ġput": 1810,
      "Ġideo": 1811,
      "ÄįeÅ¡Äĩe": 1812,
      "Ġdvo": 1813,
      "mje": 1814,
      "Ġjednom": 1815,
      "Ġoda": 1816,
      "td": 1817,
      "Ġco": 1818,
      "Ġpsi": 1819,
      "rnog": 1820,
      "Ġposti": 1821,
      "meri": 1822,
      "Ġprikaza": 1823,
      "qe": 1824,
      "zacije": 1825,
      "ĠÄįemu": 1826,
      "Ġperiodu": 1827,
      "È»": 1828,
      "ĠÅ¡a": 1829,
      "kama": 1830,
      "Å¡ke": 1831,
      "Ġspro": 1832,
      "im": 1833,
      "vanoviÄĩ": 1834,
      "um": 1835,
      "Ġosoba": 1836,
      "Ġkoli": 1837,
      "Ġvra": 1838,
      "nat": 1839,
      "Ġnjih": 1840,
      "vina": 1841,
      "us": 1842,
      "Ġkojih": 1843,
      "blje": 1844,
      "Ġjedne": 1845,
      "pisu": 1846,
      "Ġnega": 1847,
      "ĠpaÅ¾": 1848,
      "Ġvidu": 1849,
      "Ġoblik": 1850,
      "jski": 1851,
      "risti": 1852,
      "Ġmnog": 1853,
      "21": 1854,
      "zija": 1855,
      "Ġlekse": 1856,
      "Ç¤Ç¤Ç¤Ç¤": 1857,
      "Ġtro": 1858,
      "tivnog": 1859,
      "Ġzada": 1860,
      "É§": 1861,
      "mima": 1862,
      "Ġsloven": 1863,
      "ima": 1864,
      "Å¡enja": 1865,
      "Ġsvojim": 1866,
      "Ġodnosa": 1867,
      "Ġmeri": 1868,
      "Ġforma": 1869,
      "sima": 1870,
      "Ġmikro": 1871,
      "Äįnom": 1872,
      "Î¹": 1873,
      "Ġmanje": 1874,
      "ĠmoguÄĩe": 1875,
      "Ġistorij": 1876,
      "ĠodrÅ¾a": 1877,
      "duk": 1878,
      "Ġ0": 1879,
      "renja": 1880,
      "Ġdisku": 1881,
      "Ġpoveza": 1882,
      "Ġdobije": 1883,
      "Ġprojek": 1884,
      "snost": 1885,
      "Ġw": 1886,
      "jeva": 1887,
      "Ġboga": 1888,
      "ĠpoÅ¡to": 1889,
      "ĠznaÄįenja": 1890,
      "bele": 1891,
      "mpa": 1892,
      "Ġjednog": 1893,
      "opho": 1894,
      "Ġpojedina": 1895,
      "tivi": 1896,
      "Ġsocio": 1897,
      "Ġjugosla": 1898,
      "vidu": 1899,
      "Ġfran": 1900,
      "Ã¨i": 1901,
      "Ġuniverzi": 1902,
      "Ġneka": 1903,
      "Ġsvim": 1904,
      "Ġpisa": 1905,
      "rov": 1906,
      "Éī": 1907,
      "net": 1908,
      "hra": 1909,
      "Ġograni": 1910,
      "laga": 1911,
      "Ġaspe": 1912,
      "Ġbroja": 1913,
      "Ġodnos": 1914,
      "Ġneke": 1915,
      "Ġkar": 1916,
      "telja": 1917,
      "Ġdirek": 1918,
      "Ġelek": 1919,
      "Ġuticaj": 1920,
      "Ġmilo": 1921,
      "Ġslika": 1922,
      "rnih": 1923,
      "sor": 1924,
      "Äįen": 1925,
      "sija": 1926,
      "Ġprav": 1927,
      "zni": 1928,
      "fu": 1929,
      "Ġdoga": 1930,
      "Ġdolazi": 1931,
      "Äįito": 1932,
      "stan": 1933,
      "Ġsinta": 1934,
      "ĠmeÄĳunarod": 1935,
      "Ġispiti": 1936,
      "50": 1937,
      "dnje": 1938,
      "Äĩem": 1939,
      "Ġmesto": 1940,
      "Ġukup": 1941,
      "fija": 1942,
      "lim": 1943,
      "Ġjavlja": 1944,
      "Ġprirod": 1945,
      "vrÅ¡e": 1946,
      "Ġtuma": 1947,
      "Ġstaro": 1948,
      "Ġpromene": 1949,
      "Ġklasi": 1950,
      "dnog": 1951,
      "riju": 1952,
      "Å¾enje": 1953,
      "Ġprima": 1954,
      "lih": 1955,
      "ber": 1956,
      "Äĳena": 1957,
      "jedna": 1958,
      "Ġiako": 1959,
      "Ġup": 1960,
      "Ġgenera": 1961,
      "kovi": 1962,
      "Å¡tu": 1963,
      "ĠV": 1964,
      "Ġstanovni": 1965,
      "Ġdes": 1966,
      "ĠdrÅ¾ava": 1967,
      "Ġrodi": 1968,
      "volu": 1969,
      "lnost": 1970,
      "sred": 1971,
      "Ġneopho": 1972,
      "Ġdis": 1973,
      "rvat": 1974,
      "Ã¢": 1975,
      "23": 1976,
      "Ġpreda": 1977,
      "zije": 1978,
      "Å¡ava": 1979,
      "á¼": 1980,
      "bela": 1981,
      "Ġmini": 1982,
      "njo": 1983,
      "opÅ¡te": 1984,
      "Ġpoku": 1985,
      "Ġtur": 1986,
      "ĠmiÅ¡lje": 1987,
      "Ġprote": 1988,
      "prav": 1989,
      "para": 1990,
      "ur": 1991,
      "Ġnivou": 1992,
      "dnji": 1993,
      "Ġtempera": 1994,
      "Ġgle": 1995,
      "Ġzapa": 1996,
      "Ġpristup": 1997,
      "Ġobjek": 1998,
      "Ġnaselja": 1999,
      "Ġmeha": 2000,
      "ĠO": 2001,
      "ĠL": 2002,
      "nogra": 2003,
      "vremeno": 2004,
      "Ġproces": 2005,
      "tke": 2006,
      "kula": 2007,
      "Ġposlo": 2008,
      "Ġcon": 2009,
      "Ġbole": 2010,
      "Ġepi": 2011,
      "Ġsrpski": 2012,
      "vaja": 2013,
      "gije": 2014,
      "ÄįiÄĩ": 2015,
      "Ġspa": 2016,
      "Ġstepe": 2017,
      "nak": 2018,
      "Ġteme": 2019,
      "Ġnavodi": 2020,
      "Ġputa": 2021,
      "zbe": 2022,
      "Ġsor": 2023,
      "Ġgre": 2024,
      "Ġsveta": 2025,
      "kazi": 2026,
      "ĠâĢĶ": 2027,
      "Ġprvo": 2028,
      "Ġopa": 2029,
      "nska": 2030,
      "vra": 2031,
      "pozi": 2032,
      "Ġfeno": 2033,
      "tr": 2034,
      "ograf": 2035,
      "ĠteÅ¡ko": 2036,
      "ĠpodruÄį": 2037,
      "Ġkompone": 2038,
      "ntro": 2039,
      "ĠD": 2040,
      "Ġautor": 2041,
      "line": 2042,
      "Ġname": 2043,
      "Ġnam": 2044,
      "Ġtog": 2045,
      "Ġspre": 2046,
      "Ġprija": 2047,
      "kov": 2048,
      "Ġsrpskom": 2049,
      "Ġfra": 2050,
      "Ġnjima": 2051,
      "vlju": 2052,
      "uÄįa": 2053,
      "kim": 2054,
      "Ã¡": 2055,
      "ĠP": 2056,
      "ĠkoriÅ¡Äĩe": 2057,
      "ll": 2058,
      "tur": 2059,
      "nicu": 2060,
      "Ġokru": 2061,
      "Ġobele": 2062,
      "Ġsm": 2063,
      "ĠopÅ¡ti": 2064,
      "kvi": 2065,
      "ĠznaÄįenje": 2066,
      "ĠoÄįe": 2067,
      "Ġitd": 2068,
      "dova": 2069,
      "Å¾da": 2070,
      "Ġkontekstu": 2071,
      "gnu": 2072,
      "Ġglo": 2073,
      "ĠnajÄįeÅ¡Äĩe": 2074,
      "tisti": 2075,
      "ĠrazliÄįitim": 2076,
      "Ġtermi": 2077,
      "Ġstrate": 2078,
      "Ġnasi": 2079,
      "Ġmaterijala": 2080,
      "nin": 2081,
      "niku": 2082,
      "Ġnauka": 2083,
      "Ġzatim": 2084,
      "kta": 2085,
      "tnog": 2086,
      "Ġuzor": 2087,
      "Ġuda": 2088,
      "spi": 2089,
      "ĠÄĳu": 2090,
      "ss": 2091,
      "tovo": 2092,
      "zom": 2093,
      "loÅ¡kog": 2094,
      "leksa": 2095,
      "Ġpodrazumeva": 2096,
      "Ġindividu": 2097,
      "renje": 2098,
      "tova": 2099,
      "Ġuna": 2100,
      "ĠznaÄįi": 2101,
      "Ġovde": 2102,
      "Ġruko": 2103,
      "nasti": 2104,
      "Ġvremen": 2105,
      "Ġlitera": 2106,
      "blja": 2107,
      "Ġuglavnom": 2108,
      "Äĩenja": 2109,
      "Ġjedin": 2110,
      "Îµ": 2111,
      "kuje": 2112,
      "Ġmaj": 2113,
      "Ġrazmatra": 2114,
      "Ġnjega": 2115,
      "Ġtrebalo": 2116,
      "Ġovoj": 2117,
      "Å¾eni": 2118,
      "Ġ=": 2119,
      "Ġnasle": 2120,
      "Ġj": 2121,
      "dnosti": 2122,
      "Ġtamo": 2123,
      "Ġpode": 2124,
      "Ġbalka": 2125,
      "Ġista": 2126,
      "Ġizuze": 2127,
      "âĢĿ,": 2128,
      "Äĩeg": 2129,
      "ngvisti": 2130,
      "Ġjasno": 2131,
      "Ġvrlo": 2132,
      "Äĩen": 2133,
      "bom": 2134,
      "pravo": 2135,
      "Ġsami": 2136,
      "loÅ¡kih": 2137,
      "Ġsposob": 2138,
      "nda": 2139,
      "ĠÄįaso": 2140,
      "Ġmre": 2141,
      "ĠdogaÄĳa": 2142,
      "Ġbri": 2143,
      "Ġcilje": 2144,
      "gri": 2145,
      "Ġsanu": 2146,
      "menti": 2147,
      "Ġradova": 2148,
      "Ġmanji": 2149,
      "gled": 2150,
      "mija": 2151,
      "koj": 2152,
      "lisa": 2153,
      "Äįina": 2154,
      "th": 2155,
      "Ġsvoju": 2156,
      "ðĿ": 2157,
      "Ġobzirom": 2158,
      "Ġdone": 2159,
      "Ġzbor": 2160,
      "ĠrazliÄįite": 2161,
      "Ġovim": 2162,
      "Ġpredstavljaju": 2163,
      "niti": 2164,
      "bio": 2165,
      "Ġqu": 2166,
      "Ġprilikom": 2167,
      "ĠÅ¾ena": 2168,
      "Ġtada": 2169,
      "Ġpodr": 2170,
      "Ġpromena": 2171,
      "nike": 2172,
      "tio": 2173,
      "Ġklju": 2174,
      "ty": 2175,
      "vori": 2176,
      "kar": 2177,
      "Ġcilj": 2178,
      "Ġpogledu": 2179,
      "Å¡lja": 2180,
      "iako": 2181,
      "Ġvodi": 2182,
      "25": 2183,
      "takoÄĳe": 2184,
      "Ġnovo": 2185,
      "ĠoÄįi": 2186,
      "Ġkli": 2187,
      "Ġnauke": 2188,
      "ÑĬ": 2189,
      "vesti": 2190,
      "Ġpsiho": 2191,
      "Ġkreta": 2192,
      "Ġtrenu": 2193,
      "Ġum": 2194,
      "tere": 2195,
      "drÅ¾a": 2196,
      "Ġproblem": 2197,
      "Ġbiljaka": 2198,
      "centra": 2199,
      ".;": 2200,
      "ĠniÅ¡ta": 2201,
      "Ġpitanju": 2202,
      "Éĥ": 2203,
      "):": 2204,
      "bija": 2205,
      "obra": 2206,
      "nicama": 2207,
      "Ġkraju": 2208,
      "Ġprepozna": 2209,
      "Ġautori": 2210,
      "Ġprose": 2211,
      "Ġteri": 2212,
      "Ġmodela": 2213,
      "au": 2214,
      "30": 2215,
      "Ġmesta": 2216,
      "Å¾enja": 2217,
      "Ġke": 2218,
      "nov": 2219,
      "Å¡ao": 2220,
      "liÄĩ": 2221,
      "tiri": 2222,
      "Ġgore": 2223,
      "graf": 2224,
      "nce": 2225,
      "Ġbele": 2226,
      "Ġskladu": 2227,
      "Å¡enje": 2228,
      "Ġkojim": 2229,
      "Ġkoriste": 2230,
      "Ġelektro": 2231,
      "Ġsubjek": 2232,
      "Ġana": 2233,
      "ÉĢ": 2234,
      "Ġener": 2235,
      "ĠmoguÄĩnost": 2236,
      "Ġisklju": 2237,
      "sme": 2238,
      ".)": 2239,
      "ĠÃ": 2240,
      "ĠmeÄĳutim": 2241,
      "Ġipak": 2242,
      "Ġobezbe": 2243,
      "24": 2244,
      "pored": 2245,
      "jskih": 2246,
      "nsi": 2247,
      "Ġprezen": 2248,
      "Ġplani": 2249,
      "Ġnagla": 2250,
      "voda": 2251,
      "nskom": 2252,
      "ÏĤ": 2253,
      "Ġukazuje": 2254,
      "Ġpredstav": 2255,
      "kad": 2256,
      "mar": 2257,
      "Ġsud": 2258,
      "lac": 2259,
      "Ġprocesa": 2260,
      "Äįnost": 2261,
      "Ġnaroda": 2262,
      "Ġwi": 2263,
      "Ġdugo": 2264,
      "Ġkomp": 2265,
      "Ġkojem": 2266,
      "jskog": 2267,
      "Äįnu": 2268,
      "Ġuslovima": 2269,
      "Ġvrednost": 2270,
      "laz": 2271,
      "ĠopÅ¡te": 2272,
      "oj": 2273,
      "Ġá¼": 2274,
      "Ġsop": 2275,
      "Ġmisli": 2276,
      "Ġnjegove": 2277,
      "ĠmoguÄĩnosti": 2278,
      "Äĩih": 2279,
      "ĠÅ¾en": 2280,
      "ĠÄįovek": 2281,
      "Ġtopo": 2282,
      "Ġwe": 2283,
      "lnu": 2284,
      "ĠkÃª": 2285,
      "Ġstatu": 2286,
      "Ġstvari": 2287,
      "rovatno": 2288,
      "Ġizbe": 2289,
      "Å¡iÄĩ": 2290,
      "sl": 2291,
      "Ġsemena": 2292,
      "//": 2293,
      "ndi": 2294,
      "Ġkasnije": 2295,
      "turi": 2296,
      "Ġsvedo": 2297,
      "Ġmodi": 2298,
      "Ġ30": 2299,
      "ĠR": 2300,
      "Ġgor": 2301,
      "Ġbogoslu": 2302,
      "pove": 2303,
      "Ġtradicional": 2304,
      "Ġulogu": 2305,
      "ov": 2306,
      "Ġanaliza": 2307,
      "ori": 2308,
      "Ġsas": 2309,
      "Ġshvata": 2310,
      "Ġpovr": 2311,
      "loviÄĩ": 2312,
      "29": 2313,
      "voljno": 2314,
      "Ġvid": 2315,
      "Ġsocija": 2316,
      "Ġpokazuje": 2317,
      "ĠsloÅ¾e": 2318,
      "Ġii": 2319,
      "tue": 2320,
      "Ġindu": 2321,
      "Ġdje": 2322,
      "Ġnapra": 2323,
      "Äįine": 2324,
      "Ġizvor": 2325,
      "it": 2326,
      "bili": 2327,
      "Ġumetnosti": 2328,
      "ĠzemljiÅ¡ta": 2329,
      "Ġdoku": 2330,
      "ĠznaÄįajno": 2331,
      "Ġzabele": 2332,
      "Ġzajednice": 2333,
      "Ġbor": 2334,
      "Ġprosve": 2335,
      "ĠâĢľ": 2336,
      "Ġgro": 2337,
      "Ġlica": 2338,
      "ttp": 2339,
      "://": 2340,
      "ĠN": 2341,
      "rva": 2342,
      "Ġodred": 2343,
      "tivnim": 2344,
      "Ġeti": 2345,
      "Äĳeno": 2346,
      "Ġmogao": 2347,
      "ĠnaroÄįito": 2348,
      "Ġjugosloven": 2349,
      "Ġure": 2350,
      "sanje": 2351,
      "Ġanalizira": 2352,
      "cr": 2353,
      "Ġzemlje": 2354,
      "26": 2355,
      "rem": 2356,
      "Ġrata": 2357,
      "Ġputem": 2358,
      "Ġkraj": 2359,
      "Ġnjihove": 2360,
      "Ġpotencijal": 2361,
      "Ġprihva": 2362,
      "Ġkompozi": 2363,
      "Ġdopu": 2364,
      "dro": 2365,
      "telji": 2366,
      "bine": 2367,
      "Ġkva": 2368,
      "Ġstari": 2369,
      "che": 2370,
      "lata": 2371,
      "Ġneposred": 2372,
      "sen": 2373,
      "Ġsvom": 2374,
      "dana": 2375,
      "Ġznanja": 2376,
      "Ġstvar": 2377,
      "dnik": 2378,
      "Ġdrugog": 2379,
      "Ïģ": 2380,
      "Ġser": 2381,
      "dima": 2382,
      "Ġjednu": 2383,
      "Ġsrpsko": 2384,
      "Ġanalize": 2385,
      "Ġprostor": 2386,
      "loÅ¡ka": 2387,
      "mera": 2388,
      "Ġproblema": 2389,
      "mer": 2390,
      "Ġ24": 2391,
      "ĠÄįiji": 2392,
      "Ġ25": 2393,
      "Ġkonti": 2394,
      "Ġpoljoprivred": 2395,
      "Ġrezultati": 2396,
      "Ġunutra": 2397,
      "Ġnesvr": 2398,
      "Ġsopstve": 2399,
      "gne": 2400,
      "nde": 2401,
      "gr": 2402,
      "ld": 2403,
      "Ġzato": 2404,
      "bije": 2405,
      "Äįak": 2406,
      "Ġstavo": 2407,
      "Ġkonkre": 2408,
      "ĠdruÅ¡tvo": 2409,
      "Ġstatisti": 2410,
      "Ġkonsta": 2411,
      "Ġgovoru": 2412,
      "Ġtime": 2413,
      "ĠdoÅ¾i": 2414,
      "tije": 2415,
      "Ġmor": 2416,
      "Å¾ava": 2417,
      "Å¡tvo": 2418,
      "upo": 2419,
      "Ġuzo": 2420,
      "Ã¦e": 2421,
      "Ġopre": 2422,
      "Ġpet": 2423,
      "ĠmoÅ¾emo": 2424,
      "Ġuze": 2425,
      "zacija": 2426,
      "Ġzado": 2427,
      "lle": 2428,
      "Ġprakti": 2429,
      "por": 2430,
      "slika": 2431,
      "gija": 2432,
      "Å¾ena": 2433,
      "nijih": 2434,
      "ĠuopÅ¡te": 2435,
      "Ġredo": 2436,
      "ĠboÅ¾i": 2437,
      "Ġpomi": 2438,
      "Ñī": 2439,
      "Ġnara": 2440,
      "et": 2441,
      "Äįar": 2442,
      "sten": 2443,
      "ðĿĳ": 2444,
      "Äĩuje": 2445,
      "fere": 2446,
      "ĠÅ¾a": 2447,
      "Ġnovih": 2448,
      "Ġpostoja": 2449,
      "Äĳuju": 2450,
      "Ġsredine": 2451,
      "vena": 2452,
      "qi": 2453,
      "Ġunutar": 2454,
      "lti": 2455,
      "wu": 2456,
      "lozi": 2457,
      "Ġzo": 2458,
      "ĠoseÄĩa": 2459,
      "Ġzat": 2460,
      "vica": 2461,
      "jum": 2462,
      "Ġtele": 2463,
      "ĠÄįetiri": 2464,
      "ĠsÃªm": 2465,
      "Ġefika": 2466,
      "Ġrazlike": 2467,
      "Ġsebi": 2468,
      "ĠproÅ¡lo": 2469,
      "ĠÄįlan": 2470,
      "mir": 2471,
      "Ġupravlja": 2472,
      "stuplje": 2473,
      "tnim": 2474,
      "Ġobrazovanja": 2475,
      "Ġizgra": 2476,
      "Ġekspe": 2477,
      "Ġzbi": 2478,
      "Ġobo": 2479,
      "Ġpoput": 2480,
      "28": 2481,
      "voji": 2482,
      "Ġpogo": 2483,
      "mana": 2484,
      "ÄĮ": 2485,
      "Ġdakle": 2486,
      "Ġispitanika": 2487,
      "Ġkak": 2488,
      "kultu": 2489,
      "Ġprefi": 2490,
      "Ġsiri": 2491,
      "nskim": 2492,
      "vnu": 2493,
      "tiÄĩ": 2494,
      "ĠukljuÄįu": 2495,
      "\",": 2496,
      "gula": 2497,
      "Ġkolek": 2498,
      "Ġaleksa": 2499,
      "Ġpredu": 2500,
      "Ġpredvi": 2501,
      "Ġuniver": 2502,
      "Ġmanasti": 2503,
      "logiju": 2504,
      "Ġcelo": 2505,
      "Ġgloba": 2506,
      "id": 2507,
      "ĠT": 2508,
      "nove": 2509,
      "Ġsiro": 2510,
      "Ġsasvim": 2511,
      "Ġuvi": 2512,
      "Ġdan": 2513,
      "Äĳenju": 2514,
      "ĠE": 2515,
      "ĠpoloÅ¾a": 2516,
      "ĠÅ¾ivoti": 2517,
      "ĠÅ¡iro": 2518,
      "Ġorije": 2519,
      "Ġpotrebno": 2520,
      "Ġrepublike": 2521,
      "posle": 2522,
      "27": 2523,
      "klu": 2524,
      "Ġ2001": 2525,
      "Ġsmanje": 2526,
      "jevima": 2527,
      "tivnom": 2528,
      "upa": 2529,
      "Ġteorij": 2530,
      "Ġdrugom": 2531,
      "terija": 2532,
      "kaz": 2533,
      "Ġpredsta": 2534,
      "zbi": 2535,
      "Ġy": 2536,
      "Ġosobe": 2537,
      "nio": 2538,
      "Ġusle": 2539,
      "ĠnaÅ¡i": 2540,
      "Ġpredi": 2541,
      "zuju": 2542,
      "Ġam": 2543,
      "Ġodra": 2544,
      "Ġsrbija": 2545,
      "Ġfrancu": 2546,
      "Ġsebe": 2547,
      "Ġ195": 2548,
      "Ġosnova": 2549,
      "ih": 2550,
      "Ġ&": 2551,
      "Ġukoliko": 2552,
      "Ġrazvija": 2553,
      "000": 2554,
      "dam": 2555,
      "snih": 2556,
      "tel": 2557,
      "bla": 2558,
      "nca": 2559,
      "tkom": 2560,
      "Ġimenica": 2561,
      "er": 2562,
      "Ġkoliko": 2563,
      "tru": 2564,
      "nera": 2565,
      "Ġizne": 2566,
      "leksi": 2567,
      "Ġovu": 2568,
      "Ġpojmo": 2569,
      "snik": 2570,
      "stvom": 2571,
      "dnih": 2572,
      "Ġintenzi": 2573,
      "lova": 2574,
      "Ġzame": 2575,
      "Ġmodel": 2576,
      "Ġmani": 2577,
      "Ġfina": 2578,
      "Ġprostora": 2579,
      "ĠÄįine": 2580,
      "Ġverovatno": 2581,
      "Ġlingvisti": 2582,
      "ĠK": 2583,
      "Ġpravosla": 2584,
      "Ġsv": 2585,
      "Ġdoba": 2586,
      "ina": 2587,
      "naime": 2588,
      "ĠsadrÅ¾aj": 2589,
      "ĠprouÄįa": 2590,
      "Ġsvaki": 2591,
      "veli": 2592,
      "Ġsufi": 2593,
      "Ġresu": 2594,
      "Ġonih": 2595,
      "Ġsvetu": 2596,
      "tiÅĴ": 2597,
      "cionali": 2598,
      "Ġgramati": 2599,
      ".âĢŀ": 2600,
      "Ġsazna": 2601,
      "ĠpolitiÄįke": 2602,
      "Ġknjiga": 2603,
      "Ġpotpuno": 2604,
      "Ġzahva": 2605,
      "Ġreal": 2606,
      "rica": 2607,
      "Ġdaje": 2608,
      "ĠpaÅ¡t": 2609,
      "Ġkoncentra": 2610,
      "ntropo": 2611,
      "Ġpotreba": 2612,
      "lini": 2613,
      "Ġpriti": 2614,
      "Ġzemlja": 2615,
      "ĠC": 2616,
      "nac": 2617,
      "Ġdeta": 2618,
      "www": 2619,
      "Ġfilozof": 2620,
      "dje": 2621,
      "tacije": 2622,
      "Éľ": 2623,
      "Äįenju": 2624,
      "Ġhttp": 2625,
      "Ġradnje": 2626,
      "Ġdomina": 2627,
      "Ġpostup": 2628,
      "Ġkole": 2629,
      "ljiva": 2630,
      "raka": 2631,
      "Ġderi": 2632,
      "Äĳivanje": 2633,
      "Ġimao": 2634,
      "mla": 2635,
      "Ġhu": 2636,
      "Ġkolo": 2637,
      "Ġvan": 2638,
      "ĠsluÄįaj": 2639,
      "tica": 2640,
      "Ġimati": 2641,
      "ĠmoÅ¾da": 2642,
      "Ġteksto": 2643,
      "dina": 2644,
      "nisti": 2645,
      "sre": 2646,
      "sanja": 2647,
      "Ġuzro": 2648,
      "Ġpono": 2649,
      "ĠpokuÅ¡a": 2650,
      "ovo": 2651,
      "presi": 2652,
      "Ã¨e": 2653,
      "Ġtela": 2654,
      "ili": 2655,
      "Ġimena": 2656,
      "Ġstav": 2657,
      "ĠÄįoveka": 2658,
      "ĠJ": 2659,
      "Ġgrad": 2660,
      "Ġpolitike": 2661,
      "zmi": 2662,
      "Ġformu": 2663,
      "rba": 2664,
      "Ġeu": 2665,
      "Ġ2000": 2666,
      "Ġkise": 2667,
      "Ġ2011": 2668,
      "ĠzaÅ¡tite": 2669,
      "Ġat": 2670,
      "Ġzasno": 2671,
      "Ġ23": 2672,
      "Ġpretpostav": 2673,
      "Ġposledica": 2674,
      "nie": 2675,
      "Ġinterpre": 2676,
      "Ġmladi": 2677,
      "Ġnedosta": 2678,
      "tina": 2679,
      "Ġrazvoju": 2680,
      "Å¡la": 2681,
      "riÄĩ": 2682,
      "Ġpokazuju": 2683,
      "Äĳeni": 2684,
      "Ġ2010": 2685,
      "Ġ2012": 2686,
      "vÅ¡i": 2687,
      "Ġcar": 2688,
      "dak": 2689,
      "Äįara": 2690,
      "Ġhrvat": 2691,
      "Ġfakultet": 2692,
      "Ġministar": 2693,
      "ĠstanovniÅ¡tva": 2694,
      "riÅ¡Äĩa": 2695,
      "Ġ11": 2696,
      "ĠsluÅ¾be": 2697,
      "Ġemo": 2698,
      "dr": 2699,
      "vnoj": 2700,
      "lica": 2701,
      "Ġtru": 2702,
      "Ġimenice": 2703,
      "Ġ2013": 2704,
      "ĠbuduÄĩi": 2705,
      "Ġdemokrat": 2706,
      "ĠdomaÄĩi": 2707,
      "Ġpreva": 2708,
      "Ġ2018": 2709,
      "Ġperspe": 2710,
      "ĠÅ¡tampa": 2711,
      "Ġisko": 2712,
      "Ġodnose": 2713,
      "lit": 2714,
      "Ġmoglo": 2715,
      "Ġ,,": 2716,
      "Ġpotom": 2717,
      "Ġniti": 2718,
      "ĠÑ": 2719,
      "Ġ2006": 2720,
      "Ġnjegov": 2721,
      "Ġotvore": 2722,
      "dnom": 2723,
      "Ġ2007": 2724,
      "Ġpodu": 2725,
      "Ġizme": 2726,
      "laza": 2727,
      "Ġtih": 2728,
      "ĠpomoÄĩ": 2729,
      "Ġindust": 2730,
      "Ïĥ": 2731,
      "Ġtere": 2732,
      "Ġizvede": 2733,
      "politi": 2734,
      "Ġiznosi": 2735,
      "Äįenje": 2736,
      "Ġupotrebe": 2737,
      "nose": 2738,
      "Ġizlo": 2739,
      "Ġkonce": 2740,
      "volja": 2741,
      "Ġizbor": 2742,
      "Ġotkri": 2743,
      "tivnosti": 2744,
      "ĠpoÄįi": 2745,
      "Ġtvor": 2746,
      "ĠsadrÅ¾aja": 2747,
      "Ġimala": 2748,
      "Ġdimen": 2749,
      "Ġprvom": 2750,
      "Ġsvog": 2751,
      "Ġstruktura": 2752,
      "rani": 2753,
      "Ġoslo": 2754,
      "Å¡no": 2755,
      "Ġnovog": 2756,
      "ĠgraÄĳe": 2757,
      "Ãł": 2758,
      "Ġâ": 2759,
      "Ġovak": 2760,
      "Ġrezultat": 2761,
      "nsko": 2762,
      "Ġkoga": 2763,
      "ruje": 2764,
      "fekat": 2765,
      "zmu": 2766,
      "Ġnalaze": 2767,
      "mor": 2768,
      "Ġgotovo": 2769,
      "Ġstabi": 2770,
      "sma": 2771,
      "Ġlogi": 2772,
      "Ġpola": 2773,
      "vila": 2774,
      "Ġope": 2775,
      "Ġplu": 2776,
      "Ġkoso": 2777,
      "Ġrazloga": 2778,
      "Ġprostoru": 2779,
      "smi": 2780,
      "Ġopisa": 2781,
      "Éĭ": 2782,
      "Ġmehani": 2783,
      "Ġrazvije": 2784,
      "ovaj": 2785,
      "gni": 2786,
      "ĠmuÅ¡ka": 2787,
      "Äįuna": 2788,
      "rali": 2789,
      "Ġautora": 2790,
      "Ġoti": 2791,
      "ĠsuÅ¡ti": 2792,
      "Ġinstru": 2793,
      "snika": 2794,
      "Ġmestu": 2795,
      "Ġkor": 2796,
      "valo": 2797,
      "Ġnajbo": 2798,
      "Ġonaj": 2799,
      "tnom": 2800,
      "ÏĢ": 2801,
      "Ġdina": 2802,
      "am": 2803,
      "Ġtipo": 2804,
      "Å¾iti": 2805,
      "Ġdobija": 2806,
      "Ġsklo": 2807,
      "nema": 2808,
      "deo": 2809,
      "Ġpora": 2810,
      "lizacije": 2811,
      "Ġpotrebe": 2812,
      "Ġprocesu": 2813,
      "Ġsin": 2814,
      "Ġbolje": 2815,
      "Ġnjemu": 2816,
      "ljiv": 2817,
      "ĠÄįo": 2818,
      "Ġmno": 2819,
      "rana": 2820,
      "Å¡ku": 2821,
      "njen": 2822,
      "Ġpristupa": 2823,
      "Ġrumu": 2824,
      "199": 2825,
      "tnosti": 2826,
      "Äĳene": 2827,
      "ĠsadrÅ¾i": 2828,
      "Ġanga": 2829,
      "Ġizr": 2830,
      "Ġmr": 2831,
      "Ġosim": 2832,
      "Ġ2004": 2833,
      "Ġnezavi": 2834,
      "Ġravno": 2835,
      "snu": 2836,
      "pora": 2837,
      "Ġobliku": 2838,
      "nad": 2839,
      "Ġargu": 2840,
      "Ġnekim": 2841,
      "Ġkultura": 2842,
      "cc": 2843,
      "dnika": 2844,
      "zno": 2845,
      "Ġpreo": 2846,
      "Ġrazlika": 2847,
      "ĠoÄįu": 2848,
      "leko": 2849,
      "Ġnjegovog": 2850,
      "Ġprona": 2851,
      "ĠpruÅ¾a": 2852,
      "uzima": 2853,
      "ĠÅ¾u": 2854,
      "35": 2855,
      "40": 2856,
      "Ġzapravo": 2857,
      "Ġ2005": 2858,
      "Ã¿": 2859,
      "Ġpredmet": 2860,
      "Ġcom": 2861,
      "Ġ2002": 2862,
      "jska": 2863,
      "sci": 2864,
      "vane": 2865,
      "stoji": 2866,
      "Ġ2008": 2867,
      "ĠdruÅ¡tvene": 2868,
      "Ġbroju": 2869,
      "sigu": 2870,
      "ĠsluÅ¾": 2871,
      "âĢĿ.": 2872,
      "jevi": 2873,
      "Ġdeli": 2874,
      "Ġstre": 2875,
      "Ġska": 2876,
      "rovi": 2877,
      "leva": 2878,
      "tribu": 2879,
      "ĠdrugaÄįi": 2880,
      "Ġber": 2881,
      "Ġzdrav": 2882,
      "É¤": 2883,
      "Ġranije": 2884,
      "sak": 2885,
      "Ġstanje": 2886,
      "Ġ2014": 2887,
      "dnja": 2888,
      "vini": 2889,
      "ĠomoguÄĩa": 2890,
      "nomi": 2891,
      "len": 2892,
      "Ġzlo": 2893,
      "son": 2894,
      "isti": 2895,
      "Ġ2017": 2896,
      "Ġzajednica": 2897,
      "Ġblago": 2898,
      "Ġ28": 2899,
      "Ġnpr": 2900,
      "ĠÅ¾ene": 2901,
      "broj": 2902,
      "Ġxi": 2903,
      "bs": 2904,
      "Ġsum": 2905,
      "Ġsuprot": 2906,
      "Ġsvojih": 2907,
      "Ġigra": 2908,
      "Ġnorma": 2909,
      "Ġideja": 2910,
      "Ġprirode": 2911,
      "ĠpriÄįa": 2912,
      "miÅ¡lja": 2913,
      "Ġvoda": 2914,
      "Ġprimene": 2915,
      "bre": 2916,
      "stima": 2917,
      "Ġstudija": 2918,
      "Ġidentiteta": 2919,
      "á¿": 2920,
      "pisi": 2921,
      "gova": 2922,
      "Ġgrada": 2923,
      "sati": 2924,
      "Ġnjegova": 2925,
      "ĠdruÅ¡tvenih": 2926,
      "vili": 2927,
      "vnost": 2928,
      "zne": 2929,
      "ĠÅ¡kole": 2930,
      "Ġfinansi": 2931,
      "Ġmese": 2932,
      "Ġduho": 2933,
      "Ġobjavlje": 2934,
      "dnost": 2935,
      "Ġfunkcioni": 2936,
      "lnoj": 2937,
      "plici": 2938,
      "jedno": 2939,
      "Ġuspostavlja": 2940,
      "ksima": 2941,
      "Ġispitiva": 2942,
      "Ġinstitut": 2943,
      "Ġrezultata": 2944,
      "«É¬": 2945,
      "Ġ2015": 2946,
      "radi": 2947,
      "Ġraspra": 2948,
      "Ġbazi": 2949,
      "Ġdostup": 2950,
      "ĠÅ¡kola": 2951,
      "39": 2952,
      "Ġfil": 2953,
      "Ġstrukture": 2954,
      "bru": 2955,
      "ÉĪ": 2956,
      "Ġume": 2957,
      "Ġini": 2958,
      "Ġ27": 2959,
      "Ġï": 2960,
      "Ġsigu": 2961,
      "Ġsvojoj": 2962,
      "Ġ2016": 2963,
      "ĠneÄĩe": 2964,
      "Ġsvakodne": 2965,
      "kli": 2966,
      "ry": 2967,
      "Ġkontinu": 2968,
      "tnu": 2969,
      "Î»": 2970,
      "Ġposla": 2971,
      "fikacije": 2972,
      "Ġvoka": 2973,
      "Ġiko": 2974,
      "Ġ26": 2975,
      "Ġleksiko": 2976,
      "Ġgleda": 2977,
      "ĠsiriniÄĩ": 2978,
      "rg": 2979,
      "formi": 2980,
      "Ġkategorija": 2981,
      "ĠoÄįeki": 2982,
      "Ġvelike": 2983,
      "Ġgeneti": 2984,
      "Ġantropo": 2985,
      "gom": 2986,
      "laca": 2987,
      "drugi": 2988,
      "Ġusled": 2989,
      "feri": 2990,
      "Ġsela": 2991,
      "Ġumetni": 2992,
      "Ġobuhvata": 2993,
      "blika": 2994,
      "Ġformi": 2995,
      "lik": 2996,
      "ljenja": 2997,
      "Ġstanja": 2998,
      "ĠnajviÅ¡e": 2999,
      "ton": 3000,
      "Ġdovodi": 3001,
      "Ġemi": 3002,
      "dnim": 3003,
      "dnici": 3004,
      "Å¡taj": 3005,
      "Ġpotro": 3006,
      "Ġreci": 3007,
      "Ġbar": 3008,
      "logiji": 3009,
      "npr": 3010,
      "tuje": 3011,
      "Ġtret": 3012,
      "nosa": 3013,
      "Ġdete": 3014,
      "ĠvukoviÄĩ": 3015,
      "34": 3016,
      "Ġizbo": 3017,
      "Ġnova": 3018,
      "nimi": 3019,
      "Ġmogla": 3020,
      "Ġmetoda": 3021,
      "govora": 3022,
      "rane": 3023,
      "ĠuÄįenika": 3024,
      "Ġmorfo": 3025,
      "kod": 3026,
      "veta": 3027,
      "ĠÅ¡t": 3028,
      "Ġuzra": 3029,
      "Ġgaje": 3030,
      "Ġindividual": 3031,
      "Äįena": 3032,
      "Ġmere": 3033,
      "Ġimali": 3034,
      "Ġproizvodnje": 3035,
      "njena": 3036,
      "ban": 3037,
      "Ġelemenata": 3038,
      "nden": 3039,
      "Ã°u": 3040,
      "njuje": 3041,
      "Ġistovremeno": 3042,
      "boli": 3043,
      "vlji": 3044,
      "Å¡li": 3045,
      "Ġpat": 3046,
      "tivnu": 3047,
      "ĠvrÅ¡i": 3048,
      "loÅ¡kim": 3049,
      "Ġpodaci": 3050,
      "jekat": 3051,
      "viji": 3052,
      "orga": 3053,
      "Ġintegra": 3054,
      "ĠÄĩu": 3055,
      "Ġkralje": 3056,
      "ĠÏĦ": 3057,
      "Ġured": 3058,
      "36": 3059,
      "piti": 3060,
      "zanti": 3061,
      "Ġsistemu": 3062,
      "Ġprizna": 3063,
      "Ġsvakako": 3064,
      "sva": 3065,
      "Ġpogla": 3066,
      "Ġprocen": 3067,
      "fikacija": 3068,
      "Ġmlade": 3069,
      "Ġkvaliteta": 3070,
      "Ġkriteri": 3071,
      "Ġatribu": 3072,
      "der": 3073,
      "ĠÄįvr": 3074,
      "Ġinterak": 3075,
      "Ġradio": 3076,
      "Ġodgovo": 3077,
      "Ġnapi": 3078,
      "il": 3079,
      "lacije": 3080,
      "Å¡tina": 3081,
      "Ġuticaja": 3082,
      "Ġpostavlja": 3083,
      "tabela": 3084,
      "Ġstanovi": 3085,
      "Ġetni": 3086,
      "Ġzaposle": 3087,
      "Ġkraja": 3088,
      "Ġmatemati": 3089,
      "Å¡ki": 3090,
      "ĠreÄĩi": 3091,
      "fikova": 3092,
      "Ġupotrebi": 3093,
      "Ġ(âĢŀ": 3094,
      "Ġpada": 3095,
      "ĠÅ¾ive": 3096,
      "mlje": 3097,
      "ĠponaÅ¡anja": 3098,
      "Ġorganizova": 3099,
      "ĠduÅ¾i": 3100,
      "Ġintelek": 3101,
      "stveno": 3102,
      "srp": 3103,
      "ot": 3104,
      "ria": 3105,
      "govara": 3106,
      "risto": 3107,
      "Ġpreci": 3108,
      "Ġimalo": 3109,
      "nke": 3110,
      "Ġrazno": 3111,
      "Ġpojam": 3112,
      "Ġinformacija": 3113,
      "Ġmje": 3114,
      "Ġnapre": 3115,
      "Ġzla": 3116,
      "Ġ2009": 3117,
      "ĠistraÅ¾ivanje": 3118,
      "ĠG": 3119,
      "ĠdoÅ¡lo": 3120,
      "Ġosu": 3121,
      "jno": 3122,
      "ĠznaÄįaja": 3123,
      ".âĢľ": 3124,
      "tive": 3125,
      "vere": 3126,
      "kedo": 3127,
      "Ġperspekti": 3128,
      "Ġzakon": 3129,
      "âĢĻ,": 3130,
      "ĠÄįega": 3131,
      "Ġpone": 3132,
      "tnost": 3133,
      "Ġknjige": 3134,
      "ĠreÅ¾i": 3135,
      "Ġrevolu": 3136,
      "ĠistiÄįe": 3137,
      "Ġpojava": 3138,
      "Äįnoj": 3139,
      "Ġpostaje": 3140,
      "znaÄįaj": 3141,
      "Ġselek": 3142,
      "Ġstudije": 3143,
      "Ġprograma": 3144,
      "Ġherce": 3145,
      "Ġtehni": 3146,
      "Éį": 3147,
      "Ġmogli": 3148,
      "stoja": 3149,
      "Ġmenja": 3150,
      "Ġaktue": 3151,
      "37": 3152,
      "Ġetno": 3153,
      "vrÅ¡": 3154,
      "Ġodli": 3155,
      "Ġpost": 3156,
      "Ġpak": 3157,
      "ĠnaÄįina": 3158,
      "Ġzavisi": 3159,
      "Ġpoma": 3160,
      "Ġdeca": 3161,
      "Ġkonven": 3162,
      "Ġ194": 3163,
      "ĠjuÅ¾no": 3164,
      "Ġniz": 3165,
      "Ġpolu": 3166,
      "Ġrura": 3167,
      "Ġinstituta": 3168,
      "Ġosnovi": 3169,
      "ĠangaÅ¾": 3170,
      "Ġpredlo": 3171,
      "Ġprimera": 3172,
      "Ġnjihova": 3173,
      "Ġtip": 3174,
      "Ġnjihovog": 3175,
      "Ġlokali": 3176,
      "Ġbolesti": 3177,
      "ĠhriÅ¡Äĩa": 3178,
      "Ġprvog": 3179,
      "Ġporekla": 3180,
      "ĠseÅĴ": 3181,
      "Ġzema": 3182,
      "Ġkapi": 3183,
      "gru": 3184,
      "Ġkosmo": 3185,
      "Ġzajedno": 3186,
      "Ġjedinica": 3187,
      "Ġprisustvo": 3188,
      "niju": 3189,
      "kati": 3190,
      "Ġsagleda": 3191,
      "Ġvrije": 3192,
      "ĠkuÄĩe": 3193,
      "Ġistorije": 3194,
      "ĠodreÄĳene": 3195,
      "siste": 3196,
      "Ġ2003": 3197,
      "Ġukazuju": 3198,
      "rac": 3199,
      "Ġizrazi": 3200,
      "Ġsce": 3201,
      "poviÄĩ": 3202,
      "Ġarhitek": 3203,
      "Ġzastuplje": 3204,
      "Ġkrimi": 3205,
      "ĠkoriÅ¡": 3206,
      "Ġmedici": 3207,
      "38": 3208,
      "Ġelemen": 3209,
      "Ġpostupa": 3210,
      "ĠH": 3211,
      "rin": 3212,
      "Ġade": 3213,
      "Ġturi": 3214,
      "Ġostvari": 3215,
      "Ġvero": 3216,
      "Ġtema": 3217,
      "Ġpraksi": 3218,
      "ciona": 3219,
      "ĠtrÅ¾i": 3220,
      "ĠiskljuÄįi": 3221,
      "Ġeksperi": 3222,
      "Ġoce": 3223,
      "sional": 3224,
      "Ġdese": 3225,
      "É©": 3226,
      "ence": 3227,
      "Ġteorije": 3228,
      "Ã¦i": 3229,
      "Ġbezbednosti": 3230,
      "ono": 3231,
      "Ġsever": 3232,
      "Ġupotreba": 3233,
      "Ġodgovaraju": 3234,
      "rnu": 3235,
      "xi": 3236,
      "Äįeno": 3237,
      "Ġizgleda": 3238,
      "Ġvaz": 3239,
      "teh": 3240,
      "Ġmuzike": 3241,
      "Ġorganizacije": 3242,
      "Ġvelikog": 3243,
      "jn": 3244,
      "Ġperioda": 3245,
      "fra": 3246,
      "Éŀ": 3247,
      "Ġsintaksi": 3248,
      "Ġgodini": 3249,
      "Ġleksema": 3250,
      "Ġjezu": 3251,
      "stom": 3252,
      "Ç¤Ç¤Ç¤Ç¤Ç¤Ç¤Ç¤Ç¤": 3253,
      "tivnost": 3254,
      "Ġseku": 3255,
      "Äĩim": 3256,
      "ĠsÃªs": 3257,
      "Ġznatno": 3258,
      "Ġkvalitet": 3259,
      "ďă": 3260,
      "istra": 3261,
      "njoj": 3262,
      "Ġinteresa": 3263,
      "Ġispu": 3264,
      "Ġnede": 3265,
      "ljive": 3266,
      "ãİ": 3267,
      "tija": 3268,
      "Ġveze": 3269,
      "ms": 3270,
      "âĢ¦": 3271,
      "Ġzao": 3272,
      "Ġeg": 3273,
      "Äįo": 3274,
      "Ġsuko": 3275,
      "Ġilu": 3276,
      "tati": 3277,
      "Ġcilju": 3278,
      "desetih": 3279,
      "vano": 3280,
      "Ġagen": 3281,
      "Ġunapre": 3282,
      "strak": 3283,
      "toj": 3284,
      "Å¡tine": 3285,
      "\".": 3286,
      "veni": 3287,
      "bera": 3288,
      "ĠÅ¡kol": 3289,
      "zbog": 3290,
      "Ġkona": 3291,
      "togra": 3292,
      "Ġsagla": 3293,
      "pravda": 3294,
      "Ġpostavlje": 3295,
      "pose": 3296,
      "mr": 3297,
      "tali": 3298,
      "Ġodvija": 3299,
      "ger": 3300,
      "Ġdinami": 3301,
      "Ġ29": 3302,
      "Ġgubi": 3303,
      "Ġpje": 3304,
      "ĠoÅ¡te": 3305,
      "Ġprve": 3306,
      "É¬": 3307,
      "Ġperiod": 3308,
      "Ġrije": 3309,
      "loÅ¡ko": 3310,
      "Ġlako": 3311,
      "ote": 3312,
      "Ġugro": 3313,
      "eko": 3314,
      "Äĩemo": 3315,
      "Äĩena": 3316,
      "ĠdruÅ¡tvu": 3317,
      "Ġzbornik": 3318,
      "ipak": 3319,
      "jemo": 3320,
      "Ġkola": 3321,
      "Ġprogram": 3322,
      "knu": 3323,
      "rad": 3324,
      "Ġpobo": 3325,
      "cione": 3326,
      "fera": 3327,
      "Ġnor": 3328,
      "Ġprilog": 3329,
      "Ġhipo": 3330,
      "Ġkarakteristike": 3331,
      "mpi": 3332,
      "Ġzapi": 3333,
      "terna": 3334,
      "Ġogleda": 3335,
      "Ġlegi": 3336,
      "Å¡njih": 3337,
      "Ġuvo": 3338,
      "ed": 3339,
      "Ġnapu": 3340,
      "Ġpredse": 3341,
      "Ġvje": 3342,
      "Å¾io": 3343,
      "zv": 3344,
      ".).": 3345,
      "Ġjugoslavije": 3346,
      "zem": 3347,
      "ssi": 3348,
      "Ġprije": 3349,
      "Ġnjegovo": 3350,
      "Ġgod": 3351,
      "kos": 3352,
      "Ġuse": 3353,
      "Ġuloga": 3354,
      "Ġpripad": 3355,
      "Ġtoku": 3356,
      "Ġkojom": 3357,
      "Äįeni": 3358,
      "dok": 3359,
      "tivu": 3360,
      "Å¡njeg": 3361,
      "Ġnaziva": 3362,
      "Ġeli": 3363,
      "Ġsedam": 3364,
      "chi": 3365,
      "Ġdevoj": 3366,
      "ĠproÅ¡losti": 3367,
      "Ġprilago": 3368,
      "Ġpojedinih": 3369,
      "ĠmoÄĩi": 3370,
      "ĠÄįije": 3371,
      "Ġurba": 3372,
      "vice": 3373,
      "Ġokolnosti": 3374,
      "Ġteksta": 3375,
      "ly": 3376,
      "sana": 3377,
      "Å¾ene": 3378,
      "ob": 3379,
      "din": 3380,
      "ĠobiÄįno": 3381,
      "Éĩ": 3382,
      "Ġinterne": 3383,
      "Ġnjihovo": 3384,
      "ĠÅ¡iri": 3385,
      "rka": 3386,
      "ĠpolitiÃ¨": 3387,
      "Ġuzima": 3388,
      "Äįaje": 3389,
      "Ġglavni": 3390,
      "Ġgovore": 3391,
      "jana": 3392,
      "ÄįeviÄĩ": 3393,
      "prezen": 3394,
      "Ġnjihov": 3395,
      "Ġiii": 3396,
      "ljeni": 3397,
      "Ġ2020": 3398,
      "Ġizvora": 3399,
      "Ġbibliogra": 3400,
      "Ġproto": 3401,
      "ĠploÄįe": 3402,
      "Ġneophodno": 3403,
      "Ġshva": 3404,
      "Ġopera": 3405,
      "Ġpodi": 3406,
      "Ġstudi": 3407,
      "Ġmetodo": 3408,
      "prija": 3409,
      "str": 3410,
      "Ġishra": 3411,
      "Ġplanu": 3412,
      "gor": 3413,
      "Ġovi": 3414,
      "lost": 3415,
      "Ġmili": 3416,
      "Ġ50": 3417,
      "levant": 3418,
      "Ġiste": 3419,
      "Ġseg": 3420,
      "Ġprodu": 3421,
      "Ġizdvaja": 3422,
      "Ġdetalj": 3423,
      "Ġprinos": 3424,
      "samo": 3425,
      "Ġvlade": 3426,
      "Ġusmere": 3427,
      "ck": 3428,
      "Ġmuze": 3429,
      "Ġnju": 3430,
      "Ġreak": 3431,
      "kuplja": 3432,
      ".),": 3433,
      "Ġodma": 3434,
      "gita": 3435,
      "Ġsrpska": 3436,
      "deset": 3437,
      "snog": 3438,
      "Ġobzir": 3439,
      "Ġsinte": 3440,
      "Ġroda": 3441,
      "Ġzavisnosti": 3442,
      "zar": 3443,
      "vaÄįa": 3444,
      "ĠmaÅ¡i": 3445,
      "Ġsrba": 3446,
      "ĠÄįime": 3447,
      "Ġispitivanja": 3448,
      "Ġvezu": 3449,
      "Ġorganizacija": 3450,
      "slav": 3451,
      "33": 3452,
      "fiji": 3453,
      "Ġbrzi": 3454,
      "Ġkomplek": 3455,
      "ĠÑı": 3456,
      "Ġkoj": 3457,
      "Ġodbra": 3458,
      "Å¡le": 3459,
      "Ġnaslo": 3460,
      "Ġdijalek": 3461,
      "Ġbre": 3462,
      "Ġmakedo": 3463,
      "Ġ40": 3464,
      "Ġsocijalisti": 3465,
      "tin": 3466,
      "tacija": 3467,
      "Ġzaga": 3468,
      "Ġjoj": 3469,
      "Ġvojvodi": 3470,
      "Ġnekih": 3471,
      "Ġvlast": 3472,
      "jekata": 3473,
      "Ġnika": 3474,
      "Ġforme": 3475,
      "Ġhercego": 3476,
      "Ġhemi": 3477,
      "ĠreÄįima": 3478,
      "Ã°e": 3479,
      "ek": 3480,
      "Ġug": 3481,
      "Ġedu": 3482,
      "Ġ+": 3483,
      "zisten": 3484,
      "Ġispra": 3485,
      "Äįene": 3486,
      "hai": 3487,
      "upra": 3488,
      "Ġmulti": 3489,
      "ĠpaÅ¾nju": 3490,
      "Ġkomi": 3491,
      "Ġameri": 3492,
      "ser": 3493,
      "dovi": 3494,
      "Ġtala": 3495,
      "nakon": 3496,
      "Ġkontak": 3497,
      "Ġbugar": 3498,
      "one": 3499,
      "snim": 3500,
      "Ġpetro": 3501,
      "Ġpodsti": 3502,
      "Ġpojave": 3503,
      "Ġporodice": 3504,
      "Ġukra": 3505,
      "Ġnekog": 3506,
      "ĠÄĩi": 3507,
      "Ġokto": 3508,
      "ĠbogosluÅ¾be": 3509,
      "nizam": 3510,
      "Ġbak": 3511,
      "Ġsrednje": 3512,
      "lov": 3513,
      "Ġmati": 3514,
      "Ġgovorima": 3515,
      "ljenje": 3516,
      "vaÅ¾": 3517,
      "Ġpoto": 3518,
      "Ġaktivnost": 3519,
      "slovenski": 3520,
      "the": 3521,
      "Ġ21": 3522,
      "Ġsp": 3523,
      "Ġproduk": 3524,
      "Ġimp": 3525,
      "Ġaleksand": 3526,
      "Ġbog": 3527,
      "Ġpoti": 3528,
      "zaciju": 3529,
      "Ġprivat": 3530,
      "ĠpovrÅ¡ine": 3531,
      "Ġosam": 3532,
      "Ġsama": 3533,
      "Ġrim": 3534,
      "Ġdovoljno": 3535,
      "sada": 3536,
      "Ġposlu": 3537,
      "Ġhro": 3538,
      "ista": 3539,
      "Ġ1997": 3540,
      "Ġsposobnosti": 3541,
      "jskim": 3542,
      "tske": 3543,
      "orÄĳe": 3544,
      "Ġistori": 3545,
      "kuju": 3546,
      "biti": 3547,
      "Ġusko": 3548,
      "jih": 3549,
      "Ġmera": 3550,
      "ĠÄĩemo": 3551,
      "Ġoblici": 3552,
      "ira": 3553,
      "vet": 3554,
      "Ġsamosta": 3555,
      "Ġosnove": 3556,
      "Ġperi": 3557,
      "Å½": 3558,
      "lin": 3559,
      "zama": 3560,
      "istraÅ¾i": 3561,
      "rnim": 3562,
      "Ġsekven": 3563,
      "Ġfurni": 3564,
      "ĠproÅ¡i": 3565,
      "semanti": 3566,
      "Ġpolitika": 3567,
      "Ġzahteva": 3568,
      "siti": 3569,
      "Ġvideti": 3570,
      "Ġudru": 3571,
      "Ġrast": 3572,
      "Ġtraj": 3573,
      "Ġakademi": 3574,
      "Ġ2019": 3575,
      "dnju": 3576,
      "ÃŃ": 3577,
      "Ġzasni": 3578,
      "sova": 3579,
      "Ġvaspi": 3580,
      "ĠizraÅ¾a": 3581,
      "Å¾eno": 3582,
      "Å¡Äĩa": 3583,
      "ĠpolitiÄįkih": 3584,
      "Ġxvi": 3585,
      "njenja": 3586,
      "Ã¨a": 3587,
      "Ġteorija": 3588,
      "Ġidentitet": 3589,
      "Ġupotrebu": 3590,
      "ÉĮ": 3591,
      "Ġpredstavlje": 3592,
      "Ġjuna": 3593,
      "ĠzaÅ¡titu": 3594,
      "Ġsocijalne": 3595,
      "dÄĨ": 3596,
      "Ġiskaza": 3597,
      "Ġupotreblja": 3598,
      "ĠÅ¡ire": 3599,
      "gl": 3600,
      "Ġnjoj": 3601,
      "Ġprihvata": 3602,
      "Ġex": 3603,
      "Ġvelika": 3604,
      "Ġmali": 3605,
      "Ġstefa": 3606,
      "strui": 3607,
      "ĠpomoÄĩu": 3608,
      "les": 3609,
      "Ġdove": 3610,
      "Ġbibliote": 3611,
      "Ġnesta": 3612,
      "ĠÅ¾ivi": 3613,
      "torija": 3614,
      "juma": 3615,
      "jskom": 3616,
      "lko": 3617,
      "Ġnjegovom": 3618,
      "Ġkombina": 3619,
      "Ġfunkcija": 3620,
      "Ġsvetog": 3621,
      "Ġgeno": 3622,
      "Ġosobina": 3623,
      "Ġfunkcional": 3624,
      "Ġselo": 3625,
      "Ġstrana": 3626,
      "Ġnjihovih": 3627,
      "Ġparale": 3628,
      "Ġuniverziteta": 3629,
      "Ġas": 3630,
      "Ġveku": 3631,
      "Ġobavlja": 3632,
      "Ġmetafo": 3633,
      "zor": 3634,
      "âĢĻ.": 3635,
      "qati": 3636,
      "Ġdoz": 3637,
      "Ġspek": 3638,
      "Ġpripadaju": 3639,
      "ris": 3640,
      "Ġprese": 3641,
      "Ġprimeri": 3642,
      "Ġengle": 3643,
      "Ġispod": 3644,
      "Ġekspresi": 3645,
      "Ġintelektual": 3646,
      "naro": 3647,
      "Ġpoe": 3648,
      "Ġredu": 3649,
      "stitut": 3650,
      "rd": 3651,
      "Ġpubli": 3652,
      "Ġosni": 3653,
      "nes": 3654,
      "mora": 3655,
      "Ġgospo": 3656,
      "Ġnov": 3657,
      "ĠÉ©": 3658,
      "ĠutiÄįe": 3659,
      "Äĳivanja": 3660,
      "Ġpojma": 3661,
      "ljena": 3662,
      "Ġrizi": 3663,
      "jE": 3664,
      "lekat": 3665,
      "ljivost": 3666,
      "Ġkarakteristika": 3667,
      "lla": 3668,
      "cida": 3669,
      "kida": 3670,
      "Ġsrpskih": 3671,
      "Ġkulturne": 3672,
      "ana": 3673,
      "rke": 3674,
      "timi": 3675,
      "Ġano": 3676,
      "biÄįaje": 3677,
      "dera": 3678,
      "ĠbiÄĩe": 3679,
      "Ġtekstu": 3680,
      "veÄĩi": 3681,
      "Ġsamog": 3682,
      "Ġpridev": 3683,
      "Ġtzv": 3684,
      "Ġpokreta": 3685,
      "ĠÄįinjenica": 3686,
      "hemi": 3687,
      "ĠÅ¾ivotu": 3688,
      "Ġzrna": 3689,
      "Ġnared": 3690,
      "Ġgeograf": 3691,
      "É¥": 3692,
      "Ġporu": 3693,
      "vlada": 3694,
      "ĠknjiÅ¾evnosti": 3695,
      "stribu": 3696,
      "Ġzemalja": 3697,
      "ĠiskljuÄįivo": 3698,
      "lice": 3699,
      "Å¾enju": 3700,
      "Ġgeo": 3701,
      "Ġanalizu": 3702,
      "Ġskoro": 3703,
      "ben": 3704,
      "Ġsasta": 3705,
      "ziju": 3706,
      "Ġrelevant": 3707,
      "Ġposedu": 3708,
      "ĠreÄįnika": 3709,
      "Ġmetode": 3710,
      "oz": 3711,
      "ĠÄĩ": 3712,
      "rea": 3713,
      "Ġobzira": 3714,
      "Ġkrea": 3715,
      "ĠznaÄįajan": 3716,
      "ntu": 3717,
      "rezulta": 3718,
      "Ġnekada": 3719,
      "socija": 3720,
      "dnu": 3721,
      "em": 3722,
      "Ġprivred": 3723,
      "teti": 3724,
      "Ġtekst": 3725,
      "ĠdoÅ¾ivlja": 3726,
      "ranih": 3727,
      "dila": 3728,
      "kiÄĩ": 3729,
      "Ġprimenom": 3730,
      "ara": 3731,
      "nijim": 3732,
      "cenat": 3733,
      "ãİĺ": 3734,
      "ndo": 3735,
      "Äįio": 3736,
      "rao": 3737,
      "Ġovako": 3738,
      "est": 3739,
      "Ġnere": 3740,
      "kaÅ¾e": 3741,
      "Ġdosta": 3742,
      "cionih": 3743,
      "Ġstanju": 3744,
      "Ġsveti": 3745,
      "pti": 3746,
      "lacija": 3747,
      "ĠduÅ¾": 3748,
      "tosti": 3749,
      "Ġprofi": 3750,
      "treba": 3751,
      "Ġtrgo": 3752,
      "Ġdominant": 3753,
      "zan": 3754,
      "solu": 3755,
      "Ġprimenu": 3756,
      "ĠbuduÄĩ": 3757,
      "ction": 3758,
      "njom": 3759,
      "sk": 3760,
      "jeviÄĩ": 3761,
      "sama": 3762,
      "ĠveÄĩe": 3763,
      "Ġobrazovanje": 3764,
      "loÅ¡kom": 3765,
      "Ġizabra": 3766,
      "dakle": 3767,
      "Ġpravila": 3768,
      "Ġporeme": 3769,
      "Ġsrpskoj": 3770,
      "Ġposlednji": 3771,
      "Ġina": 3772,
      "Äįavaju": 3773,
      "ĠvaÅ¾no": 3774,
      "Ġosnovne": 3775,
      "Ġstrukturi": 3776,
      "Ġvisoko": 3777,
      "ĠomoguÄĩi": 3778,
      "Ġsekundar": 3779,
      "Ġopravda": 3780,
      "Ġav": 3781,
      "ĠliÄįnosti": 3782,
      "stvima": 3783,
      "Ġproda": 3784,
      "Ġsadr": 3785,
      "ÅłdÄĨ": 3786,
      "Ġkoncept": 3787,
      "Ġukaza": 3788,
      "ĠkuÄĩu": 3789,
      "Ġglasa": 3790,
      "Ġnano": 3791,
      "Ġsastav": 3792,
      "poÅ¡to": 3793,
      "Ġprakse": 3794,
      "Ġnivoa": 3795,
      "osim": 3796,
      "Ġlekseme": 3797,
      "É«": 3798,
      "Ġfraze": 3799,
      "Ġsiroma": 3800,
      "70": 3801,
      "Ġvladi": 3802,
      "Ġprethodno": 3803,
      "sje": 3804,
      "laÅ¾e": 3805,
      "Ġcivi": 3806,
      "Ġpotreb": 3807,
      "Êĥ": 3808,
      "Ġupi": 3809,
      "sane": 3810,
      "Ġzvu": 3811,
      "198": 3812,
      "blji": 3813,
      "Ãĺ": 3814,
      "logu": 3815,
      "Ġdej": 3816,
      "Ġnajpre": 3817,
      "ĠdoÄĳe": 3818,
      "Ġmene": 3819,
      "ljujuÄĩi": 3820,
      "Ġgodinu": 3821,
      "ĠpoÄįetku": 3822,
      "ĠploÄįa": 3823,
      "È½": 3824,
      "noÅ¡Äĩu": 3825,
      "Ġpribli": 3826,
      "ĠteÅ¾i": 3827,
      "Ġvazdu": 3828,
      "nau": 3829,
      "Ġstepen": 3830,
      "Ġizuzetno": 3831,
      "Ġbje": 3832,
      "Ġcu": 3833,
      "ĠdruÅ¡tvenog": 3834,
      "Ġinstitucija": 3835,
      "Ġnovom": 3836,
      "Ġbora": 3837,
      "Ġmoraju": 3838,
      "Ġkategorije": 3839,
      "Ġpobolj": 3840,
      "ziva": 3841,
      "valu": 3842,
      "Ġdrugoj": 3843,
      "Ġprideva": 3844,
      "Äįnika": 3845,
      "teo": 3846,
      "Ġdati": 3847,
      "Ġobuhva": 3848,
      "Ġuma": 3849,
      "Ġkonstitu": 3850,
      "ĠreÄįniku": 3851,
      "Ġtvorbe": 3852,
      "anali": 3853,
      "pije": 3854,
      "Ġgrupi": 3855,
      "Ġ...": 3856,
      "ĠomoguÄĩava": 3857,
      "tski": 3858,
      "tivan": 3859,
      "Å¾ne": 3860,
      "Ġpripre": 3861,
      "Ġzakona": 3862,
      "Ġkne": 3863,
      "Ġvasi": 3864,
      "Ġhomo": 3865,
      "Ġizazo": 3866,
      "gde": 3867,
      "rnom": 3868,
      "ĠF": 3869,
      "Ġgb": 3870,
      "ĠsaÄįu": 3871,
      "Ġtuj": 3872,
      "Ġopse": 3873,
      "Ġrazre": 3874,
      "Ġtipi": 3875,
      "Ġistom": 3876,
      "ĠÅ¾rt": 3877,
      "jim": 3878,
      "stoga": 3879,
      "Ġsvakom": 3880,
      "Ġideje": 3881,
      "Ġ1996": 3882,
      "beogra": 3883,
      "Ġposred": 3884,
      "Ġosnovnih": 3885,
      "vrede": 3886,
      "jedan": 3887,
      "Ġreprezen": 3888,
      "Ġljuba": 3889,
      "Ġderiva": 3890,
      "ĠÄĳa": 3891,
      "roviÄĩ": 3892,
      "tovanje": 3893,
      "Ġefek": 3894,
      "Ġtoplo": 3895,
      "Ġsino": 3896,
      "Ġovoga": 3897,
      "Ġorijenta": 3898,
      "ct": 3899,
      "mentu": 3900,
      "ĠÅ¾ivotne": 3901,
      "60": 3902,
      "hy": 3903,
      "45": 3904,
      "osno": 3905,
      "Ġulja": 3906,
      "mos": 3907,
      "Ġproizvoda": 3908,
      "jednako": 3909,
      "Ġkvanti": 3910,
      "Ġponu": 3911,
      "Äĩeno": 3912,
      "Éħ": 3913,
      "neti": 3914,
      "ĠâĢ¢": 3915,
      "ĠmoÄĩ": 3916,
      "Ġzu": 3917,
      "Ġ60": 3918,
      "balka": 3919,
      "Ġnjegovih": 3920,
      "zbor": 3921,
      "rina": 3922,
      "Ġprati": 3923,
      "Ãªn": 3924,
      "Ġregula": 3925,
      "hodno": 3926,
      "Ġkomunikacije": 3927,
      "Ġkata": 3928,
      "Ġtoliko": 3929,
      "fici": 3930,
      "Ġnacionalne": 3931,
      "Ġkorpu": 3932,
      "Îº": 3933,
      "Ġopisu": 3934,
      "Ġpobe": 3935,
      "ĠnaÅ¡": 3936,
      "pod": 3937,
      "Ġdigita": 3938,
      "Ġgradi": 3939,
      "Ġcrne": 3940,
      "Ġotpor": 3941,
      "Ġori": 3942,
      "Å¡oj": 3943,
      "Ġiskustva": 3944,
      "Ġuniverza": 3945,
      "beli": 3946,
      "Ġlice": 3947,
      "Ġokre": 3948,
      "Ġnastavnika": 3949,
      "Ġzemljama": 3950,
      "baci": 3951,
      "Ġvizanti": 3952,
      "Ġfaktora": 3953,
      "ĠÄįija": 3954,
      "ĠizveÅ¡ta": 3955,
      "kupi": 3956,
      "Ġspolja": 3957,
      "paci": 3958,
      "ljen": 3959,
      "rhi": 3960,
      "grada": 3961,
      "stepe": 3962,
      "ĠzadrÅ¾a": 3963,
      "Ġprva": 3964,
      "Ġrus": 3965,
      "Ġprofesional": 3966,
      "Ġud": 3967,
      "cionog": 3968,
      "Ġslova": 3969,
      "Ġproblemati": 3970,
      "Ġgori": 3971,
      "Ġpojavlju": 3972,
      "Ġsredstva": 3973,
      "Ġstatus": 3974,
      "Ġjednostav": 3975,
      "beograd": 3976,
      "njene": 3977,
      "Ġtero": 3978,
      "Ġcrkveno": 3979,
      "Å¡en": 3980,
      "lizova": 3981,
      "ĠuÅ¾i": 3982,
      "ĠnaÄįe": 3983,
      "Ġkogni": 3984,
      "Ġdijalekat": 3985,
      "Ġxx": 3986,
      "Ġslobode": 3987,
      "Ġfunkciji": 3988,
      "uzda": 3989,
      "vka": 3990,
      "Ġgena": 3991,
      "Ġizbegli": 3992,
      "Î¼": 3993,
      "Ġota": 3994,
      "Ġizbora": 3995,
      "Ġfol": 3996,
      "Ġizgu": 3997,
      "Å¡an": 3998,
      "her": 3999,
      "ĠÅ¾ele": 4000,
      "Ġsamim": 4001,
      "48": 4002,
      "kove": 4003,
      "Ġvodu": 4004,
      "Ġstvarala": 4005,
      "Ġpolju": 4006,
      "dara": 4007,
      "31": 4008,
      "Â«": 4009,
      "stupi": 4010,
      "ĠizvrÅ¡e": 4011,
      "Ġpato": 4012,
      "Ġostalih": 4013,
      "ĠobeleÅ¾": 4014,
      "Ġvisi": 4015,
      "Äįuje": 4016,
      "Ġ1999": 4017,
      "dig": 4018,
      "Ġnepre": 4019,
      "Ġsvesti": 4020,
      "Ġimper": 4021,
      "Ġteritori": 4022,
      "fiko": 4023,
      "at": 4024,
      "Ġref": 4025,
      "ĠbaÅ¡": 4026,
      "ĠobjaÅ¡nje": 4027,
      "Ġevrope": 4028,
      "Ġinformacije": 4029,
      "Ġbavi": 4030,
      "que": 4031,
      "matski": 4032,
      "ĠnajveÄĩi": 4033,
      "Ġ100": 4034,
      "Ġspolj": 4035,
      "Ġalterna": 4036,
      "Ġindika": 4037,
      "Ġjavnog": 4038,
      "Ġbol": 4039,
      "Ġstani": 4040,
      "Ġtran": 4041,
      "Ġspada": 4042,
      "Ġagro": 4043,
      "Ġsusre": 4044,
      "Ġdetek": 4045,
      "Ġkuku": 4046,
      "Ġetimo": 4047,
      "32": 4048,
      "Ġaj": 4049,
      "Ġrekon": 4050,
      "Ġplan": 4051,
      "kvu": 4052,
      "rske": 4053,
      "jev": 4054,
      "vajuÄĩi": 4055,
      "ĠÅ¾an": 4056,
      "Ġcrkva": 4057,
      "Ġ.": 4058,
      "Ġdne": 4059,
      "lici": 4060,
      "Ġnekom": 4061,
      "Ġzvani": 4062,
      "Ġmenta": 4063,
      "Å¡avanje": 4064,
      "Ġsvakog": 4065,
      "47": 4066,
      "kne": 4067,
      "ĠraÄįuna": 4068,
      "vid": 4069,
      "zaj": 4070,
      "rent": 4071,
      "movi": 4072,
      "ĠreÅ¡enja": 4073,
      "Å¡eviÄĩ": 4074,
      "vnika": 4075,
      "Ġpol": 4076,
      "Ġrom": 4077,
      "Ġsvake": 4078,
      "ie": 4079,
      "Ġnai": 4080,
      "Ġmotivi": 4081,
      "Ġstrani": 4082,
      "kvat": 4083,
      "mno": 4084,
      "Ġ1990": 4085,
      "njuju": 4086,
      "Ġpredmeta": 4087,
      "Ġkarakter": 4088,
      "tov": 4089,
      "Ġ35": 4090,
      "ĠistraÅ¾ivanju": 4091,
      "Ġsmatraju": 4092,
      "Ġaspek": 4093,
      "vosti": 4094,
      "Ġzabra": 4095,
      "sobno": 4096,
      "Ġanalizi": 4097,
      "ĠponaÅ¡anje": 4098,
      "Â»": 4099,
      "ĠâĢ¦": 4100,
      "cama": 4101,
      "ĠkuÄĩa": 4102,
      "ĠkÃªd": 4103,
      "leme": 4104,
      "Äī": 4105,
      "Ġdaleko": 4106,
      "Ġuniverzitet": 4107,
      "ĠpodruÄįja": 4108,
      "gan": 4109,
      "ĠuÄįenja": 4110,
      "Ġdistribu": 4111,
      "Ġuslova": 4112,
      "tana": 4113,
      "Ġprof": 4114,
      "Ġbismo": 4115,
      "Ġ1994": 4116,
      "Ġoprede": 4117,
      "Ïħ": 4118,
      "ĠÄĳe": 4119,
      "Ġdb": 4120,
      "Ġsuo": 4121,
      "Ġstil": 4122,
      "Ġslici": 4123,
      "Ġispolja": 4124,
      "dago": 4125,
      "pati": 4126,
      "Ġsintag": 4127,
      "mbra": 4128,
      "dili": 4129,
      "Ġpripove": 4130,
      "Ġtesti": 4131,
      "ĠÎº": 4132,
      "Ġpreporu": 4133,
      "Ġdubro": 4134,
      "ĠkÃªt": 4135,
      "Ġmanife": 4136,
      "dÅ¾i": 4137,
      "Ġosobine": 4138,
      "Ġtermino": 4139,
      "Äįnik": 4140,
      "Ġizraz": 4141,
      "Ġprojekta": 4142,
      "Ġtemperature": 4143,
      "ĠpÅ¡e": 4144,
      "Ġura": 4145,
      "tip": 4146,
      "Ġmne": 4147,
      "Ġinternet": 4148,
      "ksu": 4149,
      "lama": 4150,
      "Ġkompe": 4151,
      "Ġobrade": 4152,
      "Ġvremenu": 4153,
      "Ġvelikoj": 4154,
      "Ġjavljaju": 4155,
      "zda": 4156,
      "Ġstoga": 4157,
      "Äĩenje": 4158,
      "ĠpoÄįetka": 4159,
      "Ġkonstrukcije": 4160,
      "ĠodgovarajuÄĩi": 4161,
      "Ġpav": 4162,
      "Ġpredme": 4163,
      "ĠuÄįestvo": 4164,
      "Ġsmrti": 4165,
      "lena": 4166,
      "Ġep": 4167,
      "put": 4168,
      "zer": 4169,
      "ĠpodrÅ¾a": 4170,
      "ĠznaÄįewa": 4171,
      "mani": 4172,
      "losti": 4173,
      "ĠveÄĩa": 4174,
      "Ġ45": 4175,
      "ĠistraÅ¾ivanjima": 4176,
      "Ġpotencija": 4177,
      "Ġkretanja": 4178,
      "stre": 4179,
      "Ġotvara": 4180,
      "Ġkaraktera": 4181,
      "68": 4182,
      "ksom": 4183,
      "zanja": 4184,
      "Ġsveto": 4185,
      "Ġnajma": 4186,
      "ĠÃ¨": 4187,
      "gori": 4188,
      "Ġdelom": 4189,
      "ĠÄįuva": 4190,
      "Ġfoku": 4191,
      "Ġpotpunosti": 4192,
      "Ġponovo": 4193,
      "niko": 4194,
      "Ġneprija": 4195,
      "44": 4196,
      "Ġupozna": 4197,
      "ĠÉŀ": 4198,
      "Ġbiljke": 4199,
      "78": 4200,
      "lli": 4201,
      "Ġopis": 4202,
      "taj": 4203,
      "Ġzagre": 4204,
      "canje": 4205,
      "fiju": 4206,
      "Ġjedino": 4207,
      "janoviÄĩ": 4208,
      "nese": 4209,
      "Ġsrednjo": 4210,
      "Ġponavlja": 4211,
      "nograf": 4212,
      "gna": 4213,
      "njama": 4214,
      "rijar": 4215,
      "ĠÄįetvr": 4216,
      "ĠutiÄįu": 4217,
      "Ġneposredno": 4218,
      "È¿": 4219,
      "Ġozbi": 4220,
      "Ġvida": 4221,
      "Ġslike": 4222,
      "Ġuslovi": 4223,
      "Ġcentar": 4224,
      "Ġsvojstva": 4225,
      "Ġcelokup": 4226,
      "ÄĲ": 4227,
      "giju": 4228,
      "Ġpostojanje": 4229,
      "hro": 4230,
      "cipli": 4231,
      "Ġkara": 4232,
      "Ġtakav": 4233,
      "Ã¥e": 4234,
      "ĠmiÅ¡ljenja": 4235,
      "Ġ22": 4236,
      "Ġ190": 4237,
      "ĠÅ¡koli": 4238,
      "Ġliteraturi": 4239,
      "Äĥ": 4240,
      "koji": 4241,
      "Ġnjegovu": 4242,
      "Ġ1998": 4243,
      "Ġbeograda": 4244,
      "ls": 4245,
      "Ġpoz": 4246,
      "pova": 4247,
      "Ġvrati": 4248,
      "Ġfunkcije": 4249,
      "Ġala": 4250,
      "svet": 4251,
      "ĠsluÄįajevima": 4252,
      "Ġizja": 4253,
      "taciju": 4254,
      "logo": 4255,
      "rup": 4256,
      "Ġnepri": 4257,
      "Ġbija": 4258,
      "Ġmle": 4259,
      "Ġfunkciju": 4260,
      "Ġmaterijal": 4261,
      "jezi": 4262,
      "Ġmase": 4263,
      "jsko": 4264,
      "nas": 4265,
      "Ġizvan": 4266,
      "Ġprven": 4267,
      "Ġdosti": 4268,
      "Ġnjene": 4269,
      "ljivosti": 4270,
      "noda": 4271,
      "Ġdeter": 4272,
      "Ġtej": 4273,
      "Ġmir": 4274,
      "Ġjednoj": 4275,
      "Ġada": 4276,
      "njeni": 4277,
      "sani": 4278,
      "Ġrelativno": 4279,
      "Ġtakve": 4280,
      "ĠznaÄįenju": 4281,
      "oci": 4282,
      "ukoliko": 4283,
      "Ġmitro": 4284,
      "ĠÄįlana": 4285,
      "65": 4286,
      "Ġspi": 4287,
      "Ġpolja": 4288,
      "Ġstoji": 4289,
      "ac": 4290,
      "Ġnavode": 4291,
      "Ġistog": 4292,
      "É¢Êģ": 4293,
      "rezultati": 4294,
      "cha": 4295,
      "Ġosla": 4296,
      "Ġapo": 4297,
      "Ġfon": 4298,
      "sum": 4299,
      "Ġostvare": 4300,
      "Ġdiscipli": 4301,
      "Ġog": 4302,
      "Ġlepo": 4303,
      "cipa": 4304,
      "Ġprimerima": 4305,
      "Ġjedinice": 4306,
      "ĠoznaÄįava": 4307,
      "Î¯": 4308,
      "Ġstare": 4309,
      "Ġ2021": 4310,
      "Ġjavne": 4311,
      "Ġnaziv": 4312,
      "Ġute": 4313,
      "Äĳo": 4314,
      "ĠnauÄįni": 4315,
      "ÉªÉŁÉ": 4316,
      "Ġmoda": 4317,
      "Äįari": 4318,
      "Ġimale": 4319,
      "rekven": 4320,
      "ĠuobiÄįaje": 4321,
      "svi": 4322,
      "njak": 4323,
      "gura": 4324,
      "Ġsamom": 4325,
      "Ġnjihovom": 4326,
      "Ġfilozofije": 4327,
      "Ġvege": 4328,
      "Ġnavedenih": 4329,
      "Ġdrago": 4330,
      "Ġrazumevanje": 4331,
      "Ġherbi": 4332,
      "nskoj": 4333,
      "zime": 4334,
      "Ġvene": 4335,
      "Ġprimeru": 4336,
      "lizam": 4337,
      "Ġsredini": 4338,
      "Ġbrat": 4339,
      "ĠÄįlanova": 4340,
      "ĠnaÅ¡eg": 4341,
      "Äĳenih": 4342,
      "mila": 4343,
      "Ġonoga": 4344,
      "slovenskog": 4345,
      "Ġtehnologija": 4346,
      "Ġpriz": 4347,
      "tskog": 4348,
      "Ġpripa": 4349,
      "Ġtransforma": 4350,
      "Ġapsolu": 4351,
      "Ġoru": 4352,
      "Ġvika": 4353,
      "ĠpoboljÅ¡a": 4354,
      "Ġneku": 4355,
      "Ġjavnosti": 4356,
      "ĠnauÄįno": 4357,
      "Ġparadig": 4358,
      "ĠporemeÄĩa": 4359,
      "kljuÄįne": 4360,
      "Ġrezultate": 4361,
      "Ġhibri": 4362,
      "nacional": 4363,
      "vljena": 4364,
      "Ġuzoraka": 4365,
      "Ġrat": 4366,
      "Ġnjen": 4367,
      "meto": 4368,
      "ĠproÅ¡": 4369,
      "Ġsvaka": 4370,
      "Ġodabra": 4371,
      "eu": 4372,
      "Ġrasta": 4373,
      "Ġdelova": 4374,
      "Ġdirektno": 4375,
      "ĠdE": 4376,
      "tero": 4377,
      "Ġpatrijar": 4378,
      "obi": 4379,
      "tve": 4380,
      "Å¡kog": 4381,
      "Ġsame": 4382,
      "Ġhrane": 4383,
      "Ġpravcu": 4384,
      "kna": 4385,
      "nara": 4386,
      "jaÄįa": 4387,
      "Ġtenden": 4388,
      "sov": 4389,
      "Ġgranice": 4390,
      "Ġosnovni": 4391,
      "Ġmuzika": 4392,
      "zaciji": 4393,
      "Ġtehnologije": 4394,
      "Ġfakulteta": 4395,
      "meno": 4396,
      "sis": 4397,
      "Ġobliko": 4398,
      "Ġakcenat": 4399,
      "ĠstatistiÄįki": 4400,
      "mato": 4401,
      "Ġdubo": 4402,
      "Ġakcen": 4403,
      "Ġdemokratije": 4404,
      "Ġpopulacije": 4405,
      "Ġsje": 4406,
      "Ġperspektive": 4407,
      "ovi": 4408,
      "Ġnaz": 4409,
      "tes": 4410,
      "mino": 4411,
      "Ġdeteta": 4412,
      "ĠnajvaÅ¾": 4413,
      "Ġnjihovu": 4414,
      "Ġoblicima": 4415,
      "Å¡njo": 4416,
      "Ġinde": 4417,
      "Ġjavno": 4418,
      "Ġvari": 4419,
      "Ġbud": 4420,
      "Ġcrkvi": 4421,
      "Ġboja": 4422,
      "ĠpolitiÄįki": 4423,
      "Ġtrenutku": 4424,
      "Ġprevazi": 4425,
      "Ġprera": 4426,
      "ljene": 4427,
      "Ġpedago": 4428,
      "Ġtradicije": 4429,
      "ĠmreÅ¾a": 4430,
      "Ġpreduze": 4431,
      "Ġlisto": 4432,
      "Ġgrupu": 4433,
      "Ġsituacija": 4434,
      "Éİ": 4435,
      "Ġpogre": 4436,
      "dove": 4437,
      "Ġstavlja": 4438,
      "ĠÉ¤": 4439,
      "ĠupuÄĩuje": 4440,
      "Ġinicija": 4441,
      "Ġproi": 4442,
      "cal": 4443,
      "Ġmedija": 4444,
      "Ġhor": 4445,
      "ĠnauÄįnih": 4446,
      "ĠÂ«": 4447,
      "Ġsorte": 4448,
      "Ġun": 4449,
      "Ġvalja": 4450,
      "gg": 4451,
      "mbe": 4452,
      "Ġkup": 4453,
      "Ġjezicima": 4454,
      "Ġtranzi": 4455,
      "ĠÑį": 4456,
      "struktu": 4457,
      "Ġprete": 4458,
      "Ġnog": 4459,
      "Ġdije": 4460,
      "Ġsvad": 4461,
      "ĠjovanoviÄĩ": 4462,
      "Ġintereso": 4463,
      "ĠmiÅ¡ljenje": 4464,
      "Ġsc": 4465,
      "ÉĤ": 4466,
      "lak": 4467,
      "Ġzapad": 4468,
      "ĠsluÅ¾bi": 4469,
      "Ġpozo": 4470,
      "Ġdrugu": 4471,
      "Ġsoje": 4472,
      "Ġkonferen": 4473,
      "Ġnjenog": 4474,
      "Ġproteina": 4475,
      "Ġpovrtar": 4476,
      "nc": 4477,
      "Ġmila": 4478,
      "Ġoptere": 4479,
      "80": 4480,
      "AN": 4481,
      "Ġsedi": 4482,
      "pozna": 4483,
      "ĠizvrÅ¡i": 4484,
      "Ġprirodi": 4485,
      "onaj": 4486,
      "Ġnacionalnih": 4487,
      "Ġzakonoda": 4488,
      "Ġaku": 4489,
      "ĠsveÅ¡te": 4490,
      "Ġradika": 4491,
      "prvi": 4492,
      "ÉŁÉ§": 4493,
      "gh": 4494,
      "Ġjako": 4495,
      "Ġsoli": 4496,
      "Ġakadem": 4497,
      "Ġsprovede": 4498,
      "%,": 4499,
      "rum": 4500,
      "Ġnemo": 4501,
      "Ġmoj": 4502,
      "mentima": 4503,
      "ntasti": 4504,
      "ĠukljuÄįujuÄĩi": 4505,
      "Ġsci": 4506,
      "loge": 4507,
      "grad": 4508,
      "zue": 4509,
      "Ġboje": 4510,
      "Ġostaje": 4511,
      "tara": 4512,
      "Ġsuvere": 4513,
      "Ġreda": 4514,
      "Ġdelovanja": 4515,
      "veko": 4516,
      "Ġodu": 4517,
      "Äįini": 4518,
      "Ġstro": 4519,
      "ĠtiÄįe": 4520,
      "Ġsredstava": 4521,
      "Ġpf": 4522,
      "Ġproblemi": 4523,
      "lizacija": 4524,
      "Ġzadatak": 4525,
      "Ġuslu": 4526,
      "dri": 4527,
      "Ġkapaci": 4528,
      "mentar": 4529,
      "Ġnjegovim": 4530,
      "ĠnaÅ¡a": 4531,
      "ficije": 4532,
      "Ġisho": 4533,
      "ĠdruÅ¡tveno": 4534,
      "Ġfrazeo": 4535,
      "Ġpodatke": 4536,
      "Ġsimboli": 4537,
      "Ġnajbolje": 4538,
      "Ġcije": 4539,
      "Ġsy": 4540,
      "Ġopozi": 4541,
      "lio": 4542,
      "Ġpote": 4543,
      "Ġpovra": 4544,
      "É¢É¦": 4545,
      "Ġkoe": 4546,
      "Ġostalog": 4547,
      "ĠznaÄįajne": 4548,
      "koviÄĩe": 4549,
      "46": 4550,
      "reti": 4551,
      "Ġprimje": 4552,
      "hrvat": 4553,
      "rnost": 4554,
      "Ġprinosa": 4555,
      "Ġimamo": 4556,
      "Ġosigu": 4557,
      "Ġdonosi": 4558,
      "Ġobjasni": 4559,
      "staviti": 4560,
      "41": 4561,
      "Ġdiplo": 4562,
      "Ġtvrdi": 4563,
      "Ġprincip": 4564,
      "Ġmladih": 4565,
      "res": 4566,
      "ĠuÄįeÅ¡Äĩe": 4567,
      "ovek": 4568,
      "klapa": 4569,
      "Ġroditelja": 4570,
      "tetom": 4571,
      "Ġpart": 4572,
      "Ġintegri": 4573,
      "Ġrok": 4574,
      "el": 4575,
      "Ġpen": 4576,
      "Ġodsu": 4577,
      "Ġefe": 4578,
      "Ġumesto": 4579,
      "Ġeduka": 4580,
      "Ġsrod": 4581,
      "stavi": 4582,
      "mit": 4583,
      "nÄįe": 4584,
      "ĠÄįvrsto": 4585,
      "%)": 4586,
      "rnosti": 4587,
      "ĠÅĵid": 4588,
      "ĠveÄĩina": 4589,
      "Ġuzorka": 4590,
      "Ġfolklo": 4591,
      "Ñ£": 4592,
      "let": 4593,
      "Ã¥i": 4594,
      "Ġpokazala": 4595,
      "Ġupr": 4596,
      "Î³": 4597,
      "Ġneiz": 4598,
      "Ġpartija": 4599,
      "ĠsledeÄĩe": 4600,
      "mna": 4601,
      "var": 4602,
      "ĠÅ¡te": 4603,
      "Ġbrzo": 4604,
      "75": 4605,
      "aj": 4606,
      "gmati": 4607,
      "Ġnemogu": 4608,
      "Ġroma": 4609,
      "Ġhidro": 4610,
      "Ġrje": 4611,
      "ĠodluÄįi": 4612,
      "Ġpostignu": 4613,
      "Ê¼": 4614,
      "vost": 4615,
      "lovi": 4616,
      "ler": 4617,
      "Å¡avanja": 4618,
      "Ġski": 4619,
      "ziji": 4620,
      "ferent": 4621,
      "linu": 4622,
      "ĠzaÅ¡to": 4623,
      "deÄĩi": 4624,
      "ljivih": 4625,
      "Ġapri": 4626,
      "njeno": 4627,
      "Å¡iti": 4628,
      "koviÄĩa": 4629,
      "lazak": 4630,
      "Ġdal": 4631,
      "90": 4632,
      "dati": 4633,
      "ĠsluÅ¾i": 4634,
      "ĠnaÅ¡em": 4635,
      "ĠsledeÄĩi": 4636,
      "Ġgranica": 4637,
      "Ġnasilja": 4638,
      "lt": 4639,
      "misli": 4640,
      "Ġizvr": 4641,
      "Ġtakva": 4642,
      "Ġsituacije": 4643,
      "Ġkonstrukcija": 4644,
      "Ġote": 4645,
      "Ġglu": 4646,
      "Ġlitur": 4647,
      "ĠznaÄįenjem": 4648,
      "tanje": 4649,
      "voÄĳa": 4650,
      "Ġzaista": 4651,
      "Ġmigra": 4652,
      "Å¡ar": 4653,
      "ĠpodruÄįju": 4654,
      "Ġpublika": 4655,
      "stiÄĩ": 4656,
      "cati": 4657,
      "Ġostale": 4658,
      "Ġustav": 4659,
      "nuta": 4660,
      "slov": 4661,
      "Ġnjihovim": 4662,
      "jer": 4663,
      "Ġhege": 4664,
      "Emo": 4665,
      "Ġita": 4666,
      "ĠnaÅ¡oj": 4667,
      "dela": 4668,
      "Äįin": 4669,
      "ĠmuziÄįke": 4670,
      "ĠÄĳorÄĳe": 4671,
      "tokom": 4672,
      "Ġate": 4673,
      "Ġgovoriti": 4674,
      "intere": 4675,
      "Ġelementi": 4676,
      "Ġkapita": 4677,
      "Ġosvr": 4678,
      "tovanja": 4679,
      "Ġdar": 4680,
      "Ġprevo": 4681,
      "tivnoj": 4682,
      "zerva": 4683,
      "tika": 4684,
      "bez": 4685,
      "ĠtraÅ¾i": 4686,
      "Ġ1991": 4687,
      "Ġraste": 4688,
      "ĠpoÄįetkom": 4689,
      "Ġpartije": 4690,
      "Ġparla": 4691,
      "ĠodreÄĳeni": 4692,
      "ĠdomaÄĩin": 4693,
      "76": 4694,
      "ĠzaÅ¡titi": 4695,
      "ĠukljuÄįi": 4696,
      "Ġubr": 4697,
      "zanje": 4698,
      "cipi": 4699,
      "Ġkono": 4700,
      "siÄĩ": 4701,
      "iH": 4702,
      "Ġjesu": 4703,
      "Ġbelo": 4704,
      "Ġles": 4705,
      "ĠuÄįestvu": 4706,
      "Ġekstra": 4707,
      "Ġizaz": 4708,
      "Ġsvetskog": 4709,
      "Äĩoj": 4710,
      "Ġmolit": 4711,
      "Ġopsta": 4712,
      "Ġprocedu": 4713,
      "vreda": 4714,
      "ferencijal": 4715,
      "Î·": 4716,
      "reo": 4717,
      "Ġusa": 4718,
      "Ġvije": 4719,
      "ĠdogaÄĳaja": 4720,
      "Ġune": 4721,
      "vidi": 4722,
      "Ġnepro": 4723,
      "Ġcm": 4724,
      "Ġraznovr": 4725,
      "torima": 4726,
      "demo": 4727,
      "Å¾avanje": 4728,
      "Ġprvoj": 4729,
      "Ġokvir": 4730,
      "Ġevropske": 4731,
      "ĠinaÄįe": 4732,
      "Ġprvenstveno": 4733,
      "Ġlje": 4734,
      "tost": 4735,
      "Ġkg": 4736,
      "Ġglasnik": 4737,
      "Ġporeklo": 4738,
      "Ġispitivanje": 4739,
      "Ġanaliti": 4740,
      "kru": 4741,
      "Ġsvije": 4742,
      "Ġmotiva": 4743,
      "Ġistoriju": 4744,
      "ĠvaÅ¾an": 4745,
      "Ġprofesor": 4746,
      "Ġozbilj": 4747,
      "Ġil": 4748,
      "Ġrazum": 4749,
      "Ġepo": 4750,
      "Ġsrpskim": 4751,
      "zme": 4752,
      "Ġevi": 4753,
      "ĠpolitiÄįkog": 4754,
      "Ġoslobo": 4755,
      "Ġpolje": 4756,
      "Ġdaju": 4757,
      "Ġpreuze": 4758,
      "Ġmada": 4759,
      "Ġkulturnih": 4760,
      "Ġvelikim": 4761,
      "Ġoksi": 4762,
      "ron": 4763,
      "gena": 4764,
      "Ġimeni": 4765,
      "Ġuticajem": 4766,
      "Ġoset": 4767,
      "ĠÅ¡uma": 4768,
      "ranju": 4769,
      "hom": 4770,
      "Ġvrstu": 4771,
      "Ġglagolskih": 4772,
      "Ġdelimi": 4773,
      "Å¡njem": 4774,
      "Ġnjive": 4775,
      "ĠzahvaljujuÄĩi": 4776,
      "Ġpor": 4777,
      "Ġbeli": 4778,
      "ĠuÄįenje": 4779,
      "Ġiznad": 4780,
      "plani": 4781,
      "vE": 4782,
      "Ġinost": 4783,
      "Ġaori": 4784,
      "Ġizlaga": 4785,
      "Ġsrbiju": 4786,
      "49": 4787,
      "vin": 4788,
      "Ġfrag": 4789,
      "Ġî": 4790,
      "veo": 4791,
      "miÄĩ": 4792,
      "deti": 4793,
      "ginal": 4794,
      "Ġrod": 4795,
      "ĠodreÄĳen": 4796,
      "ĠÉ¨": 4797,
      "Ġpojedinim": 4798,
      "Ġxix": 4799,
      "É¡": 4800,
      "pom": 4801,
      "vene": 4802,
      "fer": 4803,
      "Ġpis": 4804,
      "Ġciklu": 4805,
      "Ġprincipa": 4806,
      "fizi": 4807,
      "Ġvrata": 4808,
      "ĠpodrÅ¡ku": 4809,
      "ei": 4810,
      "ces": 4811,
      "Ġspecijal": 4812,
      "Ġopet": 4813,
      "Ġred": 4814,
      "Ġmole": 4815,
      "ĠÂ»": 4816,
      "Ġodgovora": 4817,
      "Ġslabo": 4818,
      "Ġsorti": 4819,
      "Ġjedinstve": 4820,
      "odre": 4821,
      "ĠstanoviÅ¡ta": 4822,
      "É«É": 4823,
      "loÅ¡ku": 4824,
      "Ġalba": 4825,
      "tine": 4826,
      "Å¾nja": 4827,
      "ljeno": 4828,
      "Ġprimena": 4829,
      "ĠgraÄĳana": 4830,
      "Ġzdravstve": 4831,
      "Ġmlogo": 4832,
      "Ġkrajem": 4833,
      "metri": 4834,
      "Ġinterven": 4835,
      "Ġpercep": 4836,
      "Ġresursa": 4837,
      "Ġteritoriji": 4838,
      "Ġotu": 4839,
      "vodom": 4840,
      "Ġrabo": 4841,
      "siji": 4842,
      "Ġtelo": 4843,
      "Ġvrijeme": 4844,
      "roviÄĩa": 4845,
      "Ġsep": 4846,
      "des": 4847,
      "Äįer": 4848,
      "seÄĩa": 4849,
      "Ġmaksima": 4850,
      "ĠvrÅ¡e": 4851,
      "ĠdruÅ¡tvenim": 4852,
      "Ġzanim": 4853,
      "Ġodstupa": 4854,
      "Ġdomenu": 4855,
      "mente": 4856,
      "ĠmeÄĳusobno": 4857,
      "É¢É§": 4858,
      "Ġprijatelj": 4859,
      "autor": 4860,
      "Ġasi": 4861,
      "ĠodrÅ¾i": 4862,
      "binu": 4863,
      "Äĩima": 4864,
      "ster": 4865,
      "ĠobjaÅ¡nja": 4866,
      "Ġkukuru": 4867,
      "ĠÏĢ": 4868,
      "jiÄĩ": 4869,
      "mova": 4870,
      "Äįica": 4871,
      "Ġbes": 4872,
      "ĠnauÄįne": 4873,
      "loka": 4874,
      "Ġmono": 4875,
      "Ġkojeg": 4876,
      "Ġnematerija": 4877,
      "Ġimo": 4878,
      "nizama": 4879,
      "Ġljudima": 4880,
      "Ġinterneta": 4881,
      "zato": 4882,
      "Ġbran": 4883,
      "Ġpacije": 4884,
      "Ġeksperimenta": 4885,
      "Ġsastoji": 4886,
      "ĠsliÄįno": 4887,
      "stoje": 4888,
      "ĪĴ": 4889,
      "Ġpokri": 4890,
      "laska": 4891,
      "ĠduÅ¡e": 4892,
      "ÉļÉ§": 4893,
      "Ġsavez": 4894,
      "Ġenerge": 4895,
      "Ġatmos": 4896,
      "vile": 4897,
      "Ġby": 4898,
      "Ġdise": 4899,
      "Ġnovim": 4900,
      "Ġistorija": 4901,
      "ĠÉŃ": 4902,
      "Ġinstitucije": 4903,
      "ĠpoloÅ¾aj": 4904,
      "rena": 4905,
      "Ġpriloga": 4906,
      "Ġrea": 4907,
      "Ġkonku": 4908,
      "wem": 4909,
      "Ġstrategija": 4910,
      "Ġorijenti": 4911,
      "ĠzavrÅ¡i": 4912,
      "Ġdobra": 4913,
      "Ġnemaju": 4914,
      "uzro": 4915,
      "ministra": 4916,
      "ut": 4917,
      "Ġnada": 4918,
      "Å¾na": 4919,
      "Ġtka": 4920,
      "Ġglamo": 4921,
      "Ġmodu": 4922,
      "cer": 4923,
      "ĠnajznaÄįaj": 4924,
      "vnik": 4925,
      "Ç¥": 4926,
      "Å¾em": 4927,
      "ĠviÅ¡i": 4928,
      "ĠuÄįini": 4929,
      "Ġsposobnost": 4930,
      "Ġkontinui": 4931,
      "ĠÎºÎ±": 4932,
      "66": 4933,
      "mak": 4934,
      "Ġ1995": 4935,
      "ĠdruÅ¡tveni": 4936,
      "Ġkomponente": 4937,
      "Ġujedi": 4938,
      "sual": 4939,
      "Ġvredno": 4940,
      "Ġmnogi": 4941,
      "osta": 4942,
      "snom": 4943,
      "Ġ<": 4944,
      "Ġubi": 4945,
      "Ġkonf": 4946,
      "snoj": 4947,
      "Ġnarodne": 4948,
      "Ġizdanja": 4949,
      "Äįaka": 4950,
      "Äįavanje": 4951,
      "Ġsnaga": 4952,
      "Ġkame": 4953,
      "Ġpregled": 4954,
      "Ġkupi": 4955,
      "Ġdrvo": 4956,
      "Ġstrategije": 4957,
      "gov": 4958,
      "Ġevolu": 4959,
      "Ġtabeli": 4960,
      "habili": 4961,
      "vljen": 4962,
      "ĠodreÄĳenih": 4963,
      "Ġurednik": 4964,
      "ad": 4965,
      "tki": 4966,
      "ÉĽ": 4967,
      "Ġpropa": 4968,
      "Ġznam": 4969,
      "sorp": 4970,
      "gno": 4971,
      "zy": 4972,
      "Ġjedini": 4973,
      "Ġsprovo": 4974,
      "ĠmuÅ¡kar": 4975,
      ".:": 4976,
      "reÄį": 4977,
      "zad": 4978,
      "Ġkat": 4979,
      "Äĳenjem": 4980,
      "Ç¥Ç¥": 4981,
      "leo": 4982,
      "Ġzameni": 4983,
      "Ġpromeni": 4984,
      "ÄĮj": 4985,
      "95": 4986,
      "cilj": 4987,
      "Ġsen": 4988,
      "Ġnikada": 4989,
      "Ġhla": 4990,
      "Ġuskoci": 4991,
      "toviÄĩ": 4992,
      "Ġtabela": 4993,
      "Ġ70": 4994,
      "dva": 4995,
      "ee": 4996,
      "njaka": 4997,
      "klanja": 4998,
      "É¨Éŀ": 4999,
      "Ġodluka": 5000,
      "Ġdiskur": 5001,
      "Ïī": 5002,
      "ruju": 5003,
      "sio": 5004,
      "Äĩeni": 5005,
      "Ġmasa": 5006,
      "Ġjugoslaviji": 5007,
      "Ġuza": 5008,
      "Ġpouzda": 5009,
      "Ġseo": 5010,
      "bilnost": 5011,
      "Ġmale": 5012,
      "Ġimplici": 5013,
      "Ġsredstvo": 5014,
      "ĠmreÅ¾e": 5015,
      "siju": 5016,
      "55": 5017,
      "tenti": 5018,
      "Å¾ni": 5019,
      "Ġlak": 5020,
      "daj": 5021,
      "Ġfazi": 5022,
      "Ġjednako": 5023,
      "ny": 5024,
      "Ġfantasti": 5025,
      "Ġradovi": 5026,
      "rala": 5027,
      "tuali": 5028,
      "Ġzra": 5029,
      "Å¾elj": 5030,
      "Ġosnovna": 5031,
      "Ġ1992": 5032,
      "Ġiskustvo": 5033,
      "Ġmnoge": 5034,
      "ĠÅ¾ivotinja": 5035,
      "Ġadekvat": 5036,
      "vama": 5037,
      "Ġstariji": 5038,
      "Ġresur": 5039,
      "tional": 5040,
      "toli": 5041,
      "Ġmoje": 5042,
      "Ġvek": 5043,
      "ĠkuÄĩi": 5044,
      "%.": 5045,
      "Ġfrekven": 5046,
      "Ġstvaranje": 5047,
      "jskoj": 5048,
      "staniÄĩ": 5049,
      "Ġtesta": 5050,
      "joviÄĩ": 5051,
      "Ġevropi": 5052,
      "ĠnuÅ¾no": 5053,
      "Ġstavova": 5054,
      "Ġuprkos": 5055,
      "jko": 5056,
      "ÄĬ": 5057,
      "ljenih": 5058,
      "tions": 5059,
      "Ġdoprinos": 5060,
      "67": 5061,
      "sp": 5062,
      "Ġnaru": 5063,
      "gledno": 5064,
      "Ġveliku": 5065,
      "Ġglagoli": 5066,
      "centri": 5067,
      "ĠkoliÄįine": 5068,
      "Ġzara": 5069,
      "gure": 5070,
      "Ġuslove": 5071,
      "Ġterapi": 5072,
      "balkanin": 5073,
      "Ġwa": 5074,
      "timo": 5075,
      "Äįima": 5076,
      "Ġefekat": 5077,
      "Ġcelini": 5078,
      "Ġuloge": 5079,
      "Ġseverno": 5080,
      "balkaninstitut": 5081,
      "vak": 5082,
      "Ġpari": 5083,
      "Ġmiro": 5084,
      "rijski": 5085,
      "Ġoblike": 5086,
      "ĠkriviÄįnog": 5087,
      "Ġdiskursa": 5088,
      "zbornik": 5089,
      "42": 5090,
      "rano": 5091,
      "Ġgodinama": 5092,
      "Ġstrukturu": 5093,
      "ĠzakljuÄįiti": 5094,
      "Ġtemperatura": 5095,
      "Ġciljem": 5096,
      "pto": 5097,
      "Ġukr": 5098,
      "ĠpiÅ¡e": 5099,
      "Å¡tava": 5100,
      "Ġstude": 5101,
      "Ġoz": 5102,
      "Ġkrize": 5103,
      "ĠreÄįnik": 5104,
      "Ġobjekta": 5105,
      "Ġteritorija": 5106,
      "dÅ¾": 5107,
      "ivo": 5108,
      "vl": 5109,
      "ĠzavrÅ¡e": 5110,
      "Ġmonogra": 5111,
      "Ġstalno": 5112,
      "ljima": 5113,
      "ĠpomoÄĩi": 5114,
      "Ġodbora": 5115,
      "ĠsadrÅ¾e": 5116,
      "ele": 5117,
      "tnoj": 5118,
      "Ġnaime": 5119,
      "Ġzase": 5120,
      "Ġklija": 5121,
      "ljivi": 5122,
      "Ġradnji": 5123,
      "Ġmetohi": 5124,
      "Ġnadle": 5125,
      "ĠÅ¡est": 5126,
      "ĠpoveÄĩanje": 5127,
      "ĠpopoviÄĩ": 5128,
      "Ġizvodi": 5129,
      "grade": 5130,
      "Ġkulturnog": 5131,
      "Ã¦a": 5132,
      "Ġproizvodnju": 5133,
      "njenih": 5134,
      "Ġsagovor": 5135,
      "Ġbije": 5136,
      "ĠmeÅ¡a": 5137,
      "Ġsila": 5138,
      "ĠuspeÅ¡": 5139,
      "ĠkoriÅ¡Äĩenje": 5140,
      "È¼": 5141,
      "Ġopi": 5142,
      "val": 5143,
      "vaÄį": 5144,
      "Ġtole": 5145,
      "ĠrazmiÅ¡lja": 5146,
      "Ġformiranje": 5147,
      "lga": 5148,
      "ĠuM": 5149,
      "Ġznanje": 5150,
      "pula": 5151,
      "Ġklavi": 5152,
      "nem": 5153,
      "tetima": 5154,
      "Ġbla": 5155,
      "Ġaristo": 5156,
      "Ġrehabili": 5157,
      "stog": 5158,
      "par": 5159,
      "Ġfedera": 5160,
      "ĠsluÄįajeva": 5161,
      "ĠpredviÄĳa": 5162,
      "Ġzauzima": 5163,
      "Ġradni": 5164,
      "ĠBiH": 5165,
      "Â°": 5166,
      "Ġkoro": 5167,
      "Ġeste": 5168,
      "Ġruke": 5169,
      "Ġaustro": 5170,
      "Ġimeno": 5171,
      "Å¾uje": 5172,
      "Ġseksual": 5173,
      "Ġenergije": 5174,
      "Ã¤": 5175,
      "ÉĬ": 5176,
      "tila": 5177,
      "Ġkoor": 5178,
      "ĠveÅ¡ta": 5179,
      "Äĩene": 5180,
      "Ġkontrole": 5181,
      "ets": 5182,
      "jsku": 5183,
      "Å¡kih": 5184,
      "Ġteren": 5185,
      "mula": 5186,
      "Ġkontra": 5187,
      "Ġodi": 5188,
      "rizo": 5189,
      "Ġrepro": 5190,
      "Ġprave": 5191,
      "Ġostalim": 5192,
      "100": 5193,
      "ĠnaÄĩi": 5194,
      "cii": 5195,
      "Ġflu": 5196,
      "Ġvizue": 5197,
      "Ġbosne": 5198,
      "ÑĭÐ¹": 5199,
      "inter": 5200,
      "Ġregional": 5201,
      "Ġgenoti": 5202,
      "evro": 5203,
      "ĠbiÄĩa": 5204,
      "Ġkrimina": 5205,
      "Ġkomple": 5206,
      "Ġproizvodi": 5207,
      "Ġpostao": 5208,
      "Ġsavremeni": 5209,
      "Ġljudskih": 5210,
      "Ġseptem": 5211,
      "Ġgdje": 5212,
      "uprot": 5213,
      "min": 5214,
      "ĠreÅ¡enje": 5215,
      "Ġtraja": 5216,
      "Ġvelikom": 5217,
      "Ġbezbedno": 5218,
      "69": 5219,
      "phi": 5220,
      "rarhi": 5221,
      "Ġstara": 5222,
      "Ġpesme": 5223,
      "Äĩuju": 5224,
      "Ġstuden": 5225,
      "Ġdodatno": 5226,
      "Ġskupa": 5227,
      "Ġadap": 5228,
      "Ġlista": 5229,
      "Ġnastavi": 5230,
      "Ġstvarnosti": 5231,
      "ĠodreÄĳuje": 5232,
      "Ġleksika": 5233,
      "govori": 5234,
      "Ġprofeso": 5235,
      "smatra": 5236,
      "Ġ37": 5237,
      "Ġ38": 5238,
      "Ġkratko": 5239,
      "ntan": 5240,
      "Ġimpe": 5241,
      "Ġsledi": 5242,
      "ĠzapoÄįe": 5243,
      "cka": 5244,
      "ugar": 5245,
      "Ġkoali": 5246,
      "Ġtretira": 5247,
      "Ġsmet": 5248,
      "risa": 5249,
      "Ġposao": 5250,
      "canja": 5251,
      "ĠÅ¡o": 5252,
      "ĠzakljuÄįak": 5253,
      "Ġsmrt": 5254,
      "Ġpam": 5255,
      "Ġukupno": 5256,
      "Ġzabora": 5257,
      "sonal": 5258,
      "Ġgrafi": 5259,
      "Ġsvaku": 5260,
      "Ġnepozna": 5261,
      "Ġposledice": 5262,
      "-,": 5263,
      "skok": 5264,
      "Ġdelatnosti": 5265,
      "ĠobiÄįa": 5266,
      "metara": 5267,
      "stiti": 5268,
      "Ġsile": 5269,
      "Ġ90": 5270,
      "Ġprvobi": 5271,
      "gove": 5272,
      "Ġcve": 5273,
      "ĠÉ§": 5274,
      "Ġsmisao": 5275,
      "ĠpaÅ¡trov": 5276,
      "tovi": 5277,
      "Ġinstitucional": 5278,
      "ram": 5279,
      "Ġmona": 5280,
      "Ġistoriji": 5281,
      "Ġïĥ": 5282,
      "jam": 5283,
      "Ġdobri": 5284,
      "fikaciju": 5285,
      "Ġanto": 5286,
      "Ġkriminal": 5287,
      "Ġuvod": 5288,
      "Ġdao": 5289,
      "Ġpresu": 5290,
      "ĠmaÄĳa": 5291,
      "Ġplazmi": 5292,
      "Ġpriprema": 5293,
      "skop": 5294,
      "Ġ1993": 5295,
      "ĠznaÄįajna": 5296,
      "62": 5297,
      "Äįla": 5298,
      "ĠseÄĩa": 5299,
      "Ġvir": 5300,
      "Ġspome": 5301,
      "Ġsupro": 5302,
      "Ġtermin": 5303,
      "ĠpÅ¡enice": 5304,
      "ae": 5305,
      "nomije": 5306,
      "Ġastro": 5307,
      "Å¾avanja": 5308,
      "Ġkir": 5309,
      "Ġkontekst": 5310,
      "Ġadministra": 5311,
      "Ġzdravlje": 5312,
      "lati": 5313,
      "Ġraki": 5314,
      "Ġdobar": 5315,
      "Ġslovena": 5316,
      "Ġizraza": 5317,
      "Ġ1986": 5318,
      "Ġobrazovanju": 5319,
      "Ġciljeva": 5320,
      "Ġoslanja": 5321,
      "Ġmihai": 5322,
      "Ġvrednostima": 5323,
      "Å¡njim": 5324,
      "Ġfaktor": 5325,
      "Ġprosvete": 5326,
      "ekonom": 5327,
      "ĠÃ¨i": 5328,
      "jeve": 5329,
      "vera": 5330,
      "Ġpreno": 5331,
      "Ġmore": 5332,
      "Ġempi": 5333,
      "Ġtemu": 5334,
      "Å¾enih": 5335,
      "iti": 5336,
      "Ġniza": 5337,
      "dovima": 5338,
      "Ġkulturi": 5339,
      "Ġdoktor": 5340,
      "Ġrsa": 5341,
      "Ġadhe": 5342,
      "Ġbiljnih": 5343,
      "Ġcentralne": 5344,
      "Ġprosveti": 5345,
      "jA": 5346,
      "Ġrade": 5347,
      "Ġhar": 5348,
      "Ġsvojevr": 5349,
      "Ġvladaju": 5350,
      "vska": 5351,
      "riÅ¡e": 5352,
      "stoj": 5353,
      "Ġimenu": 5354,
      "Ã°a": 5355,
      "Ġvelikih": 5356,
      "Ġprefiksa": 5357,
      "Ġemocional": 5358,
      "Ġdele": 5359,
      "É¢É¤": 5360,
      "Ġelement": 5361,
      "ine": 5362,
      "jc": 5363,
      "Ġsferi": 5364,
      "Ġsoko": 5365,
      "ĠÅ¾eli": 5366,
      "Ġdecenija": 5367,
      "Ġneutra": 5368,
      "tehno": 5369,
      "Ġonog": 5370,
      "zora": 5371,
      "ĠjeziÄįke": 5372,
      "ĠnauÄįnog": 5373,
      "Ġproizvodnji": 5374,
      "Ġodluke": 5375,
      "Ã³": 5376,
      "minu": 5377,
      "Ġgrani": 5378,
      "Ġprobleme": 5379,
      "Ġpozicije": 5380,
      "É¨Éľ": 5381,
      "Ġdoprine": 5382,
      "ĠiÅ¡": 5383,
      "Ġpole": 5384,
      "Ġarti": 5385,
      "Ġsnage": 5386,
      "Ġkrup": 5387,
      "Ġgledi": 5388,
      "Ã½": 5389,
      "Ġkali": 5390,
      "vuk": 5391,
      "minacije": 5392,
      "Ġsaradnje": 5393,
      "matskih": 5394,
      "Ġodmah": 5395,
      "Ġugovora": 5396,
      "Ġsuge": 5397,
      "bori": 5398,
      "Ġstepena": 5399,
      "ted": 5400,
      "Ġprista": 5401,
      "ĠodreÄĳenim": 5402,
      "Ġpretpostavlja": 5403,
      "Ġdozvo": 5404,
      "ĠojaÄįa": 5405,
      "Ġgl": 5406,
      "bama": 5407,
      "Ġljude": 5408,
      "Ġpojedinca": 5409,
      "Ġperfek": 5410,
      "ĠÎ¼": 5411,
      "Ġzasniva": 5412,
      "sisti": 5413,
      "Ġtki": 5414,
      "Ġkongre": 5415,
      "Ġmg": 5416,
      "ĠduÅ¡a": 5417,
      "Ġduha": 5418,
      "ĠÄįeÅ¡Äĩe": 5419,
      "zovane": 5420,
      "Ġsmatrati": 5421,
      "á½¶": 5422,
      "Ġbezbednost": 5423,
      "Ġprikazani": 5424,
      "wo": 5425,
      "Ġnavi": 5426,
      "dine": 5427,
      "Ġfri": 5428,
      "ĠsvedoÄįi": 5429,
      "stven": 5430,
      "Ġkot": 5431,
      "Ġzadu": 5432,
      "tus": 5433,
      "hibi": 5434,
      "Ġlati": 5435,
      "ĠÎ´": 5436,
      "govoru": 5437,
      "Ġpopre": 5438,
      "Ġdio": 5439,
      "ntno": 5440,
      "ĠsluÅ¡a": 5441,
      "Ġanke": 5442,
      "Ġsloboda": 5443,
      "Ġimpf": 5444,
      "Ġprizren": 5445,
      "Ġpredstava": 5446,
      "Ġoblast": 5447,
      "Ġske": 5448,
      "Ġomla": 5449,
      "Å¡kom": 5450,
      "Ġbil": 5451,
      "Ġdecu": 5452,
      "Ġlibera": 5453,
      "Ġpirot": 5454,
      "Ġkompara": 5455,
      "Ġbrojne": 5456,
      "rativa": 5457,
      "Ġekonomske": 5458,
      "Ġpritiska": 5459,
      "ĠbuduÄĩnosti": 5460,
      "Ġonu": 5461,
      "vaj": 5462,
      "Ġprikuplja": 5463,
      "Ġposlednje": 5464,
      "Ġ189": 5465,
      "Ġsavremenom": 5466,
      "ĠdefiniÅ¡e": 5467,
      "Ġkoristiti": 5468,
      "Ġposlednjih": 5469,
      "Ġdiserta": 5470,
      "É¦": 5471,
      "Äĩom": 5472,
      "tuju": 5473,
      "car": 5474,
      "Ġinse": 5475,
      "Ġiskazi": 5476,
      "Ġdimenzija": 5477,
      "Ġpome": 5478,
      "Ġjest": 5479,
      "milo": 5480,
      "Ġevalu": 5481,
      "Ġprvih": 5482,
      "ĠrazliÄįiti": 5483,
      "Ġnastao": 5484,
      "Ġavgu": 5485,
      "Ìģ": 5486,
      "vinu": 5487,
      "Ġdalji": 5488,
      "Ġrastvo": 5489,
      "Ġpasi": 5490,
      "ĠmeÄĳusob": 5491,
      "ĠkriviÄįno": 5492,
      "Ġhercegovine": 5493,
      "Ġsvu": 5494,
      "loÅ¾i": 5495,
      "Ġprikaz": 5496,
      "Ġ2022": 5497,
      "Ġnovu": 5498,
      "ÉĨ": 5499,
      "Å¾nje": 5500,
      "Ġsina": 5501,
      "logy": 5502,
      "Ġknjizi": 5503,
      "Ġpokazali": 5504,
      "vri": 5505,
      "rop": 5506,
      "Ġposl": 5507,
      "ĠÄįlanovi": 5508,
      "Ġmanastira": 5509,
      "ĠmladenoviÄĩ": 5510,
      "Ġponekad": 5511,
      "Ġdeset": 5512,
      "zmom": 5513,
      "Ġ>": 5514,
      "pir": 5515,
      "Ġopo": 5516,
      "ĠdoÄĩi": 5517,
      "Å¾avaju": 5518,
      "Ġbave": 5519,
      "Ġnjegovoj": 5520,
      "Ġmaterije": 5521,
      "Ġrazlikuju": 5522,
      "ĠÄįasopisa": 5523,
      "poli": 5524,
      "Å¡eni": 5525,
      "Ġpej": 5526,
      "Ġvuk": 5527,
      "Ġupravljanja": 5528,
      "Å¾o": 5529,
      "ĠneÄįe": 5530,
      "Ġdono": 5531,
      "bila": 5532,
      "Ġpuno": 5533,
      "Ġnauci": 5534,
      "Ġpodacima": 5535,
      "ĠstruÄį": 5536,
      "Ġdefinisa": 5537,
      "Ġpolovine": 5538,
      "ĠzapaÅ¾a": 5539,
      "bje": 5540,
      "pl": 5541,
      "lasti": 5542,
      "ÉļÉľ": 5543,
      "Ã¼": 5544,
      "Ġnacionali": 5545,
      "tore": 5546,
      "Ġama": 5547,
      "É¢Éľ": 5548,
      "Ġ1989": 5549,
      "iii": 5550,
      "ĠmiÅ¡ljenju": 5551,
      "ovde": 5552,
      "Ġtekstova": 5553,
      "vredi": 5554,
      "tanja": 5555,
      "Ġjedni": 5556,
      "Ġpitanjima": 5557,
      "Ġspecija": 5558,
      "Ġkorena": 5559,
      "Ġpredstave": 5560,
      "Ġuteme": 5561,
      "77": 5562,
      "oca": 5563,
      "Ġujedno": 5564,
      "Ġravni": 5565,
      "Ġmala": 5566,
      "Ġmn": 5567,
      "Ġcari": 5568,
      "Ġekonomski": 5569,
      "shodno": 5570,
      "viÄĩe": 5571,
      "Ġzve": 5572,
      "Ġcrkvu": 5573,
      "vljeno": 5574,
      "ĠpotvrÄĳuje": 5575,
      "Ġmajka": 5576,
      "Ġodrasli": 5577,
      "Å¾nih": 5578,
      "njih": 5579,
      "Å¡tvu": 5580,
      "ĠnaÄįine": 5581,
      "Ġsavremenog": 5582,
      "jati": 5583,
      "Ġsed": 5584,
      "Ġetar": 5585,
      "Ġjezuit": 5586,
      "Ñĸ": 5587,
      "grafi": 5588,
      "Ġcg": 5589,
      "Ġispred": 5590,
      "Ġsobom": 5591,
      "Ġmnogim": 5592,
      "upravo": 5593,
      "Å¾nosti": 5594,
      "Ġdif": 5595,
      "ljka": 5596,
      "Ġjovan": 5597,
      "Ġpozicija": 5598,
      "ĠreÄįenice": 5599,
      "ale": 5600,
      "ciono": 5601,
      "Ġlabora": 5602,
      "Ġdrveta": 5603,
      "Ġsavremene": 5604,
      "Ġnarodnog": 5605,
      "Ġustano": 5606,
      "ĠpovrÅ¡ina": 5607,
      "ĠdrugaÄįije": 5608,
      "doviÄĩ": 5609,
      "bed": 5610,
      "Ġbel": 5611,
      "Ġnikola": 5612,
      "Ġaspekta": 5613,
      "nsku": 5614,
      "Ġflo": 5615,
      "Ġdeve": 5616,
      "Ġmaso": 5617,
      "Ġcrno": 5618,
      "Ġkonzerva": 5619,
      "Ġkul": 5620,
      "ĠudÅ¾be": 5621,
      "Ġpresta": 5622,
      "Ġretko": 5623,
      "ljak": 5624,
      "budu": 5625,
      "Ġzajednici": 5626,
      "ĠÅ¡kolu": 5627,
      "Ġzatvore": 5628,
      ".-": 5629,
      "58": 5630,
      "menom": 5631,
      "Ġeven": 5632,
      "vrsta": 5633,
      "Ġoptu": 5634,
      "ĠÉ«": 5635,
      "Ġrazlikuje": 5636,
      "vske": 5637,
      "Ġopleme": 5638,
      "rakteri": 5639,
      "krip": 5640,
      "Ġpotrebu": 5641,
      "Ġrepublici": 5642,
      "Ġkoeficije": 5643,
      "61": 5644,
      "nn": 5645,
      "tvor": 5646,
      "tis": 5647,
      "Ġnat": 5648,
      "Ġsuse": 5649,
      "Ġinklu": 5650,
      "boj": 5651,
      "Ġostvaruje": 5652,
      "Ġnasilje": 5653,
      "Ġinstrumenta": 5654,
      "Ġpostupak": 5655,
      "ft": 5656,
      "Ġnama": 5657,
      "Ġpraksa": 5658,
      "prostra": 5659,
      "É¨Êģ": 5660,
      "Å¡kol": 5661,
      "verzitet": 5662,
      "Ġkonteksta": 5663,
      "Ġkoncentracije": 5664,
      "Ġhipote": 5665,
      "oba": 5666,
      "Ġome": 5667,
      "lizma": 5668,
      "Ġnera": 5669,
      "Ġanalizom": 5670,
      "Ġpripoveda": 5671,
      "63": 5672,
      "Ġkoma": 5673,
      "Ġmm": 5674,
      "ĠbeleÅ¾i": 5675,
      "Ġsaznanja": 5676,
      "79": 5677,
      "Ġprilika": 5678,
      "Ġviru": 5679,
      "graÄĳa": 5680,
      "nijeg": 5681,
      "bur": 5682,
      "Ġmarke": 5683,
      "dim": 5684,
      "Ġprikri": 5685,
      "Ġmobi": 5686,
      "Ġvol": 5687,
      "Ġfotogra": 5688,
      "tnik": 5689,
      "Ġoka": 5690,
      "zara": 5691,
      "zati": 5692,
      "Ġasocija": 5693,
      "miÅ¡lje": 5694,
      "Ġche": 5695,
      "cy": 5696,
      "cri": 5697,
      "đă": 5698,
      "Ġkale": 5699,
      "poÄįe": 5700,
      "zovan": 5701,
      "Ġaust": 5702,
      "uni": 5703,
      "pisima": 5704,
      "redo": 5705,
      "Ġkle": 5706,
      "Ġpresto": 5707,
      "Ġmilan": 5708,
      "Ġnose": 5709,
      "ĠÄįto": 5710,
      "Ġkoncepta": 5711,
      "Ġkategori": 5712,
      "evrop": 5713,
      "Ġdani": 5714,
      "Ġstan": 5715,
      "Ġnajvi": 5716,
      "loÅ¡koj": 5717,
      "Ġfami": 5718,
      "É¨Éª": 5719,
      "ÉļÉ¥": 5720,
      "ĠtehnoloÅ¡kog": 5721,
      "ĠmnoÅ¾i": 5722,
      "64": 5723,
      "kor": 5724,
      "Ġkro": 5725,
      "ĠinÅ¾enje": 5726,
      "Ġhije": 5727,
      "Ġobjavlji": 5728,
      "ispiti": 5729,
      "Ġdemokrati": 5730,
      "stiÄįke": 5731,
      "Äįili": 5732,
      "bid": 5733,
      "Ġkulturu": 5734,
      "Ġstvaranja": 5735,
      "uza": 5736,
      "Ġpostojanja": 5737,
      "É¨ÉĿ": 5738,
      "ĠpaÅ¡troviÄĩa": 5739,
      "Ġsigurno": 5740,
      "ĠkoriÅ¡Äĩenja": 5741,
      "ĠĂ": 5742,
      "Ġpolazi": 5743,
      "nuo": 5744,
      "ĠodreÄĳenog": 5745,
      "Ġodnosima": 5746,
      ".\"": 5747,
      "Ġblo": 5748,
      "Ġsezo": 5749,
      "Ġzele": 5750,
      "ĠpotroÅ¡nje": 5751,
      "Ġupotrebljava": 5752,
      "Å¡nju": 5753,
      "Ġgali": 5754,
      "ĠÄįubri": 5755,
      "Ġzadovolja": 5756,
      "Ġimperfek": 5757,
      "oko": 5758,
      "Ġprole": 5759,
      "Ġrazlog": 5760,
      "Ġapstrak": 5761,
      "Ġdobijenih": 5762,
      "Ġnaravno": 5763,
      "Ġsmanjenje": 5764,
      "Ġvegeta": 5765,
      "Ġospo": 5766,
      "Ġmatri": 5767,
      "Ġsloja": 5768,
      "gresi": 5769,
      "Ġ80": 5770,
      "Ġvisok": 5771,
      "Ġsmanji": 5772,
      "Ġafi": 5773,
      "ÄįiÄĩe": 5774,
      "Ġrezu": 5775,
      "Ġpade": 5776,
      "Ġovamo": 5777,
      "Ġsituacijama": 5778,
      "Ġvremenski": 5779,
      "Ġleksikograf": 5780,
      "Ġmonar": 5781,
      "noviÄĩa": 5782,
      "Ġdijal": 5783,
      "Ġpoznato": 5784,
      "Ġtakvih": 5785,
      "ĠokruÅ¾enju": 5786,
      "Ġprezent": 5787,
      "as": 5788,
      "Äįovek": 5789,
      "Ġselu": 5790,
      "Ġprimi": 5791,
      "Ġgradu": 5792,
      "ĠsemantiÄįki": 5793,
      "ĠukljuÄįuje": 5794,
      "43": 5795,
      "ide": 5796,
      "vski": 5797,
      "tili": 5798,
      "Ġpreven": 5799,
      "seo": 5800,
      "filo": 5801,
      "Ġuzrasta": 5802,
      "Ġoplemenji": 5803,
      "Ġpogleda": 5804,
      "Ġkamen": 5805,
      "Ġ39": 5806,
      "Ġokup": 5807,
      "Ġstole": 5808,
      "ĠpodrÅ¡ke": 5809,
      "Ġaleksandar": 5810,
      "nizacije": 5811,
      "Ġsliku": 5812,
      "59": 5813,
      "ĠbeÅ¡e": 5814,
      "Ġobraza": 5815,
      "Ġoblastima": 5816,
      "Ġpogled": 5817,
      "urnal": 5818,
      "Ġposlova": 5819,
      "ktor": 5820,
      "nto": 5821,
      "ĠZ": 5822,
      "ding": 5823,
      "Äįeski": 5824,
      "pravi": 5825,
      "Ġarhe": 5826,
      "ĠprilagoÄĳa": 5827,
      "cho": 5828,
      "snici": 5829,
      "tam": 5830,
      "Ġdomini": 5831,
      "Ġliva": 5832,
      "Ġekvi": 5833,
      "Ġsaraje": 5834,
      "Ġistaknu": 5835,
      "Ġoktobra": 5836,
      "Ġaleksandra": 5837,
      "Ġpare": 5838,
      "Ġkonstrui": 5839,
      "ĠÉ¡": 5840,
      "Ġupotreblje": 5841,
      "Ġ188": 5842,
      "Ġpokazao": 5843,
      "Ġnikoj": 5844,
      "ap": 5845,
      "njeg": 5846,
      "Ġcrna": 5847,
      "ĠodreÄĳena": 5848,
      "dre": 5849,
      "mbar": 5850,
      "Ġuto": 5851,
      "Ġzavr": 5852,
      "Ġgvo": 5853,
      "Ġnjena": 5854,
      "Ġprimere": 5855,
      "Ġnacionalnog": 5856,
      "ĠÄįinjenice": 5857,
      "Ġposeduje": 5858,
      "lar": 5859,
      "Ġben": 5860,
      "Ġnegi": 5861,
      "Ġmile": 5862,
      "Ġostali": 5863,
      "Ġeksplici": 5864,
      "ĠporeÄĳenju": 5865,
      "Äĩo": 5866,
      "ĠmeÃ°u": 5867,
      "Ġtam": 5868,
      "Ġakademije": 5869,
      "ĠkoriÅ¡Äĩenjem": 5870,
      "telje": 5871,
      "Ġhri": 5872,
      "prili": 5873,
      "rijske": 5874,
      "É¨É¦": 5875,
      "Ġslovenskim": 5876,
      "Ġkomponenta": 5877,
      "ĠopÅ¡tine": 5878,
      "Ġă": 5879,
      "Ġstarije": 5880,
      "Ġpredra": 5881,
      "Ġmodelu": 5882,
      "ĠistraÅ¾ivaÄįa": 5883,
      "cs": 5884,
      "nina": 5885,
      "Ġsvojom": 5886,
      "Ġuslov": 5887,
      "Ġbogat": 5888,
      "ĠÄįasopis": 5889,
      "smisle": 5890,
      "Ġkriminali": 5891,
      "53": 5892,
      "doda": 5893,
      "Ġvita": 5894,
      "Ġustanova": 5895,
      "Ġwith": 5896,
      "os": 5897,
      "Ġoe": 5898,
      "sad": 5899,
      "Ġder": 5900,
      "Ġcre": 5901,
      "Ġizdvoje": 5902,
      "Ġprirodnih": 5903,
      "Ġfenomen": 5904,
      "jka": 5905,
      "Ġudeo": 5906,
      "Äįice": 5907,
      "Ġdecenije": 5908,
      "Ġporodica": 5909,
      "Ġdoprinosi": 5910,
      "Ġpostupka": 5911,
      "Ġsrednjoveko": 5912,
      "cki": 5913,
      "mba": 5914,
      "Î¬": 5915,
      "ÎŃ": 5916,
      "Ġdre": 5917,
      "moÅ¾e": 5918,
      "Å¡evi": 5919,
      "ĠzaÅ¡tita": 5920,
      "Ġtermina": 5921,
      "Ġmarta": 5922,
      "Ġfurnira": 5923,
      "51": 5924,
      "Ġnavo": 5925,
      "Ġkora": 5926,
      "stina": 5927,
      "Ġregu": 5928,
      "ĠtÃª": 5929,
      "lus": 5930,
      "Ġrobo": 5931,
      "razum": 5932,
      "Ġformiranja": 5933,
      "ĠpaÅ¾nja": 5934,
      "Ġterenu": 5935,
      "Ġprou": 5936,
      "Ġpropisa": 5937,
      "isp": 5938,
      "Ġrecimo": 5939,
      "vci": 5940,
      "ÉĿ": 5941,
      "Äįnije": 5942,
      "Ġmateri": 5943,
      "muzi": 5944,
      "Å¡avaju": 5945,
      "Ġistim": 5946,
      "ĠreÅ¾ima": 5947,
      "obu": 5948,
      "rski": 5949,
      "noma": 5950,
      "novo": 5951,
      "Ġopu": 5952,
      "mode": 5953,
      "Ġac": 5954,
      "Ġsmatrao": 5955,
      "ĠkarakteriÅ¡e": 5956,
      "Ġprosvetitelj": 5957,
      "72": 5958,
      "Ġimu": 5959,
      "Ġpolj": 5960,
      "Ġjen": 5961,
      "turu": 5962,
      "Ġimpera": 5963,
      "ĠkriviÄįnih": 5964,
      "Ġeventual": 5965,
      "ir": 5966,
      "Ġpostav": 5967,
      "tama": 5968,
      "Ġgri": 5969,
      "Ġer": 5970,
      "Ġnastaje": 5971,
      "Ġverba": 5972,
      "Ġmnogih": 5973,
      "Ç¤Ç¤Ç¤Ç¤Ç¤Ç¤Ç¤Ç¤Ç¤Ç¤Ç¤Ç¤Ç¤Ç¤Ç¤Ç¤": 5974,
      "Ġzanema": 5975,
      "Ġinhibi": 5976,
      "Ġ1988": 5977,
      "Ġracional": 5978,
      "Ġinsisti": 5979,
      "Ġcrnogo": 5980,
      "Ġjedinjenja": 5981,
      "Ġsocijalnih": 5982,
      "Ġshvatanje": 5983,
      "Ġministarstvo": 5984,
      "Ġanodi": 5985,
      "Ġekvivale": 5986,
      "odno": 5987,
      "dama": 5988,
      "pela": 5989,
      "Ġdokaza": 5990,
      "Ġgove": 5991,
      "Ġfig": 5992,
      "juÄĩih": 5993,
      "Ġdrva": 5994,
      "Ġns": 5995,
      "Ġrealizuje": 5996,
      "Ġtretmana": 5997,
      "usa": 5998,
      "ĠdrÅ¾avi": 5999,
      "Ġvazduha": 6000,
      "Ġonim": 6001,
      "love": 6002,
      "torije": 6003,
      "Ġtera": 6004,
      "Ġnjeno": 6005,
      "ĠÄįet": 6006,
      "Ġodgovori": 6007,
      "Ġnastave": 6008,
      "Ġetnograf": 6009,
      "ĠzemljiÅ¡tu": 6010,
      "Ġizvori": 6011,
      "matske": 6012,
      "razli": 6013,
      "ĠknjiÅ¾evnost": 6014,
      "tskih": 6015,
      "Ġpovodom": 6016,
      "meti": 6017,
      "Ġseme": 6018,
      "Ġzanima": 6019,
      "ĠtreÄĩi": 6020,
      "Ġizrade": 6021,
      "Ġocen": 6022,
      "Å¾nim": 6023,
      "Ġale": 6024,
      "Ġodje": 6025,
      "kraji": 6026,
      "Ġradovima": 6027,
      "Ġmlado": 6028,
      "ĠnaÅ¡ih": 6029,
      "ÅĤ": 6030,
      "Ġdro": 6031,
      "Ġzau": 6032,
      "gati": 6033,
      "âĢľ)": 6034,
      "Ġljubi": 6035,
      "zovani": 6036,
      "druga": 6037,
      "Ġtemelj": 6038,
      "74": 6039,
      "Ġinova": 6040,
      "Ġkorova": 6041,
      "gore": 6042,
      "Ġprouzro": 6043,
      "Ġkine": 6044,
      "Ġdobijeni": 6045,
      "Ġliterature": 6046,
      "Ġiznena": 6047,
      "Ġkorup": 6048,
      "Ġ31": 6049,
      "Ġkulturno": 6050,
      "ĠdrÅ¾avne": 6051,
      "Ġostala": 6052,
      "Ġpomenuti": 6053,
      "ĠpoÄįinje": 6054,
      "Ġravnopra": 6055,
      "Ġkriteriju": 6056,
      "posebno": 6057,
      "Ġnanotu": 6058,
      "niÄįki": 6059,
      "Ġzate": 6060,
      "Ġsaj": 6061,
      "Ġbiv": 6062,
      "Ġkvalita": 6063,
      "Ġporodici": 6064,
      "Ġpojedinaca": 6065,
      "emo": 6066,
      "jk": 6067,
      "rp": 6068,
      "ÑĹ": 6069,
      "Ġpse": 6070,
      "ligen": 6071,
      "dini": 6072,
      "Ġnejednako": 6073,
      "Ġkal": 6074,
      "Å¾ivo": 6075,
      "Ġpute": 6076,
      "Ġfaze": 6077,
      "ĠuspeÅ¡no": 6078,
      "Ġizdvoji": 6079,
      "Ġdiskri": 6080,
      "narodni": 6081,
      "Ġsvje": 6082,
      "Ġpostepe": 6083,
      "Ġreferent": 6084,
      "Ġmoze": 6085,
      "Ġmusli": 6086,
      "Ġroditelji": 6087,
      "Ġuvid": 6088,
      "Ġministarstva": 6089,
      "Ġpojavljuje": 6090,
      "jne": 6091,
      "Å£": 6092,
      "Ġcha": 6093,
      "Ġpravilu": 6094,
      "Ġnazivom": 6095,
      "71": 6096,
      "epi": 6097,
      "Ġora": 6098,
      "Ġkomenta": 6099,
      "ĠpriÄįe": 6100,
      "set": 6101,
      "Ġmanda": 6102,
      "ĠveliÄįine": 6103,
      "Ġregio": 6104,
      "Ġakademija": 6105,
      "Ġhttps": 6106,
      "ea": 6107,
      "ĠdÅ¾e": 6108,
      "pan": 6109,
      "Ġjednim": 6110,
      "ĠÄįesti": 6111,
      "ĠuÄįesta": 6112,
      "%),": 6113,
      "con": 6114,
      "Ġnebe": 6115,
      "org": 6116,
      "Ġautenti": 6117,
      "Ġnastala": 6118,
      "Ġ1985": 6119,
      "Ġispitanici": 6120,
      "Ġfakultetu": 6121,
      "Ġprincipi": 6122,
      "ĠkoliÄįina": 6123,
      "ĠvukoviÄĩa": 6124,
      "52": 6125,
      "kori": 6126,
      "ĠrazliÄįita": 6127,
      "ĠÉ«É": 6128,
      "Ġepru": 6129,
      "DR": 6130,
      "cke": 6131,
      "tpu": 6132,
      "udo": 6133,
      "sek": 6134,
      "Ġrazgovor": 6135,
      "Ġkrei": 6136,
      "Ġsubjekta": 6137,
      "54": 6138,
      "rove": 6139,
      "Ġkakav": 6140,
      "Ġpril": 6141,
      "gama": 6142,
      "Ġmol": 6143,
      "Ġpisma": 6144,
      "Ġklase": 6145,
      "Î´": 6146,
      "Ġostavlja": 6147,
      "dor": 6148,
      "Ġpovezi": 6149,
      "ĠistiÄįu": 6150,
      "ĠÄįinjenicu": 6151,
      "Ġpominje": 6152,
      "sch": 6153,
      "Ġkog": 6154,
      "toru": 6155,
      "Ġkarije": 6156,
      "Ġprogla": 6157,
      "Ġvar": 6158,
      "Ġupotrebom": 6159,
      "Ġteoriju": 6160,
      "EN": 6161,
      "pet": 6162,
      "stio": 6163,
      "Ġrefor": 6164,
      "Ġobjekata": 6165,
      "Ġkragu": 6166,
      "Ġpojavu": 6167,
      "Ġparame": 6168,
      "ĠpaÅ¾nje": 6169,
      "fri": 6170,
      "gene": 6171,
      "Ġputu": 6172,
      "Ġbogorodi": 6173,
      "Ġizdava": 6174,
      "Ġvideo": 6175,
      "ĠdrÅ¾avama": 6176,
      "Ġprezenta": 6177,
      "ĠsevernoÅ¡ar": 6178,
      "rmi": 6179,
      "Ġpismo": 6180,
      "Ġistu": 6181,
      "Ġzaslu": 6182,
      "stiÄįki": 6183,
      "Ġdomena": 6184,
      "socijal": 6185,
      "Ġfito": 6186,
      "Ġkulturna": 6187,
      "Ġnp": 6188,
      "Ġcara": 6189,
      "Ġeviden": 6190,
      "vskog": 6191,
      "komu": 6192,
      "Ġreke": 6193,
      "Ġmaja": 6194,
      "Ġvisoke": 6195,
      "Ġaktivnostima": 6196,
      "ĠvraÄĩa": 6197,
      "vca": 6198,
      "vqa": 6199,
      "reni": 6200,
      "Ġpreobra": 6201,
      "Äįita": 6202,
      "Ġduna": 6203,
      "Ġposeban": 6204,
      "Ġrs": 6205,
      "ĠpovrÅ¡ini": 6206,
      "Ġodgovorni": 6207,
      "Ġá¼Ĳ": 6208,
      "raca": 6209,
      "venog": 6210,
      "Ġistorijski": 6211,
      "Äįani": 6212,
      "Ġraznih": 6213,
      "njiho": 6214,
      "Ġglas": 6215,
      "Ġposled": 6216,
      "Ġstanovnika": 6217,
      "Ġá¼Ģ": 6218,
      "ĠpreteÅ¾no": 6219,
      "sce": 6220,
      "vanih": 6221,
      "liÅ¡e": 6222,
      "Ġret": 6223,
      "Äįavanja": 6224,
      "ĠzemljiÅ¡te": 6225,
      "56": 6226,
      "ĠveÃ¦": 6227,
      "Ġsvest": 6228,
      "Ġzadovo": 6229,
      "Ġspra": 6230,
      "Ġuva": 6231,
      "medi": 6232,
      "Ġdobio": 6233,
      "Ġopisuje": 6234,
      "Ġumere": 6235,
      "njenje": 6236,
      "bilo": 6237,
      "Ġteoriji": 6238,
      "Ġpostala": 6239,
      "Ġizosta": 6240,
      "Ġpokret": 6241,
      "Ġreligije": 6242,
      "Ġsrpskohrvat": 6243,
      "73": 6244,
      "ĠX": 6245,
      "Ġpraz": 6246,
      "Ġjanu": 6247,
      "Ġnjenih": 6248,
      "Ġruku": 6249,
      "ĠuÄįenici": 6250,
      "prva": 6251,
      "ĠznaÄįewe": 6252,
      "Ġnapomenu": 6253,
      "Ġparce": 6254,
      "ĠnaÅ¡im": 6255,
      "rja": 6256,
      "cionim": 6257,
      "Ġusvoje": 6258,
      "Ġglave": 6259,
      "ĠpolitiÄįkim": 6260,
      "Ġhetero": 6261,
      "Ġljudske": 6262,
      "Ġkretanje": 6263,
      "Ġpadavina": 6264,
      "Ġevalua": 6265,
      "Ġhijerarhi": 6266,
      "Ġskupi": 6267,
      "strova": 6268,
      "ĠraÄįu": 6269,
      "sul": 6270,
      "Ġvas": 6271,
      "Ġorgana": 6272,
      "Ġslikar": 6273,
      "Ġdokumenta": 6274,
      "danas": 6275,
      "Ġnajmanje": 6276,
      "ÏĮ": 6277,
      "Ġdvije": 6278,
      "Ġnastoja": 6279,
      "Äįim": 6280,
      "ĠÅ¡tet": 6281,
      "Ġpesti": 6282,
      "Ġprimeni": 6283,
      "ĠuoÄįava": 6284,
      "ĠknjiÅ¾evnog": 6285,
      "ĠmeÄĳunarodnim": 6286,
      "stvi": 6287,
      "Ġdade": 6288,
      "ziti": 6289,
      "Äįinu": 6290,
      "Ġuzme": 6291,
      "ktima": 6292,
      "Ġtakvim": 6293,
      "ĠvaÅ¾na": 6294,
      "Ġuseva": 6295,
      "Ġdnk": 6296,
      "tada": 6297,
      "sinta": 6298,
      "Ġvez": 6299,
      "fil": 6300,
      "Ġnajsta": 6301,
      "Ġkontrolu": 6302,
      "ĠpovrÄĩa": 6303,
      "ĠdelimiÄįno": 6304,
      "ds": 6305,
      "Ġprate": 6306,
      "Ġpravu": 6307,
      "Ġdrugima": 6308,
      "É¢É±": 6309,
      "Ġsredinu": 6310,
      "Ġsimbo": 6311,
      "ĠreÄįeno": 6312,
      "ĠÅ¾upe": 6313,
      "Ġsaglasnosti": 6314,
      "Ġ'": 6315,
      "Ġpovla": 6316,
      "Ġmakro": 6317,
      "ĠdrÅ¾i": 6318,
      "Ġinterna": 6319,
      "Ġumetnost": 6320,
      "Î¿Î½": 6321,
      "Ġstarog": 6322,
      "tike": 6323,
      "ĠkM": 6324,
      "Ġpasu": 6325,
      "Ġbrojem": 6326,
      "Ġ48": 6327,
      "Ġcentru": 6328,
      "quence": 6329,
      "Ġnavedene": 6330,
      "Ġmanastir": 6331,
      "glu": 6332,
      "Ġrekla": 6333,
      "Äĳenog": 6334,
      "Ġglasi": 6335,
      "ĠloÅ¡e": 6336,
      "ÑİÑī": 6337,
      "Ġpreciz": 6338,
      "Ġran": 6339,
      "Ġdovesti": 6340,
      "hija": 6341,
      "ĠpolitiÄįka": 6342,
      "Ġorke": 6343,
      "Ġtehnika": 6344,
      "Ġstatusa": 6345,
      "Ġnapa": 6346,
      "posi": 6347,
      "Ġdespo": 6348,
      "Ġuskla": 6349,
      "Ġpodatak": 6350,
      "Ġhorizo": 6351,
      "Ġekosiste": 6352,
      "Ġ1981": 6353,
      "ðĿĳļ": 6354,
      "veno": 6355,
      "Ġdose": 6356,
      "Äįije": 6357,
      "bala": 6358,
      "prosto": 6359,
      "Ġparticipa": 6360,
      "tnika": 6361,
      "Ġukazi": 6362,
      "Ġpovolj": 6363,
      "biÄĩ": 6364,
      "Ġnjim": 6365,
      "Ġrasprostra": 6366,
      "Ġmikroorga": 6367,
      "Ġshvatanja": 6368,
      "ĠprouÄįavanja": 6369,
      "Ġkiselina": 6370,
      "knuti": 6371,
      "novima": 6372,
      "Ġkova": 6373,
      "Ġneve": 6374,
      "Ġmaksi": 6375,
      "Ġvaso": 6376,
      "Ġskra": 6377,
      "ĠÎºÎ±á½¶": 6378,
      "Î¸": 6379,
      "ĠdÃªn": 6380,
      "kan": 6381,
      "kana": 6382,
      "malo": 6383,
      "Ġmelo": 6384,
      "vljene": 6385,
      "Ġfaktori": 6386,
      "ĠangaÅ¾o": 6387,
      "ini": 6388,
      "Ġodo": 6389,
      "Ġdesi": 6390,
      "ĠveÄĩu": 6391,
      "Ġpapri": 6392,
      "Ġinteligen": 6393,
      "ĠnaÄįinu": 6394,
      "prvo": 6395,
      "zovana": 6396,
      "Ġoriginal": 6397,
      "sumnji": 6398,
      "ok": 6399,
      "ranjem": 6400,
      "nia": 6401,
      "Ġfre": 6402,
      "joÅ¡": 6403,
      "slava": 6404,
      "Ġrepublika": 6405,
      "Ġelemente": 6406,
      "Ġatenta": 6407,
      "zde": 6408,
      "Ġprenosi": 6409,
      "Ġredak": 6410,
      "Ġprocenat": 6411,
      "Ġrefleksi": 6412,
      "ĠÄĳorÄĳeviÄĩ": 6413,
      "Ġpoklo": 6414,
      "Ġdosada": 6415,
      "Ġsoci": 6416,
      "ÉļÊĥ": 6417,
      "ĠprouÄįavanje": 6418,
      "Å¡na": 6419,
      "Ġrazliko": 6420,
      "Ġklasa": 6421,
      "Ġizvorima": 6422,
      "Î¿Ïħ": 6423,
      "skogo": 6424,
      "Ġsvoja": 6425,
      "Ġruskog": 6426,
      "Ġstereo": 6427,
      "ĠveÄĩini": 6428,
      "Ġzatvo": 6429,
      "Ġpovrtarstvo": 6430,
      "99": 6431,
      "dvo": 6432,
      "un": 6433,
      "Ġpobu": 6434,
      "tent": 6435,
      "Ġjeno": 6436,
      "Ġboji": 6437,
      "pret": 6438,
      "Ġlokalne": 6439,
      "obli": 6440,
      "Ġoca": 6441,
      "tipi": 6442,
      "tari": 6443,
      "Ġkandi": 6444,
      "Ġrazvi": 6445,
      "Ġlinija": 6446,
      "Äĳiva": 6447,
      "Ġá½": 6448,
      "Ġoptima": 6449,
      "spek": 6450,
      "Ġhob": 6451,
      "ÉļÉ¬": 6452,
      "Ġsaradnju": 6453,
      "Ġprisutna": 6454,
      "Ġnalazimo": 6455,
      "Ġitalija": 6456,
      "êĻ": 6457,
      "Ġovla": 6458,
      "Ġnajo": 6459,
      "enti": 6460,
      "Ġbitno": 6461,
      "Ġstvore": 6462,
      "Å¾ak": 6463,
      "Ġrodne": 6464,
      "Ġpojedine": 6465,
      "Ġleksike": 6466,
      "Ġluka": 6467,
      "Ġprirodne": 6468,
      "Ġinterakcije": 6469,
      "Ġkriminala": 6470,
      "Ġio": 6471,
      "enro": 6472,
      "Å¾ili": 6473,
      "Ġskre": 6474,
      "Ġneuro": 6475,
      "ÊģÉŁ": 6476,
      "ff": 6477,
      "kl": 6478,
      "rim": 6479,
      "Ġeta": 6480,
      "Å¾ila": 6481,
      "Ġdiferen": 6482,
      "Ġtimo": 6483,
      "Ġnekoga": 6484,
      "Ġpostaju": 6485,
      "ĠnaglaÅ¡ava": 6486,
      "Ġzamenica": 6487,
      "Ġterori": 6488,
      "Ġpl": 6489,
      "Ġrano": 6490,
      "ĠveÄĩeg": 6491,
      "Ġminima": 6492,
      "Å¡ije": 6493,
      "Ġnjenom": 6494,
      "prisu": 6495,
      "Ġkulturni": 6496,
      "Ġ//": 6497,
      "Ġparametara": 6498,
      "Ġkomer": 6499,
      "Ġeksplo": 6500,
      "Ġorganizo": 6501,
      "Ġpolici": 6502,
      "Ġpoljoprivrednih": 6503,
      "Ġegzisten": 6504,
      "Ġtranspo": 6505,
      "Ïĩ": 6506,
      "Ġsequence": 6507,
      "dere": 6508,
      "nut": 6509,
      "ĠtaÄįke": 6510,
      "hvat": 6511,
      "Ġsport": 6512,
      "Ġ1987": 6513,
      "ĠnasleÄĳe": 6514,
      "Ġsufiksom": 6515,
      "Å¡koviÄĩ": 6516,
      "tete": 6517,
      "Ġpredo": 6518,
      "Ġbot": 6519,
      "Ġcrnoj": 6520,
      "Ġpojmova": 6521,
      "drugim": 6522,
      "lingvisti": 6523,
      "Ġpoza": 6524,
      "rovat": 6525,
      "Ġazo": 6526,
      "Ġrevi": 6527,
      "Ġmom": 6528,
      "Ġdeblji": 6529,
      "Ġvale": 6530,
      "2011": 6531,
      "Ġskri": 6532,
      "Ġljudskog": 6533,
      "Ġotac": 6534,
      "zs": 6535,
      "kara": 6536,
      "Ġnazna": 6537,
      "cionom": 6538,
      "Ġnjegovi": 6539,
      "ĠÅ¡irem": 6540,
      "Ġhilja": 6541,
      "Ġokvira": 6542,
      "ĠglamoÄįkog": 6543,
      "Òĥ": 6544,
      "peri": 6545,
      "Ġsuzbi": 6546,
      "Äįenih": 6547,
      "Ġmemo": 6548,
      "Ġaktera": 6549,
      "Ġzemlju": 6550,
      "Ġpoziciji": 6551,
      "Ġmodifika": 6552,
      "Ġefikasnost": 6553,
      "fon": 6554,
      "Ġsno": 6555,
      "Ġpha": 6556,
      "Ġpopo": 6557,
      "Ġrekao": 6558,
      "Ġjovana": 6559,
      "Ġcilja": 6560,
      "ĠÂ°": 6561,
      "Ġodgovornosti": 6562,
      "Ġstandardi": 6563,
      "Ġfenomena": 6564,
      "Ġpotencijala": 6565,
      "jna": 6566,
      "Ġado": 6567,
      "Ġzove": 6568,
      "dopu": 6569,
      "Ġstar": 6570,
      "Ġputo": 6571,
      "Ġkompa": 6572,
      "menat": 6573,
      "ĠmuziÄįkog": 6574,
      "Ġreligioz": 6575,
      "Äįl": 6576,
      "Ġkorak": 6577,
      "âĢĴ": 6578,
      "Ġkonju": 6579,
      "Ġpragmati": 6580,
      "Ġ1983": 6581,
      "Ġsvrsta": 6582,
      "kovima": 6583,
      "lozima": 6584,
      "Ġrazne": 6585,
      "Ġplana": 6586,
      "Ġhisto": 6587,
      "Ġdelovanje": 6588,
      "ĠsemantiÄįke": 6589,
      "Ġregiona": 6590,
      "Ġsituaciji": 6591,
      "Ġinterpreta": 6592,
      "Ġsukoba": 6593,
      "Éł": 6594,
      "Ġjede": 6595,
      "Ġem": 6596,
      "bibli": 6597,
      "Ġmrt": 6598,
      "Ġjavnih": 6599,
      "Ġpolitiku": 6600,
      "Ġnjihovi": 6601,
      "Ġdijaloga": 6602,
      "Ġuzorak": 6603,
      "Ġlokaliteta": 6604,
      "Ġmoder": 6605,
      "Ġdelovima": 6606,
      "Ġnukle": 6607,
      "Ġpriroda": 6608,
      "Ġplena": 6609,
      "Ġque": 6610,
      "ps": 6611,
      "ral": 6612,
      "mal": 6613,
      "Ġizlazi": 6614,
      "Ġmogle": 6615,
      "Ġtemi": 6616,
      "Ġtrava": 6617,
      "Ġruske": 6618,
      "likacije": 6619,
      "Ġprocene": 6620,
      "slovenskom": 6621,
      "ĠveÄĩine": 6622,
      "Ġpokazalo": 6623,
      "Ã£a": 6624,
      "naca": 6625,
      "Ġonima": 6626,
      "Ġzaba": 6627,
      "Ġdelima": 6628,
      "ĠÅ¡pa": 6629,
      "Ġobjekat": 6630,
      "Ġgrupama": 6631,
      "godine": 6632,
      "Ġtipova": 6633,
      "Ġnave": 6634,
      "Å¾nog": 6635,
      "Ġdata": 6636,
      "Ġpreki": 6637,
      "tum": 6638,
      "Ġtoma": 6639,
      "geni": 6640,
      "Ġvodo": 6641,
      "Ġpartikula": 6642,
      "Ġserbi": 6643,
      "Ġnedostatak": 6644,
      "Ġline": 6645,
      "Ġvrsti": 6646,
      "Ġstranu": 6647,
      "Ġobraz": 6648,
      "ĠÅ¾elje": 6649,
      "Ġmodeli": 6650,
      "Ġgeneracije": 6651,
      "Ġuku": 6652,
      "zio": 6653,
      "Ġbih": 6654,
      "Ġmoja": 6655,
      "bac": 6656,
      "Ġpotvrda": 6657,
      "Ġblizi": 6658,
      "ĠÄĳubri": 6659,
      "Ġokolnostima": 6660,
      "ĠÅ¾rtve": 6661,
      "ĠobjaÅ¡njava": 6662,
      "ol": 6663,
      "ukup": 6664,
      "Ã¶": 6665,
      "Ġpriori": 6666,
      "Ġnikako": 6667,
      "Ġsvemu": 6668,
      "ĠznaÄįen": 6669,
      "Ġmuzici": 6670,
      "Ġrezultatima": 6671,
      "Ġustanovi": 6672,
      "ĠÅ¡kolama": 6673,
      "01": 6674,
      "05": 6675,
      "Ġ(:": 6676,
      "Ġpromenu": 6677,
      "Ġmira": 6678,
      "Ġvojvodine": 6679,
      "iÄĨ": 6680,
      "ĠÃ¥": 6681,
      "vit": 6682,
      "Ġag": 6683,
      "Ġare": 6684,
      "ĠzavrÅ¡": 6685,
      "Ġrastu": 6686,
      "Ġdel": 6687,
      "Ġgole": 6688,
      "Å¡ena": 6689,
      "ĠpoveÄĩava": 6690,
      "ĠstanovniÅ¡tvo": 6691,
      "izo": 6692,
      "ĠpH": 6693,
      "Ġpotra": 6694,
      "Ġnastavlja": 6695,
      "Ġnakna": 6696,
      "tona": 6697,
      "Ġdovode": 6698,
      "gina": 6699,
      "ĠtaÄįno": 6700,
      "Ġpejo": 6701,
      "Ġglavu": 6702,
      "ĠteÅ¡koÄĩa": 6703,
      "tat": 6704,
      "Ġsvoga": 6705,
      "Ġlegure": 6706,
      "feru": 6707,
      "Ġvrhu": 6708,
      "Ġ1982": 6709,
      "Ġrokenro": 6710,
      "SDR": 6711,
      "kona": 6712,
      "Ġpogr": 6713,
      "Ġkasni": 6714,
      "Ġes": 6715,
      "Ġobre": 6716,
      "Å¾im": 6717,
      "Ġstava": 6718,
      "Ġbogu": 6719,
      "Ġstranke": 6720,
      "Ġnekoj": 6721,
      "nz": 6722,
      "nÄįa": 6723,
      "ĠÃ¦e": 6724,
      "Ġunije": 6725,
      "eng": 6726,
      "Ġdevede": 6727,
      "Ġparo": 6728,
      "ĠmuziÄįki": 6729,
      "Ġvuka": 6730,
      "Ġfebru": 6731,
      "ĠÅ¡eÄĩe": 6732,
      "Ġpretpostaviti": 6733,
      "Ġscience": 6734,
      "Ġodraslih": 6735,
      "ĠsevernoÅ¡arplani": 6736,
      "Ġpsl": 6737,
      "ĠdeÅ¡ava": 6738,
      "ĠtiÄįu": 6739,
      "Ġpoziciju": 6740,
      "ispi": 6741,
      "Ġrazumevanja": 6742,
      "Ġrezul": 6743,
      "57": 6744,
      "tle": 6745,
      "tska": 6746,
      "nicom": 6747,
      "neki": 6748,
      "Ġbru": 6749,
      "Ġsadu": 6750,
      "Ġkakve": 6751,
      "Ġchi": 6752,
      "rijskih": 6753,
      "istraÅ¾iva": 6754,
      "ĠobeleÅ¾ja": 6755,
      "Ġiv": 6756,
      "ĠpreÅ¾i": 6757,
      "Ġdol": 6758,
      "Ġbira": 6759,
      "verba": 6760,
      "Ġideju": 6761,
      "Ġkritika": 6762,
      "Ġliturgi": 6763,
      "ÊĦ": 6764,
      "Ġzasla": 6765,
      "Ġstvo": 6766,
      "Ġ33": 6767,
      "ografije": 6768,
      "Ġ1984": 6769,
      "Ġobim": 6770,
      "Ġproizvodnja": 6771,
      "Ġdiskurs": 6772,
      "Ġpromenama": 6773,
      "Ġzadovolj": 6774,
      "njim": 6775,
      "Ġpisao": 6776,
      "Ġprirodno": 6777,
      "Ġsufiksa": 6778,
      "Ġemigra": 6779,
      "Ġlegitim": 6780,
      "Ġaprila": 6781,
      "ent": 6782,
      "Ġdosle": 6783,
      "kule": 6784,
      "Ġsovje": 6785,
      "Ġradnja": 6786,
      "Äįniku": 6787,
      "ĠsluÄįaja": 6788,
      "Ġkomunisti": 6789,
      "Ġprimarno": 6790,
      "Ġupravljanje": 6791,
      "ĠÄĩiri": 6792,
      "Ġstudenata": 6793,
      "dÅ¾a": 6794,
      "nstva": 6795,
      "Ġolak": 6796,
      "Ġnaju": 6797,
      "Ġsaop": 6798,
      "ljan": 6799,
      "ĠbaÅ¡tine": 6800,
      "Ġruski": 6801,
      "cultu": 6802,
      "Ġporetka": 6803,
      "Ġsimpozi": 6804,
      "Ġinicijal": 6805,
      "Ġzaposlenih": 6806,
      "ĠoruÅ¾": 6807,
      "03": 6808,
      "nku": 6809,
      "Ġonoj": 6810,
      "Ġslavi": 6811,
      "Ã£e": 6812,
      "Ġposebne": 6813,
      "ngu": 6814,
      "Ġsra": 6815,
      "Å¡ne": 6816,
      "Ġzastupa": 6817,
      "Äįila": 6818,
      "ĠmE": 6819,
      "Ġstranih": 6820,
      "ĠodreÄĳenom": 6821,
      "ĠvaÅ¾nosti": 6822,
      "ĠmeÄĳunarodne": 6823,
      "analiza": 6824,
      "nse": 6825,
      "oce": 6826,
      "Ġreka": 6827,
      "Ġmestima": 6828,
      "ĠobraÄĩa": 6829,
      "Ġreligija": 6830,
      "ĠÅ¡iroko": 6831,
      "Ġhuma": 6832,
      "ĠâĨ": 6833,
      "Ġpripadnika": 6834,
      "Ġishrani": 6835,
      "Ġpodstica": 6836,
      "rata": 6837,
      "ĠkaÅ¾u": 6838,
      "Ġinf": 6839,
      "Ġprvim": 6840,
      "Ġsloj": 6841,
      "ĠuÄįesnika": 6842,
      "Ġtakvo": 6843,
      "Ġpretpostavke": 6844,
      "plje": 6845,
      "ĠoÅłdÄĨ": 6846,
      "Ġpokraji": 6847,
      "Ġprevodi": 6848,
      "Ġdolaze": 6849,
      "ĠnauÄįnim": 6850,
      "Ġprocesima": 6851,
      "Ġbrojnim": 6852,
      "rska": 6853,
      "xvi": 6854,
      "Å¡ni": 6855,
      "kava": 6856,
      "ĠsaÄįi": 6857,
      "Ġpreuzima": 6858,
      "Ġbazira": 6859,
      "Ġosnovnog": 6860,
      "Äĳivanju": 6861,
      "É¢É¬": 6862,
      "Ġobjavio": 6863,
      "Ġsprem": 6864,
      "ĠpraktiÄįno": 6865,
      "Ġkoncentracija": 6866,
      "Ġpoglavlju": 6867,
      "ph": 6868,
      "ĠbÃª": 6869,
      "miloÅ¡": 6870,
      "Ġsur": 6871,
      "Ġsuda": 6872,
      "Ġprednost": 6873,
      "Ã¦u": 6874,
      "Ġneobi": 6875,
      "ĠnasleÄĳa": 6876,
      "reviÄĩ": 6877,
      "Ġulazi": 6878,
      "Ġab": 6879,
      "Ġkakva": 6880,
      "ĠizuÄįa": 6881,
      "Ġnikad": 6882,
      "Ġstvori": 6883,
      "Ġlogo": 6884,
      "Ġvremenom": 6885,
      "Ġizolata": 6886,
      "ĠoÄįigledno": 6887,
      "Ġizrazito": 6888,
      "vju": 6889,
      "Ġble": 6890,
      "jugo": 6891,
      "stanci": 6892,
      "Ġkud": 6893,
      "forman": 6894,
      "Ġnastanka": 6895,
      "Ġzakoni": 6896,
      "upotre": 6897,
      "ia": 6898,
      "âĢ¢": 6899,
      "Ġzaintere": 6900,
      "Ġprikup": 6901,
      "Ġrezo": 6902,
      "Ġmije": 6903,
      "ĠimajuÄĩi": 6904,
      "Ġcir": 6905,
      "ĠÅ¡irom": 6906,
      "Ġsavremenih": 6907,
      "Ġfizio": 6908,
      "ĠsvedoÄįe": 6909,
      "ovjek": 6910,
      "Ġsumnje": 6911,
      "ĠstaniÅ¡ta": 6912,
      "ĠstoleÄĩa": 6913,
      "98": 6914,
      "zmima": 6915,
      "veÄĩ": 6916,
      "govi": 6917,
      "govore": 6918,
      "Ġpredlog": 6919,
      "ljivim": 6920,
      "Ġradnika": 6921,
      "Ġnastaju": 6922,
      "Ġfilolog": 6923,
      "ĠpoÄįetak": 6924,
      "Ġstavove": 6925,
      "Ġnajbolji": 6926,
      "ranog": 6927,
      "Ġodvoje": 6928,
      "Ġpristupi": 6929,
      "Ġlet": 6930,
      "haj": 6931,
      "Ġaktivi": 6932,
      "Ġsocijalni": 6933,
      "ĠutvrÄĳeno": 6934,
      "Ġvidimo": 6935,
      "Ġstarih": 6936,
      "Ġnezavisno": 6937,
      "Ġilustra": 6938,
      "Ġsaobra": 6939,
      "Ġrane": 6940,
      "Ġpromo": 6941,
      "nostruktu": 6942,
      "Ġdrve": 6943,
      "ÉļÉ¤": 6944,
      "Ġnarodu": 6945,
      "Ġtakvog": 6946,
      "Ġposebnu": 6947,
      "Ġprikazan": 6948,
      "ĠograniÄįenja": 6949,
      "ĠÄĳur": 6950,
      "ĠÅ¾ar": 6951,
      "ncu": 6952,
      "Ġuno": 6953,
      "mesto": 6954,
      "Å¾nost": 6955,
      "dilo": 6956,
      "Ġminera": 6957,
      "Ġpraj": 6958,
      "Ġpodsta": 6959,
      "Ġuzeti": 6960,
      "Ġizbeglica": 6961,
      "ĠpoÅ¾elj": 6962,
      "cation": 6963,
      "Ġduh": 6964,
      "Ġnjihovoj": 6965,
      "Ġzdravlja": 6966,
      "ĠsadaÅ¡njo": 6967,
      "Ġpredstavnika": 6968,
      "Ġredovno": 6969,
      "voljan": 6970,
      "Ġrevolucije": 6971,
      "Ġsekvenci": 6972,
      "Ġreproduk": 6973,
      "ĥł": 6974,
      "Ġise": 6975,
      "tove": 6976,
      "Ġedi": 6977,
      "Ġkur": 6978,
      "Å¡tima": 6979,
      "Ġceline": 6980,
      "vljeni": 6981,
      "É¢É¯": 6982,
      "Ġprisustva": 6983,
      "Ġfilozofija": 6984,
      "Ġpravoslavne": 6985,
      "videti": 6986,
      "Ġkotor": 6987,
      "Ġmal": 6988,
      "Ġmisao": 6989,
      "Ġminuta": 6990,
      "Ġmuziku": 6991,
      "Ġsituaciju": 6992,
      "kultura": 6993,
      "ticaj": 6994,
      "Ġmeseca": 6995,
      "ĠpetroviÄĩ": 6996,
      "Ġmanifesta": 6997,
      "%).": 6998,
      "ep": 6999,
      "navede": 7000,
      "Å¡enju": 7001,
      "Ġnea": 7002,
      "gana": 7003,
      "Ġinfini": 7004,
      "fikuje": 7005,
      "ĠodreÄĳivanje": 7006,
      "Ġwiho": 7007,
      "Ġsinteti": 7008,
      "Ġîĥł": 7009,
      "Ġnanostruktu": 7010,
      "Ġzavod": 7011,
      "dalje": 7012,
      "mis": 7013,
      "Ġsig": 7014,
      "Ġduga": 7015,
      "Ġaktivno": 7016,
      "Ġsavremena": 7017,
      "Ġslobodu": 7018,
      "Ġborbe": 7019,
      "ĠuÄįestvuju": 7020,
      "psi": 7021,
      "Ġnih": 7022,
      "ĠvukoviÄĩe": 7023,
      "Ġvanred": 7024,
      "niÄįke": 7025,
      "laÅ¾u": 7026,
      "disci": 7027,
      "Ġprosti": 7028,
      "dov": 7029,
      "Ġkorist": 7030,
      "ÉļÊģ": 7031,
      "Ġparadaj": 7032,
      "Ġ1980": 7033,
      "Ġsupru": 7034,
      "Ġovome": 7035,
      "Ġporast": 7036,
      "Ġravnote": 7037,
      "ene": 7038,
      "js": 7039,
      "Ġnesumnji": 7040,
      "Ġdomen": 7041,
      "Ġprilozi": 7042,
      "2018": 7043,
      "Ġsingula": 7044,
      "demokra": 7045,
      "Ġuro": 7046,
      "tala": 7047,
      "mice": 7048,
      "Ġvese": 7049,
      "Ġlije": 7050,
      "Ġlinije": 7051,
      "ĠjaÄįa": 7052,
      "ĠÄįeka": 7053,
      "Ġpolovini": 7054,
      "Ġposmatrati": 7055,
      "Ġdeluje": 7056,
      "Ġstandarda": 7057,
      "Ġspadaju": 7058,
      "Ġnao": 7059,
      "Ġdola": 7060,
      "Ġjezikom": 7061,
      "Ġbrojnih": 7062,
      "ÉļÉ¡": 7063,
      "Ġkorela": 7064,
      "Ġfenomeno": 7065,
      "Ġprihvat": 7066,
      "Ġscena": 7067,
      "Ġmetafori": 7068,
      "89": 7069,
      "dbe": 7070,
      "jd": 7071,
      "Ġprepre": 7072,
      "gradu": 7073,
      "ljub": 7074,
      "Ġusmera": 7075,
      "Ġzadataka": 7076,
      "ĠpoloÅ¾aja": 7077,
      "popoviÄĩ": 7078,
      "Ġkralja": 7079,
      "Ġdelatnost": 7080,
      "Ġslobodno": 7081,
      "Ġposebnim": 7082,
      "funk": 7083,
      "Ġnamera": 7084,
      "sano": 7085,
      "Ġvezuje": 7086,
      "Ġjavnom": 7087,
      "Å¡ten": 7088,
      "Ġplasti": 7089,
      "Ġslobodan": 7090,
      "Ġvarijabli": 7091,
      "Ġkritike": 7092,
      "Ġbiblioteke": 7093,
      "fr": 7094,
      "Ġsfere": 7095,
      "ĠdoÅ¡ao": 7096,
      "Ġfla": 7097,
      "Å¡ina": 7098,
      "Ġsolu": 7099,
      "cus": 7100,
      "Ġbiodi": 7101,
      "slobo": 7102,
      "Ġprocenu": 7103,
      "discipli": 7104,
      "vamo": 7105,
      "Ġcor": 7106,
      "Ġisla": 7107,
      "Ġslojeva": 7108,
      "Ġsredstvima": 7109,
      "Ġtehnike": 7110,
      "Ġ1979": 7111,
      "Ġnavedeni": 7112,
      "ĠreÄįenica": 7113,
      "Ġruralnih": 7114,
      "Ġbibliografija": 7115,
      "Ġoebs": 7116,
      "bna": 7117,
      "novog": 7118,
      "mona": 7119,
      "Ġzapre": 7120,
      "Ġodba": 7121,
      "gram": 7122,
      "genera": 7123,
      "Ġroman": 7124,
      "hije": 7125,
      "Ġproblemima": 7126,
      "Ġteorijski": 7127,
      "ndu": 7128,
      "Ġ;": 7129,
      "manu": 7130,
      "Ġgora": 7131,
      "Ġgaz": 7132,
      "logijom": 7133,
      "ĠmarkoviÄĩ": 7134,
      "Ġnudi": 7135,
      "Ġporeklom": 7136,
      "Ġodabi": 7137,
      "Ġslovenskih": 7138,
      "Ġkompju": 7139,
      "Ġherbici": 7140,
      "Ġpostepeno": 7141,
      "bl": 7142,
      "lajn": 7143,
      "moviÄĩ": 7144,
      "sona": 7145,
      "Ġprednosti": 7146,
      "Ġusme": 7147,
      "ĠduÅ¾e": 7148,
      "Ġonako": 7149,
      "lizaciju": 7150,
      "Ġkoncert": 7151,
      "ĠsevernoÅ¡arplaninske": 7152,
      "ĠnaÅ¡u": 7153,
      "Ġati": 7154,
      "Ġprove": 7155,
      "Ġfro": 7156,
      "Ġnisam": 7157,
      "proble": 7158,
      "kreta": 7159,
      "Ġmetod": 7160,
      "Ġdijalog": 7161,
      "Ġtradicija": 7162,
      "Ġljudska": 7163,
      "Ġobaveza": 7164,
      "ĠproÅ¡lost": 7165,
      "Ġhrvatske": 7166,
      "83": 7167,
      "ĠoÅ¡t": 7168,
      "sled": 7169,
      "Ġprostorima": 7170,
      "Ġslav": 7171,
      "Ġuprave": 7172,
      "ĠuveÄĩa": 7173,
      "Ġ1970": 7174,
      "pisuje": 7175,
      "Ġprirodnog": 7176,
      "Ġpredika": 7177,
      "ĠÄĩo": 7178,
      "mio": 7179,
      "Ġprikazi": 7180,
      "bilnosti": 7181,
      "Ġveri": 7182,
      "Ġveteri": 7183,
      "Ġtesto": 7184,
      "Ġgram": 7185,
      "Ġslove": 7186,
      "Ġturisti": 7187,
      "ĠpolitiÄįkom": 7188,
      "É¢É°": 7189,
      "Ġdemon": 7190,
      "Ġnastavnici": 7191,
      "ita": 7192,
      "ntom": 7193,
      "Ġshe": 7194,
      "vajanje": 7195,
      "Ġpozaj": 7196,
      "Ġdode": 7197,
      "Ġpromen": 7198,
      "ljko": 7199,
      "nijem": 7200,
      "É¢É«É¬": 7201,
      "Ġsvrhe": 7202,
      "Ġnacionalni": 7203,
      "Ġbibliograf": 7204,
      "Ġwor": 7205,
      "Ġpripadnosti": 7206,
      "Ġaspekt": 7207,
      "Ġusluga": 7208,
      "buduÄĩi": 7209,
      "Äįem": 7210,
      "Ġhristo": 7211,
      "Ġnomina": 7212,
      "Ġlondo": 7213,
      "Ġhilan": 7214,
      "Ġlokalnih": 7215,
      "Ġzida": 7216,
      "Ġpopulacija": 7217,
      "Ġideologije": 7218,
      "Ġstudiji": 7219,
      "Ġpreseka": 7220,
      "Ġgeomet": 7221,
      "Ġrekonstruk": 7222,
      "zre": 7223,
      "É«É¬": 7224,
      "ĠÄĩa": 7225,
      "ranim": 7226,
      "deri": 7227,
      "Ġdovolj": 7228,
      "Ġpande": 7229,
      "Ġnosa": 7230,
      "Ġcele": 7231,
      "Ġekonomi": 7232,
      "Ġlegitimi": 7233,
      "nae": 7234,
      "ĠizvrÅ¡": 7235,
      "Ġpesma": 7236,
      "Ġbanja": 7237,
      "Ġglavnih": 7238,
      "mann": 7239,
      "Ġelementa": 7240,
      "ĠpoveÄĩanja": 7241,
      "Ġopasnost": 7242,
      "Ġizbega": 7243,
      "Ġpotrebama": 7244,
      "ĠduÅ¾ine": 7245,
      "lp": 7246,
      "phy": 7247,
      "miti": 7248,
      "Ġodlika": 7249,
      "Ġmin": 7250,
      "Ġlek": 7251,
      "bula": 7252,
      "Ġlaza": 7253,
      "Ġnauku": 7254,
      "Ġostao": 7255,
      "vljenje": 7256,
      "Ġjugoisto": 7257,
      "stavljena": 7258,
      "Ġkarakteristikama": 7259,
      "ĠpojedinaÄįnih": 7260,
      "Ġroditelj": 7261,
      "Ġpritisak": 7262,
      "ĠrijeÄįi": 7263,
      "Ġobjasniti": 7264,
      "Ġsmetnjama": 7265,
      "aa": 7266,
      "dÃªn": 7267,
      "mpe": 7268,
      "sh": 7269,
      "È¾": 7270,
      "ĠdÅ¾": 7271,
      "liji": 7272,
      "vek": 7273,
      "cia": 7274,
      "Ġkatoli": 7275,
      "Ġinvali": 7276,
      "sus": 7277,
      "Ġbosni": 7278,
      "hat": 7279,
      "Ġmorala": 7280,
      "Î¿ÏĤ": 7281,
      "imajuÄĩi": 7282,
      "Ġdonekle": 7283,
      "Ġkonstitui": 7284,
      "Ġidu": 7285,
      "Ġosve": 7286,
      "vanog": 7287,
      "diÄĩ": 7288,
      "Äįinje": 7289,
      "Ġsimu": 7290,
      "ljuje": 7291,
      "Ġizradu": 7292,
      "Ġnedovoljno": 7293,
      "Ġodgovornost": 7294,
      "ĠposveÄĩe": 7295,
      "Ġraspore": 7296,
      "Ġuspostavljanje": 7297,
      "Ġneretko": 7298,
      "Ġarheo": 7299,
      ".âĢĿ": 7300,
      "sm": 7301,
      "Ġigre": 7302,
      "Ġang": 7303,
      "Ġdobre": 7304,
      "sed": 7305,
      "Ġvali": 7306,
      "ĠsliÄįnosti": 7307,
      "Ġfer": 7308,
      "Ġprirodu": 7309,
      "ĠkaÅ¾em": 7310,
      "Ġsamih": 7311,
      "ĠopÅ¡teg": 7312,
      "Ġkakvo": 7313,
      "ĠudruÅ¾enja": 7314,
      "naravno": 7315,
      "bliko": 7316,
      "skva": 7317,
      "Ġsnima": 7318,
      "Ġkoman": 7319,
      "dimo": 7320,
      "Ġnespo": 7321,
      "Ġprvu": 7322,
      "Ġruskom": 7323,
      "ografija": 7324,
      "Ġ49": 7325,
      "Ġperforman": 7326,
      "Ġdonese": 7327,
      "Ġperife": 7328,
      "Ġspisa": 7329,
      "Äĩenju": 7330,
      "Ġmoga": 7331,
      "Ġbela": 7332,
      "Ġdimit": 7333,
      "Ġvolu": 7334,
      "ksida": 7335,
      "gledu": 7336,
      "inte": 7337,
      "Ġvojske": 7338,
      "Ġmarki": 7339,
      "Ġnesre": 7340,
      "Ġprevashodno": 7341,
      "ĠpotiÄįe": 7342,
      "Ġkomercijal": 7343,
      "tva": 7344,
      "ÄĻ": 7345,
      "âĢĶ": 7346,
      "stink": 7347,
      "Ġnjenu": 7348,
      "izra": 7349,
      "ÅłiÄĨ": 7350,
      "ĠkreÄĩe": 7351,
      "Ġvarijante": 7352,
      "Ġdvostru": 7353,
      "Ġrukovodi": 7354,
      "Ġizdvajaju": 7355,
      "Ġinteresovanja": 7356,
      "Å¡kim": 7357,
      "Ġapara": 7358,
      "ĠÅ¡an": 7359,
      "stojan": 7360,
      "Ġstoku": 7361,
      "Ġpojedini": 7362,
      "Ġokvirima": 7363,
      "Ġvladavine": 7364,
      "Ġmanjina": 7365,
      "Ġxiv": 7366,
      "Ġxviii": 7367,
      "Ġpozori": 7368,
      "Ġphaseo": 7369,
      "ava": 7370,
      "tskom": 7371,
      "Ġmerenja": 7372,
      "ĠliÄįno": 7373,
      "Ġ32": 7374,
      "Ġfoto": 7375,
      "verziteta": 7376,
      "ĠoznaÄįavaju": 7377,
      "Ġsmanjuje": 7378,
      "Ġbrita": 7379,
      "ĠureÄĳa": 7380,
      "ĠoÅ¡teÄĩenja": 7381,
      "Ġtalas": 7382,
      "ĠproÅ¡log": 7383,
      "ida": 7384,
      "Ġino": 7385,
      "Ġoli": 7386,
      "Å¡Äĩi": 7387,
      "nent": 7388,
      "Ġjev": 7389,
      "sin": 7390,
      "Ġch": 7391,
      "Ġznak": 7392,
      "troviÄĩ": 7393,
      "ĠÄĩelija": 7394,
      "Ġprocesi": 7395,
      "Ġ150": 7396,
      "Ġpomenutih": 7397,
      "Ġzbir": 7398,
      "Ġotpornost": 7399,
      "ĠpavloviÄĩ": 7400,
      "Ġpseudo": 7401,
      "ST": 7402,
      "time": 7403,
      "lia": 7404,
      "Ġprocese": 7405,
      "ĠdrÅ¾avnih": 7406,
      "Ġimple": 7407,
      "Ġosobi": 7408,
      "Ġsvrhu": 7409,
      "Ġorganizaciji": 7410,
      "Ġadsorp": 7411,
      "á½¸": 7412,
      "Ġgovornika": 7413,
      "Ġdobijene": 7414,
      "ĠtumaÄįenja": 7415,
      "ĠteÅ¡koÄĩe": 7416,
      "Ġdimenzije": 7417,
      "Ġdevedese": 7418,
      "rik": 7419,
      "Ġodbaci": 7420,
      "Ġreferen": 7421,
      "Ġelasti": 7422,
      "zoviÄĩ": 7423,
      "ĠÅ¾iv": 7424,
      "Ġkriza": 7425,
      "Ġekstrak": 7426,
      "Ġintervju": 7427,
      "Ġ65": 7428,
      "Ġnavedenim": 7429,
      "Ġkomunikacija": 7430,
      "mlade": 7431,
      "Ġnaja": 7432,
      "Ġprekida": 7433,
      "Ġprivla": 7434,
      "Ġrazd": 7435,
      "Ġinfek": 7436,
      "dnicima": 7437,
      "zovanih": 7438,
      "Ġsocijalno": 7439,
      "Ġpomenute": 7440,
      "ĠmaÅ¡ine": 7441,
      "Ġmnenje": 7442,
      "Ġsolidar": 7443,
      "Ġaorist": 7444,
      "ĠglediÅ¡ta": 7445,
      "kvo": 7446,
      "ou": 7447,
      "Ġopada": 7448,
      "nemo": 7449,
      "Å¾nom": 7450,
      "Å¡eno": 7451,
      "Ġmra": 7452,
      "puÅ¡ta": 7453,
      "ĠleÅ¾i": 7454,
      "Ġotvo": 7455,
      "Ġinstitutu": 7456,
      "ĠtumaÄįi": 7457,
      "Ġuzorku": 7458,
      "ĠzabeleÅ¾en": 7459,
      "Ġdobijaju": 7460,
      "Ġpojavljuju": 7461,
      "ĠâĨĴ": 7462,
      "jte": 7463,
      "ÏĨ": 7464,
      "Ġuklanja": 7465,
      "Ġneja": 7466,
      "Ġprelazi": 7467,
      "Ġizu": 7468,
      "Ġraznim": 7469,
      "ĠmiloÅ¡": 7470,
      "ĠizraÅ¾ava": 7471,
      "Ġsocijalnog": 7472,
      "laganja": 7473,
      "Ġsopstvene": 7474,
      "Ġnejednakosti": 7475,
      "81": 7476,
      "Å¾ba": 7477,
      "Ġkaza": 7478,
      "ĠboÅ¾an": 7479,
      "Ġbala": 7480,
      "Ġfaza": 7481,
      "Ġjournal": 7482,
      "slova": 7483,
      "Ġotpo": 7484,
      "ĠviÅ¡estru": 7485,
      "Ġovce": 7486,
      "Ġbakterija": 7487,
      "Ġposeduju": 7488,
      "Ġjednostavno": 7489,
      "ĠÉ¢": 7490,
      "ĠniÅ¾e": 7491,
      "Ġvitro": 7492,
      "menzi": 7493,
      "Ġplane": 7494,
      "Ġideal": 7495,
      "ĠobiÄįaj": 7496,
      "ĠsreÄĩe": 7497,
      "ĠÅ¾enska": 7498,
      "Ġkiseline": 7499,
      "Ġpredsednik": 7500,
      "Ġsrednjeg": 7501,
      "Ġpaprike": 7502,
      "pira": 7503,
      "Ġkonja": 7504,
      "moni": 7505,
      "Ġinvesti": 7506,
      "Ġbaj": 7507,
      "ĠznaÄįajnu": 7508,
      "Ġdobiti": 7509,
      "Ġcentara": 7510,
      "ĠÎ±": 7511,
      "Ġproseka": 7512,
      "Ġmodifikacija": 7513,
      "Ġstefana": 7514,
      "Ġkvantita": 7515,
      "Ġherbicida": 7516,
      "Ġlistova": 7517,
      "Ġprofesora": 7518,
      "ire": 7519,
      "danoviÄĩ": 7520,
      "Ġprosla": 7521,
      "Ġtnz": 7522,
      "Å¾ima": 7523,
      "ĠliÄįnih": 7524,
      "ĠvaÅ¾i": 7525,
      "2012": 7526,
      "Ġutisak": 7527,
      "ĠhoÄĩe": 7528,
      "Ġtemperaturi": 7529,
      "Ġposredstvom": 7530,
      "Ġnapred": 7531,
      "Ġsank": 7532,
      "ker": 7533,
      "Ġrecep": 7534,
      "Ġlist": 7535,
      "Ġglavi": 7536,
      "Å¡tini": 7537,
      "Ġbiljne": 7538,
      "Ġposebna": 7539,
      "ĠkoriÅ¡Äĩen": 7540,
      "ĠtrÅ¾iÅ¡tu": 7541,
      "Ġodsustvo": 7542,
      "tamo": 7543,
      "vol": 7544,
      "Ġkosti": 7545,
      "peu": 7546,
      "nula": 7547,
      "Ġpravom": 7548,
      "Ġ34": 7549,
      "Ġ36": 7550,
      "Ġribo": 7551,
      "Ġandri": 7552,
      "ĠuÄįinio": 7553,
      "ĠÄįitav": 7554,
      "ĠpoÅ¡tovanje": 7555,
      "Ġpredavanja": 7556,
      "Ġogrom": 7557,
      "Ġube": 7558,
      "vajanja": 7559,
      "Ġprojekat": 7560,
      "Ġdeci": 7561,
      "Å¾iÄĩ": 7562,
      "duÅ¡e": 7563,
      "Ġmagi": 7564,
      "Ġbal": 7565,
      "han": 7566,
      "Ġmetodom": 7567,
      "Ġdelovi": 7568,
      "Ġplodo": 7569,
      "Ġnazivi": 7570,
      "Ġ1976": 7571,
      "Ġargumenta": 7572,
      "92": 7573,
      "ati": 7574,
      "Ġodbor": 7575,
      "zin": 7576,
      "Ġev": 7577,
      "Ġ120": 7578,
      "ÄĩeviÄĩ": 7579,
      "dutim": 7580,
      "Ġbur": 7581,
      "Ġkrava": 7582,
      "2010": 7583,
      "ĠveÄĩim": 7584,
      "Ġnavedeno": 7585,
      "ĠvaÅ¾nost": 7586,
      "Ġzamenice": 7587,
      "Ġrumuniji": 7588,
      "ĠkonaÄįno": 7589,
      "Ġbrzine": 7590,
      "Ġsastavu": 7591,
      "Ġkompeten": 7592,
      "Ġposu": 7593,
      "zacijom": 7594,
      "Ġtest": 7595,
      "duje": 7596,
      "ĠtaÄįka": 7597,
      "ĠsveÄįa": 7598,
      "Ġpesama": 7599,
      "Ġvulga": 7600,
      "Ġradom": 7601,
      "ĠpotvrÄĳuju": 7602,
      "Ġsaveta": 7603,
      "Ġborbi": 7604,
      "Ġambi": 7605,
      "Ġkoordina": 7606,
      "ÈĽ": 7607,
      "Ġā": 7608,
      "Ġnacije": 7609,
      "Ġsemina": 7610,
      "Ġkrom": 7611,
      "Ġsuve": 7612,
      "ÄįiÄĩa": 7613,
      "Ġlika": 7614,
      "Ġtipu": 7615,
      "Ġbarem": 7616,
      "prije": 7617,
      "rijskog": 7618,
      "rsj": 7619,
      "Ġsnagu": 7620,
      "Ġobaveze": 7621,
      "Ġelektri": 7622,
      "Ġukupnog": 7623,
      "Ġsmr": 7624,
      "ĠboÅ¾idara": 7625,
      "ĠpaÅ¡trovi": 7626,
      "Ġispitivanih": 7627,
      "Ġtalasa": 7628,
      "Ġbakteri": 7629,
      "uo": 7630,
      "zavi": 7631,
      "Ġdans": 7632,
      "tuma": 7633,
      "Ġiskazuje": 7634,
      "ĠvaÅ¡e": 7635,
      "Ġistina": 7636,
      "Ġtradiciji": 7637,
      "Ġvezana": 7638,
      "Ġpolicije": 7639,
      "ĠodgovarajuÄĩe": 7640,
      "Ġinternetu": 7641,
      "Ġugra": 7642,
      "Ġae": 7643,
      "Ġklo": 7644,
      "dob": 7645,
      "2021": 7646,
      "Ġ1973": 7647,
      "lazeÄĩi": 7648,
      "Ġodeljenja": 7649,
      "Ġnezaposle": 7650,
      "ĠobjaÅ¡njenje": 7651,
      "Ġdetermina": 7652,
      "svoj": 7653,
      "Ġstek": 7654,
      "Ġneod": 7655,
      "goviÄĩ": 7656,
      "Ġnovije": 7657,
      "ĠpeÄĩi": 7658,
      "vljenja": 7659,
      "ĠproizvoÄĳa": 7660,
      "Ġulozi": 7661,
      "Ġskok": 7662,
      "Ġ1967": 7663,
      "Ġepiste": 7664,
      "Ġefikasnosti": 7665,
      "ĠâĪĴ": 7666,
      "Ġseptembra": 7667,
      "Ġnastupa": 7668,
      "ziv": 7669,
      "Ġreper": 7670,
      "Ġkonzu": 7671,
      "Ġimam": 7672,
      "Ã¨ki": 7673,
      "Ġnikole": 7674,
      "ĠpriliÄįno": 7675,
      "Ġinteres": 7676,
      "Ġsvakoj": 7677,
      "Ġishrane": 7678,
      "Ġreakcije": 7679,
      "Ġphaseolina": 7680,
      "dy": 7681,
      "dnoj": 7682,
      "spa": 7683,
      "Äĵ": 7684,
      "neo": 7685,
      "kin": 7686,
      "Ġtvo": 7687,
      "Äįuju": 7688,
      "Ġloma": 7689,
      "ĠsliÄįan": 7690,
      "drugo": 7691,
      "Ġbrani": 7692,
      "Ġprilike": 7693,
      "Ġautorka": 7694,
      "ĠistaÄĩi": 7695,
      "ĠsiriniÄĩkom": 7696,
      "Ġderivata": 7697,
      "Ġrekonstrui": 7698,
      "Ġfonda": 7699,
      "84": 7700,
      "jde": 7701,
      "kvali": 7702,
      "Ġur": 7703,
      "Ġese": 7704,
      "Ġvere": 7705,
      "ĠÅ¡ar": 7706,
      "Ġfonet": 7707,
      "Î±Î¹": 7708,
      "ĠznaÄįaju": 7709,
      "ĠpodruÄįje": 7710,
      "Ġfilm": 7711,
      "Ġodbrane": 7712,
      "kg": 7713,
      "Ġpsa": 7714,
      "Ġpoko": 7715,
      "Ġreduk": 7716,
      "ĠÅ¡v": 7717,
      "Ġbolji": 7718,
      "ĠÅ½": 7719,
      "Ġovakve": 7720,
      "Ġotpad": 7721,
      "Ġplant": 7722,
      "Ġpretvara": 7723,
      "ĠÎµ": 7724,
      "Ġvarijanta": 7725,
      "Ġuput": 7726,
      "ÄĬe": 7727,
      "niÄįkog": 7728,
      "Ġuko": 7729,
      "Ġuba": 7730,
      "lat": 7731,
      "Ġalata": 7732,
      "Ġzasta": 7733,
      "num": 7734,
      "Ġrezer": 7735,
      "Ġzoni": 7736,
      "Ġjabu": 7737,
      "Ġtrajanja": 7738,
      "Ġosnovnim": 7739,
      "Ġnm": 7740,
      "Ġprikazana": 7741,
      "ĠmeÄĳunarodnog": 7742,
      "ret": 7743,
      "juÅ¾no": 7744,
      "poda": 7745,
      "Ġpriho": 7746,
      "stojanje": 7747,
      "Ġlik": 7748,
      "Ġuzne": 7749,
      "Ġcare": 7750,
      "É¨É¥": 7751,
      "Äįanstvo": 7752,
      "Ġleksikogra": 7753,
      "Ġlokalitetu": 7754,
      "Ġinostran": 7755,
      "anti": 7756,
      "ffe": 7757,
      "lor": 7758,
      "toro": 7759,
      "âĢĺ": 7760,
      "stano": 7761,
      "rus": 7762,
      "Ġkana": 7763,
      "Ġpolitici": 7764,
      "Ġknjigu": 7765,
      "Ġstudenti": 7766,
      "Ġsupstan": 7767,
      "Ġzakonom": 7768,
      "Ġporedak": 7769,
      "Ġjc": 7770,
      "Ġelektrohemi": 7771,
      "ĠboÅ¾idar": 7772,
      "Ġargument": 7773,
      "Ġdijalekto": 7774,
      "Ġaustrougar": 7775,
      "ev": 7776,
      "io": 7777,
      "rine": 7778,
      "Ġnismo": 7779,
      "Ġinformi": 7780,
      "Ġsigna": 7781,
      "ĠmlaÄĳi": 7782,
      "ĠpodrÅ¡ka": 7783,
      "Ġderivati": 7784,
      "Ġaristote": 7785,
      "ĠsaobraÄĩa": 7786,
      "rm": 7787,
      "tc": 7788,
      "Ġtemati": 7789,
      "Ġtok": 7790,
      "Ġrazmo": 7791,
      "Ġinfra": 7792,
      "Ġmito": 7793,
      "Ġnjenim": 7794,
      "2014": 7795,
      "Ġ44": 7796,
      "Ġstoje": 7797,
      "Ġimpla": 7798,
      "ĠdruÅ¡tvenu": 7799,
      "Ġmetala": 7800,
      "Ġnegativno": 7801,
      "ĠrjeÄįniku": 7802,
      "lita": 7803,
      "tovati": 7804,
      "letiÄĩ": 7805,
      "Ġagri": 7806,
      "Ġsakuplja": 7807,
      "Äįenog": 7808,
      "ĠpodseÄĩa": 7809,
      "ĠÄįin": 7810,
      "Ġosnov": 7811,
      "ĠnauÄįna": 7812,
      "Ġgeni": 7813,
      "Ġmetafizi": 7814,
      "vredu": 7815,
      "Ġnapravi": 7816,
      "Ġpostojala": 7817,
      "Ġkosovo": 7818,
      "Ġrasprave": 7819,
      "rskih": 7820,
      "Ĥ·": 7821,
      "Ġprezime": 7822,
      "Ġpala": 7823,
      "dobije": 7824,
      "Ġostane": 7825,
      "Ġdvadese": 7826,
      "Ġsvojstava": 7827,
      "Ġdemokratija": 7828,
      "ĠposveÄĩen": 7829,
      "ĠkaÅ¾emo": 7830,
      "Ġnorme": 7831,
      "Ġpotrebna": 7832,
      "ĠgvoÅ¾": 7833,
      "ĠÄĳubriva": 7834,
      "Å¡nih": 7835,
      "lona": 7836,
      "Ġkampa": 7837,
      "ses": 7838,
      "spozi": 7839,
      "Ġpovezuje": 7840,
      "Ġmorao": 7841,
      "ĠsliÄįne": 7842,
      "ĠoÄįuvanje": 7843,
      "á¿¦": 7844,
      "tho": 7845,
      "Ġimi": 7846,
      "cina": 7847,
      "Ġsat": 7848,
      "Ġbiva": 7849,
      "Ġmoderne": 7850,
      "Ġpozitivno": 7851,
      "ĠanÄĳe": 7852,
      "ĠÎ²": 7853,
      "Ġsprovodi": 7854,
      "Ġistorijske": 7855,
      "Ġrealnosti": 7856,
      "Ġnoge": 7857,
      "Ġusavr": 7858,
      "Ġvijeka": 7859,
      "Ġciklusa": 7860,
      "Ġrazgovora": 7861,
      "Ġstati": 7862,
      "Ġglava": 7863,
      "ĠÅ¾ito": 7864,
      "ĠpoÄįeo": 7865,
      "Ġsredinom": 7866,
      "Ġpoznati": 7867,
      "spira": 7868,
      "Ġotvoreno": 7869,
      "ĠÃ©": 7870,
      "diÅ¡te": 7871,
      "ĠdoÅ¡la": 7872,
      "bini": 7873,
      "skopa": 7874,
      "Ġvam": 7875,
      "ntima": 7876,
      "Ġtrp": 7877,
      "Ġkompozitora": 7878,
      "Ġstabilnost": 7879,
      "Ġadekva": 7880,
      "Ġnaslovom": 7881,
      "Ġgalile": 7882,
      "ĠÄįubriloviÄĩ": 7883,
      "Ġokuplja": 7884,
      "Ġid": 7885,
      "rene": 7886,
      "rela": 7887,
      "viso": 7888,
      "Ġgen": 7889,
      "Ġmakar": 7890,
      "Ġvinogra": 7891,
      "har": 7892,
      "Ġobradu": 7893,
      "Ġdobila": 7894,
      "Ġsaveza": 7895,
      "Ġnavedenog": 7896,
      "Ġvideli": 7897,
      "Ġsimpto": 7898,
      "Ġnovembra": 7899,
      "godiÅ¡nji": 7900,
      "Ġpovezanost": 7901,
      "Ġteritorije": 7902,
      "ĠÅ¾ivotinje": 7903,
      "Ġarhitekto": 7904,
      "Ġsuvereni": 7905,
      "iva": 7906,
      "ĠÄĲ": 7907,
      "rit": 7908,
      "Ġarea": 7909,
      "Ġsala": 7910,
      "proce": 7911,
      "Ã¨no": 7912,
      "Ġobradi": 7913,
      "Ġkonceptuali": 7914,
      "Ġrazmatranja": 7915,
      "ĠoÅ¡teÄĩe": 7916,
      "nstvo": 7917,
      "ÊĤ": 7918,
      "koje": 7919,
      "Ġojko": 7920,
      "Ġdat": 7921,
      "danja": 7922,
      "del": 7923,
      "sub": 7924,
      "ĠgodiÅ¡nje": 7925,
      "konstruk": 7926,
      "terapi": 7927,
      "Ġglagolima": 7928,
      "Ġbrojni": 7929,
      "Ġsmisla": 7930,
      "Ġparado": 7931,
      "Ġsaradnji": 7932,
      "Ġsaradnja": 7933,
      "ĠÅ¾enskog": 7934,
      "Ġstavovi": 7935,
      "Ġsmanjenja": 7936,
      "Ġsamostalno": 7937,
      "85": 7938,
      "gc": 7939,
      "ije": 7940,
      "una": 7941,
      "Ïį": 7942,
      "Ġido": 7943,
      "ras": 7944,
      "Ġul": 7945,
      "ĠnaÄĳe": 7946,
      "ĠveÄįe": 7947,
      "Ġmater": 7948,
      "Ġpraksu": 7949,
      "Ġcrte": 7950,
      "Ġoptimi": 7951,
      "Ġistini": 7952,
      "Ġsredina": 7953,
      "Ġdemograf": 7954,
      "ĠdomaÄĩih": 7955,
      "ĠdogaÄĳaj": 7956,
      "Ġindustrija": 7957,
      "Ġmolekula": 7958,
      "Ġinternational": 7959,
      "rnoj": 7960,
      "kal": 7961,
      "Ġfleksi": 7962,
      "Ġgaran": 7963,
      "Ġstrah": 7964,
      "Ġprisutan": 7965,
      "Ġskupu": 7966,
      "Ġkarbo": 7967,
      "ĠkljuÄįnih": 7968,
      "Ġjugoslovenske": 7969,
      "Ġodlikuje": 7970,
      "Ġreprezenta": 7971,
      "Ġane": 7972,
      "stavljanje": 7973,
      "kriti": 7974,
      "Ġpercipi": 7975,
      "klope": 7976,
      "Ġpriliku": 7977,
      "Ġrukopisa": 7978,
      "Ġtoponimi": 7979,
      "Ġorijentacije": 7980,
      "ĠlakÅ¡e": 7981,
      "Ġvirtue": 7982,
      "liÅ¡u": 7983,
      "Ġpoje": 7984,
      "Ġsastava": 7985,
      "pojedi": 7986,
      "Ġprinu": 7987,
      "sem": 7988,
      "ĠveÅ¡tina": 7989,
      "ljana": 7990,
      "Ġsveobu": 7991,
      "Ġ1914": 7992,
      "Å¡avanju": 7993,
      "Ġtija": 7994,
      "ĠjeziÄįkog": 7995,
      "Å¡tena": 7996,
      "2015": 7997,
      "Ġciga": 7998,
      "Ġsaradnici": 7999,
      "Ġindirek": 8000,
      "ĠÃł": 8001,
      "Ġfilozofski": 8002,
      "Ġkapaciteta": 8003,
      "Ġprocedura": 8004,
      "rovatnije": 8005,
      "dopuna": 8006,
      "dt": 8007,
      "ngi": 8008,
      "Å¡njoj": 8009,
      "Ġnado": 8010,
      "Ġizre": 8011,
      "Ġjan": 8012,
      "Ġbaze": 8013,
      "Ã¨ke": 8014,
      "Ġodrediti": 8015,
      "kret": 8016,
      "ÄĳivaÄįa": 8017,
      "stavljen": 8018,
      "Ġdoprinose": 8019,
      "Ġevropskih": 8020,
      "Ġformalno": 8021,
      "ĠtumaÄįe": 8022,
      "Ġzbornika": 8023,
      "Ġuniverzu": 8024,
      "Ġeuro": 8025,
      "Ġelementima": 8026,
      "Ġpatogena": 8027,
      "filozo": 8028,
      "Ġdevedesetih": 8029,
      "îĢ": 8030,
      "Ġphi": 8031,
      "leni": 8032,
      "Ġdale": 8033,
      "Ġneforma": 8034,
      "povi": 8035,
      "ĠdoÅ¡li": 8036,
      "Ġmomenat": 8037,
      "Ġmanja": 8038,
      "ĠjeziÄįkih": 8039,
      "Ġpojavi": 8040,
      "ĠdruÅ¡tvenom": 8041,
      "Ġvisokog": 8042,
      "najveÄĩi": 8043,
      "Ġposmatrano": 8044,
      "ĠgraÄĳani": 8045,
      "Ġgeneracija": 8046,
      "Ġumr": 8047,
      "Ġpirotskog": 8048,
      "bne": 8049,
      "smu": 8050,
      "ĠÒĥ": 8051,
      "Ġkoko": 8052,
      "moÅ¾da": 8053,
      "Ġdate": 8054,
      "Ġsav": 8055,
      "engl": 8056,
      "pol": 8057,
      "Ġel": 8058,
      "Ġdem": 8059,
      "Ġtodo": 8060,
      "ĠnoÄĩ": 8061,
      "ntne": 8062,
      "Ġceo": 8063,
      "Ġmaterijalu": 8064,
      "Ġnaseljima": 8065,
      "Ġrealizacije": 8066,
      "ĠtumaÄįenje": 8067,
      "Ġkukuruza": 8068,
      "zga": 8069,
      "nasta": 8070,
      "Ġnezna": 8071,
      "sanih": 8072,
      "Ġmeni": 8073,
      "ljeviÄĩ": 8074,
      "boru": 8075,
      "âĢĻ;": 8076,
      "ĠgraÄĳi": 8077,
      "2013": 8078,
      "Ġostalo": 8079,
      "É¢ÉĢ": 8080,
      "Ġdefinicija": 8081,
      "Ġnaselje": 8082,
      "Ġkonceptual": 8083,
      "ĠspecifiÄįnosti": 8084,
      "Ġopasnosti": 8085,
      "Ġpodela": 8086,
      "Ġprepoznaje": 8087,
      "Ġtretman": 8088,
      "Ġavgusta": 8089,
      "mnog": 8090,
      "uÄįe": 8091,
      "uticaj": 8092,
      "dem": 8093,
      "Ġizri": 8094,
      "sara": 8095,
      "bit": 8096,
      "ljku": 8097,
      "ĠsluÅ¾e": 8098,
      "Ġpostane": 8099,
      "Ġustanove": 8100,
      "qiti": 8101,
      "ĠpoloÅ¾aju": 8102,
      "Ġdemokratske": 8103,
      "Ġparadajza": 8104,
      "lnik": 8105,
      "Ġsro": 8106,
      "ved": 8107,
      "Ġnago": 8108,
      "deli": 8109,
      "É¢É¡": 8110,
      "Ġ1969": 8111,
      "ĠÅ¾ivotinj": 8112,
      "Ġkonvencional": 8113,
      "nge": 8114,
      "Ġsne": 8115,
      "Ġosi": 8116,
      "Ġosvet": 8117,
      "terije": 8118,
      "dat": 8119,
      "Ġprotek": 8120,
      "Ġdekla": 8121,
      "Ġiska": 8122,
      "Ġodredbe": 8123,
      "Ġstvarnost": 8124,
      "Ġizborima": 8125,
      "Ġocene": 8126,
      "Ġsaglasnost": 8127,
      "Ġmuzeja": 8128,
      "Ġpolemi": 8129,
      "87": 8130,
      "kqu": 8131,
      "neu": 8132,
      "stal": 8133,
      "Ġdom": 8134,
      "Äĳenim": 8135,
      "Ġtraga": 8136,
      "Ġrusiji": 8137,
      "druÅ¡t": 8138,
      "Ġnarodnih": 8139,
      "Ġprincipu": 8140,
      "ĠokruÅ¾enja": 8141,
      "Ġplura": 8142,
      "ĠodreÄĳenu": 8143,
      "Ġtkiva": 8144,
      "fg": 8145,
      "Ġsfera": 8146,
      "Ġsavija": 8147,
      "Äįati": 8148,
      "pav": 8149,
      "Ġdizaj": 8150,
      "Ġkombi": 8151,
      "Ġuspeh": 8152,
      "Ġpoljoprivreda": 8153,
      "Ġhrani": 8154,
      "Ġpovezana": 8155,
      "Ġdugoro": 8156,
      "Ġcarstva": 8157,
      "Ġfrazeologi": 8158,
      "crta": 8159,
      "jmo": 8160,
      "vrati": 8161,
      "vawe": 8162,
      "vela": 8163,
      "stiÄįko": 8164,
      "Ġratar": 8165,
      "Ġpere": 8166,
      "ĠÄįisto": 8167,
      "ĠstojanoviÄĩ": 8168,
      "ĠÅ¾elja": 8169,
      "Ġbrata": 8170,
      "Ġsaradnika": 8171,
      "Ġblisko": 8172,
      "Ġudalje": 8173,
      "ĠizmeÃ°u": 8174,
      "Ġsinonim": 8175,
      "pje": 8176,
      "rskog": 8177,
      "Ġuvr": 8178,
      "Äįn": 8179,
      "vanu": 8180,
      "enta": 8181,
      "upr": 8182,
      "njava": 8183,
      "Äįeki": 8184,
      "Ġdeminu": 8185,
      "Ġmesa": 8186,
      "ljud": 8187,
      "Å¡ija": 8188,
      "Ġpodjednako": 8189,
      "Ġhobs": 8190,
      "Ġpoznat": 8191,
      "Ġglagolskog": 8192,
      "Ġmnogobroj": 8193,
      "Ġkarte": 8194,
      "cher": 8195,
      "Ġnaba": 8196,
      "njaci": 8197,
      "âĢľ),": 8198,
      "Ġjavni": 8199,
      "ljivog": 8200,
      "ĠizraÅ¾e": 8201,
      "Ġperiodi": 8202,
      "Ġidentifiko": 8203,
      "Ġnepovolj": 8204,
      "Ġekspre": 8205,
      "Ġsufiks": 8206,
      "ralizma": 8207,
      "Ġzlati": 8208,
      "Ġdiskursu": 8209,
      "jni": 8210,
      "oso": 8211,
      "uma": 8212,
      "Ġnamet": 8213,
      "Ġjelena": 8214,
      "Ġavan": 8215,
      "Ġzgrada": 8216,
      "Äĩev": 8217,
      "Ġakcije": 8218,
      "ĠpolitiÄįku": 8219,
      "Ġjula": 8220,
      "Ġnastale": 8221,
      "Ġuticati": 8222,
      "Ġvezane": 8223,
      "ĠupuÄĩuju": 8224,
      "2007": 8225,
      "Ġnegativne": 8226,
      "Ġizgradnje": 8227,
      "Ġscene": 8228,
      "Ġgazdin": 8229,
      "Ġreperto": 8230,
      "Lj": 8231,
      "ĠuÄį": 8232,
      "Ġund": 8233,
      "Äįje": 8234,
      "Ġrese": 8235,
      "Ġmalim": 8236,
      "Ġistoj": 8237,
      "Ġvladar": 8238,
      "ĠvaÅ¾nu": 8239,
      "ĠpostiÅ¾e": 8240,
      "Ġproseku": 8241,
      "rgz": 8242,
      "Ġkriterijuma": 8243,
      "Ġdetaljno": 8244,
      "Ġmnenja": 8245,
      "88": 8246,
      "Äģ": 8247,
      "cijske": 8248,
      "Ġtvore": 8249,
      "vukoviÄĩ": 8250,
      "Ġenti": 8251,
      "Äįanstva": 8252,
      "Ġ1978": 8253,
      "ĠmuÅ¡karaca": 8254,
      "Ġvokala": 8255,
      "Ġmiliona": 8256,
      "ispitivanje": 8257,
      "hn": 8258,
      "moÄĩ": 8259,
      "ĠliÄįne": 8260,
      "Ġsloju": 8261,
      "Ġsistemima": 8262,
      "ĠznaÄįajnih": 8263,
      "Ġidentifikova": 8264,
      "Ġsvetlu": 8265,
      "ÉŁÉ¥": 8266,
      "Ġstvaranju": 8267,
      "arch": 8268,
      "Ġstarosti": 8269,
      "Ġtelevi": 8270,
      "Ġfunkcionisanja": 8271,
      "Ġsokoba": 8272,
      "96": 8273,
      "Ġprevod": 8274,
      "Ġteza": 8275,
      "Ġmarija": 8276,
      "Ġtije": 8277,
      "Ġupore": 8278,
      "Ġglagolom": 8279,
      "Ġzajednicu": 8280,
      "Ġdelove": 8281,
      "Ġstvaraju": 8282,
      "Ġpotvrde": 8283,
      "Ġ1977": 8284,
      "ĠpostojeÄĩih": 8285,
      "Ġkontrolisa": 8286,
      "Ġdeskrip": 8287,
      "Ġjedinstvo": 8288,
      "Ġmeseci": 8289,
      "Ġkriterijum": 8290,
      "Ġkonvencije": 8291,
      "Ġfokusi": 8292,
      "Ġubrza": 8293,
      "93": 8294,
      "tsko": 8295,
      "vawa": 8296,
      "Ġtoksi": 8297,
      "ĠÄįim": 8298,
      "ĠmoguÄĩa": 8299,
      "glago": 8300,
      "Ġistica": 8301,
      "Ġpoziva": 8302,
      "Ġizaziva": 8303,
      "ĠleksiÄįki": 8304,
      "Ġstresa": 8305,
      "Ġkomisije": 8306,
      "Ġoktobar": 8307,
      "eti": 8308,
      "mski": 8309,
      "koristi": 8310,
      "zahva": 8311,
      "Ġkohe": 8312,
      "data": 8313,
      "Ġego": 8314,
      "Ġvele": 8315,
      "Ġverti": 8316,
      "ĠdrÅ¾avu": 8317,
      "ÉļÉŀ": 8318,
      "Ġkrvi": 8319,
      "Ġvisoka": 8320,
      "Ġtempora": 8321,
      "Ġpoljoprivrede": 8322,
      "Ġarhiv": 8323,
      "Ġzahtev": 8324,
      "Ġdjela": 8325,
      "Ġkonjuga": 8326,
      "iviÄĩ": 8327,
      "wor": 8328,
      "Ġidi": 8329,
      "Ġumje": 8330,
      "rila": 8331,
      "Ġjeze": 8332,
      "Ġkol": 8333,
      "Ġobjedi": 8334,
      "Ġmilu": 8335,
      "Ġpije": 8336,
      "Ġsamopo": 8337,
      "2016": 8338,
      "ĠlE": 8339,
      "Ġprojektu": 8340,
      "ÎµÎ¹": 8341,
      "Ġmajke": 8342,
      "ĠoseÄĩanja": 8343,
      "Ġuspostavljanja": 8344,
      "jnih": 8345,
      "Ġivana": 8346,
      "Ġut": 8347,
      "torom": 8348,
      "more": 8349,
      "Ġara": 8350,
      "stine": 8351,
      "sity": 8352,
      "Ġfinal": 8353,
      "ĠmeÄĳunarodni": 8354,
      "Ġstopa": 8355,
      "Ġxv": 8356,
      "Ġnasuprot": 8357,
      "rinkoviÄĩ": 8358,
      "ĠzraÄįenja": 8359,
      "ala": 8360,
      "ena": 8361,
      "Ġdvor": 8362,
      "dani": 8363,
      "kija": 8364,
      "mica": 8365,
      "ĠreÅ¡e": 8366,
      "Ġnajpo": 8367,
      "Ġonlajn": 8368,
      "Ġkorisnika": 8369,
      "Ġnarodna": 8370,
      "Ġpravac": 8371,
      "stroje": 8372,
      "laganje": 8373,
      "ĠmeÄĳunarodnih": 8374,
      "Ġizmedu": 8375,
      "Ġkontinuira": 8376,
      "srpski": 8377,
      "ĠizvrÅ¡ena": 8378,
      "Ġnepreki": 8379,
      "Ç¥Ç¥Ç¥Ç¥": 8380,
      "hla": 8381,
      "Ġdodi": 8382,
      "sanju": 8383,
      "Ġhr": 8384,
      "Ġdia": 8385,
      "Ġling": 8386,
      "Ġpredloga": 8387,
      "Ġusvaja": 8388,
      "Ġsrpsku": 8389,
      "Ġobrazova": 8390,
      "indi": 8391,
      "Ġkonstanti": 8392,
      "Ġzakonodav": 8393,
      "Ġagricultu": 8394,
      "Ġratu": 8395,
      "Ġrepe": 8396,
      "Ġprimenji": 8397,
      "Ġjusti": 8398,
      "Ġradne": 8399,
      "ĠdruÅ¡tvena": 8400,
      "Ġkruga": 8401,
      "Ġmehanizama": 8402,
      "Ġkomponenti": 8403,
      "Ġfrancuske": 8404,
      "ĠangaÅ¾ova": 8405,
      "Ġhrono": 8406,
      "ĠbuduÄĩnost": 8407,
      "cm": 8408,
      "eno": 8409,
      "gnuti": 8410,
      "ica": 8411,
      "kÃª": 8412,
      "strem": 8413,
      "Ġuvodi": 8414,
      "tinu": 8415,
      "Å¡om": 8416,
      "Ġpoi": 8417,
      "Ġbine": 8418,
      "kulta": 8419,
      "Ġed": 8420,
      "Ġmen": 8421,
      "Ġhh": 8422,
      "Ġpiva": 8423,
      "Ġsamoupra": 8424,
      "Ġovakav": 8425,
      "Ġsistemi": 8426,
      "Ġrna": 8427,
      "ĠuoÄįiti": 8428,
      "ĠpostojeÄĩe": 8429,
      "Ġformulisa": 8430,
      "Ġovakvih": 8431,
      "ĠpruÅ¾aju": 8432,
      "Ġpatrijarha": 8433,
      "Ġhegel": 8434,
      "97": 8435,
      "ER": 8436,
      "kM": 8437,
      "ĠdÅ¾a": 8438,
      "lazni": 8439,
      "topo": 8440,
      "Ġneda": 8441,
      "ĠÅ¡Äįl": 8442,
      "ÂŃÂŃ": 8443,
      "Ġbezo": 8444,
      "Ġvolje": 8445,
      "Ġobrada": 8446,
      "Ġsporazu": 8447,
      "ĠpotvrÄĳena": 8448,
      "ĠfiziÄįkog": 8449,
      "Ġprotein": 8450,
      "Ġzasnovana": 8451,
      "ĠdrugaÄįiji": 8452,
      "Ġnovca": 8453,
      "ĠbudÅ¾e": 8454,
      "Ġodigra": 8455,
      "Ġprouzrokova": 8456,
      "rava": 8457,
      "Ġpoka": 8458,
      "ĠpoÅ¡tu": 8459,
      "Ġnem": 8460,
      "govima": 8461,
      "Ġprojekata": 8462,
      "Ġee": 8463,
      "cem": 8464,
      "ĠbaÅ¡tina": 8465,
      "Ġtrend": 8466,
      "prose": 8467,
      "ĠÉ¬": 8468,
      "Ġgrup": 8469,
      "nizacija": 8470,
      "Ġbalkanu": 8471,
      "ĠÉ©Éª": 8472,
      "Ġsvadbe": 8473,
      "ðĿĳļðĿĳļ": 8474,
      "cts": 8475,
      "neÅ¡to": 8476,
      "laÅ¾enje": 8477,
      "Ġamino": 8478,
      "Ġdomo": 8479,
      "bel": 8480,
      "Ġusvoji": 8481,
      "Ġruskih": 8482,
      "ĠuÄįenicima": 8483,
      "Ġnikoje": 8484,
      "Ġonemogu": 8485,
      "Ġregistrova": 8486,
      "ĠistraÅ¾ivaÄįi": 8487,
      "Ġgimna": 8488,
      "Ġistorijskih": 8489,
      "Ġmislim": 8490,
      "Ġtradicionalne": 8491,
      "Ġmjesto": 8492,
      "Ġdetermini": 8493,
      "Ġdijete": 8494,
      "Ġnesumnjivo": 8495,
      "mladenoviÄĩ": 8496,
      "ari": 8497,
      "identi": 8498,
      "Ġonom": 8499,
      "Ġato": 8500,
      "Ġdam": 8501,
      "Ġzre": 8502,
      "ĠveÄĩem": 8503,
      "ĠteÅ¾e": 8504,
      "Äįana": 8505,
      "Ġpravima": 8506,
      "cum": 8507,
      "proiz": 8508,
      "Ġobras": 8509,
      "rijskim": 8510,
      "Ġnastavak": 8511,
      "ĠdanaÅ¡nje": 8512,
      "Ġsavetovanje": 8513,
      "prilikom": 8514,
      "gM": 8515,
      "rstvo": 8516,
      "Ã¯": 8517,
      "Ġpapi": 8518,
      "Ġika": 8519,
      "Ġivan": 8520,
      "jin": 8521,
      "bil": 8522,
      "Ġtemat": 8523,
      "nostima": 8524,
      "ljuju": 8525,
      "Ġdie": 8526,
      "Ġgradova": 8527,
      "Ġrodno": 8528,
      "ntna": 8529,
      "protiv": 8530,
      "Ġploda": 8531,
      "Ġfilozofiji": 8532,
      "Ġaspekata": 8533,
      "Ġvremenskom": 8534,
      "ĠobezbeÄĳuje": 8535,
      "ĠukljuÄįuju": 8536,
      "Ġteroristi": 8537,
      "sÄĨ": 8538,
      "materija": 8539,
      "Ġjez": 8540,
      "Ġpridru": 8541,
      "Ġdevet": 8542,
      "Ġlekar": 8543,
      "Ġstraha": 8544,
      "Ġvlakana": 8545,
      "Ġkreira": 8546,
      "ques": 8547,
      "Ġmargi": 8548,
      "Ġporeklu": 8549,
      "É§Éļ": 8550,
      "Ġturci": 8551,
      "upotreba": 8552,
      "Ġpostupku": 8553,
      "Ġuzrok": 8554,
      "Ġvaspita": 8555,
      "Ġpartner": 8556,
      "Ġblizini": 8557,
      "Ġrezultira": 8558,
      "bni": 8559,
      "gv": 8560,
      "rk": 8561,
      "É²": 8562,
      "koja": 8563,
      "Ġdefici": 8564,
      "ĠveÅ¡tine": 8565,
      "Ġsokra": 8566,
      "Ġnjime": 8567,
      "ĠtraÅ¾e": 8568,
      "Ġprimenjuju": 8569,
      "ĠizvoÄĳa": 8570,
      "najÄįeÅ¡Äĩe": 8571,
      "Ġdodatak": 8572,
      "Ġdaljem": 8573,
      "Ġekonomskih": 8574,
      "Ġnekad": 8575,
      "Ġmehanizam": 8576,
      "Ġjugoslovenski": 8577,
      "teljima": 8578,
      "Ġfinansira": 8579,
      "Ġgenotipova": 8580,
      "znu": 8581,
      "Ġsjedi": 8582,
      "resa": 8583,
      "ĠsaviÄĩ": 8584,
      "Ġdobru": 8585,
      "bin": 8586,
      "Äįat": 8587,
      "Ġprazni": 8588,
      "propa": 8589,
      "Ġnc": 8590,
      "ĠveÄĩoj": 8591,
      "Ġ51": 8592,
      "Ġdecembra": 8593,
      "Ġ1971": 8594,
      "Ġzivo": 8595,
      "Ġkomunikaciji": 8596,
      "Ġposvedo": 8597,
      "Ġpojedinac": 8598,
      "Ġumre": 8599,
      "Ġmodifikacije": 8600,
      "Ġprefiks": 8601,
      "ĠtrÅ¾iÅ¡ta": 8602,
      "ml": 8603,
      "mp": 8604,
      "Ġibid": 8605,
      "nili": 8606,
      "Ġkazne": 8607,
      "Ġpremije": 8608,
      "Äįilo": 8609,
      "Ġpija": 8610,
      "dnije": 8611,
      "Ġ42": 8612,
      "....": 8613,
      "Ġblizu": 8614,
      "ĠzabeleÅ¾ena": 8615,
      "veliki": 8616,
      "Ġkolegi": 8617,
      "Ġmatice": 8618,
      "Ġosamdesetih": 8619,
      "Ġtoleran": 8620,
      "Ġinvalidi": 8621,
      "blu": 8622,
      "Ġsvima": 8623,
      "Ġisu": 8624,
      "nepo": 8625,
      "Ġpokro": 8626,
      "Ġgli": 8627,
      "Ġneodre": 8628,
      "pata": 8629,
      "parti": 8630,
      "sove": 8631,
      "Ġizradi": 8632,
      "ĠzajedniÄįki": 8633,
      "Ġpodrazumevaju": 8634,
      "ĠstanoviÅ¡te": 8635,
      "ĠduÅ¾ina": 8636,
      "Ġljubav": 8637,
      "Ġomete": 8638,
      "nco": 8639,
      "ĠÊ¼": 8640,
      "religi": 8641,
      "Ġkosi": 8642,
      "Ġpalan": 8643,
      "Ġdistink": 8644,
      "Ġdobili": 8645,
      "ĠveÄĩinu": 8646,
      "Ġsemantike": 8647,
      "Ġprethodnom": 8648,
      "Ġpogotovo": 8649,
      "ÏĥÏĦ": 8650,
      "Ġrizika": 8651,
      "kate": 8652,
      "kina": 8653,
      "ĠsaopÅ¡te": 8654,
      "Ġkazi": 8655,
      "Ġkance": 8656,
      "Ġsir": 8657,
      "primer": 8658,
      "Ġuporedi": 8659,
      "Ġraditi": 8660,
      "Ġradivoje": 8661,
      "Ġizazi": 8662,
      "Ġfilozofiju": 8663,
      "Ġpretpostavka": 8664,
      "Ġkosova": 8665,
      "Ġdisciplina": 8666,
      "ĠnemoguÄĩ": 8667,
      "krije": 8668,
      "Ġit": 8669,
      "nizma": 8670,
      "Ġkorek": 8671,
      "tovima": 8672,
      "dis": 8673,
      "Ġkaj": 8674,
      "Ġkwi": 8675,
      "ĠsunÄįe": 8676,
      "Ġfrom": 8677,
      "Ġdecom": 8678,
      "Ġmleko": 8679,
      "Ġleto": 8680,
      "ĠÄįovjek": 8681,
      "ĠdrÅ¾avnog": 8682,
      "É¨É«É¬": 8683,
      "Ġdefinicije": 8684,
      "Ġdragi": 8685,
      "Ġsociologije": 8686,
      "Ġtekstovi": 8687,
      "Ġinterpretacije": 8688,
      "Ġosloba": 8689,
      "Ġusmerena": 8690,
      "Ġspektra": 8691,
      "Ġimperativ": 8692,
      "II": 8693,
      "rn": 8694,
      "âĪĴ": 8695,
      "reno": 8696,
      "Ġugovor": 8697,
      "jali": 8698,
      "njenog": 8699,
      "minal": 8700,
      "ĠÅ¡ti": 8701,
      "vljeviÄĩ": 8702,
      "Ġinternal": 8703,
      "Ġrit": 8704,
      "Ġrazvojem": 8705,
      "Ġkomunici": 8706,
      "Ġfilozofi": 8707,
      "Ġpodele": 8708,
      "Ġatla": 8709,
      "Ġsklopu": 8710,
      "Ġnapisao": 8711,
      "Ġpredsednika": 8712,
      "Ġvojvodini": 8713,
      "Ġefekti": 8714,
      "82": 8715,
      "cti": 8716,
      "nga": 8717,
      "ĠsE": 8718,
      "Å¡nim": 8719,
      "njenim": 8720,
      "zioni": 8721,
      "Ġpropu": 8722,
      "Ġbijo": 8723,
      "sala": 8724,
      "Å¡ak": 8725,
      "Ġvrho": 8726,
      "dnica": 8727,
      "Ġakta": 8728,
      "Ġuniverzitetu": 8729,
      "Ġdetaljnije": 8730,
      "ĠbivÅ¡e": 8731,
      "cro": 8732,
      "Ġufg": 8733,
      "lovanje": 8734,
      "cev": 8735,
      "Ġ41": 8736,
      "Ġglagole": 8737,
      "Ġnastanak": 8738,
      "personal": 8739,
      "Ġsavremenim": 8740,
      "Ġkontrola": 8741,
      "Ġneuspe": 8742,
      "plete": 8743,
      "Ġmajsto": 8744,
      "ĠbogosluÅ¾enja": 8745,
      "ĠomoguÄĩavaju": 8746,
      "Ġmodula": 8747,
      "Ġinkluzi": 8748,
      "ĠprouÄįava": 8749,
      "blo": 8750,
      "mske": 8751,
      "otu": 8752,
      "pija": 8753,
      "Ġpoima": 8754,
      "jiÄįiÄĩ": 8755,
      "Ġdala": 8756,
      "Ġizgled": 8757,
      "Äįesko": 8758,
      "Ġmari": 8759,
      "Ġlicu": 8760,
      "Ġispa": 8761,
      "tradi": 8762,
      "Ġruka": 8763,
      "Ġnemalo": 8764,
      "Ġteoreti": 8765,
      "Ġ75": 8766,
      "Ġpartial": 8767,
      "Ġ1975": 8768,
      "Ġtranscri": 8769,
      "Ġslovenske": 8770,
      "Ġprepoznat": 8771,
      "ĠsuÅ¡tinski": 8772,
      "91": 8773,
      "iÅ¡": 8774,
      "snicima": 8775,
      "Ë®": 8776,
      "tinj": 8777,
      "lop": 8778,
      "mota": 8779,
      "Ġsan": 8780,
      "Ġnegde": 8781,
      "mikro": 8782,
      "dele": 8783,
      "Ġsunce": 8784,
      "Ġdovede": 8785,
      "genih": 8786,
      "Å¡taju": 8787,
      "speci": 8788,
      "ĠreÄįnicima": 8789,
      "fikaciji": 8790,
      "ĠodreÄĳeno": 8791,
      "Ġsocijalna": 8792,
      "ĠvaÅ¾ne": 8793,
      "ĠopÅ¡tina": 8794,
      "ĠuvoÄĳenje": 8795,
      "tskim": 8796,
      "Ġdla": 8797,
      "vam": 8798,
      "ĠpokaÅ¾e": 8799,
      "Ġbliza": 8800,
      "enu": 8801,
      "Ġnew": 8802,
      "Ġprikazuje": 8803,
      "Ġveru": 8804,
      "somal": 8805,
      "Ġdioni": 8806,
      "zovanje": 8807,
      "ĠÅ¾iva": 8808,
      "Ġakteri": 8809,
      "2019": 8810,
      "Ġorganske": 8811,
      "Ġradnju": 8812,
      "ĠleksiÄįko": 8813,
      "Ġprisustvu": 8814,
      "strik": 8815,
      "Ġposebnog": 8816,
      "Ġduboko": 8817,
      "ĠnajviÅ¡i": 8818,
      "Äįnici": 8819,
      "Ġprome": 8820,
      "luk": 8821,
      "Ġmija": 8822,
      "Ġsvete": 8823,
      "trans": 8824,
      "Ġpodlo": 8825,
      "ÉŁÉŀ": 8826,
      "Ġglagolski": 8827,
      "Ġprirodni": 8828,
      "Ġzadatka": 8829,
      "Ġovakvim": 8830,
      "Ġintegracije": 8831,
      "Ġefekte": 8832,
      "Ġodstupanja": 8833,
      "86": 8834,
      "ego": 8835,
      "Ġss": 8836,
      "Ġuv": 8837,
      "liju": 8838,
      "roda": 8839,
      "Ġkopa": 8840,
      "Ġnesigu": 8841,
      "ĠraÄĳa": 8842,
      "Ġdokazi": 8843,
      "can": 8844,
      "Ġmaga": 8845,
      "Ġiscr": 8846,
      "Ġgasa": 8847,
      "ntnost": 8848,
      "Å¾uju": 8849,
      "Ġtradiciju": 8850,
      "Ġispolji": 8851,
      "ĠraspoloÅ¾i": 8852,
      "berg": 8853,
      "ĠoseÄĩaj": 8854,
      "ĠgraÄĳevi": 8855,
      "Ġsceni": 8856,
      "Ġlji": 8857,
      "naÅ¡a": 8858,
      "rale": 8859,
      "lis": 8860,
      "Ġaleksi": 8861,
      "Ġdostojan": 8862,
      "njavanje": 8863,
      "fikuju": 8864,
      "Ġstavi": 8865,
      "Ġznamo": 8866,
      "Ġbaza": 8867,
      "Ġbaci": 8868,
      "ĠÄįeÅ¡": 8869,
      "Ġlom": 8870,
      "formati": 8871,
      "Ġsistemati": 8872,
      "Ġideali": 8873,
      "ĠÄįlanica": 8874,
      "Ġgajenja": 8875,
      "Ġribosomal": 8876,
      "/,": 8877,
      "hri": 8878,
      "jca": 8879,
      "unu": 8880,
      "à¶": 8881,
      "Ġsku": 8882,
      "rice": 8883,
      "Ġnacija": 8884,
      "Ġnavod": 8885,
      "postoje": 8886,
      "Ġsuz": 8887,
      "Ġnovac": 8888,
      "Ġnjiva": 8889,
      "Ġkrave": 8890,
      "Ġpokazano": 8891,
      "Ġpoznata": 8892,
      "Ġsmer": 8893,
      "razvoj": 8894,
      "Ġprethodne": 8895,
      "Ġnajverovatnije": 8896,
      "ĠposveÄĩena": 8897,
      "Ġgovornog": 8898,
      "ĠkoriÅ¡Äĩena": 8899,
      "Ġpreduzima": 8900,
      "Ġstudijama": 8901,
      "Ġsekvence": 8902,
      "Ġporuka": 8903,
      "ĠÄĳurÄĳe": 8904,
      "pd": 8905,
      "sy": 8906,
      "Ġdokaz": 8907,
      "Ġobrnu": 8908,
      "Ġrazgovara": 8909,
      "ĠtreÄĩe": 8910,
      "ntnosti": 8911,
      "Ġcitira": 8912,
      "Ġotvori": 8913,
      "Ġkulturo": 8914,
      "Ġspozna": 8915,
      "Ġradove": 8916,
      "Ġparametri": 8917,
      "Ġ1972": 8918,
      "Ġvarijable": 8919,
      "ĠobaveÅ¡taj": 8920,
      "Ġplaniranja": 8921,
      "Ġreakcija": 8922,
      "Ġkombinacije": 8923,
      "Ġhibrida": 8924,
      "dvosmisle": 8925,
      "ĠpS": 8926,
      "niÄįkom": 8927,
      "Ġnastoji": 8928,
      "vic": 8929,
      "loso": 8930,
      "Ġapro": 8931,
      "Ġkupo": 8932,
      "Ġmer": 8933,
      "Ġbara": 8934,
      "Ġ43": 8935,
      "Ġarhai": 8936,
      "Ġslabi": 8937,
      "Ġekonomije": 8938,
      "Ġprisutne": 8939,
      "Ġvisokim": 8940,
      "Ġadj": 8941,
      "Ġautonom": 8942,
      "Ġiskoristi": 8943,
      "jeviÄĩi": 8944,
      "Ġtemama": 8945,
      "Ġprincipima": 8946,
      "Ġhorizonta": 8947,
      "Ġukida": 8948,
      "juje": 8949,
      "jica": 8950,
      "Ġsvetlosti": 8951,
      "Ã£i": 8952,
      "2009": 8953,
      "Ġspacer": 8954,
      "Ġumno": 8955,
      "ĠprouÄįavanju": 8956,
      "Ġfilozofskog": 8957,
      "ĠbogosluÅ¾benog": 8958,
      "Ġtranscribed": 8959,
      "vcu": 8960,
      "ĠðĿĳ": 8961,
      "cijski": 8962,
      "dal": 8963,
      "ÄĳorÄĳe": 8964,
      "Ġprora": 8965,
      "nus": 8966,
      "Ġersj": 8967,
      "gel": 8968,
      "Ġimenom": 8969,
      "ĠÄįast": 8970,
      "Ġonome": 8971,
      "Ġstimu": 8972,
      "ĠÎ¿": 8973,
      "Ġkategoriju": 8974,
      "2008": 8975,
      "ĠspecifiÄįne": 8976,
      "Ġvokal": 8977,
      "Ġprizrensko": 8978,
      "uprkos": 8979,
      "Ba": 8980,
      "elek": 8981,
      "naka": 8982,
      "tici": 8983,
      "Ġpokoj": 8984,
      "ciklope": 8985,
      "lovanja": 8986,
      "Ġdefi": 8987,
      "Ġvee": 8988,
      "Ġpan": 8989,
      "Ġbese": 8990,
      "Ġnon": 8991,
      "Ġimenova": 8992,
      "Ġodgovore": 8993,
      "rijska": 8994,
      "ĠstevanoviÄĩ": 8995,
      "Ġpostati": 8996,
      "Ġstruje": 8997,
      "Ġnarodnim": 8998,
      "Ġizveden": 8999,
      "Ġ1974": 9000,
      "Î¿Î¹": 9001,
      "Ġakcentom": 9002,
      "ckat": 9003,
      "noe": 9004,
      "Ġsem": 9005,
      "Ġodse": 9006,
      "Ġprivrede": 9007,
      "bile": 9008,
      "Ġdeka": 9009,
      "Å¾enog": 9010,
      "Ġmara": 9011,
      "Ġpas": 9012,
      "Ġvio": 9013,
      "gradi": 9014,
      "Ġml": 9015,
      "Ġglavnog": 9016,
      "ĠÅ¾ita": 9017,
      "ĠizvoÄĳenja": 9018,
      "vremen": 9019,
      "ĠutvrÄĳivanje": 9020,
      "Î¿á¿¦": 9021,
      "ĠponaÅ¡anju": 9022,
      "Ġpredstavnici": 9023,
      "Ġpoglavlja": 9024,
      "Ġreflek": 9025,
      "Ġkonferencije": 9026,
      "rika": 9027,
      "Ġproisti": 9028,
      "savreme": 9029,
      "Ġtea": 9030,
      "Ġtol": 9031,
      "ĠvoÄĩa": 9032,
      "Ġnjom": 9033,
      "Ġinstitucijama": 9034,
      "Ġbrdo": 9035,
      "Ġtvrdo": 9036,
      "Ġ1968": 9037,
      "ÄĮje": 9038,
      "Ġbibliografije": 9039,
      "Ġporuke": 9040,
      "Ġizlaganja": 9041,
      "Ġsuprotno": 9042,
      "Ġpesticida": 9043,
      "94": 9044,
      "rajuÄĩi": 9045,
      "koli": 9046,
      "nista": 9047,
      "vete": 9048,
      "Ġjevre": 9049,
      "kise": 9050,
      "Ġpriru": 9051,
      "Ġzvo": 9052,
      "Ġvse": 9053,
      "Ġpazara": 9054,
      "Ġvodom": 9055,
      "Ġglavne": 9056,
      "Ġprimenjuje": 9057,
      "Ġhiper": 9058,
      "Ġizdanju": 9059,
      "ĠograniÄįen": 9060,
      "Ġunapred": 9061,
      "ÉĥÉ": 9062,
      "Ġmanastiru": 9063,
      "Ġodlike": 9064,
      "Ġrizik": 9065,
      "Ġetnografskog": 9066,
      "bz": 9067,
      "Ãº": 9068,
      "ÄĤ": 9069,
      "Ġuklo": 9070,
      "jala": 9071,
      "tipa": 9072,
      "laÅ¾enja": 9073,
      "Ġnapada": 9074,
      "ziÄĩ": 9075,
      "ĠpromiÅ¡lja": 9076,
      "Ġeku": 9077,
      "Ġdeba": 9078,
      "lum": 9079,
      "Å¾enosti": 9080,
      "Ġgavri": 9081,
      "Ġnivoima": 9082,
      "Ġtermo": 9083,
      "ĠodrÅ¾avanje": 9084,
      "Ġskali": 9085,
      "Ġefekata": 9086,
      "ĠÄįvrstoÄĩe": 9087,
      "Ġrastvora": 9088,
      "Ġhrista": 9089,
      "iÄĩ": 9090,
      "raÄį": 9091,
      "Ġujedna": 9092,
      "ring": 9093,
      "Ġvru": 9094,
      "Ġteze": 9095,
      "jovanoviÄĩ": 9096,
      "Ġvino": 9097,
      "Ġsvetom": 9098,
      "ĠpraÄĩenje": 9099,
      "Ġpetra": 9100,
      "Ġlep": 9101,
      "Ġduhu": 9102,
      "Ġskrom": 9103,
      "Ġfilologa": 9104,
      "Ġpoljoprivredi": 9105,
      "2005": 9106,
      "Ġodrednice": 9107,
      "Ġosnovama": 9108,
      "Ġpredsedni": 9109,
      "veÄĩina": 9110,
      "Ġsastavni": 9111,
      "Ġmirjana": 9112,
      "Ġtransformacije": 9113,
      "Ġproizi": 9114,
      "ĠpozoriÅ¡": 9115,
      "Ġrabota": 9116,
      "ĠsprovoÄĳenje": 9117,
      "Ġravnopravnosti": 9118,
      "Ġotno": 9119,
      "vanom": 9120,
      "Ġponi": 9121,
      "stara": 9122,
      "mim": 9123,
      "Ġmeso": 9124,
      "Ġhran": 9125,
      "Ġ2023": 9126,
      "glav": 9127,
      "Ġspomenu": 9128,
      "Ġradnog": 9129,
      "Ġlokalni": 9130,
      "Ġrazuma": 9131,
      "ĠnikoliÄĩ": 9132,
      "Ġuobli": 9133,
      "Ġizdanje": 9134,
      "ĠbliÅ¾e": 9135,
      "Ġciljevi": 9136,
      "autori": 9137,
      "Ġzatvara": 9138,
      "Ġkosovu": 9139,
      "Ġvladimir": 9140,
      "ĠodgovarajuÄĩih": 9141,
      "ĠporemeÄĩaja": 9142,
      "gma": 9143,
      "lm": 9144,
      "ÄĽ": 9145,
      "Ð¯": 9146,
      "Ġlj": 9147,
      "nila": 9148,
      "Ġusi": 9149,
      "lazu": 9150,
      "Ġkosa": 9151,
      "leti": 9152,
      "lega": 9153,
      "Äĳenosti": 9154,
      "Ġpeto": 9155,
      "ĠjeziÄįko": 9156,
      "Ġkulturnim": 9157,
      "Ġcelog": 9158,
      "Ġfemini": 9159,
      "ĠnajveÄĩe": 9160,
      "Ġdugotra": 9161,
      "Ġtradicionalno": 9162,
      "Ġpotencijalno": 9163,
      "Ġgramatika": 9164,
      "Ġtekstovima": 9165,
      "Ġilustru": 9166,
      "Ġparalelno": 9167,
      "Ġljubavi": 9168,
      "obiÄįno": 9169,
      "Ġtrajanju": 9170,
      "Ġrsanu": 9171,
      "nic": 9172,
      "riÅ¡u": 9173,
      "Ġnasla": 9174,
      "stiÄįka": 9175,
      "stiÄįkih": 9176,
      "Ġhlo": 9177,
      "Ġliko": 9178,
      "Ġlegen": 9179,
      "Ġnajza": 9180,
      "Ġonto": 9181,
      "ĠmuziÄįkih": 9182,
      "Ġpojedinci": 9183,
      "Ġstvarno": 9184,
      "Ġtakvi": 9185,
      "Ġprikazane": 9186,
      "ĠpokuÅ¡aj": 9187,
      "Ġverovanja": 9188,
      "Ġispoljava": 9189,
      "Ġveneciji": 9190,
      "ĠnemoguÄĩe": 9191,
      "grafikon": 9192,
      "kroz": 9193,
      "mda": 9194,
      "znog": 9195,
      "ĠiÅ¡le": 9196,
      "Ġpou": 9197,
      "roma": 9198,
      "ciden": 9199,
      "tovana": 9200,
      "Ġprezi": 9201,
      "Ġrezi": 9202,
      "Ġtor": 9203,
      "ĠbeliÄĩ": 9204,
      "Ġlega": 9205,
      "Ġ46": 9206,
      "Ġcelina": 9207,
      "Ġxii": 9208,
      "ĠdefiniÅ¡u": 9209,
      "Ġosman": 9210,
      "ĠzakljuÄįuje": 9211,
      "Ġkrug": 9212,
      "Ġprethodnih": 9213,
      "Ġprijatelja": 9214,
      "Ġindividuali": 9215,
      "Ġotkriva": 9216,
      "ĠmnoÅ¡tvo": 9217,
      "Ġaposto": 9218,
      "Ġgoveda": 9219,
      "Ġsho": 9220,
      "Ġsfr": 9221,
      "Ġitali": 9222,
      "noga": 9223,
      "jak": 9224,
      "Ġkose": 9225,
      "Ġselja": 9226,
      "Ġnedvosmisle": 9227,
      "Ġsubo": 9228,
      "site": 9229,
      "sica": 9230,
      "Ġveruje": 9231,
      "Ġjak": 9232,
      "Ġfigura": 9233,
      "Ġcrkava": 9234,
      "Ġ55": 9235,
      "Ġfiloso": 9236,
      "ĠmlaÄĳe": 9237,
      "Ġnacionalnom": 9238,
[...]
